node {
  name: "dense_input"
  op: "Placeholder"
  attr {
    key: "dtype"
    value {
      type: DT_FLOAT
    }
  }
  attr {
    key: "shape"
    value {
      shape {
        dim {
          size: -1
        }
        dim {
          size: 13
        }
      }
    }
  }
}
node {
  name: "dense/kernel"
  op: "Const"
  attr {
    key: "dtype"
    value {
      type: DT_FLOAT
    }
  }
  attr {
    key: "value"
    value {
      tensor {
        dtype: DT_FLOAT
        tensor_shape {
          dim {
            size: 13
          }
          dim {
            size: 64
          }
        }
        tensor_content: "\t\272M>\346t\303\276\353\230#\276\366@\342>\207\tq>B\217^>\316\252\201\276\205l\032?\232\020$>\213\212A>\247\210\370\276\006\375n\275\333a%=\332\333\330\275\t\374\236>/\315\355=\353)3\276\377\363?>;&i\275\317\033R>\356dL>\201Z\343\275d\324\014>\346\351\332>X2\027?\020\301\021=\021\340\371>\332\205\007\277\ns\201>(f\370\275\215Ek\276\246\223\002?FAb?SU\033?bm\321\275\325\206\243=\307\230\212>\200X8\276S\353@\276%w\327\276\274\210\005\274\253j\261\276\326s\276\274\333B\215\276\010\301\262\276\256\347\353>\230\211`?\202X[\276\313\030\300\275c\261\237>s\367\354\274\033$\266\276\260r\214=\326\364\036?\372d-?$\016\203=\311K\023=k\224\253\276\314\\7\276\331\337\301\276\350\007\371:09\262\275\316i7>\276\262^>\3340 \277C\333\006\275\330L3>#\270\">\370\2467\276\203~\230\275\313F\322>g\262\206>,\221\013?\263K\302<,\010\220\275\241DH?\214F\323\276v\332\037\275Tmu>\362\363\234>F\253x\276[\004\000\277\356Lf>u\307\014\2774\207\220>v\014(\277\364|0\276\375\204\271=2\025U>\257\243\304=\021\340\025?\365\332\310=\017\334\344\275_W6\277\265\224C>\320]\177;\306\016\212>\245\020G\276\226P\270\275\365\211\003\276\212\352\271\274\306\307\215>\234\230\027\276\013(\310>\231\244\326\276\351\256\371=\241\266\362\276l\014\006>\025E(\277\006\274\300>/0&>\nS\001?\336\336\004\276\321\301\376>v7J>D\342\302\276\277\202>\274ak\022?\314\334R=5\305\245\276\034\024n<=\275\013>(\314\004\275-\025\007\277@\030\363\276 \3536>xcL?\337;\013>a\2521?\323s\362\276\226\213\300>\370\354\303\276\226\013\246<\"\372\000\277r\230\321\276Nhx\275\333\321\213=\276\2469\277\257\030\325\275\226\217\267\276Y\214\026>=i\035>\315\000~\276m\246`>\212?\017?\207\027\006?W\210\007\277\375\376?>d\030\t\276A\276u\274\340i\332>\001G3\276\375/\264=\325\317\212>\312\035\362\276x\254\320\276D\231R<\333E\241>\201\304\361>\351\026\260\274\0319\006>K\225y>\\p\235>\362f\201>U\327\014>\025T=>\210\004\343=\3650\303\276\244\237\221\276\351\371\202\2756e\326>\341A\241\276\207\270\204>\216r\210>s}\025\277\350\215\313<A\245\035\276i\356\344>>\253z\276e \377=\204\263\006\277\231\032\322\273\023\\\324\274\352\t\264\27634\342\276\314\247\213>AR\036\277|\337\222\274\034\243\005\276\371\226\361\276q\030\375>\261\021\370>\031\242m>T8a\276\203\221X=\272\302\010\277\201z\240>\251\344\232>w>\333\276\246\033\005?\314\222.?\234\203\002?\302d\246\276\r\2206?\224Z\212>\352\216A\277\003V)\276\212\031\302=v\024!>\026\326b\276\322\252\270<\306\020\222=)v\021>\370\251\324>\244\211\327\275\356D\327\275\267\256\t\277T+\007\277\335O2\276]\225\242\276\216\253\017>\013\376\370=sc\024\276\253$h>\327\337\264\276\226\374\262>\257\376\206\274f\267!\277\225\227\234\276s\002\252\276m\342\305\276\254~\025?7\370\347=\340\375W\275\245~\236\275\005\317\007\277,m\261\276\020\357\r?\346\370E\274\202\234\020\277\300\326k\276\2115\226>\325\376\227>Q\220/=N\355;\275\014\331\263>^\032\365\276+\317\327>\275x\365=~C\n?\217\233\033>rA\005\277l\001\007?C\372\002\276\220\376\343\276\221\334\334=\026\000\275\275\324.7?\260\201\036>N5\t\277`\303B?u\022\332=\333j\372\275\2335n\276\313j\231\276C\007C?\302\352\315>X\355&?\324_\321<>`\234\276\222\347 >O\254\363=\207)\010>\004C)\276k\037*=s\250g>tW%>\206\262?\276\341\220\341\276\211\325\234\276)\366\224>\034(\217<\332\016\316=\310\005a>6\024\204>\264.\315<F\365\370\276\261\260\257\274\342\032\341\276\356\247\001\276\207\021\215>\005\341\037>\210\014\316>\207\352\224\276\323\226?\277\033\213`\276\323\001\203>\003z\016>\231mT=\316\333\013?E`\030=\226\350\372>\222\366\306\275\2643\362\275\3551<?C\243\226>\0045\003>q\322\307\276\301u\000>\331\307\246>8.\003\277\300\262\207\275\350\232\005\275\245\243\377\276\357\254\260\276\t\005{\276\327q\223>\n\277\334=\266\365\330>\266\316\203\276r\201\021?E\243B\277l\"\207>\211\366 ?\346X\225>\217\016r\275\0067\276>\177j\264\276\317\355\311>0\216m<\237\030\322\275\355\352\340\276d[\023\2760Rz>\010O(=\261\375\010\277\000\021\235=O\nC\277_c\301\276\017Q[\277\346\033+?|\312\205>r\344\204>R\034\365>>J\367=\341%\365\276n\221[\277\023;@\274P\315\345>\226\016O\275\265\023\324>(\242\272\276\036+\007\276\035Y\374\276Gd\324>\252\026\274\276\277\312\001\275%3\312>\224\313\214>\001\3061\277\262\352N>W/\247>\234\022-?xC2\276\222\217L>\277\240I\276\274\017\324\276\034mO\277\237B\221\274\024\321n\275\324\310\222>K\000\027\276\027\212\"=/\0137\276zj\200>B\316X\275\206-\351>\307_A?k@\001?m\"&?\307\213\201>\341\271\n\276\330\316\030\277\334\004-\276\311xC\276\340x\276\276\232\026\232=):\306\276\004\257\000?\264\354\027?\372\307\353>$\035p\273VLD?\224@\352=\264\313C?F\342\204=\nG\035\277\353\351C\275\026%\253>\003\370&\276\300\312R>\335\372V\277\262(B>]\361]\275\017\307B\276\220\312\243\274N\013\375\276\221\3602\277\'\267\336\276\277\376P?\026\374\226\276\262 \016\277.\304\363\275=\'#?oiI\276\2458%?\3209\271>\263\"\035\277m2\231\275 \360\265>\r\270\204<\327\261\356>P\314o>\200\345h>\301\304<?\307\324\032\277\335n\311\276\322\t\343\274\"\243?=\202;Y>#\000\320>T~\251={\013\350\276\345\247\203=\020fx>\226\371/\276\204\177\217=D\274\266\2750\210X=\265\200\023\275\217i\237\276\007\030\320=\034\366\037\276&\301\000\277\355\226)?\361\353g\2766D\250\274\237\257\'?\177\3301\274\214\364A>$)k\276T\341\030>\363\"\036>:\261\n?\232l\274>-,\034>EI\212\276\340\346>\277v\221\276\274\030J9>\260)o>(\373\234\276\2422\\\276\377\365<?np\206>\216\243\216\276\013|\026?\351]\347=\360\2469>\206\231L=\317\340\236\276\365\351\023\275\270V\263>\223\231!>eD\326\275\003\270\246>\324\335\034\277\276\266h\274{\2347\275\013\006\023\277\230~\\?\332k\326>\306\324=?\347,}\276\354\016\305\276`\331\023\277u\223)\277q\265\004\276\365\325\025?\244\307c\274\\\340\366=6U\332>\251\364\211\2768\322\364>*\234\245>\231\320Q?\242\336\207\275\306\231\352\275\"\035\016>\213\377\037\2763\202\003>\365z\243\275;VH?4Q\005?3 \342>\352\375G>\237p\026\276o_\235>\225\204\343>\346\217J>im\007\277\004\260\026?\313\204\344>\252\276\034>`\220\225\276\334#\351\275\323\274\036?\225\177)\277]\370\266<\033$\355\275\005\316c\274<\371\313>rz\007\277F\210@?]\004\'>\373-\360\276\307\322$\276A\265z=3\3239\277~D_\275\227\2119?\367\366\315=\314P\345>g~\225\276X,\345>\177 3\276f[d=@\253.?5L\224=@/\315>7\343\332>X\305\006\275\220\270#>\302\215\332>Q!\006\2777\361\r\277\270\026\210>I\026X\276W\355\340<{.\205>\032\241\035\277\016\2710\277\230\257Z\276m\000#=zu%\276\016\242\210\276\244}\003>\001\305\241=\033\034B\276\007\313\320\276\352\214J>\361Y\353=iA\024\275\324 \266>I\322\257>d\005\301>\326S\000>\r\361\026\277i\364I\275\t\361\365\276$.\364= ,\305\276\317nW?\204\346\371>\360\277\r\275\004S!\277HZD?4f\030\276\220\016\036<M\t\307\275\273\201N?\2534\273>Z\224\023\275m\257\025?N\330\020\275\327T\034\276\303q\361\276e\374#?\330\324\347\275\270`\255=\330\315\376\276\331\"\022\277&\024\003>\021\375\255\276\006_V\275\312k\004\277V\232\351>\356\370I?u\007\230>\333\345\214=\'\001\240\276\326N\327\276O<(\277c\204\005\277\021M\277>\345\032\265\275\354\213\317\274z\345*\277b\260\016\277\336h@\276\005&S\275\226\202r>~\253\031?\354\026(\276\007\006\232>\'\303\220>\237=\210\276\367\215T\277\352\266\341\275\365\213\033\277\215\350\207>.\374\"\276\032@??\02740\277a\276\377\276\325\323\313>\21741\276\026;[\277\023\315\"=\246\320\362\274\035\206\376\275\006\302\250>\334V\244\274\330u\360>n\325\002?kM\345\276\231\250\345>\200\004\367<\277\370\001?iF\336=\203\274\003>rsy\2769s\274>A$\377\275vR\016>\337\024D\276t\301u\276\367\352\331\275\272\332\007\276d!?\277j\275\200\276jn\270\275\362`0?\307a\323=\273\332\n\277\314E\223\276ozG?\343;\224>b\201)\276C\270\301>\362\3346\277\370z\361\276@\273p>\013/i>Y\330\276\276Rc\313\275vG5\276\350k9\275\257\351\250>x\230z\275\331\353\326\276\232\336\266\275x\312\266\276\242\016]>\262F\233\276m\365\225>\341\253\342>\220b\004?\005a\372>\347\243\310=dV4>5)\375\276\007\312\227\276\240WM\276r\306\004\277\237/\322\275\320\301k>\231);>\266\341\334\276&\225Z\276\277`\336\276\307\303\316\275\350%)\277\033\213\247>^%\251\276\n\270f=\317\267\357>DS\373>3\372\245\276\300!\000\276_\253\243;4\334\250<\r\006\202\276\212P@\277_\2533\276\224\354B\276[\246\227\276\310T(\274\251p\323\276\247\372\010\277u:\002=38\035?x\0270?\375\316\'>\336\017\310>EF\017\277x\235\216>\315i\024\276\326\232\217\276\377\353\033\276\250\345\n?dbJ\277\270\360\006\277\274\377\255>\337b\214>>\306\222>\3155s>\344\025\214\2763\325D>\226\032\360\275\237\225\212>\254d\023\276\207E\004\276\262O\272>\023\215\303\276\322\353\240\276\231\215\034?O\247!?D\212I?\265\204B\275\271bS\277\202\316->\316\222\373=y\000v<\232\026}\276\316F\305\275e\032\356\276n\242\010?\201\301\265>GK\006?\374G \277\325D\022\277\31614\277\320#\002=\305g#\277\221\252\014?[H\372\275[Y\030>\303\035[?\202\333+>\304\034\245>\316i\257>\3762\331\276\371&`>\335^\267\276!\204\342\276NyW>\352\317\340=HQ\361=\021\300\003?\227\375\r\277\202\336\330<ihQ>\204\353\277\276h\2567\274\317ML>\371\321\n\276\\\016\307\276\006\2779?{\007\324\276\260\024!?\0037\277\276\206\243\'\276#G\035?g\234G?M\002\243\276_\343~\276\375B[>\356\031\314>\251<\252=\204\271\021\277\324\275V?RH\207><\206\337>\221\036\031\274W>\016?\022\027\375\2758h+\277sf\362=\2116\312\274\365\002\274\276\330s\006>\311\225\026\276G\014A\277\307>\231>\001\0278\277\020$9?\025\036\024\277\360n\200=\374Y\021>\302Y\014\277\233D\014\277\177\317\202\276\250\224\244\276\000\250I>\221\335\345>h\224\317>\366h;?\345\021z\276\212\025\256\276\034\027\213\276_\002e\276\343\r\206>`\032\353\276B\240\235\275\344\3737\274N\216x\276\r\251\355=\351G\026\275F\256\n=\203\350\274>\266\327@\277"
      }
    }
  }
}
node {
  name: "dense/bias"
  op: "Const"
  attr {
    key: "dtype"
    value {
      type: DT_FLOAT
    }
  }
  attr {
    key: "value"
    value {
      tensor {
        dtype: DT_FLOAT
        tensor_shape {
          dim {
            size: 64
          }
        }
        tensor_content: "C\030 <i\1778<1e\255:\266=-<\307E\025\274\335\234\021\273F\3523\274\273\265\013<\034O\265;\356\234\207\272MQ\036\274qy5<\237\321F\274\213x)\274\262U\006\274\260-$<\2531\367;\342kE\274\242\340%\274\245\361K<\026\nG<\0302a<\330\266-\273\002\035\001<\352\271\001<\227\267=<\223H+\274\306\212\354;0\3458<\346F\007\273,|\022<\236)6<\375\303,\274p>\020\273\243\327\013\274\311\327\354\2730f+<y\2228\274\007\013\030\274H\374\017\274\250P7<^\002\376;m)F<\252\351\372\271\345a\300;Z\032\020\274\363\324:\274_0@<\224\340P<J:E<\014n\377;\204t\r\274\342m2;ry\037\274g\225\204\273\202l\035\274.k(<\227\034\034\274\00651<\31541\274i\007\037<\210Y\020\274p\256-<\216\271\354\273"
      }
    }
  }
}
node {
  name: "dense/MatMul/ReadVariableOp"
  op: "Identity"
  input: "dense/kernel"
  attr {
    key: "T"
    value {
      type: DT_FLOAT
    }
  }
}
node {
  name: "dense/MatMul"
  op: "MatMul"
  input: "dense_input"
  input: "dense/MatMul/ReadVariableOp"
  attr {
    key: "T"
    value {
      type: DT_FLOAT
    }
  }
  attr {
    key: "transpose_a"
    value {
      b: false
    }
  }
  attr {
    key: "transpose_b"
    value {
      b: false
    }
  }
}
node {
  name: "dense/BiasAdd/ReadVariableOp"
  op: "Identity"
  input: "dense/bias"
  attr {
    key: "T"
    value {
      type: DT_FLOAT
    }
  }
}
node {
  name: "dense/BiasAdd"
  op: "BiasAdd"
  input: "dense/MatMul"
  input: "dense/BiasAdd/ReadVariableOp"
  attr {
    key: "T"
    value {
      type: DT_FLOAT
    }
  }
  attr {
    key: "data_format"
    value {
      s: "NHWC"
    }
  }
}
node {
  name: "dense/Tanh"
  op: "Tanh"
  input: "dense/BiasAdd"
  attr {
    key: "T"
    value {
      type: DT_FLOAT
    }
  }
}
node {
  name: "dense_1/kernel"
  op: "Const"
  attr {
    key: "dtype"
    value {
      type: DT_FLOAT
    }
  }
  attr {
    key: "value"
    value {
      tensor {
        dtype: DT_FLOAT
        tensor_shape {
          dim {
            size: 64
          }
          dim {
            size: 64
          }
        }
        tensor_content: "\2262\362=\347\\\306\276\\\217l>\206K\364\275v7}\275\355}\270<\037S\t=\246m\356<\210\337v>T\371\215\276\031\025]=\253\223\245\276\306l\231=\365\344\241=\252\352\017\275\253l<=\010\312P\276\240\273\255\275\254\373O<\303\221H\276u\203\025>\325\373\300=\300\004F=\2758+=\317\2718\276\002\341.>VG\224\275x\023h\2754\tP>\240\202\237<N\230J\276\t\247\366<?|\362\275\204++\275)\276\264\275\022\272\201>\3527\265\276U*4\276\335\252\240\276\360\t?=\312\336A\274\273v}\273\001\024\365\275t\376R\276\247\372y\276q\366\247=\006\303\001;\023F\254\275(\237\205\276\tT\234=\353\200\023\276\325\020\210>|\025\222\276m\t\327=r\343\240\274\350\000\253>\245,\007\276`\3213\275\201\346\235\275$\'\322\275\255m\331\275\232\271\005>\355\220\316==\261C>T\370y>\351\314\305\276\306g\215=\253S\246<\2041\020=\342\320\200\276 \2540>\027Z\273;\235>&>\223\312\207\276p\315v\276v=#\276\304\234\240\275\254\333b>y\\\244=v_\316\275\353K\342\275d\224\233\275\317\311\237>\227\307\213\275\3357I>\220\321\205\275\276\225\213\276\0233\004\276\264\2765=\032\242p\274i8\211\276\027\232\034\276[H\373=\031\007\034=r\334\212\276\023\217\272>\212\000\254\275\020 \310\276\231%\006<\251r>\276\222\n\037\276\312\304\207\276v\224\233\276\020\236\337=)8\256\275\211\345\200\276\016V\334<\201\375&=\215\016\251\276\007Z\273>\033\2533\276\227U\215\273\250\200u=\"lK>\224Q\324\275L\0176=\356\354s>\242\364\233\274\237\007\263=8\330\026\276\331\2437<1\205\323\274\253\2751\275\030\362\205=\273z\272=\006Bz\276Be\240;\017@\302=\325h\346=-\364\337=b\370\220\273^\007\002\276y<\220>\307\217b\276\265\2140>\303\204\257\275\216\246_=5\327\303\275\277>\214\276\250\031q>[\2048=\026U\025\276\323~\202\275\331\3111>M\'\021\2769\216#<\370\010\275\275\004U\220\276\306\020\007\275\343\204\367\272\356\210\203\276\023MY\276\334\303;>A\315 >\014m\360\275\203I\257>\375\333x=\231\255`\276\202M\202<Q\304G>\032\325\016=a\031\222\273t\254!=\007?\227\276\307\245\326<Z\351D=\337\204\305\275\336\370\244;&-\016\276t\216\215>\230\034\310\274\017\t\037\276G\334=\276\256[\323=iH\275=\351\244\232=\356\357\242\276\240\230$\276#\333\210\274F\004z\275F\365\227>\212\2030>m\376\231\2758\002B\275j\365\253\276\215L%\276 $\277>\177\337$\2760\345&8\334^\216\275\215\334\246\276\036W\366\273\370\217\325\275\\\0377<(\337\033\276\367%\243>0\357\224\275\352c#\275\274\261\333;\230\261\321=e\210\246=\337s\276\275i\234\251>\005\326\306\275\016%\212\275\256\033\276\275\037\366c>\303\257y<\346ey\2755\245\273\275\333>Q\275\226>d=\241~{=?\n2>D0Q>\206Q;\276\240Z\231=\242\341p=\036v%\276\t\356&\276\035\315\356;\375\241\202\274!P]\2766y\270\274\350\372E\276\251B\371:\230x\004\274\345\000|>/\372\'\273\256\300\010>\352\241\231> /\302>$|\312\276[\207\246\2750\234\301>\345\371\034\276U\346\210=\361~\032<#C\376\275.{\177=\226\2312\276\255?\020\274\315\347,\275\006\275\241=\363\020\203=\373^\223>\350\336i>\256\366\200\276\241\234\254\275\323\3025\276\342\206\230=\365. \276\3719T>_fC\276e1\205\276jn6\276nZ\004\276~_\341:\324\233\267\275W\326\205>2hP>\277\251\306\275qa\222=V\207\265<\006\004\217=\022k\310\275I\204\243>\371\306\352<U\365\341\274\305x\270\275c\032X=\250\337`\276\355\260\027\2753\200#>\0216\024>\030\2634>W\312\211=\212w\"\276\341\363\007=Jn\325=\363q\203=\332\nZ>\267\374\002>G\246(\276\202\205O\276\264\331\211>g\224*\276U\0261\2761p\374<\270D\005\276\336E:\276\030\017~>\271;c>\027j!>&\232x>\205?\217>\305\362\001>\232\351\001=\034D\326<\244-\317=S\274\301=8^+\2768\217\227>\177\203\272\275l\035\352\274\321\t/\276\tW\032\276\306\271\266=\270\225\321<f\350\350\274\361\343\014\276\322\364\227\273\304\304\207>\343I\344\275\n\250\336\274M\370\245\276\306\365`\276?\222-=\300\027\360=\230\206\246\275\017\031I\276+\223\017>M\323\277>\240\270\017=\201\332.>\r3U\276)oP=;H->\035\262\273=\260\300\300>\262f%\276|\330\341=4\2225>\367\352I\276\036>\263;\313\335s\276\245\341\013\272\221\275\022\275\227\263.\2752\305\266=\256!\222>\241\232\311=\303iV=\220\030&=\354\004\201\2763\246\335<\326\371\\\275\013\344g>\360D+\275\303\335l=\260\300\236\276\333\006\"\275@\260\013\276\262\221\202=\264\234\322:`\226 >ev^<}\340w=#\365\223>\225\343\223\276\224\313\271\275j\232z>H\206\210\276\361\366\206>eCx\276\033]\206\275\202xO=W\247\037<\035<\013>\252\331\017\2767\335\267\274\337*a\276\217\252\311=\323_\305\275d^X\274\330\016\207\276\220\271\211>\330\330\033\275\2607\360\274y1\"\276\017&\034\276\370\202\372\271dT\225\276G\030\037\276\306\366\273=\352\307n=\355\265\017=A\272J\276\350y\250\275w\221\212>sU\223\275Lk#>L&\216\275[\276z\276\264\004/\276\"\377\033=m\374q\276\252\235\203>\317w\246\275\267\325\016\276\200m\215\275\0320\203>|\212@\275\262\036\265\276P\210\307\276\302\360\220\276B\206\213>!\221\336\274\223O\211=\014\352\217\276n\315\244\276pH\255>\203-j\276Q\374\372=\230\330\306>\255%3;\220\215\366<\250\236s\276\275O\314>\241=\006\276C=\240>\232\325m\276\033rc\276p]\r=\232E\001\276*\223\307\275J]\245\276&\201\n>*c\213\275\246d\216>KT\204\275l\365\022=\207v\003\276A~\201\275\263\361\001\276\256Bf\275\n\r\335=\362\377G>\224\261\"\276B\351C>D\315Q\276~\031\225>!P\036;\036\325^\276\316\3506\275\242\352\334<\242\036D>+0[\276\021\335?\276\025g\254>\177\327\003\276\223y\301\274^\343\022<\241\211\t\276p\370\226=7\362\253\276=\261\277>\347\300\225\276cy\302=\360\027\277\275ms0>6\215\361\275\202\364\247>u\367\201>\032\035\212\276QHz\274\223Q\205\274A\211x>\333\031\030\276\331\231\246\275\351%J=\311qv\274;Qo=\315bg>\277\331C\274)\270\253<\346}A>\372\032\235\275\233]\311\275\307}\257\276,\263l\276M\220\035>RDH>\371*\312<\375\345U>E\017\227\273N\377i\276\200\2679\275\265\340\247=\342\224;\276A\354\302<\236vw<~\313\357=\2036\242\276\362\021N\276\371\266o=P\314\177\276\340\"\264=\215\301S>=\350\"\276@7+\275\nm\324=\245\262(\275,\013\014>\2132\252<J\316\206\276\36253=C\340\344<#\000\\\276\321s\025\276\343\242\223\276D[\221>\300\354O>\031\317\322\275\367\240\317<\374\235X\276\342\0333>\331\034I>J\345l\275/jH\276\006\375\322=\006U&\275\2361\211\276\376\341\374\274\256\016=\275\264\000\266\274 \361\257=\tE\017>\006\201,>\365\032~\276\007o\303\276\264\234\244=\275%\206>>G\244>\222\326\241>$T<\276\262\023\362\275\356{\203\276j\016\231=\311\354\016\276L\225\215=.\034\345=\230$\006>\324\356\220\274s\343b\275K\210\240\276u\2777\276+\026\337\275+.\363\275\347\216\314\272\237\223\215=\372V\244=\263\373\031\276\207=\245\2767\231\327=O\267\302\276\264\332<\276\227\001\276>\034-\016\276p\226\311=\030#\237>\210JF=*Z\220\276\010\254\225\275\226\255^\276\260_]>\024$\222>bj6>r\2414\276\025+J<\275\274\371\275=\025[<\361\002\217\275\016\277f>p\255Y\276=f\336\274\275\365\014\276\256\237\257=\363\251\037\275X^\372=mE\310=>*\036>\375j\373\275\250\2364>\336j&\275~YK=?\323u\276\276s(=\331a\211\275\023\237\234\275\274\027\216\276\331\361\275\275\004mh\273\373\353j=@\330\217<\302:\212\276a\3029=\201\013\272\274t\3731\276\357\237\274=W6\211\276\335\005\247\273\364\035B>}\350\207=.\2757\276W\252\306\276\242m\201>\307G%\276\016\270\317=\301\n\037=X\342\007\276\310\377\351\275\276D>\275aI}>\003\\Z\2769\222\305<L\325\027\276=\334\312\274+t\321\276\004\010\267=!\274\263\2763\372\003\2768\223\221\276\337\273Q\276n%6>\204~\231\273\230J8>\200:\324<}\251\210\274\3412U\275SX\020\276b\330\344=\376\366\330=\241\365\276>\212\336&>\214G\215>\311\217:\276\362\266e\276\313\342J>\375\021\272\274\232\227V\276\251\271R\276\214\021\251>\013Y\252=\247\246\265>\222\307\364\275\' \'\273\222\360\215>\332\027\343<Z\303\266\275\226\345s\276\254&\204\276D?\204\276\202\3016\276\337[1\276\331gf\276\212sN\275_\204U\275\373u\'><\240M\2768\214R=\027\2004\276\316\272\035>\300cC\276\245\016s>d\321\034=,u\234\275\223<8>Z\r\317:\203|\273\275\257\343g>\360\315Z<\022\330\271\276\346\211!=[\365\017\275\251\233m\274\254\343g\276\335\251:>\323\333-\276a\013\242=R\225\211\276\364\205\261\276w\346==\014;\212>\236\014z=_L^\276F\333&>/:\026>;\310\201>\027\022\006>=Q`>j\274S>z\024\245\275\306\3124>p2\027\274\033\302\267\276\334M\233\275@\253\031>\373\277\021\275_\243\310=\360c\034>\030\221\264\276\035\2437>9\241\t>\203\030M\274\256\317X<(\021Y\276\216X2\276\024\205g<\2417\214>\333\353\274\274\005E\313\275\253\025%\276q\230\037\276r\346\363<\240Ao\276RP\014\276\223\224\227\274\177i\264=wA\320=\221\272m\274$)\300\276w\000`>z\177Y>B\317u\276\010g\342\275\354\367\205=hpE>B\316g>\250\237`\275\363\201\233>\034\317\014\276\001\3367<\rD\377\275\322^\260\273\202\372\362\275o\200\303\275\354\320\022<wr\230\2764\311\026=\2753F\276>m\312\275\304\202\316=\204VS\274\341Em>\013#\031\275\322h\n>\320\233f=\177]\351\275\004\322\311>\210\005\340\275\010\242\261=Q\205G>\221r\023>\203\211\\=\225\037/\276Uo\301;F\332\311=P\363c=\\56>\250\341\210>\327p^=\350\315\t\276\320-\031=,X\205>\306\025\357\274\\\010\t\276Z\021\362=\372\212?=h,\277<\263\000<>\343#\241=\245h1=!\343h\276\212Tf\276MO\211>\235\330W>\304K\204<\nqY\272\027\331\'\2752\366+>\005\2321>y\366\375<+\"`\275\330\024X>\267|\263\275\020|L\276|\3224>\002>\237=\376\3704\276\211\353E\276$_c\274\374\326%=\226\0103\276\347\2557>\201\226\250\276\263+\373=\025\t}=\207\300\246\274\224\362n\276\214\273O>\311qf\276W\331\'\276y\267\217\275\222\305\337\2745\225\213>\275\264&>\\L\212\274\0247\026\2740\353z\274\2263e=\024\355\232\275\311\202\326\274e\010\033\276\210bF\275o\345\275\275\276I\020\275\362gy\275\365\021M>\343\304\231>L\265\300=j~\000>n\306\233>\237\024\204>TA;\276\034.\354\275\314\207;>\r,x\276\356\016\307=\307z\340\275\304>\210>\261$g>\335\342O\2769P3\276\355\214J\276\331\320\177>\206\317\224\274\314B\277\276\3419\352\273\247<\362\274\240\256X<\304\372m\273^ \241\276\335nP\276\034a\237\275t.%\275]\'S\275d\032\217;\315\343\220\276\2550d=\231\315\033=\340\315\225\275\300\325\317\275\376\2609>\330)\t\274\207 \206\276\363\331\275>\254$\220\276\227\320\212>\233\256\301<\260\371*>)$\312>\270\323\235>\343?R\276\236FV>{*\265>\326\276\253\276;]\300;\252<o>R\357\t>Y\375\253;\205\260$>\332T\304\276\330\r\027>%a!\275\037m\370\275>\210$>\352(\262\273D\334\240=\233M\035=S\277\222=\023|\'\275\370\375\230>\373\343\020>~\230y\274\377\207\255\276-P\221\276\366D\217>\306\303\217\276\003\363\252>B\315\247=!\342\304=\000\343\337=2(\333\275\230\312\360\275\214\354C>\302\2478\275;\222$\274\342\341\360\275u\014\235\276\013v\266>\207\235_\276\004\362p>\336\223D>\345\274`\276\365\370o>^\353\257=\214w\373=}J\343<\300\004\216>\32451\276`\375\254\275\372;\016>\252\2379\276\271\237\254=\260\020\031=r\274\351=\233\372\322\275\030Z\200>\342\341\033=\005\032\235<\330Y\272>\016R\215\274\267\333\205\276\246*\024>Y\303\317=\341`\006\275\273k\006=m%+\276}\271\220>\002\223\216=\304G=>\363@\225\276\205\317q>\371\220\316\276\326Fa\276:\207\357\275\0246g>\001\034B\275b\223\232>\315\234\267\275HWn>\232>g>\203\310t=\224\377\377\275\233\262\002<\277>j>\025\306\255=0x\253\276dl\367=\220\251\021\275\263\2008\276{\325^\2761\301%\274\340\363d>\017\216\260=\267\031(<\035A3\275\000\036\243>K\276f=\373\3454\276%]d;\324\313\n>\r\217\254\275\247P\236\275H\247\221\272\250\221w\276v\203\177>c6\341\275\315%\200<4\213\312=\216rg>\336&<=p\270\371:\'\342\255\274\223\342H=\317\351\222\276\326\017\274>a\322\202\276\235\323@\276\363\035->\211\302\243>\205\261]\276\240\355F<4z\030\274Q\244\002>\333\2214>\361x\234\2758\350\223\275\337\3323\275\2674\212\275\252\303<\276C:\031\276\374&\265\275\244\'$>n\n\'>hu\311=\345\236\255\276\345\003\007\275v\324;<\"\026\026\276\231E\237\276\255#y\276\265\002\036\275\241\037*\276\256gQ\275\244\274\004\276f\033[=@c%\275&\232\315=s\0106\273\375{\270=\323\243_>\311\234<\274n|\005\275\277C\244\276z\210\221=\355~\027=\235\021o\276\236\203f>D\3544>\362$\232\275\225Ho\2760\356\225=\203\n3<R@\r>\241\247\331<[%\322\275\014\251\235=!\013\371=\027\310_>\224<f>a\245\221\276a\217r\275\020*T\276q\346+\274\372$\007>\306\262\303\276\005\242s=+\337\036;\270\365Q>(\\\024>\002\323\322=\300\034\352\274Y\325\343\275\324&\233=\024Q!\276F\n\024\2768\205~>c\201\267=\253\004\316\276\257nr>\321\234\253\275\351\020f\276\026 2\276\250\342\034\276\252.\032>\236y\356\275\032\212\034\275\237\222\204\276n\352M>}\217\224\276\374A.>\354\205\231\275\230\306\234\276#\331\032>Z\376\234\275\263\251\253<\261PF=\232o8\276Yv,\275\336\365\217>]\3425>@<\013\276nW\350\275\374\003\312<\206]\232\2762\367\305\276\300\360I\276\251\272\030\275~@\352\275/4C>{\271\030>\372C\215<\325\3336=\332\035l>\004\337)\275\252\237\"\276=\224S\27412\264\275j\325\236=m\243\265=\322\363,\275!6\356\274\320K\347\275<\3427>\t\240;>Z\027\242\275\215\324w>\331~\000\274\004\230\016\276\337\0328\276\'\377\032\275FM\317;\220\367\265\274X\001\316\275\332Qz\276\334<\020\276\273\025o>\177\351\337=\177w\035<=#s=4~\212\276\303e\216\274\251]\200\276\246/\326=t\3516>\312\006\372\275\026`Q\275q\000Y\276\'\"\027\276\305ZM>\253\344\227>\013a\206>dd!>\327X@>H\206\267=\354U\217\275\021\362/\275^\377\272\275\361k~>\032\255\000\276\005\373\000\275\002\374\332\274\363\341\007\275\300hR>\025\377f>\253\217\017<\327:o=[?\262\274\022!\017>\n\237\026\275x\354\030\276\362R@\275\331\243\\>\263\352\r\276\200\271\312=_~J=t\274N\2765_\342=\254\006\223=\360fU>\322\251\311\274\302JK\275\341\3322>\2375j=\371\363\327\274\273O\030>\240u\340=_\366l\276n\325\021<n:l\276\3422\267\276\272LB>b\370\276\276\t\274\003=\255\033\202>\317+\271>\330& >\314\374\250\274e\337(>\014Y\260\275!\371\226\275\337d,\276X\037\302\276\007\350W\274\024i\274=\242\203\224\275\'H\000\276\240t6\276J\027\273>\323\332\326\275h\306\341\275#\276\n=\333Z\006=\353\215V\274\313\226=<\230\033\355\275\375\305\310\2751?\014\276\304\342t\275\320A2>\204+2=\227\333)=\204\246b\274\246\274\003\276N=\023>\360;\216\274\370 \263\275-\262\365\275-\020\016>*W\013;\351n\226\275Ty\005\276\002)f=\247x\207\276\n#%>!m\206>\353\227y\275;\344\351=])\000;(H<\276\001\367\216\275bO\304<\210AP\274\254\347\026\276j\310\t\275\370|R\276\316\353P>L@\314\276\321\265v\275\3237m=\217\337\300\276\260jV>jq\023\276\210:U\276\212)\'\276h\235\204\276r\2141=\024\236)=\034I\242\275M\265\261\276\003\010\341\275{\007|=2.\021>\3457f\276\0036v\275\322\267\013\276N=M>\202\3309>\004P\212\275\332\375\213>\375\215\004>\377\336\027>\305\030\221>!u\200\273\326\267|>\361-\323;\030\236\250>XBK\276\370\332\223=K]\203\275\372\352\216\274\032mT\276P\232\014>AE\221\275\352\n0\276\001\252-\276\202\037\313>\234\345*\276\253G$\276\354\217\007\276?\324n>u\030\244=\3224_>n`\227>\016\000m<\244\250^\275}\037\245>\216)f<\322m\202\275\354\247c\274\025&\031\276\335\257C>\203\223\004\275G\335~\2765px=\030\007\310\275\360\350X>\260.\267=o\206\311=\271\330M\2763\364{>`\177k\274\243\324\271=\tkE\275D\327\304=0\374`=lp\351<\327(\322\275\226\345+=\024\177s\276%Q\254\274KO\275>\243\004{\276\307\342\265\275\315L\034\276\207(\242\276\354OD>\310\302R\276q\027\370=#m\236\274@\"\202=g{\030=\'FH\274\021\225#\276\033\027\262=\262\341z\275\024\234\276\276\272\310\265\276\243\250\224>S\270Y=\001\245\376<\337;\305=\222\362\202>\251\373\304\276\021\216}\276\3526\277=o+\350\275P}w=\256\323\277\276H\310\017>\025\035\004>\350c\035;\000\325\006\276@\310\275=\246\273\233\275\232\310;\275\275\225\240>\215Z\217\274S\'\374<\251\321\342<W\213|\274^\034\273=J&<=o\201\236\276\274\371\331=\244\014\303\272\027\025\026>\362\233n\275\270W\303=u\007j\276\370}\205>\345\366\225=\377\312<>\274\241\004=\313\377\035\276\201\002\216>tg\351\275\031&\200=\346G\201\275\230cp\275\207z\273\276x\276B=L0\216>\357\374\001\2764\306I\276\332\235I>\377\324\325\275\363\225\241<(\312\246\275N\177\023\276y\311}\276F\226\007=eC\336\2754\373\224\276B\242?>\243^\030\274\263S\232>\230\034\322\275\'\204\n>=\256d>\253\2330\276\246\364\244\276\001zL=\311E]>\353\350\021>\362\246\207=S\340\255=\325>\352=\300\032\264>\222+(>\371\030\216\273\320\345c=\206\021\210=\001\347:\275R,{>\215>\\=\ndz\276w\'c\276\236\tB=\213,\001\276\034\3062\276\206\010\324\275uz<\276\263\247g>\242\205\245\273\322\000`>\024\306\263=\260.\230\275\034\272\211=\301\261\321=\211r\265=\346\2207\272\225\253.>\216K\006\276,\272M=\350\000\003\276I\000\216>rsx\275\221\342(\276h\276\235>\006\013\001=\005\n\226\275\363p\">\325c\274\274\202\034\022=dd\260\276\326\353\262=\256\250\262\275|\000\201\276\227\276\220\275\307\013,>\345\236O\276AYB<\347{\317==qj>\301p\025\275b\006w\275\217\264m=\003&]>\244\360\274\275\207\267\225\275\010B\251<^\364\023>,[<\276\177\335a>\201\213\201>\242\375\210\272\365-\n\275\254=\366=M`\343<\343;j>)=\022\275B\3006>\002\2476\275\320X\271>CT\001>\034\371j\276\262\326\274\274;\367 >\300\235\211\273\254\026\320\275k\205\200\276\014\322\035>\204A\265<\332\226\262>oU\331=\331\rF\275\247N\206\275\234B\252;\344\253\003>\021\n6>\306\007\261=\210\342\227>\265\355\317\275O\265a>a\022\256\275\257\236\035>0\353\221\276\036\346p\274\211\246\364\275H!\307=xW\346=X.\222=r\371\210=v\325a\275o\010\267<\334\370\224\275\227\r\031=\2215[\276D\317\020>\312\030\360;Th\016\275\002FC>>W\032>>\232;<\2269\"\275\275\354?\275\204\277\333<\312\226\236\276\034\230\322\274\200C\247>)\216\006>\252\212\260<\206\223\300\275\266\353]={\333*\275\342]\361\274\370\357?\276\033\365\303=h\270\014>\016<\205=\336\233\305\275\310\276\232=\030\215\240\275D\207\363\275\255yw>\312\331\270\272\273\217\221\276\037\214\203>\006\032\263=6\256\352\274\347:g\276t\307\265\275Rl\207\276\3263\241\274\025\2365\275\253\374\337\273\025\023\320\275\030\026\371\275\037^\240\276s\027\016>Hsv=}W\270;\201\027\257\276G\301\313=\017\332m\275\242\332R=\271\340\027=\236QU\276\2142%\276\305\301\266=\034/\225\276GE\277=u\2400\276\323\350E\275\211?\305\274\372RN>\nw\222=\263\365,\276\375\211\251=v\t\005>7\322\245\274$\206\250\275Ez\264\275\362\327\245=\360\373$\274\320\247~\275\347;\252\276\311\tC>\3119\024>^\232\221\276\355.0=B\334p\274\251\027K=\342\022\356\275y\302r\276\241\367\206\275Sh\243=\256\351\351=S\324\314\276m\274R\275ngP\276_\322\330\275\376\265\t>\243:\322=\221\3449\275M[A\276\364\016H\275F\3638>\245\204\264\276dm\202<\232\006\277=0\006\000>\014\357\231\276.\013X>\260\304\'\275\360\216\251\276\207\366\240\275\352\273\266=\327\002G:R!\312=rJL>\311\371\375\275\375>\003\276h0v>\216\203\252=\030=\223\274Q\376$>\302\335^>\231yx\274mv\223\276\366\026+=\343\031\326\275\372*\230>\316X\020\274q\347\372=\\\\\215\276\372\264\020==M\361=\3521\330=\272\232\247=\372YW\274[\210\330\275\363p?<\304\222l>\004\250\221>K%\222\276\216N@\276e\253\250<\323]\261\276:)\023>\350\203\211\2768\204\335=\024\032c=\262~k\276r\260\305\276\211\343p>\021\206\324=\376\023\013>\3750\247<K\343\253>\252Y\200=\235\315\032\275\254\243s>\250|>\276\224\213\365\275\223\'\231\276\317-\322\275\313\224\204\276pPY>\027S;\275\332\370\252=dJ\272\275\231\220\226=\204\275\202\276\252*\250\274\020`b\274\034\365\377\2753N\300\275O\0313>\343p1\276`\372\270\274\331a\325\274`\214\333<\240\344{<\016\262W<\335:\021\275\206\006\355\272\305\362\307\275\003\025\026\275KHf\276-M\034\274\327F\302>\245yx>P\377\206>l\302#>K\357\273=V\226\254\276G\302$\276x\"\307>\034F\035\276`\363\265\276\020k\267\2753c\220<.\034o=\240zD\275\234\220N\276\355x,>\264\022\001>\030\344L<E\364\010\275\276\327G>\271\"=>\362\017\356<q\233\212=w\3669\276>QO\275f\204\033>\024\244\233>\224X\342=\246w\222=\354\322\367=\340\333\242\275\272\263\203=\026\350\370=\272\245\203\275\247\364\340=\307%\311\275\351_\222>%\363\266\276R\355\003>\353np>\027\300A>!\210\301\2760\322\306\275\306\272\264\276\300\350\275=\275\021\363<If\227<\365\221\273\275\001\213W>\210!h\275\377\324x\276\346s\t>i\374\326=x\235n<\275)\200>\222#b\276s1^\275\017v\341=\234]\231<\220\361T<n\233i\274])\324=\013\310\325;;b*>uo\253>\250\3335>\tg#\276\303\"\373=\201t6\276Cg\004>\241>\253<i\332k\275\331B$\276\2665\317\275\246\271j=1\370L\275\323\220W\275V\267\304<UJ!\2768Y\200\276\344OA=K\301f>\344\364\036>\225R\261>)=\204>\363{g\275\033\275\222>\301q\025\276c\333Y>\023f^>\327j\205\275\341\025h\274Z\270~\276\320\232*\274\313\272\202\275Z\361r\275r-\325\275?Z\035>\312\273\250\2756\226\353\274\261\327\027>\225\313\\\276\t\335\023>YV\232\276\377?D=i\204\264>\365\376\030\2762\355a=m\274m\275\177\355\240\275z6`\276\006\037\031>rY\031\276\323\235\207=ox&=!P\241<\177\361\223\276{>\037>\371\025\253\276A\344J=\215%x>FaB\276U\347*<\311F\201>]\003\250>\300r\244>0b~>\2202\177=\233\026\340\275\225\230\371\275+\215\213=\250\264V\275\335^&>\215\033\036\276\352\206\304\276\020\373\313\275R}a\276\367T\265\276Y\271W>\212\225\t>,}\242>\336B\024;4\017\014>\356\360Z;\036k\324=\030\213\305\275\237y7\276\"\002\035\276\336P\022>jQ\254\274\362N\301=\233\246\210\2764\301+>\014t:\275\345{\255\275\335\217\007\276n\036\376:\237\261R>\342\201\244\276\242\306\257\275\230&U\276\366\375\275\276\347\3270>\341Tp>m3s=\273\207\244\275\366\360\222\276?\003f\276r\244\214\276#\312p=\253\350\002\276Q\321\022>;\2172\276c\211L\275t\033~\276*}\006\276\277>\326=0\'\302>l\266-\273\247\321\004\275+1\350;\216C\256\275G\333Q>@\224\241\274.\262\203>\211\357\213\275\320\313\213\276\301\201)\276\261w\255\274\351\2650>\257\227K\2767\243\232<)a\017=\211\"\323=e\337\022>\316\253\344\275\253\361\255\275\205^\261=\332#\340=\375\203\373=q\234\037\276\017m\216\276\0056\025=d]D\275\036\354\350\274\342^\035>\304b\240\275\303\373`\275;g\271\274\345\327\253\276Q\025\253\276\360]\027\275\365\307\310;x_\302=\240\270\216\274\374\355v>\374\t\324\275\256^\270\275d\234\351\274\342\234\210\275(~\250=\311\230\253\276\202p\031=\202\003\236>4\037\361\275fcU\275\347\312\032\276\033\305\336\275\340\350\356\275\223\027\233\276?\256\030\276$Rw;\331s\342\274\313\243\325\275\233\034^>g\363\013\276\252\234\305\275S\375\267\276\031l\226>i\312\216\275o\267\223=\260\310T\270\207\317\331\275\030\271\213=7\"D>\310x\027=\034\025\304\274|L\033>\217\275\031>u\330\230\276\002\254\010\276\246\256\024>\205\247\260=B\032J=\203\220\030\276\206\367\017\276\275.\240=V\371^\276s\337\004\275\221\252D=~]\035\275\302e\331\275\326W\224\275\361\371[>\263\222\374\275\272\203\232=\0130\305>\3565)>\373\343S>\307\276\264\2758z>\276I\232\251\276pk\243>\227\r\235\276\276]z\274\235rd\276\240\237\002>\033\254\267=$\206\021<(&h\275\232\310+\276F\224\210=\033M\254\276\251\344+\274\227\360\022\276\013\256Z>\'\321\267\276&\235\255;,\303\216>pB\316\276\267+U\276\025\204\362=\331\236\263>T83\276\025\217|\275\335D\372\275\320\324\273\274\352\263\235=~\200J<_\316\253=\376\264\223<\2533\035\275\006\000\343\275\207\212\237>\261\240\227\275b-\346;\364\245\260<>\025\206<\266}y\275\351\2044>-\305\254\275$\375\312\2768\256\303\275X\000y\276\234T\005\276\231\325\023>\222&\013\274\267=\274\276x\331\205>\017\324\261=Am\324<A\350\207;\323\203\033\275\302\217\354\275\267\317\304<\370\010\\\275\360\351\001\276\006\002\207>\220\251\330:[\215\230\276$\020v\276n\305i<1\312\220\275\306+\246\275\035p\211>a\n\363=\031\213\321\275\307:,\275hc\210\276%\340\241\274\353\025K\276\033m\243\276}W\241>~\334\206\273\023\202\203=\343\372P>A\362\027=\270\025)\274\007\354\235<h\352\224\276U\223\216\276<\263:>\265\t\347\275?\237\337\275\023r\206=6\262->\336\315\021>\272z\305\276VM \275^\354\224=\366\314\224\275.\314\210\276T\270\212\276\302\271\231=/\034\245=&k\370=\314\214\262=?<\262\276\367\021\352\275%\307t\276J\331\230\274rW;\276\345d\035=TO\263<\214\n\356\275\355\031c\276m\372c\275\204Y\261\276-\303\327=l\276\270\276\317K\276\276PUE\276w\000\212\2766\347!\275\027\357\357\273\274\374 =\001MG\276\360Dv\275_\345\255\275Bf\247\275\2041$=j\332\033=z\177\004\276\242\253a=+U\314\276< \323=\035J\006>\035\0106\274)`\267>b@A\276!\205\346\275a\026\375=&\357C\276*\376\254\275P\277\203>\353\243\347=+\020\005\276\371l\237\275\325\251\001>3\\\023;\266\211\213>\271\013\263;\304\001+>\'\305\334=\332H7>\365\021\246=/\317\"\275b\002V>9\r\211\275$\325\035\276a\223\036\276\020\200B\276\264\335\210>\244\332\221>`\345\254=\342-\206=\210\206\212\275|\374\362\274\017\270\031=L\'m=\301\210\211<\362e\375\275N\342\003\274%\374B=\245\325\007>\027\367a>\"D\304=\270.\256\275\"S\214=4\252\250\276\310Tf\276g\352\234=hP\236=\245\002\314=\271\227!>\276\374\214<)\333\003>\217u9>\002&\022\276=b\363\275S6D>8\354\247\276\274m\274<e\361\212>\202\376\034\276\2420\217=\241\246\347\275\204$_>?\332\250=\332\351\273\2760\026:\276\203\241 \274\243>\277\275\353L\001\276_\024\274>]\260\356<$@\024=\351f]\276Zo\257<\361\363h\276c\350?=\016\021:\276\371/Z>,\002n>\242k\324=\374\335\223\275p\333\372<\347\237I>\023\320\037\276\010j\225>\302\2444>\354/H\276n\275\"\276\235C\237=\023\275\226\276\351\006\205=\221\320\232\276\345\223)>Gf\n>#\244\013\275\013S\035\275\240-\313\275\250\010\212>\211\271\326\275\220\021\272\2755\372\200>\214A\315>F\214\201<\221\260!\276W\337\177\276\026\323\271>\215\267\215\275S\203\365=LP\231\276\n\315<>_\212I\27645\023>\362\3566>\304<\000>t\354S=?g\200\275\300\247o=\241\356\213=M\003\307\275\007\3203\276\301\n\340;Z\261\240:\035\211I\276\200_\224\276\351\336C\276\207@P>\301/\013\276\264\200\261;\037\364\267\276\327T\205>\255hD\276\346D\033>\n\336\320=\026\322\007>\311gT>\261\024\017\276N\301O>\020\257\027\276\223\305\032\275vx\240\276B\273\356=\376-\306>\206\022\225\276\340\325\246>o,V>\303\013\267>\031\322\032>\334j\300\275\326\3776=@\304\207\276}\241_>\320\236\202\275\372\324\241=P}\342\275\345+\204\276x/\004>\205;\\>A\031\222>\207\326Z\276w\230\270=>W\211>t\256\022>\331\304L\275\205\265\255=T\3024>\333\344l\275SY5=D\256\330=b\272\212\276\363E\242\276\351\021V\276\200\371\207=\341=\216\276md:\275\204*\207>\232\241z\273W5\244>\377\217\300=\215$\006>i\036\304\276ni\306\276\212\307H>\0324\267\275\036\200\275\275\240\372\033<!\325\271<\267N\247\276W}\232\276\215\273!\275\347\025j\275[\020\242\275\347\257\313=\323\205\240=}\214\216>Np\326:Z\233\362\274\213<\213>\226V\016\276\311&\367<,ZI>hD\313\275\304\221\302>\364\024.>RcV\276|\377)\275\265\235\017>\024\247\330\275\312\362\021\276\366\326>\276\034Gd\276\347!\210>\316\"\374=\321\202\r\276\313O\006>\317m\306\275]\323P>\260Ly>$\017_\275\023n\243=nUD=\215\021\220\276\004\177\233=$\331\177>0\212|>\341N\256<\233+>\276\r\213\201\275\030\204z\275\241\246U\276\277\n\215\275Y\234\236\275\260a\271\276\210\032\'>\331\206\224\27601\t\276\271$\206\276\242o\230\274\252\302\216>\304DB\275\017\302\352=9\206-=$\243*=\204\2610\276\214\224\204>\024\231\255=\\4\300=\371\273\016=\364q\352\275\275\331!>\223\010P>\202\344\225\274$\262\221\274F\361\233>\207\244\217>\321\020\212\276\371\306,>%\207\211>\206:\310\275\244 s>\231\026\261\275[\343\204\276\232\214&>\336\031\266=]\325\333\275\322_\370\275B\020\002>\364\276\241=\251\371_>9\350\263\274\306`K\274\345\336~\2767Od\276\331\237\210\276]\004\222>\262\233\221\274\324!>\276ZY\010\275\277\030\256\276\020\340\250\274i#\032\276\n\021\233\274\325\342\236\275\371\236r\2761k\210\275\332p\267;N\230\310\276\334\352\377\274\350F\307\275\220\366\350\275|x\n\276\337\222=\276\037\322\305\275\022\302\030=\260\314V>\027,+<\323AG>\220\310v\275\320\222\320>[\347\260;\021\317\230\275\331y(\275C\037[=\367\025\202\276\244\355>\275\305\003\256\276\257\257<>G\276\005\276{\235d\275\030\235\227=f\367\201\2766Z+=9\262\277\274\202\373e:tv\245\276\333\r;><\217\016\275\331D*>\356\263\000\276:\200$>\320\230\005\276\316\250\200\276\007\3157<\r\321\203\276\353\372\006>w\220\202<\006\3037\276\004\\P>(}Q=\370l\316\275\247\004\006>\2627E\274\007:4>\200\034z>v\271 \274\275\213\206>\300\3220\276\3076G>\207\242\271=u\024\257\276\177\030Y\276\240\226q=u\306`>i\325A=\371\372\247\275_\2409=\311d:\276O\276W>\267q\334\275yS\021>Y\257\r\276\367:/=t\004\217\276I}\222\275\300^&\275 \022k=\206\330b=\203\333L\276cx\360=\301\322\270\276\267@\373=\034\351#\275\005m\271\274\245\037\213>ynP\276\257\003R>b\326\"=\250\"\">\357\202!=`\314\340\275\2261\356;\365\367\263>/\231\201=\214\2651\276\251\274\216\275\323\313e\276\230\347/\275\334\261\302<;\210\\\276\306\037\222<G\032\377\275\206\2265=\354bb:\225j\261\275\347^\244=\2077\236>\016\375\351= \275\261=\014\t\315<\320\240\311\275\212\350\237>\377W\265\276\237\350\327\275\332\230C>U\234F<PX\247\276\320|\247\276\2724\265=J\026\027>\316\246\257>yK\255>\354\000\004>0\203\005\276\005D\224\276s\241\254=6\3703>R\313\365=\005\373\036>\234\304C>\376!\372\274t\273\230\275\216&w>\353\251.<\247\323r>V:\034=oN\203>\024\252\231\275\005;E=\241\204\331\275S^ >5\223\305\275\236qd;\245A\303=6D\223\276mG\252=\034y\\>\314n\251\275z\373\220>\376Q\274;\227\"\216>r\361\356<\230F\014>[\241\321;\310\254\265=\t\033`=\367\016\366=\001\005m\274\217pW>\356]\003>\203\247@\276Yv\327=\2614f>:\n\241>\027\347?<R\362\234=4!\010\276\203&\372=\266+,\2768\253\315=5\331\020>~}\000>\321\305B>\336t\224\276\025\225\000>2n\370\2756\317\227>\032\234\301\275\013\260\033\276\\\007^=\325=*>(\255\266\276\214l\024\275\310\000\226\275\026\275\262\275q\034P\276\005\"\373<\2768#\276g\374\272\276\324\337o\276\333;\260=\254\2070>\264\321\205\276\007\341\243\276\365\002\277=\253\357Z>Pe\257\275\361\\\237\2764Z.\276\254W\021>\031A\372=\205\231\204=\326\307\214\276\274\234\224=\024\001\034>\353\3654\276;G\227\276\250\377\017>}Z4\276>\034\313\2749\203C\272\010\357\226>\340\271\213\274\200\316\322<\304Y\266\275W\366\n\275x\2066=\213\211\202>l\024\224\276 \223\376=s\222U>\021\331<\276\252\226\023\276\177[\031\276\024\000\317=^\320\353=\017kU>\347\246\220\276\007\305\210>\037}\017>\371\270\321=\302<\253=\216\213\235>\222%\234>\214LR>\230P\030>l\022~>\252\324\306\276S\250\256=\271DX\276<\365\214>\n{\217\275FcJ\275\321S\270>HI\212\276\310\246P\276\357\017\\\275\223i\265\276i[\242>v;\201=A\031S\276\3245\344\274\335\350\220>\025\357\242>\317$B\276\250q\236>\177]\231\276\272{\233=\317\202{>\315\267\354\275\'\362\216\275,\005\214\274\211\302\221=J\212\202\275\217\261\213>\213\365\212>\322\013i\276@O\311>\202\203\202=\275\350{=\267#\276\276\270\247\242=T/\203\2765\266\031\276jjR>6\024\002\276\016\3022\275\366A\354=#\363\235=\263)\306\274cS\266\275\275\221\240=\222a>>\346\330\026=\236\235\217=\313vD<q\030\307=@U>\276\320\213o\276\010]\352\274\177\210\251\276r\224\325=\210(\213>_\366@\275W48\276\215\303\240=\233x\214\276\252M7>\244\232&>\330\\\003\276\211\324\236\274F\017\235>\251\357l>\023uJ\2763\367 \276\035~\225\275Y\260\374=\320\315\006>\035a\036>\312\352\247>\020#~=\244%\234\275p\321F\274\031\035\026\276`\214^>\336z]>O\351\372\2752\250b=kv\255\276\021\324\274<\351x\245=\346W\355=\355\"\300\276\374\326\205=\307\376\307=\256i\276\274\234\036\312:\232\020\t\276\227\030\250>\034\233\227<q\321\205\276\360\235x>\025\234\266<\"\255\213>\342\207\204\276\233\263\257=\333X\001\276\220}H\276\343je\276\234K\247>I[\346=e\360y=|\370\034>\277\267\237\276\253\263\256\274?\014r>\226k\273>\323z\003>\257/D\276\rI\254=\304#\370<\365//>\261\275\213\276\374\370\310>L\335\214\275\325\330;\276l\3370\276T\340@>\343\355X>X^\037\276\272L\211=w\222\374\275v\330\251=%\020\363=1b4\276\233\027\216\276\005\206\235>d\354|\275t\340\377<\341\242\030\276\364m\266=:3\371\275A;\'\276\n\312\203>e\221\370=\367\2031>b\306%>\000\202\314<\244\222\376=3\212\317=\256\322\203\276\305\201\315=an\267\275\217G\210\275\247\261\305\276\233\210\227\275;\245\236=`\310h\276\331\020\202\275\204\tx>\262\224\010\2742=\225\276H\315\215\276x{\021\276mY\260\276\014\355g\2760\205D>\036\2558>Qx\276\276\0340V>\310y\023=-\376}\276!\007E=G-\230>\277\344l\276h\2271\276\017\200\323=Rj\203>x\373\210\276\253f\375\275%\256;\275\345B\224\275?\007r\275\333\211\352\275#\007\215=\262\314\234=^\3750>\n\000\202>\004\237\375\275G\351\020\276\206P\026;F\364\225\274z\t\256>\002\315b\276\030\213B>\333Ho=\354DA>7\376\343=\021\001\244>\363\310\000>~\366 =q\256\237;\362\263\035>\214\241#<*\024\234\276\230\210\323<\256X%\275\204\200{>\201{\003>`\'\036>\272\302\356\275\rIy\276\335\276\326\2755\333\241<\327\252\317>\337\234\261>\342\244\276=\017\344I\274#\001\271>\016\260\206\274\177\366\230\276Y\267\207\276C@\275\275)\201$>\225#g>\027\034\276\275\264n)>GK\224\276\253\262\263>\342F\222=\302pj>\016\227\261=\362\3010\275\347\r/=i\254\025>\004\2666=\020\032m>fC\243>\"\262\267>d|\005>p\227\017;\245j\204=TK\t\276\302 6>\226\303\264<\207\021\322\275\026|\210=(/\247\274\226#\">\007\326\374\274\007\362\356\275\007a\313=J\261\010=fD\331\275\3404\224\275\324s\316>P\0351\276ci[>\3408\307\275\257\321\r\276\010DX\276\032\257,\276\343\207n<\326\274\006>\205\210\356=)\243,=\270N\224=\356\013n=@=I\276\204\200\'>\316\255L>\322\355\277=\226\024N\276\n\265I\276M\325-\276\351\357\231=t\337\346=\303\'\240\275\3230\010\276bD\244>\"\311\255\275\265\355\013\276\217\375:\276Wv\242\275j\325s>\004\270\'>\274\017(=q\353,\275\340\230\224\276\0203Q>m\266\017=\334q!\276\221PA\276\242\212\216\276n]!=\224-\201\275\300zF=\333\207X\276c\231A\276\037\2115>\257\014\221\275\257\322c>c\241\261>\226ml<\366\372\267>\203\273H\276I\033\353\275\364|\337\275X\346O>L\007\206>\220\325\004>\021)1<\247-\006\276D.\014>\354\371\277<\032\226\204\276\236:\373\275V\317\022>\'\203\374\274\327\034b\2751\252\022\276(\316!>\013\314\000>9f\317<\352\300\202\275\260\273\305\276\016\231)=I\343@\276\312z\017\272\023R$\275\35650\276\200\3454\276\373\036I>|&\026<\300}=\276\021\025C\276\307\215\212\276z(3>@\223\250;=eb>\331\301\316=\231\346U>\024\263\007\276+W\300\274\252\325\033\276\244\346\210\275\373\275s>\235\010\030\276}\026h\276\277V\231\275\266\327\200\276/\204:>j\351\264>\322\350A=\"\377,<\001t\307>.\230#>t\2510>\374P\000>p;y\276P\356\002>3\237\245>8\231\275>\233[\221<\177\361\347\275\326\021\270<\216\251\221\276f\274\210>\273\t\301=\314\302B\276\301\221\373\275\033\306.>>>\201\275\211\223L><\317\217\274\276^\362=\3312\014\276\3072\217>\354AD=\212\224\325<\271\344\240=2\246\231\276f\310\214\276]\244y>5)\247<\316E2=\356\217\357\274\221\342T=\276\256\002>\321\302u>\322\037\310>8g\342\274\'\017\254\275\0039#>\022E\030>r\024m\276l\225\025>k5\267=\353\260\320\275aTm\276\235f\234>\325\325:\276\242\216\322=\227\357\224\276#@\310\274\350\317\025\276\233\242\013>\377\264C\276pC\240>\271+\253=\263\367\202\276\332\254\025\276vq\004\276\004[\002\276\237\024\226\274K\021\264>\300]i>y\363\274=\036\263J= $\200>\237\222\237\276\212\026\"=\327\323{<\027\236\261\276t\225v>EN\267>\024p\221=U-\227\275\256\243\246=\344k\267\274\\\355X\276\213\376D\276\243z\327\274q\310 \276\327\376\257\275X\234\317:\272%\212\276K\370\200\275^\017\000>\305\373\346=\213W\242\275\036\221\201\275%\357\222\275w\215\357\275\342\3558>\216\3754\276\251\2240\276\240\030\310=\'=\347\275\220^\000=\271\233Z>\311\004#<\332 \\>\2316\272\275{m\211=\350\370Y\276\320f\024\275C\031\221\275^\253\023\275(<\010\275tL3>NB\r\276\342J\266\276\326\032~\276\205\226\367\275\307\020\210>\3010\364\273\265\314\243\275\342Vh\276Q>>>\004\226\035=H\314!>\345\024J=\231\0254>\331\322\347=\244\010\371=1+\301\275 \227\227>Z\272H\276\276\021\227>h\313\206=\303\320\032>0\362\032\276\020\312\007\2733g\202>\256g[>\310\204z>\032E\014=\3630S=\323\322\031>\340Q|=\224\263\026>$\333b\274[N\322=I\333\205\275\341\3569\276\030\334\220>\312\013\242<\315\347\200\276\253\272*\276\216<\366\275)\274\266\276\232@\306\276\3513t\275-A\036\276\265:\337<;\304\034>1y\353=\030)P>\317\0032\276;\216\033\276\270\246\215\276\034}\273\274\313X\217\275S\312\230<\353W=\276\216Z\022>H\243@>\301\360\226\276\210\314\034=A\334\305\275\307J\236=\254\035\026>\3724\242<\344\002\027>\315\316\316<J\022|\276\024^1>\202U\315<\005S\017\276\313\t\004\276\272\274\311=\304\317H\275)rq\276\272:x>\034\215\347=?\314\005\275\315\247\035\276\345^\322\275l\313a\275\354\037\n\2766W.=&\351\300\275\016\362\220\276mj\'\276\3466\\>\243\210\010=\256A\034=\035_<\276y\371\006>\200\345\224>8xK>\004\367\315>`\r\345\275u\241\037>\270C\n=[\203\223\276M\177\336\274\310l\271=ix=\275\177>\035>\204\221Q\276[N(\276.H\327\274\244\354e>y\0338\275N\334\237>`\177\014\276\334+\250</\374>>\207\237\276\2762x\347\275\305\361m\276-Q\005>\200 \353\274\342\347\014>\337\210\372\274\241\305+\276\213|\221\275\240\221\205\275]-\232>\005\220F>V\347==Pk\353\275q\350\232=\242\263\221\276>\203\006>\351\305\317=\324]\370\275AT\247\275\021\212\371\275\322\337\203>\352z\250=yg%>\'m9>\"\n\264<\335\363\345<Og,>bF?>`\031}\276\273\377\220\276\007\023>>\'*\244\275h(->N\223\245\273\255\370\250\276y^\277<j\355\201\276\332^\013\276&s\254\275)\361V\274}\'V>i\331G=\010E}<\220\013Q\276aT%<\367\355\250>\002\326\331=H\303\204\276\344\250U9\'5\230>r\272\353=\212\246\245\275\306\235\247;k\350\214\275\204\024\026>\303F\000>6\265\n>]\377q\276\377^:>\365\310\215>\001\336\354\275M\254\204=`6\323\275e\242\313\274\240\335D\276b\342?\274\\\254\016\275\222F\234>\r,x>i\023\241\276\202\332\243<\243kt\274\327yD=*\217H\276\230\362\007=\305\272\375<\330\315\322;\331+\302\275\320}\300=\313\205\216\275\232\307\244=\001\204\217=\230\345B=\303\373\t=\026c$;B\272\244\276b6\031\276\265\331\304\275:\0319\276\326F/>!\263!\276\373\236\227\276\025\3066\276Gd\t=\367\212F\276\022\275#<\n\303~>-\354\202\275K,\221\276\t\340\240>\300\376&>F\000\233>\\>W\276l\223^\274|\017I=8\322\231\272w\365I=\000\\U>\\:\351=\t\200\214\276S\010\362\275\367\302v\274\000\016\010=\203h\221\276\237\022\236\275\305\346\r>\003\310\035\276\0349\205\2769\331\030\275\277\264\202\276\253\342\231\276\377\210s>W\253\377=[\033q=d\336\233\272\n~\234>3\037\256\274\032\323\006\276a\355.=\226g\274=\203\365o>\250*\025\276\345^\211=.\242\t\276C\177\364\274\013\303\263\276\'30\276\370\377?=\2304\315\275\023\177\306=`\206\241\276\014\311\010<o\370%\276\035\324\374\275\307\225j\276\233\362M\276\252gi=\260|\342\275Vhc\276c\033\213>\324\2337>\3764i\276g\211\264\276\220H\035>\212\367\232\275\252\366\'<\016e\200>\224\375\356\275\024}\177\273\320(3>C\3559>\026o\245\275\235\344\275=\256\204\n>q\037\024\276\306\342\204>&\001\221>\342\227_\274^\036\277\276,!%\2768\035\302=\272C/>\303\250\200>\363\313\261\275\340\236\234\275jc\016>\317\037L=V\024\251<\031PO>9$\213\275>\254\032=\213P\022\274o\014\224\2761iv>Mo\321=A\377\211\276\013\340<>\005\252\004>:\352\031\275\2076y=\374\240\034>_\367\035\275V\t\340\273\370l\010>\177&\240\275\252\260O\276\233\214\213\276\2146=\276\222[\350=\341\032\300<\235\313\216>\311\311\273\276*\253\240=\262\236\323\274\341m\305=\020Q\026>\213\302\236>V\020\037\276\020K\215>\231\215\354==\375\203=JqJ>C&\351\275\206>\213\276\330\374\236\275!\241\322\275;\245\223\275#O\222\276\3647b\276\257\333\201\275s\004\003>^\265\266=@\264\032\276\014f\375\274V\222\347\2754\2561>g\203\275>Y\273$\276\3756\374=\356\350\217\274y\304\270><\247\021>\257\246\264>\3000C>r\236\276>\037\264*>\335FX\275.\034\226>e\035\022\275\347\231z\276\276\313\212\275\330\035F>\326\007\272\2767\244\t=\022\322r>\250s\244>Y\246\233\275\3429+\276\275\374\231>B\024\371=\344\245\201\2761\203\007\276\317C-\276\021q\323=m:\301\272M\030M=l\214a\276\323\320h\2767\305\363=-`\250\272z\244\360<Sh\243\274O\256\302\276\257\252\252\276\242\203z\276\261\213q\276{\364\r>\262\271\231\274\006\265\237\273\332H\207>\244\236%\276<\224\271>\016\276\344\275/\277\302\275%\200v>\'\247\336\275a\005\240\276\352\321\365\275\345\004T\2758T\240>\310be>Vp\275=\221\000\366<\013%\230\276\211\333\027\276\322w+>.\207\261>\376\017\203\276\326\324s\276\023\024\020>\311\334@\276\250\027\202=\226\223\243\276@\261\277>tW\013>\332\255\001>\232\366\001>\240\216\221>\336U\362=\341:\177>\314\2763=\254G\342\273\372\271\306=\323\005K=n*\201\276(\301\236\274\202\343\250=\313\347\357=0\215\213>,n\377=\372\222\030\276~\212\016\275M\232\031\276\036\356?<OC\316\276\234\253\226\275\377\302<>xTS\276\226k\031>\244\246\023=\276\346e\275\372;\000\274^\2762\275r\260\007\2768\340\370=\311IN\275\304\267e>\307\251\247\273\010`Y>:p\327\275\316\r\t\276*\261\350=\235\340\216\276o\026}\275\252\363\">\2044p<4\213s\276H\254\221\275wsJ\276\004\036\307\273O\001\356\275\352]1>}\303\274\275>\243\335=M\375\007>&\214\276=\217\246\204>\266\361\255\276\235\252\302\276~\275\242=\237\257(\276z\322\223\273OM\371\274;\2425={PB>\017oy\276\237\262\306\276\301\314\300\275\321\357\310\275y\204\000>\357\362V=\371\274\313\274\334\245\245>\325!\336=\277g\375\275\321\264\240\275YJ\013>\030\224v=e\002\263\276y\201!\273\331l\316\275L\026\312>\030R-=\340^\243\275\007\366\313=\210\256\226\276\336\232\223<\001\247:\276Y\\\014=\360\200K>m\024/>\366\t\215\276\272+5><\017Y\276*\222\027>\315\223|\275\301\336j\2758\374S\276\255\"\037\275\231)\t\276\342\3600;\233r\246=\023\341\034=\230\014=\276h>\271<r\364\343\275Ru\320\274\356\331H>B\014;>\220\n\220\275V\351\312=-\214\270>\226%\215\275\316E\241\275r{\337=\232\356\341=w\322\">S\314\233;\346\325\023\276\367J5>\3604\312\276\352^\021\276\022A\347\275(R\034\276q\225\237>\2757\305\276u\206\372\275\024\007]>i\017r=\235N\025\276uE\372=H\330\036\276m\225K\276r\257f>\371\250#:7\364\210\276\362\253\224\276\234Is>\177yV>\022\332\313\275\262!\327\275\273\236Y>\232\255\020>B\2269>\261!l>pE\276>\365_u\276K^\333\275\270\233\211\276\237\275\006>\010\262\026\276\245\220\367\272\357\364\220>\275\311u\275\244\003\360=\333\254h\276\351C\251>\263e\370\275X\006\263\276H*\211\2760\003\267\275qy\303\275\372\236M\276\016\2760\274\224q\227\275\334O\014\276DY\013>%\333\243>3\221!>\302\241\271\275\377\375\221\276Xq\025=N\221\323=\n\272\000>\337\307\331=\001\263\341\275\312\303\374\275\005|\241>\361Ur\2746\316\246\276\306\222Q>\307\336\177\276\250<\006\276\210\227 \276cD\270>\207{U\276\355\246\376=\275\246\246=\367\200\027\276@\261U<\261\330\270\2751\323O\274\340]*>\234\024$\275\301$\034>\242\t\230\275\316Jl\276\021\314\231=\271A\002\276\367\251+>\303i0>9\333K=\0140u=Q\263\030>\320\263b>7j\321\275w\007;\276\346\342.\276\304/9\276\206\365\235<\234c&\276\030\350\010>\241\250\262>9\312&\275\306\2778\276@u\374=\206\033\354\275\204\334\321=\201t\177=\270\365\256=\017+.>\014\350\014\274\345F\323\275\353,j<%=\233\276%(0\274\271\270\032\276\265\315\036>rp\337\275 d\202=\364\221 \276\226\342!\275\211\222\004>_\026o\276K\217\231\276\210\241Z\275\311>\375=$\364\210\276-$\223=\200\022\312<c\317^>\017[\224\275\223\373\301>\3028n\276\227<\210=\0201)\275\344\026\250\275\214\024\236>\273\375n\275Kd\253\275\326\354\200<l\376F>\311W\316\276\355\212\270>\031\246*>\246\354]=\236\033k\275A\370\200>\214\302\230>\203\271\204>_a\'=\305m\032\276\"\375\304>\362\257\307>\271\213j\275\006\356\026>c\'\244>\277\312\205=\347\370\224>\354&\247>\021\215\352\274\203\370\357=\373\030x>!\276-=\257\023\200<XFz\276\210\300\243\275\020\265\203\276\245\232B\276H\013\210\276\214\323d\275\375\225\250\276\036\222p==\262\240>R\352l>\237\235\034\276\215\302\010\275\017\342\017>\276\345T\276\263\330\344\275\274c\233\275\237\365\373=\016r\336\275\257\335\016>\007\274C> \376\007=\310L\301<\031\341F=nf\222>\204\2200\2759\245Q>\205\216\022\276\252\236R:G\265{\276\305\007*\276\267|\222\275\346\255z>\357\231+\276\261b\223=\370\024\020\2765E\205=q\353m=\270\242H\276\352w\220<\2101\221\275\210\363\364\275\207\362U\275\355W=>a\341\027\276\276\214\200\276d\215\273=\376xj\276\004\274\214>+\356\200\276\014\224\006>(\355\272\275\025\237n=\310\027\241\2759\213\303=\007\324i>zo\231\275\265\347\255>\221q9\276\316c\037=;\021Q<\r\036,\275Y\036\211>=\022)\274\207\036\351\275\214r%>\033\335K\276\310\311I\275!\377\250\276Q0i\275\022\243\024\276J\214\206>.\355}\276\307s\003\276\330\200\246\275\317/\357=\207v\270>h\010\321<^\240\324=\225\262d\274|\340\002>\340DF>S\220\035>\350\314\353\275\327`\355\274>\216u>\374\376\266>\342\231\334<\210}F>N\017=>\253EU> \002\250=\330\3378\276D\267S\276~\340\214<\312\320\002>\243,\273=\032~\210;Xm\323\274\372\372\\>\320\3714\271\351\241\355=\177\031\226\276}\272{\275\302b#\276D\343\247>\327\360\221\275\244~b=I\005\005\276\207\370o\276\342j\227\275\310\244k>S1]\276\327s\031>\216\320R>\276\032\020\275\243\221\323\275\257\302\205\275\316\014Z>\177\241\215\2765\375\231>/\342N=\037b\177\276O\2137>\032\224\034>6\207R\273\014to>\001\257_>\344$\000<%~\033\276\366\210\364\275\007\007\225<%.\221>\0148\266=I\362(\276\240U9\276\257Va>\210W|>k\221\237>\361\0346=4\250y>\236\303\256=\273\206\232=\3379\363\275\265p\223\274 \307\225\276\213\257\314\274\307\024\204\2753g\234=\376&f\276\262\257\032>\017\326D>\007\200\313\275\256;&\274\230\271\212=\357\021\213<\322\310\r=\000<#\275Wt\213\276\021\376\304=\217\2547>\332\177\031\276,\272G>\332\007\317<\264\004\263\276*\374\241\275\n(\030>Q\250\332=\020\333X>A\325 \275<\251\213>\370C\227=\316\223\214>=\376\206=\264\214\267\275\024\374\020>\024\211k>\255\242r=\334\t0\276\027\211\025\276\274\363\270\275\324F\201=\'\253R=\341\220\211>/\014\363<\370\305\260\275-c\007\276S\330\n>\320HI\275\353\330\005>n\345\260=\020\243M\275/$\321<o~\204>\377\277I\275\032\376F\276\264\037?>\022>\364\275%2\007>x\347\373=\006\377\326<]\207\030\276\246k\257=\001\240z\275\350T]\275H\260\215=.\232r\276\177O1>t\337\224>n8\026>`\027\005\275Y\352\204>\327\306V\273\351\276\245=\330\247\207\275MB4>\331y\031\276\340\021\272>\303$\027\276\245\2410>\230\376\023=\213\362\215<\300\306e<\223T\215\276GO%\276\036D\344=\264W\200\275\334\364_\275P\300 \275=#M<\266\355\375\275\324M\227\276\323\260N\274\361\3623=\220\315\013\276$V\326=\240]\330\274\331{\"\276\030\r\202>\321F[=\235*\303>\364\253D=\257#N>\010\010\244>\247\362\210=X\"\223\276J\336M>sa\r=\265\222r=\024.\220>\201~\242\276\255\244\215<-\005|\276K\214\037\276PW\360=\305\327/\276\361\243<=\354)\364<\243\374\255\276C\202M\276B\031`=4j\264\276\366\354D=1\2227\276!b\212\275\271\000\013=\375\003+\276\371\313\024>\thL=`\345\377=>\352{>dn\210\275\002\245\334=\271{D\276\320\374\230\275\014\3444>\230{\267=\355/\250\274\313\235H>a\202\001\275\345\311\004\274[\030\206\276,\344\215\276a\\\245\275\213\013_\276\377\300\204>\312r\232>W\033\327\275\335f\000>hV\220\274\315 &>H\3255\276\346R\274\276\376{\263\275\275=j>p\344\240\276\214\264\340\275\331~\243=\332\346g\276\323.\300=\024\316\212>\375\230\273\274\251\214\233\276(\204\004>&y\246\276\307\317!>\356\231{>\006C\224>4\327\202>\250\326\250\275\274\233\257\276\221\230\002>\353\277\222\275\234\363:\276}!\232\275\002\356\225<\253W\340\275\036\026P\275r\375w\276\233\270\332\274M\023\331=r8\007\276\325\234\203>a\003\322=t\305\312\275\364\217\234\275\213\240Q=\252\220\221\276+\222\'\276\021\004^>`5<>\307\\\264<\275\361\244>\035I\337=o\313\016\275^\320\177<@){>\005\353\262<\372S\203>\004\243H\275\322\037\266\275\215E\203\275\314\006\220\275VB\220>\340\036\327=n\"\013\276:p.\2767\256!>N\217\020\276\262\236\211=\224\225*\276\366P\204<:j\266=\247\"P>l?\377\274C_\016\276\241\240L>\256\346\261=\214t[\275p:\000\276\326\346}\276\332\\\">\343\376:>T\263\007\275z\334d>~@\273\276\340\225w>T\010\376<\367\267\241>y\317+>3^r\276\206\277\233>Q\346p\276x\327\243>\347\\A\275\007AQ>\246\326N\276x\371_\275\n(\366\275\273\234A\275\277K\336\275\217\010\277>aru=\306m\335<\\\227\230>\343\330\024\276H\226\'>7\2074\276\004\235\342\275j\t\205\275}f\247<t\275L>\'*\222\275.}#<!QU\276\254\337\207>\376\334\235\276z\237\177>>\230\213>\263\3140>\331\227\261\274B\235]\275S\343\000\276y\347\021>"
      }
    }
  }
}
node {
  name: "dense_1/bias"
  op: "Const"
  attr {
    key: "dtype"
    value {
      type: DT_FLOAT
    }
  }
  attr {
    key: "value"
    value {
      tensor {
        dtype: DT_FLOAT
        tensor_shape {
          dim {
            size: 64
          }
        }
        tensor_content: "\033\024\026<]\234\211:hM-\274\322\272/\274\330%=\274u\376\030<\263\353\022\274@\325\006;\006\357=\274\260\3512\274\246,(\274\377\350H\274n\305.<\024\360\016\274U R<Gg+\274\3104(\2744~.\2742\202E<@\342M<-\0002<\255\312\352;\301\376#\273%\273\254\272\022\010/</{\305\273dU\037<\212\"(\274\'\0279\274\321\343J\2744\332(\274\366\244?\273\353\030\037\274\333Q\021\274\276\004/<\014\352\330\273#\236A\274um\217;\230{/<N1&\274\227\242\306;Q\352>\274\212q\242\273f\252;\274\300q\023\274(n\027<H\333\'\274U\235E\274{\3522\274D\222=<0\324\353;\221$,\274\034H\032\274h\367\231\271!\2703\274\240\222\003<\376\326!<\372\305\026<\000\305\006<3\tE<\213\242#<\372\245\013\274\014\227<\274s\3179\274"
      }
    }
  }
}
node {
  name: "dense_1/MatMul/ReadVariableOp"
  op: "Identity"
  input: "dense_1/kernel"
  attr {
    key: "T"
    value {
      type: DT_FLOAT
    }
  }
}
node {
  name: "dense_1/MatMul"
  op: "MatMul"
  input: "dense/Tanh"
  input: "dense_1/MatMul/ReadVariableOp"
  attr {
    key: "T"
    value {
      type: DT_FLOAT
    }
  }
  attr {
    key: "transpose_a"
    value {
      b: false
    }
  }
  attr {
    key: "transpose_b"
    value {
      b: false
    }
  }
}
node {
  name: "dense_1/BiasAdd/ReadVariableOp"
  op: "Identity"
  input: "dense_1/bias"
  attr {
    key: "T"
    value {
      type: DT_FLOAT
    }
  }
}
node {
  name: "dense_1/BiasAdd"
  op: "BiasAdd"
  input: "dense_1/MatMul"
  input: "dense_1/BiasAdd/ReadVariableOp"
  attr {
    key: "T"
    value {
      type: DT_FLOAT
    }
  }
  attr {
    key: "data_format"
    value {
      s: "NHWC"
    }
  }
}
node {
  name: "dense_1/Relu"
  op: "Relu"
  input: "dense_1/BiasAdd"
  attr {
    key: "T"
    value {
      type: DT_FLOAT
    }
  }
}
node {
  name: "dense_2/kernel"
  op: "Const"
  attr {
    key: "dtype"
    value {
      type: DT_FLOAT
    }
  }
  attr {
    key: "value"
    value {
      tensor {
        dtype: DT_FLOAT
        tensor_shape {
          dim {
            size: 64
          }
          dim {
            size: 64
          }
        }
        tensor_content: "\r\002\355=/f*\276\376v\211\276\027Q\013=\3236\220\275yW<\273\364c\224=\200E\231\274\'\246\027=J\272u\275\345\300\264=\301\205K\275\253q\232<t\251\324\275P[\000>\302\274\024>\n\017\t>\367RB\276\373\226\251\275\260\003\260\276\211sg\276\271*\350=\214@\237\275\242\241\320<\007,G\276fT\272<\246t\272>{\204\205=\315U\343\275\256\216q>l\337o=St\270>\233\252\203>\\\201==\236^W\276\016\372@\276>\030/>\267x\347=\235\367|>\243r\200\276y\265y\274\211\260\255\275\010ub\275\014\010\260=m\247j>\351\254\347\274\0101\220\275\266a,\276\036\222\220\276\2770e\276\211\337\226\276Dn\377=\226F\354;AYW\274\273\003\n=\311\377\300=\307\215\236>tMw>yj\362:\346\301\030>\347\262\001>I#i>,\372\354\275\241tC\276\344\211\366<4)\344\274\317\212\342=\\\331\237>7\266\303\275\000\331\257>\313\177\217\275\364\'.>\244\376\374\274\345S\314\274;\202\214\275\235c#=\256`\004>\260W8\274\342\270Y\276\277\027\375\274l\327\257>P\017\201>\243x$>\263\307\204\276f\307\216>\237v\221\274\216,\022>\224\271\260\273\261\243P>;\313\342\274>l2\276/F\315=\212\222X=\371\004\204>\236A<\276\322\031\320\275H2\262=:\323\277=\366L\272=l\342\230\275-U\230\276w\272\213\275\221\255\004>\021\211\335\275\034p\273<*\242R\276\022\211~=&\257\007\276\263$\261\275;}\264<bJL\276\247\303\006\276a\005^;\365\365\305\275\214\262H\276\r\262\341;\350\234G\275r\034\212>(\225\377\274AY>\276\006\020\222\272fj\000>j\304w=e\316!\275\250u\260\276\353l\223\275U\226\030\276\343`\236\275\270\005Z\275+{R>@\327\216=\351c\364=\306\324r<\270F1=\211\033\306<\207B\267\276\262\336\272\275|vu<\330\204\306>\177\236\002>\033\235\207>\r\353u\276\031 \024>\016\237(;,\320\262\276\301W\000\276\001\033\260<5\006\017>\337\222\223\2756\244\001>\252}`>\263\317\272>J\325(\275\030\316\256=\177\201n\274,\037\226=\265\2500<Cn\254\275\307\t\241\276g2\263>\354\2700;!;\306\275\237++\276}l\206\276Y\262\310\276\005\022a<R\311\363\275\256\255\034>\344\237\270\2752\004\216\276N.\"\276<\315,\276\r\364+>\376\360=\275sOG>W\024\244>\347O9\276\014f@\276\033\304\325=-\326S\274t\220\266\276KU\320\274kqW\276L\034\221>\203|\256\275[Q5\276\276\030\306\275\357\374\251=\271\222\033>\222B\277\276\306\366\255\275v\001\022\276O\334\354=\017K\261\275\035k\374=\353:C>\317B\"\276\362\221\220>p\241\'>\220\217\313\275G\233K=\345\201\371=$+\231\276\275\\\205\276z\275\245= \021\215\275\312\361\034\275\254\200\313\275\223\273\204=\260|\023>M\3550>.\322\211\274\334-\353\2751\027\200=\274\230\310\275\243!\216\276Z\331\332\275\013\325I\275\345\376\177\275\306\231\254\274\3468\252>\034O\035>x\255H>`\'\200\276;Dj=hb\037>\357\254\247\276\264\256\034\274\301j\210\275]\016\020\276\016A\303=\231\032\322=@u?=\257\267+>\264\261\352=\240\224\267<y\032\332\275\367_\024<I\312\337\273\257_\265=!\366\267=\354\305~>]\306G>\276\037d>\211\347\254\275\275\006j\275\221\244\225=\2328\r>X\251\243\275\311\307m\276\031\331\350;\330V\254=G\322 >{R3=\313\265F>\237gv=\336\3622\276Ns\226>\277\330\247>U\027\277\275\242\356\224\276\240\336\n\276\343\363t\276\362\252\034\276\256\213\027\276V\200\257\275\010\317:\275\2653\000>\276r_>\213.a=\346\360[>`oT\273\031\n\232\275L\366P>\325I\252>@\"\230\276\263\327\306\276lV\345=\347\023\241=\0341\250\275\005\344F>\226 \236<F\332\303\272\304\006\021\2766h\277=O\220>>[\3642>V-\250\275$!\203\276B\363\033\276tT\314>?s7>Ot\306\276\033X\276\275\321\221\231>^\306\020\275\241*\211=\302uO\276\203\t\343\274\335\332e>\274\347\022\276\000o\275>\224\222\014>X\354?>(\205\203=\373L\222\276\215\330\021\275\335j\010\276BG\357=\215\026\210<O\r\345=\241]\217\276\035[\216\275sR*\275Y\377V\276( \364\274\030\257I\276\242\371\203\275\262\252\236\273\354z\032\276\004!\212>\321\355\035>a\354\356\275\326\220\222\276\301\200\233\274\255\317Q>\225yS<\200\277\001\276\252\367\003\276Ja\252<(\3075>_O\261\276\371\236}=\"\245(\276\272\210\200\275C\367Q\276\260\203|\276 \226[>\215\002\331\275%\330\335= \3441>\361\211\262\276\003\350\373\275#\216\027<J\213\246=\270\205\027\276\272\214\265\2758\236\324\275\302Tk\275\204\306\">\001\2560\275FQ\213>\274\247\203>\314a\217\275\261q\206=\344\310\205>\2124c\276\256\237\014\276|\n\203=P\037}\276#\021\311\275\314% \276\327T\010\275\037\214\255>\357\225;\275>\227g\276\230J7>\364\250\214\274\310\317A>\027\270\243;\307\206\220\276\006\361e\275\321SN=\035\337\224\275K\325\211>\341\240\267;\324hV>_Mj\275\312\010l=\225\207\221=\263o\325\275}\303\340=k\031\350\274\021b\356=\243l@>j}\217>\357\3220>\304\231\214>\363\340\237>\347N\352\275\317\005\323\275\"\232\351=\345\314%>f\014\237=L\350\274\275J2\226=\312\024\223>\003\035\233=w\374\334\274-h\216>Y N=\\|n=:\211\027\275\331\232:\276\020\326\244\273(h\236>|BB\275\210o\324=X\262\365\272\335d\224<\353\270\313\274Zu\005\276\033\234\270>\367\310\221\274+;H=\276\274\366=;\250\223\275\242a\207>&\352\204>\243\303\217>\004\026\204\275\204v\004>\202\374\265\275\257k\003>\371\320\304\274\r\252\344=\2325W>\243\223\337\275kh\323=\253\300\260\276Dk\273=\022\316\366=\340\237*=jud<\347\002\336;\\\375l>,-\t\275\222C\020>a,\266=a< >\215\340<\275\303\204\223=o\016\030;#}\244\275\374\211\002\275\223\n\022>\243\025\310>t\262\236\274\273\002\321=\224:\356\273B\376!=\205XL\276\007YZ>\304\213\032\276#\356%\274c\300y\276n?\253>\372Y\242\276\374K\202\276\301\224A=\222\021\243>OmF>\206\271\013=\314\252\222>\214}_\275\310D\021=t\224\367=\357\351[\274!\313\276;)\013\273>\222i\257<Ya\t\276F\364\361<\262m\352\275\257\354#\275\350\262\226\276*HH>yg\254\275\253\344\034\275\300\311\021>\363yM=f\360O\276\031\204\270\276\001\224\253=`\026z\275\274b\251=e\363->l\225\033\275/\207z\275QS\212\276)\301\332=\273\000\216\276\310\\/\276\321\335\'\275\245_+\276 \007\007:r]6=\324$\304<\257\271\333\275\2318\031\276\200\003;\276*\3442=\251,\204>\212\370\320<\215~\272>kb\374;_r\256\275v<n>\017\225\230\276\000\006D>\003\202\201=\245\014\255\274D\030h\276\273\346\352=n\375\201\276\216p\215;;\014\306\275H\303\306;s\025]\276\326X\263;\225*w\276DRV=\025\221>\274\272\317\261\275r\375\025>\220\273\034\276yjN>\035\035\227\275\245\215(>\036\210\025>\314\345\304<>\014\006\275\001\335\013=\007\027\352\275TH\037;W\232\230\276OG\227=#\270\007>\273F\233>\023I<\276\243~:>\254|a=\332\373&\276\207\274\020\276\221;\300\275\235\213-\276\261\330\202>\243z\014\276\r\232s\2761T\204\276,c8>P\320D>q\301q>;*`=\357\375\366\275\317\337\013>\316\000\214>\024:\014\276>\351\274\276\021VL=\020:u\276\260)\005;\335T\201>\n=h>\355?+>\225]\266\275\342\356\312>\242`\271\276\212\033\246\275\031\304f\2761\227,\276l\276\242\275\344-H;\300\007Z<}-\363\275\020\221\237\2752\330@\276*\320)\276s\\f\276,\021\242;\230\213\201\274l\300o\276\033=O>\327;q>\354y0\276\226}\003>B\034y\276\023]\213>$J\330=\332\344=\276*j\226\276\024 \341\275\315b\303\275\304t\374=@\356\022\276\332\337\257>=vs>=\236\223>E\t\005\275\334\314D\275\324\032\203\274\220\337/\276\302\\\346=\310]\032>\222Y^\275\030\305\233\275F7x=D\327\223\276C\034\221>v\225I\275>v\003\275\202\3511=\247\370r\276\032\2463>-\211T>?\355\256>X\202O>\245\255\n<\266\376<\276:F|\276\350\247\215<\227f=>8\303\205\276\263I\211\275\350\351%>O\017\277=\210\346\007\2764F\017>#\241\025\276\343\214V>\n\334\253=\374\240\260>\212\2702\276\364\335\221\275\231\213\230\275\360\230\237=\377\322\366\275^\366\212\276#\277\264\275\374\177\376\272\t\'P\276\231\212U\276\20506>\361-\014>)\255\260=tT\353\275ttF=D\263+\272\364\204\210\275\307\316\263=\237[\370=&\312i\276R\304\033>mX\212=\204\365S\276\202\312\354=bX\261;\207W\267\276\"r\377\275H.\275>\241\206\266\275\276\332\317\2757\033\242>|\033D\276\343r\r>;D\005>q\315\356\274\255\'\245>\375k\005=\031\006x\275%\313\242<GX\312>\315\007\243=V*\301>(\375\006\275\241x\031>\023\306W\275\220\204G\276)\250Y=I\301h>V\013=\276}\0361=\013\001\306\275v\177\335=`\323N>\250,\273=nB\246\276)\005@>\243\333\355=z!+\276\223\327@\274\274\353+=L\372\254>pe\004<qeW>\246\261\241\275\013h\347=c_\302>/\243\232\2751\nT>}#\236>\002\217{\275V&6>\325\344 \276\"\300\253\276\370aj\276\3620\010=\245\353\202\275\3134\362=Q\010\307\275\216)\246\274\270\016\312=y\202\226\2750\364\215>N\014\206\276\326\003\030\276x\332\224>\270!\307\275\255\033\215\275\031\221\216\276\277W3\275\014j,\276\237\364\030\274\t\014c\276\305\232\010\274\237\235\027>\n\373\010>\262M\263=\270~@\276\270\247\307\275\333\255\242=S\215\222\276\322\344`\275b&B>.\256\231>\202\357\265=\006\016\356\274\251\320z\276\251\237\031>\221.R\276\017`z\276\006\350\205>\314EA\276v,A\276\013B\202>\350\202\267\275\3776\201\276\034\0042\275\274\357\202>C\177\215\276\362\013\201=-C\211=\245\365\313\2767F=\276\200\275\007>g\267\250>\nh\200\276\013\350\223>jNX\276KKx\276\360\020?\276\256\337\"\276\036S\005>\262^,=\rS\346\274\240_B=,\354!\275\355\372\272>k\264X>\237\260\000=B\022\236\276F\324\"=O\360\226=\230N\212>\306\"\022>\307\337\251>\341\241\360<u$p=\267]\223\275Nt\207>@\265%\274\351\363W\275M\023\210=\004(\223=\007\025\346\275G\t\240=\010*\205=\366\017\350\275)p\327=\203K\366=\300\367\014=N\3351>\231\004\324=\307^\026\275)\241b=LM\213\273\215__>\320{\236=\207\027M\276\014\302\266=\266\347F\276ii\257\276\223Z\221>=\275\027\276\237\235\316\275ps\373\275y*n\275b\324X\276\377qF\276U\215S\275\346\344\204=\234\017\226\276xX\007\275\330\276\270\276;\014\203>\307\036/\276\270$\312\276\303Z\375<\017\032E\276c\331\243\276\366f\246\275\271:\301>\303\213\277>\210\\D>\222/\242\276\2359\311>\007K\336\275\244.\221\275\242\207\352\275\324\353\217\276\322\273\301\276Q\232;>\\c(\276\'t\314\275L\376)\275\254\337\206<X,\276\275\220\272\255\276E4\231\275\374\345\020\276v\010J;\350\031\033>\234\305Q=\032\357\217=U\212k\274\324\274`>O\377\245\275\005\033\365=\313\362H\275\327\266\210=S\242$\276\276\313\253\276\377\344o=\327\344\301\276\024e\313=\302\347n>\340\355\233\276\373\003\'>a2<\275\277\202Y\276s\256c>xJ\224\276\004Hn\276\370\312n7Az\205>\014$\347=\312\354w>\206\003\202>\014\374\236==\330\276=\223\307\202\276\351\327\003>\306\262\271=\006\032\375\274\231\242\341\27594\030\275d\004\\=\023K\304\276\t\023\030>\203\256[\275U.\272\275\246P\335\274R\177\213>\326%\322=m\321\266\275,<\021>laJ\276\3234\356\275\206]A=\32098\276\371\3610\276\337\301c>\023K\216\275\362\373\370=\206\270\345=\337\351c\276\r\336\311>\350\275\240\276U\016a>\202\335s\276\267\323e=\3650J\276AP\014>\242\322\022\276\313t\262>\355\333\253\275\0103 >}C\251\274\221]\272>K\361\262=\222Ni=\266|{>/\371\377=Vn\216\276\334\371\203\276`l\025>Hf6\276.v\235>\373\353\214>\347\301\264=3\3563\276\320}F<7\231\016\276\366I\265\276\254\302\252>\002\304}>\245\363(=\355\254\024\276y\342\033\276\2166\303=\222k\301\275\361\362n\275\261\342g\275\\\346\202=\0259`:bdj\274I\214\345=\304\247\314=\312\237^\276\036\031\017\274I\240\302\274\242\357\017\276z/\237\276\342e\211\275\331\364\236\276\3061\263;\017wm=\330\213\353=1\n\213\276\020\237\002\275\313L\212>\236\326V\276Yy\201\276\027\257\243>#\237:>lkY=\312\247U>]B\205\275\275\376\031>xK\222\276ab\356\275\034\320\276\275\312\247\273=\352\371\361=\303\026L\275\330d\316\2759\221_\276\r\313\336=n\005p:\275\030\273\276\234,\203\275\035\360\265>\303B\310\275\222\362\266>\341\251\364=\260C!\276\023\255M\276\310\367\226\276tp\304=\210E\200\276\267\324\034>\310\307@\276\300\362\314<H\334B\274\005\243\355<@\373;>\260X\260=\022k\212=\257\006\231\276\302\234$>\212\204f>\320U\014>\200\242X\276T\307->`\234\024\275\032\266\014\276\203\231*\274\237\342\262=:\351\n\276K\363]\276\031\376\323\274\303\334\377<W\311\344=\354\265X\276\001\377\036\276k\306R=_\374\234>\220u\032>\007s\271>\212\354o>\370\r<;\006\201\315>\305E\225\275\326\0243>\301\017\227=\356\325\010;\336\267\306\276;\311\"<\377\363/\275\235\240\276=`LU=Ko\003\276 \232-\275`\271\216=b\273a=\353\252$>\256&X>\206\236\221\275\270\346\222==u\232>\313\221\225\275\027B&=\035\360(\276\326]L\276\257\276\200>G\335.>\026c\327\274\021S\014>]\241\232\275\033\242\275>\\\327L<k\235\267\276H\316\231\275\177s\213\276\325\200\262\274fO\301=\272\214#>\205\027\221\276\235\374b=\013\377\024>\027\2326\275\363\234\027>\246\305\205\275}1\221\274\033%m>sY\204>&\204\017\2757Z\211>\024\260\243\273>;r>|\203\243\276\353b\247\273\261\222\264\274\022\270 >J\006g\274t\361\336\274\336`C>\035\017\231<`\322\244>0-\213\275\335\206O\276\326\243g>\022\001\010>\004\356\004>\205\347)\2767d\245\275\251\245\214>\277\265r\276J\326\002\275i\333\235\275\220\344\222\274\202\333\256;h\1771>\0366\207\275zZ\001\276g\037\200>\027\377\204>\037r5>\226\003\304<\226h\375=H\371=\276q\252\231\274>\354\275\275\334\245>>{\360\270\276n\324^>\212t$>\205C\254>\212\353x\276-\367n\276q\374]\276\375?\374=k\242\311\275K\311\010\276\303-\226\274\236\373\210>\273u+\276\014S\021=\257k\301=\177?|>\340\212\370=\006\240i>Ds\255=GE_>\245\374\247\276~\031\t\276u\"\035\276\361\273.>V\322N\276k\236\002\276}\222\224>\000\357\232>\3746\262>\264\352\313=\212\326\322=b\340\013>5\355\225=L\"\251\275\353#\232>\315s\356<\2451/>X\241\"\276\234\016\220>9\342\247\275!S\227\276r\367\251>\352\006{\275\376\002\223>}\322\204=#R\t=O\325\013>\373y0\276\321\326$\276SW\376=J\3461>\030\200z\276N\307\262=U\026\006\276\236\211\267\276\031\250g\276\334E\336\275\207\247\250\275D\031{\276\202\000\220\276\354\343L>.c\201=\251\262\235=\275WF\276\350\327?>\005\005\274>\035\354=>\340\226W>\\}\010=\025\330\220<\224r\220>\372sk=y\325\230>{~.>\270\270\241=\275\216^\274y8!>\204\203\227\276\312r\274\272J*\244\275\2345p\274\266\216\233<\3071\350\275\365\206\353\275\252\014\230\276\352Lf>\004\0215\275\334\037\025>\222\322d<0\234G\276\330\231\320\275\305\256\357\275\310\347\375<o\254K\276\346\360\221\275\302\"\252>\350\277w=E\325\010=\317\250-=k%\020\276\307\261O\275\327l\006\275\306\316\013\274\331\332\301\275\256\324\202\276\300C\317\273\332;\316\274Y\370z=\265\020)\276\237\222\263>59!>\222\216B>\367\035\265\271d\327\004\274&\257}>q\331\010\276N\261\231>\3250\200<\343\214\024>\347z)\275X\'\372\275\204\333\213\274;54\276\227x\014=D\022\004>p#\034>4\362\343=\332|#\276\243Bk\276((;\274\224`\256>\\\353o\274\035\275M>\370\020Q>\366\200$\276\031\376\032\276U\320\222=\3223\202=\207\030\200\276-\030\307\275\304\236\233\276\257X >\2344\275\272!\030>>\3425\036>:%A\276\340x\213=%gY<\377t\311\275\032\243\026>\226/\223=\035\236\212=\366C\204\276X\255e=\2022\020\276\274E\032=\0141w;b\225\207>\265E\331\275\351U\223=\300\233\324\275@q\362\275\216;\226>h\221\033>\371\225\345\275rt\211\275b\301\205<\260+\224>\207E\004\274V\207J>\326z\215\276\312=\276<\2649{\276l\215\004>\356i\014\276U( \276\335P\263\276\207\r\323<\304\000\021\276\357\357\337=\007\013\227>\233m\032>l\342\265\27598Z\276\213\177\260>\020\255\317>\373\014\260<\017p>\275\2413\304=\302\033\210=\234k\300>_T\003\276X?@\276\364P\033\276\350\224\257<U\301|>\351\377b\276<\276i>dU\350\275\327\250Q\276\273\264\202\276\375*9\276\222=\206=\2272\036>\204\374b\275\027\233,\275c\303\204\274J\266/\276#\313\323\275\025\1776\276X\032\206\276Z\361\307<\177\241*=\377\300H>(\306\232\275\336?(=\261\243\362=B45\276T\272\324\275/l\025\275\322=\220>}\024\035\275\t\021\315<[\006\222\276\277\nm\275ng\326=\000>\216>\242\222q\275/G\266\274E\346\275\273pE\375=\3556,>8g\031=\266\217\207=iv\357\275\032X\210\276L\001\370=k\255N>\270\320:>)C,\276\363\361\277=\355\341P\276\251g\200=\310\033J\276bj\230>R\217\t>)\326->\234\306<=h\222\343\273\330\300\027>\\\220o\276S\340;=_\361\260>\265\202\236\276)\331\257=\t\t6\276[$2\273\352\'J\276\016 ]>B!\222\276I\205y>tH\213>\271\247\004>\017W\216>\000\371\201>\261\354\375\275G\356\204=r0\233\275\364\276\310\275\236\232\213>\270W\332=~\327S\276u\031\014>\340\243*\276>\3370\276\\\260\362=z\363\231\276\035\026\t>\203j\030\276H\367\264\276\317\266\210=b\375U\275\315\230\273\276\241L\240>b\315U=\007\2661=\316\326\304=\227\025\317\275\212\225\373=\346lf\275\261!\003=\212v\210\275x\257\345\274t\0362\276\314\253 >w\2604\274=\263\224\274i\004\367=p\210Z=\336\363\272\275\263\310\017=\326A\313\275\220y\272\275\315\374g>\'X\230\275\026\003\225\275\327j\224=v\276^>~\340$\275\024\311\037>\240\304X>\023\276\226>\346&\226<\026\245\177\274O\004\305\276?#8\276\240\245d\275\023\222*>%\031\327=\213\343@\276\354\235\204=\333aY\276ko\370=\021\223\r\276\333\364\312\2759\377\005\276=n\003\275K\254G>s\352\022>\211\201\345\274\227$\035>\307\225\323=\375z`>J\351G\275\346\025\347<\272.)\273\021\352\372=$\246\211<z\222|=\010Op>\334\300a>6;\236\274\342\263\367\275\232E\016>\200\265\255\276\246^\377=\260\345^<\361\"A\274O\270\234>Fy\271=\030\342\207:`1V\274\270\023\225<\210\231\303=\234\315\266\275\\\3025\275~6S>\330\307:=\227+\337;/Y\277>\264\214l<Ce\267=\177\312|\276D\033?>\013~\306>&\373\024>\271\177\214>@5\n>\245\357\365=\354\362]\275WZ\212<w#\257>\231\013f>N%s\276B\024\"<\303\033\014>\322\266\237\275\337\356\333=\024\273\336=@O\016>\016s\265\276\031\276\031>\345\2239\276\274]\022\276\202<N\276\323\221r\27686\242\273\021\236\203<\2438]\276\370<s\275\031\036\253=\360(l\275\213>\240>V\353\030>?\244v=r\026\272>-\322\230>\214\263N\276\217\257\344\275<\252\010\276\0315n>\226\310:\276\213:\273=]\240\276\275\213\255\262>(\340\017\276%\024\235>\266\312\372\274P\337\334\275\265\266\352<,\203J=\253i\022>\r6_>\327\216\025\276`\033\305\276+\2758<\225e\220\275\366Y\253>\305\337w\275W\201\233\275^\227\205>\217<\205=:,\003\276\0073\237=\007\224\311\275\307\304\362\274\374\377t;%\253\001\276\322|W\275jL\330\275\362\264!= *\272>r-\r\276\215|e\276\2128\236\276&\"\376\274\374\003\017\276\332S\220=\202\030\244\276\333L\262\275|\315\230>\310!\307\275\234\361\373<q\004\240>\332\344\211\275V\376^>\260t\211>Dq]\274\370\031C\274\346\343g\276f\246b\275\325\374\303\276\222X\210\276y\217@\275\223nU\275\251J\266\274\271F\037\274T\337\233=o4\301\274\270\270p\276`VC>X\304\036>L\001\t\273lB7>\375\266;\275\t\271\244\276\3058\221=\271\354\206=%!\371\274\036\264\242=|p=>Z?\000=c\331\r>w+n>#\267\331\275kG\013> $\n;\203\234\240\276\\\017\210\276\250B\022>\023\255\305>\226\372L\275\214\334\335=\312?\256>\305T\216\276\273|\t\276.\302p>@l\224\275\373\310j\275*\273\231\276S2\240>\232\346\037\2767\214\242\275\037\301\026\274\226\273\352=`\"\302=\010H0>.\366\357\275\003\330\320\274\233\264\321\275sm\351=&mQ>\217\240\362<\316\2450\276\252\t&\2766T0>\273\016\267>)\3504\275\330\322\374\275\233\273l\274R)\222\276\200\354v>\005\357\360\274\024\3377=_TW>\341\030S\276\312{I<A\216\345=\332\316\247\276\207\032\031\276\026\274X>WPD>\226\274w=<\311\324\275V\216\232\275\325M\270>R\216\">\221>\247=\362\333\\\276\261|\330=\376\017i<\210?\344\273\232\371\265\276\005\324=\276i\267c>\332.\261>\220\321\032\275\235\2263=[\220\207\276%|\332\274\237\344N>\274^?\276~\264\314\276\351\217\311\273\245\331u=8\017\">\323\\\314>1u\312\274\255\356\206>\374<\214>Q\352U\276@\344\357\275\334\255\354<\220\366Q\275\002\030\273>\245\261\305<M\010d<\000\312\266<\306\361\270\275\205J\364=\031\347\354\274\370N/>\006\347\314=*0\202\276\025\271\336=\220\253\036>\014\252M\275BI\310\275A\263\307<\024\323\212>\337\255p\276\002y\232>\216\233\002\275\010]:\275\207\013\253=\n\351X\276\351\223\322\275TN\037\276q\250N\275\310X\245=\260\"\236\275KqE\276\372=2>\213\350\200\275\314c\035\2758vn>~\323\005\276\270a\241=\3244\370=\316f9\276\266\310v>\270*\031\276\230\330\200\276\312p`> \366\267>1M.\276\211wM\274\241\221\231>\367Zf=5\344\244\276}S6\276\241\266l>\241\226\311=\363\213]\274\023\037T\276\270\306\375=E2q>JTN\2750\357G\276b)\225\275\034A0\275\233\214\256=X46=\021mK>\332\243|\274\354\252\\\276\034K`<\2062\234\275\242\203\025\276%v\252\275\020C\220\276Z\0053\276\202\256/>V\364\036\276\"\244x>L\354\033>`\247\204>\200\0145>\371\215\347\274\366\305\036>:\235\320\276r\032t>V\212\307\274\307{\007>G\226\211>\336?K>>,r=\030\261\270<\222i.>\322\373\260=\r-\034>7vm<\"73\276\371w\\\276:#\262=\355#\357\275+t\310<z6\374;\200\327\013\275\326\364E>D{\254\275\216\177\375\275\023\221\'>f\002\227\276$\303\377\275\337m\274\276\350\343\025>O\214x\276\370\\\307\275\203\324\357\275\337\263\021>\205\227\233>\246\350\310=F\027\205\275\251\r_\275\007.\205=\261\221\034=q6n\276\'\303\306\275w0A=>\276/>.\353\024\276\326H\256\275z\032*=\352\322\014\276\271 )\276x\020%\276\207\253.\275G\225\261=g\225v\275]\303\314=&\313\226>V\265R>\214J\235\276\311\022B=8b\334=Z\274\212\276x\323\'<\006t\256\276\217\224\032=k\202\264=\365{l=Vg\217>G\267o\276\307~n\275iG\333<\270\324\263\276O\350\272>\324\261>\2766\317\024>\357bm\275\332[O\276\034\320\001>\022\203\357=\365\240\224\276s\262;=\266F&>\365{\303<\374\313Q\276k@\000\275e\007\223:\020\245\217>\017\227\026==L\204\275\360P\357\2758\\7=;F\215\276\333\232I\275\327_\200\276\"\247\211=\370\014\201\275\341\300\206\275\364D\370;\2656n\274\374\302\220>\311\255\251\273\363\376\331=0\225\n\276\377\205\275\276\321\273<\276\014\023\266\276\203\227\256=\\\231\200\275\277(Y>`\366\365\274\024wD\276R\032\220\275\212e\327=\233\304\r\276>\256\251\275So\014>\n\335\242\275\345\343{\275\336\232M\276\214\007\247\274S\334\244\276\'\274\272=.I\033\275O\252\322\275X\0143\275T\265\247>\312q\203<U\273\025\276\322\212s</\375\215\274\244\245\323\274j\3073>\253\312$=\376L\337\275\331\244\271<\'.O>\202\272\303\275\225\274\270\276\"T\246\276cm\324\274b\371[=\007M\266\276\315F-=\267\230\215\276\226a\200\275O\221\235>\201D\345\275H\256\200\274\271\371\026\276x\036\362\274\005\264\246\275\226\247\t\276\335\245\242>\000\322\212>\230O\225>`\306\266>\037\376\317\2752\352\004\276\243\225\203\276\226\270\277\276\327\320\324\275\325\243\235\276\235\001\021>\031F\204\276G\221l\275]_+>\030\271@\275\320\372\256\275\332\220\030\276Tu\265\276\230\244\025\275|H\230\275\222B\003>\223\205\263>j\266P:\360\332\312\2754\210,\275\276\335l\276;\240\200>$a\277=\027\036;\276\300I\217=b\215\266\275S\314\020>\374\220\222>CE\232>g\216@>\303\353\"\276C5\214\276\363\377\317\275\253\022Y\275+/\320;Z\254\007\276\006\030z\276\204\017\250>\207\365>>8\301\371=-\316&<\371_3>\365\253\261\275\232q\310>\211Wv\276A\307\216=?\311\324;\2301\271\276\247\347\332\274\232/q>\3415\277>\326\273\345=\325\370\274=5S\366\275?\270B\276g(p\276\270T\347=\231\340\027\276\341\222\242>\225\336B>t\276\'<\271\311\272\273Q\230j\276\343\3532=\236\351n\276D\344\265\275\211\277\355=\203\215\034>\356\2669>o\274\350\275\2757\271\275\224\001j=\353\2279\2764\177Z=2\036d\274\031\311\310=\2020\232\276\216jw>\027R\367\275\253z\235;\020\201\212=\304\364\224>dET>\302mZ\276\251\307H=\005\351\335\275\322\224\021\276\267\006\266>t\007\007\276\220Y\271=\307\027\006;E\246\001>\013\221\002>\017\273\275\275\373\235\231\275i\256k\275\342\266\356<\241\257\237\274\327\016\242\276\252\266\025>\014\252?\2767|\232\275H\260_>\037\031\213<\347`\240\276\1774\253>\035\026\247\276\217\232\341;\0054\r\276P\316\230\276\342\320/\276\203\314%=\201R\210\275\224|V>\365\265\202==\236V=\332m\177>\0249\205\276\220\030\270>\373\335\373\274V\2368\276w\355\001\276\275\010\265>\270\347\265>\027f\235=\306\031\177>hE\020>\340\2611>1q\370==!x=E\324\037>\207yY>\375\301\321=i\216b\275k\257;=\006\371Z\275\326}g\276\035z\221>z\220\205>m\202\336\275\332\233\247\275\200r=;\364\251\010>\377\266X\276\330-\317=\262\334K=\274\272<>\244lO=\234\211\263\273t\356\235;\005\236\273=\345\330Q>\365\237t\276\036\265\'\274\300\211\235\276\337O\016>2\352\032\276B\1779=\017Qu\2761\032\260>\020\375g>?\245+=\324\264m\275\215\336\310\275\315\251\377=\211\377V\276\216\362_>\314.l>\237\276%\274 \240\200\274x\276\016>i\340L>\010Hx\273LK\021\274\201\315.>\2166\345=b\030{>o\332 >\034IA>\031\365\244=)g\177>\026@\237\275\321\032d=\226\236Z\276$\357\232>\312\371\257\275:q\313\275\356\276*\276\341#\203\276;\227\212\275\000\343\210>u\2430>\316\016\234>\357\342\023\276\257N\020>\305\247\263>\0100\200>\0035\225<I.\341\275\221\250\302\276\260\037c<\235\302\214=\233\'\247\275}\327\245=\240\005\001\276\036)\371=\373=\367<\301JQ=C\020\025\275\304\241I\276q\351\224=\232\266\225>\220/.;\230\353\235=\301\2743>\250\276\373=\2365$\274\334M1>2\215,\275\241J\007>\264\274\265\274\351G\010\275\303\202&\2763(\"\276\230Qi\276\227|\206>\225\310\243\276\220\262\">\337\260\'>M\243C>\222\325\335=Zc]\274\331\375\223\275\306\236\266<\233\010\340=\371\222\350\275\035\331\026\276\255\312\036>.\325\300=GRP\276\223\246g\276\335-a\276N\365\260=\007\370\254=\022\255\231;\311T\240>\000\322\256>\251\007\242\276\225\274d>\317\016T\276\343}\326=\330\311\332\273\277j\225=\006b2\276\022\035\'\276\004\320Y\276\245\321g\274E\246\251>\363\037\353\275Dy_\276*\235w\276R\r\032=\346\351\343\274!5\006\275>P,>\213&c>E\357\321\275\337\271e\275s\320\274>l\017\312;\307\013H=\352F\303\276\2365i\276\353w\361\275\276\340\332\2757\200d>\001\336Z\2766\352]>7\322T\274|\024_\276\007\231\242=\240\"\226\276+r\375\275\301\344\317=\n\022\336\274[\024:\275M!\375=\2464\270\274\342\335a\275\350,\030\276&?\253>\006\352_\276\346\240\003=\006\376e=\216\030\221=~\031\301\275-<\001>\353\177\240=\313\330\244\275\342%\214=\013\255\260\276\252\025m\276\273\206\306\276\037\010\227=\246\331\254=\337y\337\275ZR\233>\213\000\177\276\237C\264\275 \241[=\\\002a= d\216>A\350A\276O=\230\273\277\327\257>\321\260\002>\3357\270\276\342\215\207=Q\260\237=\303\253\206>A\216\270=\210\302:\276\305\344k>/|\022\276\251\273\345\275\020\304K>:\237a=-\232\310=\005\321J\275\261\223\342\275j\033u\276\341l\340\275\371&\206\274\353\204 \276\034U\'=\356\355\017\276\317\200.>\312\016\007>\261v\232=\311\233H>\222\356\241>\213r\302<Y\212\002\275u|\204=(\347.\276\245iW>p\326\230>\320\247{\276\305\3306\276\347y\030\275BF\322\2751\2659>\227\0279>2\"\321=\311\247\363\275\206\030\224\276/\343T\276\236\205{>rB\261\276\026\360S\275,\264H\275\210\241W\274b\325t<\t]0\275\254\320K\275dA\242>\202\262_\276\325On>\346|\326=\006)\321\276\232ap\276\341\353\222\276\262DC>R\031\336\275\252\221L\275\276a\253\274\376\352R>\217i\n\275\032\332O=\241\030\230>\260\223\002=\275\'\213>\273\253\364=\314\004;\275\346\017\371\275\023\217\356=\242\201n\274C\024\260\276r\261*\276\212-_>52-\274\256\020\225=|{$\275\323fW>\004\315\255\276\023dL\274`9\337=X \350\275#\206\007\276\374\027\260>\252\335\210\275\356[\257\276Vl\266\276x\350\014<{AT\276\252@\317\275\230\207F\2764\034\255=@\364c\276\336a\234\274\260P\036>\214\351E>e<\241>w\030<>CG\243>y\223,\276S\373\246\276\367\007i=\337\317d>!CP=\307\242\267\276\236t^=<\266\345\275\272dD\275[\013\234>\335\332z\276\307-\273=\240\302\256>$\r\"\274h\306\275\275VQ\222\275B\341\016=\222\247\265>EK\026=kq\026\276 $\307\275\\X\034>8\265&=\262\355\243=\221\272\201\276\300\014t>\235\274J\276)\207\200\276\331n6=\335\212\235=\t\373*\275\023\325\231:OUD=0\017\247\276(\225h=\014\272D>\330\021\225\275\360\274\245\274\007\235\033\276c\261\023\276\373\203=>\377g\220>\303\231g=f8\231>\212\033\314\274\257y[\276\262\037\234=m\271<>\316\000\273=\013h;\275\017\357\275>\300@s\275\257&v>h(\260\276\017]\320=\023\203\357=\020\257\317=\353\022\300\276A\372\246>\357#7\275\215\225,=+g\025\276*n\210\274.\n\330=\225z\017>\237\344\232\276\341;\301\275\200q\370=\001\207\004>\214\336\222>&\364\030>\326\026\326\274\nL\301>\360\212w\275\251r\252\276+\232\223>\365\272c\274\317y\030>\352\010\004>\376]\211\276\254\257\247\275z\231\030\276\004\240\205\276\333\364\024>n\016/\276\343\244\222>oF*>\354\313\335\2745MA>\273\001\r<\\\033\203>=\232\265\275\3208\334\275\357\017I>r\016\246=w/\301;\n\345\263\275k\363\200\275>\240s\276\344\213\320=?\177\317\275~\370F\276z\361\210>a\214B>{~->R\035\200\275\221\372\241>\030\323\311\276\375\331\t>\335\316\300>T\nx<G\252}=\"\033o\276:\262$\276\231\344\305=\013\274\226\275\327\343=>\034\034\320\275mDP> \321\036\276\211`,\276\212\211@>\250\246g\276g\364\222\2764[\032>\021\004\036>\261a->\312a\260\276\3752\316\275\253\037\211>\031\254\234\275\256\327s\275\265\352\365\275\365\024@<\177\325S\276\324\255\211\275\314\344}>\303\356\322=\036\010\261<,\2646\276\274\235*>\247H\372=\302\247\221\276\017fT\276s$\264\275q\037\303\276\347A\371\275\202\036\237\275\364f_>y\272\306\273\266)?\275\210y\027\276\006kI=3\246#>\305\321\271>P\034\267=\324\240\372=\247\207\335\275o\250\211\276\314*\212>\2347O\276\t\371v>\234\302\230\276\t\226\016>\224\317\033\276\236U7\276N\2652>j7M>X_\264\274\026B\310\276s\244\025<kPY>^\244!\276_\347\265=\336\205\215=\020\300\225\276\030\330\312\276\244\343\025\275\215\312\001>\233\314U\276(\224q>A\177\203\276k\347\027>\201\220U\276A\315^\276\266\371\203>\240m\004\275+Gc>\350\273n\272\332^\206\276\316\\\264<\370\r\277\275A;\243>\023\2362>\023T\372\275\3148\327\275\022\214\325=<\213\336:\326\271\227>/2\032>\262\017\210=\365|L\275bm\246=\225,)\276U)P\2767ND=\312\363\000>#H`\274\314\350\014>A\212,>?\\\257\2763\273Z>!&\r>\231\3304=\301v\010\276\202\0037=\361\377\036\276\252\324\253\275\347~{>\2631\017\275\215S\346\275=\215\367\273b\253\n\276\002\204\363\275\025tv=\253\3354>J\321j\276\010\027\351<\235\263\314\275T@\322=B\342\354=Z\277\245\274\341%\304\275\255=\234\275\n@~>\351\211\361\275\203\244\337\274;?\204<Q\"{\2756\005\211\276\370Q\311;\334\321\n>\324sI>c\316\330\275\316*\034>a\270\021\276ASm>z5\232\275M\226\313=\307\305\306\276\321h\353\275\215v\342=\221\205\271\274\264=w\276\241\014\216<\354\235;>\344\304\347;!\303B\276\025\002|>\221j\203=C\345\232>\313\265j\276\231KB\275\245\204(\276o\332\307>\250\231\007>\324\253\027\276\303\221\213\276+\304<\276M^\267=LU\371\275\272\307\r\276\017\236\021>\240u\020>\242u\263\275\252\231\004>\234z\233>\332\302\200\273n\275#\274\000\311\032=`\370\031>\245\274\276\275\014\034r>\334r7\276\227\352\203\276\362\013\346\274\227]e\2762\000\243\275Y\027\246\276l\230\264\275\031\336X\276;\241\244\275\2138\202\276w=\375=\277\335g=\r\363?\276\261\207.=\332\256\037\275_\332\251=\233t&>\211tc\275\314\201V\276\0200\363\275P\213\211>\253\026\266>U\371\373=\302dp<\034\252\251>\351\013o>\003\277\010>\260\344h=\270\217L\276*h\307>\320&\337\275\177yf>U\271\017\276\251\207\216=\335\026\265\276\372\312\215\275N\352\201>\373\263\224=\316\263\014\275\341\004L\275(\300\262>m\003\240\276J\351A\276*\005\204=\304\277\242>\203+\227=)\345\221\274\235y\010\275Q\360\230\276\'\237\337;\347Fj=u\343|<\223\032\274;\307\203Z\275Qj\236=v\347\300>\036\232I>%T+>\346\357\221\275\300\300-\2759\266\251=\035\334\267\276\266QS\276I\360/>\267i\t\2767\243\240=\314%S>\001\245\013>\306\t\277\275\222\356+>_=\'=W\225\377=\344v\360=\305\264{=\022\276\226\276\216\003\260=\3757\227>\231\351m>\226\272\271<\023h\315\275jf(=u\332\370\273\367\203\306\275\232\r\312=\nI)\276\3659\200=|\374;>O\3037\276kst\275e\001\206=\035\200\201\273\310\305o> b\267=\0014\254\275\314\026\177\276\276)k>h\343J=\214M\223\276\2751\026<\356\"\001\276\022I2\276\347\nW\276T\2718= |\361\275\\\324\232=.\274\234>\360\315g\276\260\322#>\341Z{\276Uj\210>@:\037\276\314\372\314\275\014\"\251\276\022\237?\276\326n\203>\3258\014\274\262\341\036\276=\376\370\275^\256\230\273\375[F\276\231z\215\276\331\177\007\276H9H=2f\310=\031\003\372=\031\247\223<\270\330\004<\224w9\276!\227\307\275\360<\024\275\203|0=\177\217\204>(5\350\275T\211\230\276ta\036>\377O\021>\313PS=\033\320f;\016T\254\276|\3126>tj9>l\361\222;\036\334\272=\203\337\304\276\212\335\242\276\247b\000\274\265@+>\243}:\276\301l\225\276\321\203\373\275\005\322\021>]\234\276<\356\320\332<\316\212\237>\0230\252\276%\2532\276\302r\316\275y*\367\275\222\302\233\276n\031&\276y|\031\275S\365\243;6\321\374;\030\035R\275\365. \275\345,N\275\312\263\250=\006~x=\205\361-\274\242u\237\275\367\344\307=G\351\263=P\354<\276\345\327\315>\242p\213>\357\345\240>\315\337\014\276#\021<\276\262\311\217=\362\303\364<2i\354=/K6>$\264i\274(s\267=G\256&>?\355P\276\223\360\264\275\325\312Y>\024R\017\276\241u0\275\360\211\343\275\240w\243\275\274U\245<\354+0<\377\203B\275\213\250\'\2755\235O>\235||\276\360`\2109\027r\017>\314\367\034=\341\003\246>\320\014\037\276 \310E>=\227\036\276\205m\201>o3\260=&\007\207>a\t2\276 \213\233=Y\324a=\\\206e=\320\275\001\275\365\362x>ZB%>~\254&\276\206\303\232\274\220\204\277\276t\372}=\023\200\333<-\177\205\276\335\036f=\263\351`=U?\013>\275\305\214\276\037Ie>s\231\360\275-\240-\276-\337\006>,/j>\314WJ\275s\274\\<\333\032j>\335\360E\276gD\234=\304\375\211>\353u[\276\247\177!\276\014\320>>\334/\211\276f\263\326\272\2459S>\247\227P=\"2<\275V\204\305>\275\264\267\273\207\326\245\276\271R\240>\266a\307\276X*3>\310<\253=\243\022\217\2766\345\321\275`\240{>\336\"\037>\373\232\035>>f\244\276\222\335\244\276\220\014\206>\276\3763<\343\273i\276\320[\210=*\264\024\276\261\230\235\275\304\t\220>\306v6\276\326\312G>\022\221\230>nA.\276w\331v>\204\264\370\273\240\001\353\274\221\010:;\"\\\203>~Le<\310$E\276x8\027>\311\200\023>\334\2405\275SDA=\2461c>\035\213j>\000\233L\276\013_\004\276,\340\273<\210\374\323=\353\344v\276|\242\331<i0\327=\013W+\273\262\270\355<\t\260\217\276\210>\262>I\310I>\346\006D\276\214\236\334=@>\177\275\267\036\313;7\230\227>\007\312U\276\357}d>\031\027\017\276\225\231+=\225\2706>\346\237\270\276\221\004\272=Z\212+>K\202[\276;\371r\275\3558\205>g9\314<U\230\275\275\305\237p\276|J\224<&\364O\276\177]\031>I\317\377\275\200\253\253\274@5\322=\340\2055\276\365A\260>\322O\375=\221S\363=\273+\327=\340\031\312\276M\214h>\251\300\031>\333\363\364=xpj>\325\020 >\320p\251<\373]\341\275\240\341\353<\322[t>4\216e\275\255\252\222>\207\312>>K\203\271>\3115\346\274{\234n>j\225\014\275!s\212>\007;W\276\215\nP=\207\334\376\274Ts\t=q\331\225\276\234\220\207\276\305!z>\000\324\343=F\270\237\274\027\326g=W\343\007\275d\2079>\007\246}>S\226/>\340n\310=\345-\226\2731\353\204\276t\026F\276\000\026\r>\370\007\236\274\025~\177=\226TS>\034\227\343\275\034\366}=\002)I>\327\002b\276\226\006\356=\362Y\252=.i\023=\256a\007>:0^>\207\333w\276\266\020\205\276fIB\275\225B\317=3\250\373\275/e\035>\247\262/\276\353\032\351=U\317\240=\244s\354=\272J7>L,\354<iZ%>\300I\260\274\225+\024>\264v\025\275@\277\006=\3529\203>\342\n\345\275l\273\357=\326\244\000\276\003D\257=\247\332K=\367\207\225=\221\320\266<m\323M\276\203\214\302\276\364\264Q<G\377#\2763E\234=zf\260>\036\310\360;\002\253\364=\254+\236>}\nS>\367\357&\276\227tP\276\0275\006=\302\2727=y^\273\276z\245\001<\017\364\026>\374\267\220\276\363I\327<{\307\365=7\253\253\275\220\360>\276b\346Y>8\216\217\275<\325+>\032\035\007>/\374\307\276+\240\245\274\265M+\275\343R\224\276\021u\236\275\276\351\304=\36586\275\200\360\254\275\341\373G\276q\243\023\276\262\361\020>mW\264\275\241.\351\275\25656\276\336w\366\275*f\206:\013\253\201>-HA\275i!q\276\356l\242\275PJ\014\275\'\232h=\361\204z<ic\003\276\263~.\276\035n\242\276\311\252\267;\245\355@>\r\243\250\276\230g\024<[\306\262\274\360:\244>PJ\305\275OR\346\274O\267\333=0m\\\275\\\367<>\271\227*\276[_\030>\275\013;:\333C)>+\251\326;MZ\'>\006\301\251>\362\010\347\275p\376\343=\025{\253\2750\235\244\274\021\305\350\275\351\036x\276z\217\242>\007\230u\276m\026:=\233\376\205\2766t\262\276\325\363\007\275\341\262\324\275\000\375j>\302\010\'>h%\370=\342m\241\276\2020\200=\315\362t\276\274V\310\274\332\306z\276r\234\025\276\n\3014;\2607W\276\230\003\t>\336\330\322\274f\252\025\275\222\217>:\221\r\031\276\275\327\266=\314\212~=R\rP\276\r\027O>\2725(\275]\t\010\275\320pN>H\341\340\274\254U\217=Pz\242\275\3559]>\263\304$\275\017\332\033\275\022-\206=\260\204\264=\223,\301\276\202\331L>X\227{=\032F\272=\341\361]=q\t\322\276\256y\315;\023m\\>\267\341\t>\204\316\362=R\026\023>\233\373\007>s\206B=\340\0147\275%s\006\276i\202A\275\000_\206\275\373\242\213=\345=\301\274^\023\207>n6)>j\313O=c\233V\273|\223U\276\327n5\275\032\262\271>%\t\"\276\210:\010\276\246\216\036>\362*I>\202\212\333\275\202\225[\274n\331\026\276\014+\034\275\177\344\203>\340+\020>h\035\264=+\010\"\275\2549`\276A\306\353\273\220\177\002\274r\330\316\275-\270\035>D\202o\276\377\005\321=D}G>\345t\364\275>\361\373=\0308<>q\237%>\261\247\226\276\027\034\213\276\260\332\"\2769,\213<W\211\030\276\343\326\354\275J\354\003=\006\337\300\276o\376\233=kT,>\002\002\273>\216\001\264\273W\323\200> \337\301\276\325\3350\275\360\225n>\256\\\363\273<\225\212\276g\242\n\276\200G\004=\021\362\001=\330\246\035\275K\302\242\275\201\036B>N\n\276\276n\004\216;\0076\331=\362zU\276>Rn\276g\341\034\275c\211a\275\255\007\320>\365\243\343=\264\230\206>\331\2229\276\301\310\373\275\034\010\220\275)\235G\276\265\3164=\361\261\322<g\347\324=\217\375\200=p\354\230\276:\177}>\203\013Q\276\270\257\204\276\310\210\"\276M\006g\275\354\316\033>\203|N>q\237\226=`\202p\276\340$\200\276=\352\010>\202\020\263>Q)A=73\010>%\227\353=\347#\213\276.\345\222>\211\226n>C\272\024\276\224\321\306\276\310\037\227>\344\225\206\276\035c\002\276\2308\002\275X.\026\275\033\367\007\276N\346:\275\ta\335\275N$(>z\240M>y\330\270>d\206\324\275Z\2354\275Q\357\254\276\243\216\231\275N\222\203;\240\207\301\275\226\305\004;\304\240p\276Fx\325\275S\357K\275\252\210\340=\245W\220>\336\231[=+\227\">\351\365X\275<\033\212\276-Y\010\276\264\251h\275c\336\322\274\023\346\216<\016\006t>8[\337=\234J\210>\251\254\375\275[\225\272\275\215\264\032>s\312\t\276q9\n\276Z\347\300>W\364\016=\267\217K\276\254K->\302\336a=\001\037\275>i\361F\2762\341\032\275\3666\213\276\035\334\021=b\214Q\275\331W5>\031\333\027\275\270\217\265<H\254w>Uz$\276\371\t\351\275S\252R\276\r\353\216=Q\306\">ZD}\276\312#\360\275f\2600=J\252\022\275\233\224h\276\345\017c\276\01713=m\014\202\274\302\311?\276D\203\032\276\363\233D=(/\301\276\243+\007>+\340\003>\036Bj\276\252\232N>@\226z\276\254h\203\276\034\231\205<\010C\321\275.dr>\325\0230=\331\376\241>\235\275\017>\031\343\371<\270c\244>C\320^>Q\200$\275+\014\233\276\376\344U>n\233\306\274Cr\236>Z!\010>M\205Y>\224\006\333\2742\305\224\276\263\376\360=\355\343\024\276m\237!\276M\205\211>\021\022\231\276\362\300\244=\006\013\350\275\350\021s>\007\247U>w\222\377=&\251 >\226\346\335=\0173D>\366\027\021>\344\305\017\276\210\034\227>$&\247=\271Bf>\3213\326\274\337\232#=\360\236X<\003X\002=z\302\242\272t`h\276Z\t\036>V6*\274V\005\240=`\303\033>Y\276E\274\226\326A>\013\337\251>k\n;\276[\250\020>{\3000\276:\243\017>_\233\035\276;\224\210>;+J=\372\220\261\276\301Y\203>Us\372\275\272%<=\214\212\301\276Bg\032>\326e\314=\364\260w\276\264\376==Jy\353\275i\031\331\275\037\2475>\233\177\256>\3355\370\275\234L}\275\265\205\276>\221\3230\274\"\303*=\204]\303\275q\232\307>\272\026*>\027\372\325=Q\033\220<\\\261\232>\006\221e\276\376\034p\276\274`>>\244\326\335\273~\242\206\275\352/\304\274J\246\226>\301aJ>\007v\r>\365\356.>\235\200\275=\313\273U\276O#\234=\210u\335\275\351o\006>\267>\304<YqC\275\360\231K>\313\003N>\276\350==\351\325\225<\275\3748\275\366\371+>;\272\n;E\241\260>v\227\263=\250\274\265\275\202BO<J\303\213>JC\247\275Wy\247>;\262\031>st\274\274\237\200\307<y.\271\275:\317\241>\305\335\034>H\026\006\2755%\217\276\200D\261\276\321^~\276\345\323/\276\365\204L>s\261Q\274}\322.=\020\251\007>\313\002\306>\231q\300<p3\246>\030\262\016\276\023\335v=\326\226O=<\001\000>9\214R\275\300_~>\205x\221\275~\007.>\352\274\022>|\213\365\275BzC\274\000\331\241>\201\021\232>\250\351d<.#\364=\367\030\200>|X*\276u\216A\276\326\306\'\276\n\202\225\275U\377\333<\217ZF>ff\200=\355E.>@k\307<\355vS\2763M\032\275_\t1>\255\263\031\276_zY\274b\253\007\276\305\tZ\2750\034H\275A\026Y>W\351 >o}h>\231\246\177\274\205C\267\275a\031\313\275\212\264\310=l\305\356\275z\003\r><?\213<\341\265\264=\002\242\321>Y\347\315:\276\3519\275\013\347\013>\023wL>|2\\=\006\0257>fW\r>\276\003n=\266\302\311<\003l\377=\244\317\007\276gT.\275\001%\374<\177?\332\275:I\031\276u|\251\274\335\231\310\276\304\205\365\274\230\007\214>\017\351\213>\304}\020>1\210\031<\2706b\274w\260V=Ur\273>\237\203|\276\342\331\304\275\'`\207\275\277\024n\276?\352x>\312!_=\246\r\264=-\215h\276\31757\276m!\234\276\316\347\004\275\205\365^\276\317\342\234<\365\331]\2756\322+>=\342%>\032\\8=\010\003\026\276\250\335\032\276\245\277i\275\010\247\312\276\343\374\270\274\331\264q\275\257\243\320=\340.\327\275\265D\007>o\005\265=\251x\300\275D\351X>\013\214\315:\354\271j=!\263\300\2740\205\016\274\374\240\324=\022\244\032>\035\222\275<\033\227\203\275z\333j>\210/\220\276\202\007N>\303\371>>\372#\341\275\036\025\225\274\010K6\276\360/\361<\020\256\323=\0326\342=\231\306 