node {
  name: "dense_input"
  op: "Placeholder"
  attr {
    key: "dtype"
    value {
      type: DT_FLOAT
    }
  }
  attr {
    key: "shape"
    value {
      shape {
        dim {
          size: -1
        }
        dim {
          size: 13
        }
      }
    }
  }
}
node {
  name: "dense/kernel"
  op: "Const"
  attr {
    key: "dtype"
    value {
      type: DT_FLOAT
    }
  }
  attr {
    key: "value"
    value {
      tensor {
        dtype: DT_FLOAT
        tensor_shape {
          dim {
            size: 13
          }
          dim {
            size: 64
          }
        }
        tensor_content: "K\326\224\276\360\3749\277\273\335\313\276w\202O\277\027\360+\277\372\365\311=\n~\324=7?9\277\216R\346\275s\036e\276\224l\262>8\220V\276\2575d\276\361\365\225>x@5>\331E\342>\036[\005>\300\313>\275\252\034I?\204\311\255\275\3234I\277Y\323\004=\365\355\270\2764.\325>a\241\250>\266D\324>\243\006\217=*\001M\275\016\311U>u\206\307>\003\330\037\276\223\031\037\276\372\t\262\274c[\241>w[\236>\242\216!>M5\351\274^\262v\277\032\366C?\252\232\266\276\006\032#>\026j$?L\221\374>J\335\016\277P\346\272<\301\216\274\276HG\237=G\031\241\275\262\030u>\361<1<+\267\235=\'^C?y\362Q\276\353\340\277>\020\007\001?UzU?\242x\306=\030\365\273\275\232(R?j~\212?j%\222\274X\353\330=\177\002\220\276O_\005?\245\356P\276\335\322\321\276\225\261\275>\260\227,\277p\267\315>FN\372<Y\220\265>\025\373\336;\251\264_>n.\247>\302\2274?\320\013\024>g\257\325\2763\t\337\275#\377R\277Lf\341\276\326\343\332\276\371\253\312\276E\272\035>\250\377\302<\316\326;>*\312\023\276)g\223=\251i6\277G\371\206>\250(\230\275\020\201\034=\320\362\023?\3269A\276e\355\250\276\373]\272>\220^\006\277U`8\276\230j\212?\017\022\026?\r\003!>\177\222\216\276%G\357\276\026\330V\274QG\032?\262\324??\362`\206?\262\337\306\274w\243\256\276I\033\365=\247\220\036>\205*\321\275\022\226\034>\314>\230>.}\234=\357\301o\275\374O\230\277\243\250.>\005r\"?\372\203\035?\250\262\314\276\033\226\345\276\374L}>(\356\342>-2\276\276e\332[>\004\360\255\276\313\374\270=\303\313\020>\036\263\005=\277\221Y\273\366\320\004\275\002\275\260>\035iA><\353\216\275E\263\205\276\230,<>\224)\010\277\2334\261=r\022@\276\376>\250=\t5y>\334\245\365>\352\006,\274]\203?>\036\235m>JQx>j\2234=\\\024\362=\364\3127\276\037\3547=\315\362\177\276\3673\225\277l#\372>\262?\311\277\0026\274\273\025\205\346>RR\027\277@\263\332>\224\211\345\274\221&\021\277\003oF\277\030\034\374\276>\366\346\2762I\200\276\361PR\275\2279\304>\006\356\r>4X\036\277\312\217\031?D\263\306\276\375n\n\275`\017\251\276\202lO?\n<\261\275\276`A>\332\370.?d\254\212\276\246\275]\277*\023\000\276\377xF>\361\355i\276\370\227\203>\315\203E\277\317i\343=\357\211\234\276\313mc\277}\350\273>3#\277=J\270\033\277\305\356\023\2770\010<>>.!>\354.)\2762\227\355>QT\225>\230T\334\276\031\267x>>I`?3\010\212?\"i/?\234\216\354\276\3742\207\276\024\200\375=\\\345/\275\357z\342\274\3241\004\277\362\272\006?{\344\241?\337\343\034\277\325\204\205\275E<M\277j\316\337\276\331>\202?hn\001?6\252\254\276\254\336\266\276\271\332\001><k\002\277l\213\302=wy9=tfD\276\326_^?\030\240\311\2767T[\276OU\374\276\205\177\016?\250\271\227\277\022(\224<\303#\201\276\260\035\311>Fb\224?*\226?>\301\2719\277\263\026\276>\263\334\226\276[\323\231\277Z\030\345\276\031\354T\277\035\352\314\275\225\232\250\276\372\262s>\346\354D\276\331\364p>\312|%>)\304\356>\213\335\246\276\377*\336\271H?\002?\210A\221>#K\013>S!\033<\267\223\017?\340sk=\245.5>\233\306O\277\2229\341\275\211\025\204>\361\337\262>\027\221C?\367i\262>\333\301}\276?0\213\277MN\032?\325\302D>\314\376P\277\276CB>\002& \277\337\371\"\276@\334\024?\234Z\206\275K\313\r\276\014\372&>\332\242h\276_\222h\275\337~0\276\0340\265\276\355L\220\275Ed\221\275Z\273\355=\234h\\?^\201]?\330{\010>\227\t\022?F\224\256>\035C#>\224\027J<\006\375\r\277\373\254\266<.\275)>4\342\001\276\344\003\270\276?\275L\273\205N\357\276l\351\236\276&S\213\276\324\003S\277\3448\203\276OM&>M\260\001\277\305\223\245\276\014|\363>\267\263S\276\207\n\031?\210we>\032\233F?8\271\327>\005\265\002>\023c\032;5\3151\276\315\022\352\275\021 \371\274\252\377\250>\0249\250\274\236\001M\276\221\257\210\276Y\377\351\275\377\001K>\336\005f>~\2343>\333~c>\350\306\004?\345\312\226=\240fO?!\361\347\274\212\356\260=x\207\001\277\273%\300\276\323\216p\277\324F\332\276\023$\224?:_\202?V\355\244<\377y}>l\022\t?2`\027\276N\001z\277!R]\275%\301B\276@A\212\277u\275P=\230\331\362\2753\036\254>\177\260C\275$S\262>\337oY\277S\364\006\276\235\013\274=\323\301U\276\335\026\327\276\0002\257\276\323Y\'\276\230}Y\276\353\305T?\370J\307=\033%\244\275\177\202\034\276\344\013\200\276\377\324\353\274\365\246\237=\0311I\277\271\005\"\2777\360\215=,\032\021?\025\346]>cV\313>\211\372\021\277=\224\001\277\221\300^;y#\034?\257\224\336>\253\327\013\275;\375\'>\343\365\206=OD\036>\022\233S=:1{\276r\025\030\276\177\3376?3\264X>h\253\256\276\177\244g:(O\324\276[\350\340\2750@5=\020\335\030>FC\227\277\347\277\260\276\204l\237\274j\331\272\275\206c\203>Z/\276=\003\3417>\203\203!\276\302\373\026<v\246\261\276Mr\274\276e\231\016>\372A\226\276\003~\313>\233\364\263;\356YI\276q\003\271\275\2168\'\277$I\t\276\226\334\005\276\206\225H>\007\204\347>\253R\t?\231\317v\275n\226\350\275\235\272U>0\032N>\235`\002?\236\025\002?\\\273\"\277y\260\244\276\272\023\230\276\374`\243>\234\221%\277`\316\266\276\253Q\010>\242Y\200\276w\'\313\276\224\363\013?\216 \220<\253\261\316>\2233.=\202W;=q\032\217\275\331\230\211>\335{l\276[\335*\277\025\004\233=\266\r\216\275\263\355+>o\351,>.h\307>\231\336z\277\037\000a\276\027\224\327\276\rx\031?7\r\265>\030\r\247=\277\336\021\277\2405\017\276D\204\252>\337\227\351\276\244\264\177>X\261\227\275x\032\302=\230L\275>\037\254s\275\223\304X>CW\007\2779W\237\2755\037\030?9\252[?\354\213\025\276XS\033>\334\277\025?\001a\225>\007\305\303>\203\255\234>\214\022\030>\325\273+\275\301f\200\274\255G\240>qh\225>C\004\025?\234\240\377=\030\336<\2768%`\276#\"v<\245\203\004\276+\2717\276v\326\002\277\3456D=@\230\372\274-\225\342\276\307J\256?47g?\310\231(\276A\360i?f\036\001\276\254\200o\275\016g\320>\035\207\013?\363\221\205\276\000au=]\030{>\223\354\247:O\254\004?\361\273\177>\337\245<\275\000\321H>\231y\345>\314W^\277s\3120\277\204*\266\276.fY\276\360+V>\232&]\276\2239\200?\024\177\204>\324\004B\277\335\005\265<e\345P\275v\231 ?#b\305>\303\260w\275 \263\203\276$_\020\276\020\026\275>}\004\r?&\013>=`\037g\276\316\235+\275\364>\245\276|\275\241=\342\031\305>s\246\007>\215}\221\276}\213\221>\351\\E\276p\223\371\275\241\3326\276\221m\361=\322\336E\276\377w\264\276\021\3759\277\310\274\214\276\205\234\214>\020\370\302\275;ka\276f:\202=\200\247=>\324\344\350\276\305_\347\275\310\t\024\277G,K?\325\'\t=w\247\275>\261\237\221\276\346\231\266\276\233^\326\276\336\344\340>\365\320\240\277\373\2254>F\351\330\277\315\\\234\276\036Zp\276\020\204 \277\202L7>X\014\203>\342\244\320\276Z\217\322\275\272\005\363>\244\335U\276\274HJ>J\\g<\362O\024?ntq\275\230\373+\276\362\241\023\276\311\216\270\276\2251\323\2763s\202\276Vt\200\276N\353%\276\325U\313\2756\256\022>AP\026?zN\024\276\210\005\351\275\256\210V>\217\000\260\276H\360r?6y\225>[\013\003?\225\000\321=\236\2214\276\263)\322>`A\317\275\203[\357<\207\234\374\275\232\335\270=:\235\002?[\216\254>\213\247\254\276xM\365\276\020\177\022\277\247\027D\276\201F\254=\207KU?\232\322\207?\305\257\312\276\204p\005>\240\314\237>~\027\004\276\210\305G\276\331&U>\002\370\300\275\3654\356>\3743\037>\301\3002?\n\3374=7\2005>\275.\341>\2035V\277\207C\213<\304\370\333\276X\212\314>r-t\275\202-F?q\014\276\276bjf>\367\341%\277\305\026\310>]1\205>\350\374?=\267I\345>rj9\275\250+.?\257\2613\2773q\243=\304\023\200>\302\345Y>X\336\'>o\265\t\277\001Y\007>\260\204\310>\301\203\377\276\337g\330>\306\220\311\276\247.\010>&q\256=\"vG\276,Q\344\274\034gm\276\002\334\000\277\024\207\"\276\211/\371=y\242!\276\366\337\330\275\215\352\226\275z\022\203\2752\277\226=\254\371\311\275\036]\344>\3512\006?\252`#\277F\332\032\276]t\204>\375\302\002\275\253\310\270\276\007\332\251<\000\215]\276\003^\352>\330(\256>#\003\334>\266\234\336<\214\347\000\275\225\322\035\276e\004\260>\333\274\002<\220\200V\274\021-E?/\307\363\2766\230\002\275l\366\025\276\207\334\275>\214\216\244\275\263\260j\277\376\243\263\275h\rE?@a\214?\252\340\014\277[\214\025\2772\250\255>\254A\217>m\322S\276\244\\5?\255\234x?^\214\326=#.\276<\231\236\203\275\214\034\310\276\233W\205?\326h\036\277\343\241\032>\344\005Y\275\333M\'=*\327x\277\216D.\277\300\206.>\306lh\276\300\333y\276#\n\360=\037\357\016\277\364\2038\276\354\223$\276RY\301\276\352\262`=\301/\201>\245\013\226>\354e\001?8\217\357\276\365$\225>\022\211\204\277\250\225\265\276K\250\303\276\n8\n>\266X\037\276\242g\274>8\257Y?\313\324\203\276\314[X>\252[h?\272GQ>\314\374\210\276\352\224\306>=\357\020\276USy?5]\210>\341\024\250>\356\177\224\276\006\317\312?\257\003=\277\206\220=\277\016@\317>D\302\341=^\256\246?C\245\230>Dw\357>\273\343\350>\303\234,?Wy\"\276\277\201h\277\322G\271<\345\241\257\276XU\301;\036\307\n?R\222\237\276\346M[\276\271k\201>QT\323>K\212\215\275\210[\016?N\366\370\2766\013\306>R\212*\276\335B\347>\215\334\213\275\230\t\362>M~\301\2772\211Q\277\315I\267=te\256>\'V\201<\274Tk>8-\210?=\335Z\277/\225\377\276Q+1\277>\206\201=\323P@\277\032\321\204>\0373\225\277\340\026\317=\243\021\254\276d=\273=8o\301>\256\213\032>\210\237\323=\256\204\245>\266j}\275\314q\347\274`\016\203\276Zh\327\276\257\350\300\276[\005\330\275bX6>\277\317\2009\344Q\000\276:\252\244>\245x$?Z\274o>\304\375\253>h\202\013>\242;|?\205\177d\274\340\205\310>\220\271r>)\371\350\272\226c\"\277\315\367;\277J\206\215>gw\322>\356\215\250\276L\2673\277\000\316\310\276\031_Q\277X\234b\276\240s\232>\302\277\022=\325\265\372\276&\033\246\275\006\010b?y\375\225\274m\242\241\276AD\'\276\336~@=\030;\210?B\025^\276\203\005\307\274!\362O\276\3357\033>\356/\036\277\340\"\330=R\220\010\276\313*v\277\313)\273\276\337T\016=\200\001\330=T\232G>\311\345\235\276v8\"?\262SM>+\307\362>\206\330&=\244v\273=x\221e\276"
      }
    }
  }
}
node {
  name: "dense/bias"
  op: "Const"
  attr {
    key: "dtype"
    value {
      type: DT_FLOAT
    }
  }
  attr {
    key: "value"
    value {
      tensor {
        dtype: DT_FLOAT
        tensor_shape {
          dim {
            size: 64
          }
        }
        tensor_content: "\300B)>u\364\253=\324\177\233>\314\263!?\217_#\277\354\200\016>\307@G\275S\230*\276\200\177\277>\355v\246\274\324\3678?\261\357.\277C^\322\276\250\267\347=\177OE?/\023\026\274\027\207Y\277\316z\204\276\211}+>\323q\305>\n\367\205\276\272~j\276\233M\017?\036]F\277\3679y<c\223-\277im`\2763\312\237>r\"\234>\205\275\224>\270\271\343>\200E\014?\367\016\266>\365\312\251:~\265D\275F\230\351>`\333\243>\327\016\020\276\203\315\034?D\201\367\275$\027\010<T\231\177\276Q\240\277\276\300\214W\277\036*\223\276PvK\277j\345\n?9D\314>\254\177F>K\004)\2765\365\035\277h\330\377\276\311C\367>\217_\233\275S~\206>W\235\227>\302\322\005?\203\343\037\277\366\333\361\275\\\033\236>\211\030\335>\351D\017\277\360.\265>\n\276\240\276"
      }
    }
  }
}
node {
  name: "dense/MatMul/ReadVariableOp"
  op: "Identity"
  input: "dense/kernel"
  attr {
    key: "T"
    value {
      type: DT_FLOAT
    }
  }
}
node {
  name: "dense/MatMul"
  op: "MatMul"
  input: "dense_input"
  input: "dense/MatMul/ReadVariableOp"
  attr {
    key: "T"
    value {
      type: DT_FLOAT
    }
  }
  attr {
    key: "transpose_a"
    value {
      b: false
    }
  }
  attr {
    key: "transpose_b"
    value {
      b: false
    }
  }
}
node {
  name: "dense/BiasAdd/ReadVariableOp"
  op: "Identity"
  input: "dense/bias"
  attr {
    key: "T"
    value {
      type: DT_FLOAT
    }
  }
}
node {
  name: "dense/BiasAdd"
  op: "BiasAdd"
  input: "dense/MatMul"
  input: "dense/BiasAdd/ReadVariableOp"
  attr {
    key: "T"
    value {
      type: DT_FLOAT
    }
  }
  attr {
    key: "data_format"
    value {
      s: "NHWC"
    }
  }
}
node {
  name: "dense/Tanh"
  op: "Tanh"
  input: "dense/BiasAdd"
  attr {
    key: "T"
    value {
      type: DT_FLOAT
    }
  }
}
node {
  name: "dense_1/kernel"
  op: "Const"
  attr {
    key: "dtype"
    value {
      type: DT_FLOAT
    }
  }
  attr {
    key: "value"
    value {
      tensor {
        dtype: DT_FLOAT
        tensor_shape {
          dim {
            size: 64
          }
          dim {
            size: 64
          }
        }
        tensor_content: "\274\253\001=\242\3562\276 Q\261\271\372T\245\273\3619w>eN\353\276\007%G\275A\200L=\026\372;\277$\023\223\276\246u\375\276\336p\254\276\221\320\023\277\375C\302\275\277\2258>\006\212\256\275\0351\332\276\030\230Q\276\344k\230\275\003\261j<\000_\263\275\375P:=P\354J\276$\321o>\026$&>;S\t\277\360Y\035>\363\336\216\275\204\314\304=-\312\204\276\305j\215=~\037U>\032\225\267\276\201\234\214>3\341\003\276\256}!\276]S.=\214\004\273>&\360\220\275\330\306)>\374\010G\276\257w\t>b5\220\276\311;\014=\317\017\272>\334\222\356\276\006\314\025>6\232\276=\"Xb\276anZ\276\342\226\220>,<\214\275\252\034Q\276\006:\314=\220\261\020\276\026\224\271\276\325\357Y>\227\277\002\276\3727\220\276\371\022\234=#\355\216>\231\020@>Yh\375\275\217\025\360\275\360\311\016\275c\003\005\277\025\243l>\207\365A>>h\327\276wP\210\276\352\030\276>\021\300\211\276w\022F\276\346\030W\274\236C!=\234\360\301<\216m\337<mB\210>\225\343\341\273?3\217=\266,L\274s\251\232\276\312\007\304>\343\r\337\276Q\016v\276\225\t~>`\326\263\275\\\031\255>x)\360>\307j\302=\224{\274>\006~P<\021\236\211>q\315+=\221\017\337\276->\247\275|\016\215\276\376\242\231=\353e\312\2761B\375=Y\3647>\337\207\234\275\247\235\344=\321\334\037>\302\340s\276x8\326<\305\032&\276\366\325\371\276X\312>\276A\r\303\276\342M\311\276\2319I\276\340\333\267>\335\346\335=\001\330\022\276\327?\306>Y2\351\276\270q%\275M\032)>\342\310\202>\240\3158\2766\000\037\276\005\025r>\2209\024>!\203\205\276\002\270D\276\303\224\317>0|s\273pE\211\275\223_\025=_\005\260>\212:\231\276\240cT<$\326\246=\355\343 ?\305\327\014\275\353E\312<\241\0227\277?&\r\276\002\352\365\276G\334D>\217\266\274\276\255\016}=@\360]\276m\307\375\276\034\013\000\276\006\006{<\013\315%>\000\0035>OH#>JL\325\276\232\316\350>\"\267.?l\010^\276\221\037\203\276\'l\227\273\300*D\276+Y\271\276J\030\313\276\3255\341=K+\251\275^\204\374=\013\017B\276K\255/>m\311\006\275J*=\276\260\363\032\276\342L\210\274\313Y\220\276O\337s>Y#\262\276x\201\035=#\207\367>\206\242y<I{\364=\333\2005\276\367I\343\276\202\017L\276\026\207\300\276|K\334\275\361g\007>\201\263\355>\354\314\033\275\244n\\>\345\017\243>\022\246\256>\210d\001>I\023\321=SLC\275\n[\252\276\210\263\030<\203,\226=*\226!\277C\256\346\276\023_\245\276\014N\355>\316 >\276\276\363\260\273\374\361[\276x\255\225=\023_X\2753#\002>t\377\256<\\U\364=\304\215\242\276<\024\004?\301^\365\276\337\216\\\277\032A\r>1z3\276y\357\373\275_9o\275\210\251\205=\355,\341=\275\247\221>\266\207\251\275\273/\002\276\300$\227\276\001h\366\276\305%o\276$P\221\275\031\311\'\276\207\213\'\276\334Z\034\277\204A\r\277/\306B\277\345p#\277^\217$\276j\330B\276\232\271\r?\277\007 \275\010:\024\276Xj\226\275\230\024\254>\370\202\206>\271\337\232\276\316\030\030=\025\233\223=\230\352\016?\333g\023\2763\331\211>m\3359\277,F\332\276\335\272\215>O9S\276\272\254\325\275(\034F\275]\252\241\276\n\221\003\277\034\374~\274\220\n\330\273\004[\207\276\034\311(<\232\234\263\275\023\247@\276\274L\023\277\372\006\025>\352\024l\276\270\362\232>F\232,>\307u4>\323,\207=~S\242>u\217[=\243\364\021>\251\355\251=\265\305\241>P\304\202\275|r\276>a;\223<3\020\013?M\276\210>?y\237=A\272R?o\365\271=\275\243v\276(\362y=\244zY>\202\001\221\276\235\t\214>\017$\344\276\204c\253>\352\243[=\261=2?\301J\261>\201\303\204<\371\360\t\275wZ\222\276v\027\217<\261\250y\276|\331 =\220\356\376\274\257?\364<N\374\231>\035\265\364>\024i\243\276\266\032\276>52\376\275\352%m>\244\341\216\2758nQ\276\325\000\t?\217\027\r\2756\257\010>\244\020*\277\230$r\276}~\354\275\303Ew<\363\236\355\275\320b-\276#\317<\276\025\013\000?\223\310\215;p\360\300>\031\216\021>\363g\205\276\034\267\245>;\344\252=P_\366\275\250\r\020\275\250\224\r\277Ijh>\221e\224=\235(\013?[\337\240<p3t>\037\033\205;\0203\222\276R\240\235\276\226y]>a\326\223=\007\202\364\275$`\352\276\312\226\022\277\334P\241\276\377F\375>\233Z\205>\336\274\304=\313\311\265>\244\004F>\222\273\000\277\0337\333\275\233-k>P\340:>\272i\363\276q}\020>\023\350\305\276\304Dv\276\024V@>\2156\227\276M\231\232>l\036\005?4\215\333\276F\357\237\275Y\367\266\276\350\023\304\276\nq\313\2766E,\276\016~\217>\262p\223>u\204\024?\031[\000\277\033]\030\276\354\004\254;\251\311,>\372 \235\276\223\037\251=R;e\275R\350\177\275_\272K\276\304\261\227>\215\232\350>6\314\344\276\265aj=\023j\311\276\213g\355>\014\335\325\276c\\\013?\177^a\276\252\255\'>\016\354|\276\241\225\303\276\261\224\321\275\304\237\324=\004B\243\2766\376Y>\377\330\"?\377\207Y\276\275\007\322>\220=Y=2\255\314=\206\371\'?*\250\023?\321e6>\326\002\376=\3322g>\353\321\276\276\036X\241\276\325\323\013\2762Ig\276E\247s>B`?\2745\270\027>P\022h>G\2269\2773\256\352<\366*u\276\364=\321\276S\324??5\014\307>n\251m\275M\021\242>*c\223\275\014\225\033\274\251&\324>\200p\302>\321\207\356<fk\311>o.\002>\305\376<\275\346A\005\276\3458\356\274\213+\236\276\344n\037=.\232\225>\361a\264\275\331;\257>v\200\316>\355\243\230\276=\003\235>0\324\217>\222\361m\275\365\276\204\276\302J\223<\2079\202\276Q\267\212\276$\204\350\276\302\020\003>\267\371\200\275\324\354\027>\221\3363>\200\rP\275\016\002\351=\205\302\360=\n\306\376>\246\353\203>th\300\274\350\\\354\276a ,\277}(\246\275\336\235,<&\\m>D\320\026=\226\342A=h\227\207\2761X\243=\263JA\2756\355\354>+\312\275=D\017\371>\037\355\003>T\004\010\276\201\342\221\276\256\375\003>\216v\370>X1\341>\234\220\303\275\331\205\022=>\022B\276\004T\005\277H\005\r\277\3429\353\276\315\213\000?&\312\213>\372<\210=\275\r0>\311\320\224\276\021\'\243\276@\367\366\275\335\327W\277\277@\220>\225wd\276\217\272n\275\262#\254>\002\263I\275\030\223\247>\200l\371\276\230\342-\276\375\215P>\t\021\022>]h\021>g=\252>1\273\t\276\2019,\276#\375\361\275*\370\222><m\203>\370\241\247\275o*\205>\313\200!\276e\272\013\277qr\350\274\027+r>C ?\276\225\016\207=\363\217\017\277\222\022\023\276\201\375*=\t\t\323>\026`\351\275\342Js>\357C \276\022x\230\275a|{\276\363\001\326>\036g\375\275\265\350\353\275\207L\031\277y\014\253>\314v%\276k\360\352=\361\204\254\276\264r\266>z\244\035>\017\301\021=\246^\201\276\362\022\277>x\265\210>\237\366\255\275\264\203\223\274\200\371\320>j\375\330\272FB\271>\363!f\276\260\023\230\275\007V4\276I\030\265\276\236\034Z>(\331\243>\241\361\330\276P\265->\365\235\334=\357\255\330\276@%\373</\030\244\274^\337{=l\313\'\275\250\311\003>\004`\005?;i\251\276G\353+>o3\254\275\007\010\361>\036\356o>\351\226N>JB\375=\254\225\303\276\244\204\337\276\0304\211\276\271\206\302=\304\345\230\276\333}\260\275\233\222\301>>@\250=\245\3241>&\240\212\276\322\244\242=\361L\326>\345(6>\313\316\217\272H\263\333\276!\276U:\237\017\242>\2170\366\276G\333\322\276\302Q\204>n\005\033?J\256\326=\211DM\275\231\345\234>H\336\367\276~\374S>\376\361C>\334\261\347\273\344\032f>w&:>o\337\002>g\261\212\275\037\265\304<d4\211\276?\274\334=\001t\240\275\365{\212\276R7\221\276\256\2228>\216X>>\352\332\207\276\323\234O\276\200\250\026>\002\253\267>\342\301\344\276\272\312\265>\247\270\235\276\216\246\332<\\K\342\276\215P\364>\305\\9\276\337\017\260>\026\343\232\276\n\2009>\301\276\326\275\2764V\274\367y<=\n\024\t<9}\013>\036\222V=!\004\212=\226\270\247>~\2501\276B~\020\277\r\007\300\274\0206\324>\354$\240\275\333$c>`*\211=/\214\202>\022e\213\276\354i\334;\327I\201\276(\340\201>\212\300\202\273ut\241\276\311\337\341\276\216\023\037\275\177\331\346=\nQ\311=\364\345\214\276-c\002\2766\307\353>|\350\305\276\367Gs=\374 A>\223\216F\276\320,\235>\336_\212\2745\343\307=}\013l\275H\024\227>\260\223\235\276|\364\224=\271\257\243\273\240\003\033\276H\016\220>w\245\007>yo\323\276\r\033B\276\211i\204\276Q.x\276\030\353\016\276\206Z\013\277,\236:>6\301\262=*!]>\332\365\335\276\004hR\276\333\031#\276\031\373\272=vO\356=z\267B?}\003->5\301\305\276\023\336<<\032\247@\275\035\305Y\275\022\262\016\275M2\311\276\314\237\003?\001\001\261\276\230\"}\276;\253(\276\277|\024\277\376\351\303>B\355\260>\036/:=2\210\257\276)\030\250\275\207\227p>\330\nL=\260\\\261>L=$>W\016\324>n\216\205=i\333(\276\003hV\2764\364\016\277\031L\026\276\325A\306\275\004Qx\275\216\236\276>%\274\013?\337\345\263>\226,\227>\344\377\331\276\221\324\t=h\n\004?J\220\264\276\t>\005\276\256\254\004?K\003\210\276\t\333\323\276\277\201\004?\223\215\376=\234\324\205\276\271\347`\276\023\\\365>B\005\251>\302\t\021>cp\204>\360\203\302>%?v=\353U\225=w^\354>\253\236K?\303\347\264=\200Fh>\203\213\225\275\241@\244\276,1\237>\276\0043>\\\300W>x=\032\276\350\242\245<?\326\354=\340XS=\030\216\016\276Pl\217\276\025\014\221>;\236p>\334\033\302=\226l:\276\231\360W\276\337\335\330<\266\201\\>\347\002\343;\2028\030?\330R\261\276\276\376S>w\240\037?\016/N?\014G\205>Ho\317>a\255\205>\010Ne>\361\340\245>\216Y\016\275\211\323\207<,\372\322>\350_U?T.P>d\200\246>\321\325\001?4\341\233\276s\233\245>S\330/>\254f\313=tj\346>\351\312\204\275\000\207\253>\224\325\222>m\203\240>\335\221\370\2760\360\307=\237\204\206\276\346\255h>\275\370\225>\262m\346>\206\035\223>\013F6\275?a\363=\347La\276m\036x>\237G0>\274O\335>\310\002\304>\246\\\247\276\"\010\033>]\023\201\276\253I\020=\002\216\261=ZK\344\276\014\374\242\276\237}\315=\246^\374>sd\376>I\352\310=\206_Q\276\002\233\004\277\234R%>\030-\364\2751:A\276\334\210\306\275\267\370G\277\007l\177>\223\311\217>\357\231\350\275\213\343E\276\307t\207>\002\355\'\275\264\302\351\276\223\203`=f\335,=\341\326\\\274\307T\306=\265\321\014?\"\371\016\275Y\275\300>\237a\347=\374I\310>p\234 \276\255(\311=w\310\213\276V5i>\311\334\007?\314\330\036\276\020hA\276$\367!\275<p\350\276e\"5>\000\343n\275*O\237>\220Pq?\374\305\321\275\341G\263>\\\006\370\275)#\254\276\310\n\'\277{\355\241\2768\321K>\270\366\r\276\323}-\276\254\234\242>*{y\276\226J\001?\325\350\275<\026m\275>o$\244\274yB@>fg\371<--\257\276\221?\001\277\252\277\033>bH\017>\251(\252>\312\300,\276\007\271 \276\216\320e>\322\363\364\276`\237A\275j\347\362\275\215\363+\277\'\024\245\276\302\200\342>Y=\">rz\341\274R\217\026=\320Q\005=K\206I>\310\023\203>;5G\276A\304m=dD\306\275\3169:\276\347\265\217=\264\202m>\253\277X<\227\254\246>\262\264y>\363\327\325=b\326\205>\322\352=>\323k\264>\320jJ\275\216u|=\237\305%<\177\271.>\342\205j\276pC\t>8P\361\276\017n=>G%\250>>Y^\275g\345\323<R\253\230>\031\333\017>\250I\016?l\363\t\2755\021\006\277\360M/\276\257b\257\276Pi\210\276#@\215\275\350\016\027\276\0206\200\276M+\324\276\210\020\256\276\321x\005?\0068{>9/?<\"\275\004?\350D\025>H\023\216\275\005\211\232>my\302\276\010\356\332\275\304\034\017\277\027\227\303\276\211KY\276HI\223\276#w\311\276]\366\270\276\235\307\250\276n6\222\276\263\3005>*\222@=\375\263\214>E\363\006\274\3153\316\275{-\342\275\207\362\r\276c\271\256\276V\026\330\276VH\210=hv\211\276\006\202\345=O\247\t?\214\0262\277\231^#\276\277|\003>\270\275\013\277\330\030I>\023\267l\276H*\300\276I\304^\276\351\314.\276:5\251=8\274\270>\274\347\352\276q;\301>\255\202\003\277\271\253\231\276\260\354A\275\2357\373\275\326^\210\275t^\223\275\371\216+\277F\277\016\275\206\303\273\276L\000A\276\272\251w=\270~\332\276\201G\313\276uu\346>\324A\215>V\257\036=V\373\312<\320\270\207\274\334\235B\276b\213\352>_\335\357\276\013\227\257>\304\361\373>\244\211c?;KY>\231\260\260\276Y\027\322\276-\307\321\274\326\217\026\277\314$*>m\225\027?5\315\017?\250\233\225\276]\242\340\275\333S\324=\336\030\320\276\224A\224\275\316.\254>sW\031>\333\007K>ds\004\276\254\217\317\276\'t\031?\006s\253>\270}u>\242\211\343\276@\203\022\276\304 \217>\351\237\257=$Q\266\276J\034\304>\243y\020\275\216\211\324\274g\r\363\276\324}x\276\002:\000?\217+\204\276\036\302\246\276\367?\374\274\331Y\007?\262\226\253\276nE\"\276j\374\030>\332`\004?\3468\374\276f\032\006\276\276>P\276\316 \243> \363\264\276;?\330\275\345PW\276\tY\314>\004\272u>O\033f>\006\275\342>\221\257\276\276\226{)?a\226\013\274N\306\t>\360A\005>\030\272\232>*(Z>\302\374\306\276=\257\361=\034\314\304=\272M\361>\207(\220\276\232\020\344<\320\3038>U\036\352>\260.\217>#\204g>\264\232\376>`\017\275\276r7\212=\020\007\220\276\t\216\306=.\014`\276\374\312W=\302\023\344>\337\337\223>\347\374\014\276\374\276\246>\276R\332\274z\374\355\275\324\344\276=\373\341\340>\026M\261>\330<\254>\371\256a\276\250x!>\321\323\030<\206\345\023\275\016\353\343=.Z->U\230\216\275F/\005\275\212\264\256>\306$4\276\321\347\205>(\301\031?\250V\257=\027\261\254\276\317\375\310=\330\013\356>\0254\264\275<O\033?|\3410=N\252\t>m\356(>\356i|>\244v\007\277!\251\203>;&\010?f\246\272>\261\247L>D`\321>Fd\332>$\337,>Ei*?\340\0345\276PD_>Kx\326\275\275i\"?\023\326\010\275R\004\325>\r\360\207\276\220\276:<|\232/\276[\236\020\276\013\230\206\2750\203\255\274\243=#\277\035\006\035<7\343\312=Ty\035\275\210\326\271>G^\301<\204\202\004=\031z\032\276\265o\371=\007\366d\276_\216\312>-K\252>\272\303G>\023\331j>\0130\305\274\277n.\276\263\205n=}\320\324\276\207H\262\275\254\215\026\277\321&z>\353\304\224=\032\t\356==*\235\276C\212\322\276x\274\342>\332\346\005>A\344\341>\363\202\306>\235%\323=/\252\237\276\321F\300>4\257\234\274\332\372z<Dv\021>\351\214\001?Y\270O>\013Lg\274\321\250\326\275\201\340\263>2\031#\276\336\230\333;!\275\255\275*\301 >it.>u\024\371=\214o\246>\271E\360\276\'qn\275\264\003\300\276\313\257\n>?u\352=-\232;>\\\002\316\276j5_\276`q\013=9\266_=\326\021\031>\353\225E>\354\231\017=-\366\323\276\242\342\302\276\032n2\276\245\206\261=6\260c<\236(\344\275I2\346=/\243\001\277\224\274?\275\227\235\356\275\352\341t\275?b/=\220u\273>\\\342\342>\002\271\254\276\241\2007\275N\355\n\277\376\317P\276\000\000>>\t8\307\275\214\363X\276w\263Y>\354\022\217\275\202\351\337:y\177h\276\274A\210>\336\360\253\276\240\272\n>7\206\247>\276\213Z\276\334q\316\276%.\212>\231\337K>\325\200\272\276\031c\221<#\026\212=8,\375\276\332\200\256<l\356\263\275\300\203\325\275\244\374\371=\034\365\251\276H\014\354\275)\212\364\276e\242\215>\304zg\275\261\336w>\254\277}\275\255=\230>4P\t\275\255\211\272=~\265V\275I\301\007\277\002\026\220>V\311\217>\037j6>X\014\220>.\r\240<4\320\013\276\245+H\277\013\207_>\005\343\001?\365\024#>>\325\307\276\276\350h\276\367\225\242\276T\267/>\002\036\310>\024-\325\2769\366\226\275\270O\030=-\'\254\275\027m\025\276S\224&\275\342\223\217\276\225\313x\275z3G\276\357i\336\275\022\201g>Fjq>\327\220\023\277\264\341\363>\311n\312>\275\033\"\276B\010J\276\021\023\317\275\266\300\030\276L\321\224\276\337\211\377<*X\224\276\345J\322\275;\315\352>\211\371\360>\230\267\036\276\036\370\253\275D\346\026\276\202m\r>\233i\237>\330\210\261\276\020\317+\274\250\265\217\275\352\206C=C\207\026>`\244\216>\006\355\"\276Lv\'=1\225\035>\275\247!\276\222\206b>\230\234\374=\337pC>\001\343\231\2757\211\263>\377\355\023>\303S\253=\247t\007\276\032\016\366\276\331\005\364\276\'\234\376\276[\007R\276Y\247q\277\376IY=G\262C>\013wV?ag\260><\2263>P\267\t>\271\202\016=\331\301\220>\240\340\226><\221m>\332\3735=\376\261C>\307\\-\276SB\243\275\3174\231\276\256_\320>\314C\305\275#\212\000?k_Q\276\277\246\004\277\245E/\276\\\205\212\276\277n\330\2760\374H>\253tm>\333\240\250\275\346Te\276\242\036)<<+.=f/\320\276\251\020\251<\325\0242\276\224\215N>\301\\\250\276\210\300\357\275\363bl\276\023+\334>s6d>]\r\307>u\302\224>6\305\211\276\312\305S=\'5\250>\250r\024?\312\'\256>\356\002\342>\204]\342>\235\014\254\275l\321&\276>\n\000\275}7e\2750!-\277\250\272$\276\207+S?\370\365\312\276\355\350E=4\354\177=\232\240\035?\307\367\223\276\216~\004\277\370\307\r;\276\364X>\"\227\266\276\206:R>\244\013w\276\204\333H>\216U\003?ltc=\"\240\220=2b\300\275gp\256=6\255\262>\004Zc>@b\332<\233\216\305\276<\244\217>\310\364\225\276V\222\014\276\307\254\215>\270K\007\276\361?f\275\303\023U=5\363\030\277_\244\316\275\016U\000\275\023\223&>v6H>\223\352\232\276\013c\">\274\305\266\275E\322a\275bU\017>\236\354\307\275-\016\361>\0374\027>\245\205\233\276x\000\251<mE\036>R\232I<\364\3233\276+\244Q\275\363Y)<\266n\366>4\241}>/dX=\344=\000\276\266?D=\276\260/?\'e\316\276$\324\213>\347i\267\275\211J\331\275N\301\205\276:\203\241\276\243\2431\275\377c\327\276\272\316V\274!=<>\010\260\262>A\351\360=\271|\226\275\177Q\002>\0040\252>\326\346\035>\010q\t?\363q\004=\200L:>A\363\227\276\277\006\255=c\233\201\276\026\342h=\"G\340=\210\205$\276\253O\373\276\202\204~\276t\246>?M\272\301\276\027R\001>Ip<\276j\034=?6\370\224>[\2569\277~V\210\275\313h\005? \324?\277\253\355H\274\263\351\0329\250s\016\275\321\274\345\276\212L*?\340=\243=\331\275:=\351hv\275\'\r\001?\233R\243\277\t\010\346\276\007f\033?C\326z\274\240\377\256\275\326\272%>z\035o:,g\022\277\337\236\274>l\333\307>\2155\244\276\250\355\245>\347\327(>\312\350Y\277\325B\257>\205\322!?)\006\256\276\237\357N\276\366\252\324>\342\016\020>3EW\275\023\201Y>\002\241\300>|+T\275\244\272\317\276~m\201\275\371\352\330;\362\200:?\265\340\\\277)J\273\276\007+;=RZ\216>\033\2365\277x\000a>\210\222\255\276\355;\013>\"\337\332\276\225\314\016>\261B\027<\314\215\241=\362\216\247\276\331\331\255\275\263\206\256\275\3468[\276\017@\001?\344\024\t>C\345\013\277\230F\027\277\360\314Y=\211\351\201>\242\375~\275t9\231\276\321\244\266\275\232E\022\2760\261H\275K&-\276+=\024\276\265z}>[QA>\321+\242>|\262\260=\004\344\'\276\323T\242>\346\276<=\027\377\"\276\377\224[\276\324\340\362\274\335\250}\275tI <I2\211\276\323_\037>\360KI=\nh\005\275\310\207I>:\007\010?\313j\345>h`*\276\033\203\320>v\210#\276\364%\245>\007u\273\273s\225R\276\240\357C\275\311\230\304\276\314z\014?\202\203\220\276\215\200U>C=\226>\350\204\350>\307\314L\274\352\272m\276\r\255\236=^\325\252\275\270\214\272\276\3734\023\277\004v\361\273\345\305\210\276\357\335\t>K\233\037\273\246\0327\276\312\212\327>\355\n*\276\3036/\276pK\035?\350sW>S\252(\2767\317\355>\316\036\317>\201{\372>\017\323\021>\210\006\206>\"\010\032\276\007\260\004>\375\277p\275\027\225\376\275#W\025>*\204\265\2737\301e>\277\022\204=\250\306\032>\217\220\231\275\327\212n\276J\037\204\276\334\210\241\275\314\026\326>\253\241\275>^t\227>\3711-\276\222\023\252\275\312i\225\2767>\376>\244\213\226\276IvX\274\322\205\342\275`fI>\315\364\361>u[\215<\020\302!\276\204\361\342=p\224\243\276\334\232\'>\307=\327>y\336u<\277\333_\276\367\013\251\275P\2249>\275mV\276;\235\242=\320\200\334\275\347\255\352\276X:\256\276:\244\036\277\325\3776>\253\267>\276\016a\014\277>\214\007\276\260]\334;T\2549\274\334\277\323=d\336\260\276\3158\004\276\006\351\006>\266\374\370\275@\213\007?\"\004\240>\364\305\216\275O\206\324\276\307\377&\274\035-\277=P\335\371>\352R\n>\234\256\021\276\371\036\304\275z\\\316>T\357z\276\273\355\343\276.\304a\276\213\210(>\230/\212>\276\267\375\2769FJ\275\241\022\235>\034\255\204\2763\256\330>w\245\356<?X\223>\247s(=W\022\r?\355\3423?J\031\357\275\372\024B?\251\2254<\0250\251\276\367\245%?H\255\247>&\272\"?\305\342\000\277=,\332\276i\\\254>\201W\233>\243\013\035\276w\266C>cU\201>\315\333m\2753\321\355\276\333\026\026>\261n\027\2761\020\220>\224b\330<\264)\341\276\207S\330>\250\r\212\276nx\016\275h\201\357\276eo\r?\374\036\000>\335\365\'?(\223\036?!\201j\276 T\265\276\212\355o\276\271z\220>\266<\370>\027\352\033?H0\231\275\311b\245=C\024\014\275\367\273>>\234]\217\274\307&E=\240]V\276z\023\346>/T\363\276\343eL\276\022uV>\224X\272\274\265\337\301\275/\234\327\275M\\\256\275\264\364j>.\205\324\273\207vA\275\037\362<=\242o\024\276\372X\315>F\r\201\275\223\230\231\276H\253[>\363\303\327>?u\274\276\030eF\275\007\274\025\277LW\204\276`\233C>\252\265\003?&Fj=\020%e>\330\240\237\276\316\231/\275\355\177D>\225\212\032>\315\310\003\274\346\364q<\204\236\002\276\210\214G\275\371\026x\276\366S\327>\346xf>\354\217P=T\022\222\276\212\244\001\276q\265\356<L\243\206\276>C\202>\270\014\211\276\362L\210>%Z\370>\252\024\203=J\206H=K\363\212>n\016\217=\037\027\211>\036\357v>8\323\230\275\212\267\000>\367\240\n\277\017\372\006\276g\312F\276\020\232V>\321-r\276C\335f=\226\242q=\3545\342\276\221\253N\2759u\024>\010\231\331\276\375\'\222>\252o\260\275\267!\021><\303\220\276\177\256\264\275m\203;>\313p\271\2763\232\005\277\201\231\241\2763\035\203>\025\373@?\3676}\276\240\347\205>\004\033\366>\315\213\025=\346\367+\276\030\350\333\275#F\235\276v\214\350=\n\340\323>\266I3\276F\371\265=l\026B\275\353\357\024>0f\355\276\r^\265\276\006\t\030\276<\247\276\276+bj\275\033\246\245>\256$#\276sN\364\276\352d\205\276\223\020\310\273\037T{\275DE\t\276B\2729\276\224\274\025\275\252?I>\377\004\232=\356\ta=\256>*\2749\321\266>\275\274\360=\001\214\233\275\262u\274=\300J\315\276R\213}\275S+m>\236H\237\2754:\212\276\305H\313\276P\364\314=\022\242\206=\003\025\010>\224b\303=\363\235\223\275\'N\360=(:\271=\324\224\373>\351o\240\276o\331j>\362\355V\275\324\022\\\276\260\212\343\276\225\2273<\177\nx\277\325e\323\276\240}*>\342\006\232\276#7\325=\250\3353>\313\r\207>m\243\330\2766\257\036<ln\220\276\267VU><\311v\275\250\340\225\276+\253\372>~9@>*\260>\275wA\351\275\251\024\317\275\334\031\024>sH\363;+q\'>\353\214\376=\243\371\036\276I\204`\276\271\267\031=\035\271\226>\372\206\000>\350#\035>g>\340>Z\333\234>\211+h\275\255\333A>\026|\026\277W\242P\275\0330\251<\3300\225=`\243\027<Lm~\275\362\t\217=\206MB\276\257\2347\2776p\027?\246O\002>ea\240=j\242\237\276\000,h>\177\334\206>~\3430\273\304\013D>0\302\204=h\030\234\276\3505\370>M\205\374\274\235w\r\277\254n(\274\014v\305>\344\225\367=t\355\030\276\033\345\211>\201\020\331\276\013o\237<Wq\032>99\325>\'\002\327>\221(w\275e\204\222=\244Q\265>\375iX\276\343\334\025>\356\243\315=\316]_\276\211\346\001\275\3401\303>2\353\307\275\327?\240\274\336\306w>\347:\273\276\337\370\020\276,pr>\225}w<\035\211\032\277\301\300@>\322k\007>Z\246\225=\250\367\323<\240\337\030?\300&\034=\222\362F\276b\034A\276\207\266\217\275\371\223y\275$x\355>\371\322\244\276\034\263\216>\323\377\030>\325\236\270>&k\233>\363\343\355=g\270\276\276w`\321=\226Ig>i\260\355=\332\n\202>\201\366\006?\263G\256\276\003\2566>\000\r\260>c\330\270>-\220\241\276@\325\260\276\223\025)\276\030Q\321\275L\261b\276GD\220\275ttt>*\344\260>nA)\276\320u\267\276\2206B\274Vs\200>\275{\312\275\267\037$\276\r+\354=i\254)\276\2263\201\277\221&\r=dz&\2762\231\233=LN\022?\177U\230\275\322\342\016>\3534Y\275K\260\223<\366y\270>56\036\276\021-\027\277\200\230O>\202\266\343=C\220\260\276\362\216\004\274\367\366\270<\n&\020=\332\267\330\2763`5>\032\035\324<\005\222\032>\010Q\222\276[\034N<\030\362\251>Y+\302\276z\013.\276\340\204\300\276\220\004\227=\203\307\263=\210g8>\205\351\365\276\2206\356=\233\271x\276\r\261\021\276\332R\200<\242#\315>Q\260\277>/r\310;~\227%\276<>\261>\003\356N\274\260e\203\276E\020\277\275W\221\200>?.C\275bn\254\276q\001\022?\310\274\251\274\273y)>\312\3333>}\200\310\275{\374\221<\267H\223\276O<_=O;\261\275\367\031I=\267\354\007?\325\227,\276oT\243\275/\243\r\277\253\255\274\276P\177?\276-K\374\275\377\231\264\276E\033o>Z$\024\275\320\376t>\346-\\\277]\202H>B7,\277n\246\350>3Y\005>7>\236>\371\334q\275 \344\366\276n\247\231\276!\234h>\210\325\254\276w\377\t?T\200\255\276\357\247\357\275\027\214\\>\376\345;\271~%T>\337\240\017\277.\002\325\276\022\375\217\275l\234=\275\254\351\250=K)L<\377,\352\276\274\213\331=U\311\330=\357\225\222>\316\250\226>\360\274>>\350\2171\276\353m\237\276\353/!>|\301b\276\327\005\034\276\227\014\r?\270\214\033\275\326\307\332=\267R|>Cc\222\275\364\375\273>\260B\252\276w<\032>\201U.>\321\361\356=\335\311\312>$N$>\336\333\013\276!\262S>\273CY\276\rl+\276J^\332=\005M\236\276\327\016\233\275V\213\353\2760\001D\276\321\370\002?N\034\264\276\214\013(\276rL;\276\025\370%=v0\271\276\236{\t>\254vI\277o\017\016=I\211O\276\031\r\004?\304\350\255>\313Ey>\020` ?\034\344\023>\210S\021\277q\371}>\036\257n\276\204\335\306>\214\372y\275\330\022\022\2761\030\275\276\212\306\001>\303\330\272>\325\244.\276 {|=\205?\010\276)\236*=Ir+\276\020\177!\276\315_\321>\007\312w\275\016\202\372\275@\233n\275mz(\275\001Uh\277nX\317>\222\220K\276\261\246X\277\315\266\330>\354\266\347=ic\320>]\250\r\274q\340a>\367\263\276\276\211\353\353\275\"-\376\276}\372\271>`\207\366=\314\210\314\276~\231\242\276\035$K\276v\305\240\276\225\345*>CS\250>\300=\311>A\270\n=\377B\213\276\035\257g\276\274\032\353\276\361O\n\276uh\377\276F/\206\275\306\277\273\275\255\245->\377\377(=\244\230\373;\311?\340\274\034\302\220=B\342y>\222r4;\325\037\343\276Br\205>3(x\276B\"t\276\345\235\004?\3262\024\276B\333\332>\340\275\372=\n\r\347>w\277\222<\210)\201\275(l\274>\000\312\324>\203+R>V9v\275&/\034\276\334l\342\276\301\214\314=8qY>\254\307#=B\251/\276\017\0361\276\205\t\346=&Ng>\003\262^>\023\357\240>3\3404\275#\302\223\273\233\3423\276\316\016\271\274A\303S>^\317\346\273F\027\276\275\376J\264\276\352m\203\276\241\027\240>\320a\245\276\3321\232\276\006b\232<u\360b\276\332\206\342\275e\377\332=h65=\236\234\230>\037\323\246\276D\340\270\275D#\317\276\365\222\203=\206\342\245\276\303J\307=~d\325>\335\276\014\276h\235\333>`E\010\276\030B\327\274\307\311\004\277\024\344n\276\351\225\254;\013-\316>}\010\246>z\276\217>\321\303L>\247|\372<f\323\t\275\313\002u\276\232(\351\276\251Iv>/\355\307=\'\255\177\276\031x\205\2767\331\375=T[\374\275\211\021\257=\006K\272>\340l\265>%\235\257\276Q\350$?\037f\306=\313\005\003>\234\332\215<\260\177\306>\370\314\313>X\274\270\273\243\257\215\275t\320W\276\220\353\245\276\374\350p\275\271b\272\276\207\'\371=\227K\326=\266\023\321>\027g\316\276\037\250\213\276\'\"O>[h\\\275\271\031\327>+\313\003\277U\330 >,~\004>\026\352\235=c\215h\276\316{\343\276lD\245\274\2354\304>\341R\201>\207b\320\274\020`\273\276/\271k\276\240\271\327\276\352\016|\276\315\223\206\276\326$\302=js\314>\034\014\332\276p\024\347=\311\270L>S\300\264=\347\363\233>b\031\312<\\f:>>\313\033?\222\214\177=\350b\304\276\314xt\275\353\032\242\276\226\374\245\2761\"\027>\217\312\364\275!l\367\275\201\\/\277\271\275\316=|\022\271>\213\014\243\275\374\322\311\275c\352Q\276#\371\243\276NNB\275\250\016\350\276\373\200\315<\276\347\010=\313v\021\277;\234l\274\027\365\206\274\265\252R\276\306\222\r\275\004\304\331\275\343e\307\276\375^\237\276\205\0268\276[Bf\275\332\"\r?\363\317\230>\273\t\003?u*T>1\267\321=\346Et>a\200\217\276S\371\302>3\254l\276\340\0235\275\260\247\035\276\251|2>Kz\351=\222\315\311=Th\001<O\023\322\273\324%\002\277\370\302\302>\244\350j\276\366\362\273\276C\332\211\276C{\r\277r\327\232\276\342w\316<L`\211\274\267\033\306>\010Q\205\276E[\201\276[?\t>D\n\330>\256\321\365\276\367\371\352=\275Zj\276\231\324+>>\277H>\237K\342\275\275\345$\277Ol\227\276\2260\212\274\031\n\223>G&\336\276Yh\007\277(X\217\276eR ;\351\377\007>\272\226\271\276\263(\004>\277\306\277\276\270\245\271\275\"\203N\274[C\231<\260\231\316\276\302\272d\276\334^|>\274ag?\261(\250\276\177_\235\276\336\206o>vT+\274\353\220z\274\356t\270>id\">\360d\262=\335\004\362=\372\024\271\276\021\363\324\276`s\262\274\332\340\033>\332r\372\275\263M\330=\257K\304\275\013\001\037\277\226\231\016\276:fu\276$\353?\276\277&\224\275\217E\315>\034\252(?\250P\243>\253\216\341>A\3704\276\360o\224>z\240\004>(\247p<\370\031>\276r{+\276X\203\335\275\013\276*\276\226\217\335=\1771\354<\302\020\'\276\264,\001\277\374=O>AA\000\276\343\007\202\275\230+(=\357\273\361>\337S7\275\005\226\272>P\003\247\276\260\323\321=\261\021\242\276\217D\243>s\237\262<\022\320\004\277\245#\022\277\021\221y>\2310A\273\264\325\236\275\002\032\327>~\267\017=\345\211\362\275\333\250\211\276\322\224-\276\224W\004<:\005,?\257\':\276\361\025\321=\272\024\212>\3558\225=\215\351?\276\007\025\025\276P\204\260>-<\317\276\355\002\245\276*\306>\276\tU\277\276\225 D\276\273\235\243\274\221\243S\276\016SS>Cg\300\276\241U\333>;\355\307\276\240\353\006\277E\254\343>\221H\207?iN\024\277M\337;\276\251a*>DC1>~\365\340=\312Y\326>1 \210\275\014nw\276\006\340\177\276\013\315\275>\366\262\026\276\034\311\322> \367\033?\362\333\260\276\202\024{<\251\017\000\276p\215\264\275\244^\311=\203Wl>?\323\217>+\3268\276\'\364->\340\302\221\276\252\243:\276\270\204\244\276\006D\367>\360\370!\277\027%\241>x#T\276\200D\236\276r\361D\276\315\232\222\276*I[\276\374=\250\276p\036\270>\002\365(>\271\203\240>\202\272\014?\202\252\314\276\022\261\030\275\353e\003?\206\232\236\276N&\217=Jp\357\276*mB\275\254\322;\275p\317(\2772\001\031\276\254@P>\376\221/=\210\251\031\277n\317&\276\376\034\026\276_g\370\276\360\323<\277\032\343&\275\355\2677\276\'L4\276\020}\010?\027>\231\276/\024\316>\243\250\206>\374\314\207\276\321\217i\276\202\370\263\275e\300\001===\010>\274+\212\276i\272;\276\215\236_\273\"\247\374\275\375\275\035\276\347\030\335\2760\357\324>\221\270`\277<\350\323\275\355\324\r\275x*\274=86\302\276\037\234G=b\021F\277Q$\201\274\225/\n\276\360\244\334:\364Uz\275N%\324>\343T@\275\207!\r\276\217kr\276\250Y\345=?\240=>\007\341\260\275\324\035X=T\237\001?\260+\014\276\361\245\350>-%\300\275[\r\325=n/\327\276\210\221\264\275\022\256|\274\256Wm\276\3657\310\274B\246K\276\277\304W>z\002\261\2757\271\325>V\255\002?\3100\251\276\\\232\363\274g\255\264>\323\024~\2759\t*<\236\257\352>\030\305\260\276\366\250\t?\267\373\241\275\336t\324\276\267(s>\260Y\321=E\254&\276O4b>\032NC\273\\L\354\276VC\n\277/\261\204\274\324\231.\276\356A\247>\304$\030\274\'\220\025\275\313\223:\276\241\223 >1\357l\276\022+\006\275\304v)\275\376\234<\276\302P\217=\360\000\\\276\300\3272\277\305\247\204>n>\022>\212\253~\2736\351\261\276\n\307\351\276_ \263=y\210f\275&&\230=\033\226W\274\253l\233>\335(\230<\236\310C>C\304\302>\n\026\366=\345\345\217\276l\363\247\276nRf>+l\261\276a\374\334=\222\253\207>\346\335\345>\013u\321\273\353\373 \276\347\233\234=\270\000\360=M\330\273\275\261q\235>c\230I\274!\211\227>H\004\217=\303\r\334>\370\261F\276U\330\001\277\261\336c=i\256\344=\253\342\347>\202\266\300\275G]P\276\312\na>\252\375E>iP\207\276\034\235T>C\033\035>B\326\275\273\205\305\231=\332\346K\275X\024t\276\22340\277\221jP\275\244\014\272>\217\202\362\275)7\275>\242\313\304\275x\325\276\276\2717\213\276\306B\205\275\013f%\276K\344\005\276\031\014\352\275\216\034\354=\241\203>=\317Mb\276\247P\270>\\\004\002\274Uu@?\205\n\021>\370C\340=\034\331l<\267\336\354>\364\246h>.\376\205\276g+\236\276wP\"\277}\016\377>\265\370\353=\266S|>\342\234\330=\332\272\322\274\332BY>\306\031\372\274\354\216\242<.\373\220\275\365\351\273=\300n|=\336m+>\360\245\243<\211\202\200>\005%\361=\235\360\004?\261\326P>\235\261\303>\304\002\371\275\277T\221\275\254{\200>\244.\024\276dA\371\276\316\366\274\276\375\330\214\276\373\302\353=\267v\270>\273\020-=Yu\253>\027\025\230>\234]\020>C`\246\276\330\244\005>\250z\203>G^\305>\370c\373\274\246\006l\274\261\200:\276\260&\253=s\'\341\276b\336\013>~\221\334>`a\235=\310\3475=\010U3>\264M\221>\215\0343>\214\355\000?d\207\022\276\013!\005\276\201\255\330=v>9>\"k\342=Z\2148\276\244\370X> \274\374\2757\355\323\276\345\033\250>\261j\325=\303\272\263\275\235\021z\276\323j\362\276\227V\203\276~\364\226\275\305\235\013\276?\347\024>\203\354\236>\367\r}>(\027#>\032\021\311<E\035\236\2766\344\006?\234N_\276\331E\000\276\365\326\t\275\215\210\310=\373\347\371\275\257\300h<\020\365a\276\241e\021>K\232\255>\250WL\275+\213\200==H2\2763\324\241\276\250\365!\277\"\270\032\276Y]y\276\340\345X>\331\217\204\274QH\264\276\206\014\365>,7\246>J\233\245\276\350\374\241>/\010\320=H\'\302>\200\271\262\276\371\215\240=\371\007,?\357=\371=@\335A\2768\3153=\275\375f\274mWS>\325(\006>\326\001\240\275\213\306\002?\205}\367>y\003\226\275\277\214$>\335yf>\345\005N\276\332\351\364=Y\201%\276\310\366\223>\357\014k\276I\343\241\276\323\2779=3\351x\276V\341Y\275\236\337X\276\244\033x>\274}y<wx\026;P\343\016\2763\336l>\266e\217>4\201\007=\247e\271\276\342{\023\276w\030\302>\005\351\373\275G*\336>\365\355\033\276\236!\221\276\372\302\325\275\351A&\276=[\334>\333\217\376>{\234\355\276XQe>O\324\003\275W\277i=N\344.>\014\275\004\276\001\327\324>G\2337>\315\306\231=o\326.>\361J\255=\265$l>\016\177\277\276+G;>T\332\271=\303\205\345=\242Z;?\367\351 =|\367}=\315\014\270\276\277\023\310\275~\371\315>\034\005\001\276A\214]\275\322\230\035\276\207\036\213\276\317\271\214\276\367\316\301\274%\026\260\276;\035\021\277~9<=\204\235\323\276\255\"L?\007\355\252>\313s\312<\t>\260\276\372\025C?\2564\326\273c\324\236=yJ\010<\243}c>\001 \n?\036\032\265>\353\364\314=~\0257<\207\007\315=v.G>\316\250l=\001$\223>\254q\371\276\227K$?n\210o=\177{o<\016\367\002\277\264C\242>\t\'\360>\002\3536\276\276o\026>\337\226X\276=\021\341\275Hw\227=\365\024\352>\261\266\005?\320\017\333\274\353\331\031?\234\265>\276\301\276\006>\222\354\260\275\207\016\231>\352qJ\276~#\366=s>\254<\004\216\035\276\036\317\225>u\250\375\275\002\3653=\211\342e>\275j\262=\376\245\267\276i\314\224>\255\346\240\275\225\254N>\037 \300>P\312p>\377\236\262=\305\251\272\275\274;\234>~\n\254=\014\037\367>#\255\324\276\002v0\275<\305\324\273\376\204\231=\322o\031\276\276\213 >u\323\356=\263\255g=\033z\217>\375\tQ\275\250\316\276>6*\213\275w\307\000?AU\021>\2576\233>\367\013N\276\030;\205\275\031\330X>\373\275#\2760\000\010\275\203m+\276z\027\366>\271\332\253\276\033?\313\2768oI\276N\275w>O\244.>t\302\323\276\206p\254=\340G\\\275[\035\033?\277\227\334\276<\206V>\225\336\310\275\026\371u\276j;\335>\206\213\020>3\251\315> \321m<\243F\313;\315\036\240>\304H\350>\364\233\356\276\302\025\310\275\325M\345\276\211\273\212=\023\272\025\276C\270\335\275\267\375\301>!\367\214=\237CI=5\277\024?\031v\266>-`@?J\033\226>\324#\225\275I\303y\275\255\t\270>Y\021\210=9\363\216\276\226=\274>\303)\355=\321\216J\276c^Z<u\314\027\276f\246\240\274\317\037\037?.\246\224>X\357\342\276\261-_=*/\001?\261\242\370>\2312\247\276\343D\203<\\q\204>Z\301\t\277>%#\276\313*\237\275\243]y>K\213\013?\325\266\221>\321\346m>\325\t.>#\302\323\274\225\314\370\275#\257\201>t$\203\276\270\031c?\361j\033?\272\345\246>\000R\261>\002\t\017?T|\001\277\350\220&\276\245\367\034?\003@\273>\345\345%?\326\366\327\275(\241\306\274\245\031\010\276\257O\262<\025\207L>6p\237>Ja\036>\331\302\210\276\274\0326>\364\232\334\276T@\360=X\306\312=\315\263\242\276\324\366\342\276\251)\000>\260zf=bG\376=\242\252\313=\327j;\276`K\017\277\366b\016>P\372\212>\3360\001\277\275\n6>\352\346=>\277QU\276\362\377K>\276\250\245\276\n,\005>\370\347\036\275\017\361\031\275_\346\345=\336\216\361\275\345\r\367\276a\321)\277\'p\032\276\017\273r\276\362\220\347>>v\337\275T@+\277\263\352\377\275G\251\036\276\235)\312\276\252}p=\252\304\255\276\037&l>\376\242\272\276`T\217\276W\262\223\276s\226\022\277\264.\347\276&\200\014>\\/\006\276\227n\214\276\210\002\023\276\340r\t=\356\270\301\276\205Z\363:\327\275n>\254c\252\274\365o\002>\350;\215>%V\244\274\361\335\232\275\003N\211\2765\256\255\275\016\275D>\326cf\276\324qG\2763 N\275R\215u\276r\200\350\276nN!\277{a\202=9n\017\275\243>1>\276\363\254\275y\"g<\275]y\275\323\"\206=u\203\210\276\273f\335>\303%\230>\341\2071\276\305\025<\276\007\255\002\276\315\341\014\277\371\376==\007\216\234\276\275\330\002\277\265\201\250\276^\376\245=\000\034\213>\227.\352>L\275\010<\2143\213\276T\214\007\276\244a\036\276?\355?\276\025r\374\275\231\311\343\276}\216\033\276\345\324\372=\223L\341\276\347U\373<\004\266\274=\007\3069\276\254\322\210\276\221\240\231\275\2733\341=-\337\014\277mih\276=\345\324>\344Ej\276\347\002\345=\212\022#?\321\367)\275.\237H=\235\322\006\276\235\210\214\276\260E\211\276k\360\014\277\332\246(>\333\201\252\276X1\312>\224I\314=\335\207\032\276\227P\355\275\275\254\303\275^\360\266=\341\375S>\332N\263>\313\022!<\001z\262\276\303\306U\276\344\206\310=\3509?\276OP\303=\213\2372\276\235\375\006\276\213\027\\\275\234\216\223=\263\370\024\274\'O\253\275\234\350\330<lm\t>\366{\237>\022\306@>\362k8=J\037\222>KV\261>\270\222\252\275XFZ\276\271\266n>\342\202\231>A\357;\275\016\242|\276\226\317.\276]\236\261>\323/\207\276\257\310]>\202\247\356>\207ie>\342]\233=\236k\216\276\316s\336>\333$V=\003j\325<f\244\014\276=\023\210\276\3124\010>lS\353>w\210\235\276\013\354\001>\325\255\246>\032\332\353=\231\374\315>\365&`<\367\247\206\275\210/\330\275\271\353\217\275\205\231\341\276\265\014\305>\007\277o\276\010\334\277=XC\020\277\324|\337\276n\260\014\273\215\224;>\026]\205\274\007\034\206=hU\023\277\303,\251\276zf\275>\034a\267=\371]\305>\301\231\226>\227p\300\276{\023\000\275V\t\305>\226\025\316\275R\007\266>\374\211\211\272\207\241F\274Fs\035=\036\213\320\276g\252\246\276\303\017\017\275\347\340\312\275A\322\201=;\207\312>3\321L<\363\352;\275\234h\201\276iuB?86\234>\220\256\237\275|\226\277\275\377Y\004?\212*\205\276\370\035\374=W\256\217>\341V\250\276\324Pq\276u\225l\276D\350\035\276\316$\344>C\244\344\276|\230\241\275\\c\277=.\222\363\276\211\330k\274\374\247\320=fl[\276\246\356\333>[\302\211=\003p>>\'S\006= \213\023?\024\270\022\276\357\214\327\275\241\267d=\271\030\220\275\nP\270<\334\366\337\275\006\032\n?\202\357\024\277\225\331\351\275\227\226\246=\341\202\326>\023\373<\276Hx\010>\300R%>E\003\002>Qx\305>\325\257U=tvP\276W[\234>\324_\033\276\374ID\276lV\222\276\250\314W>i\311\360>\205\210><\216\020|>\3456\375\274\214\222j=5o\257<J\314\213;\272\'\345>\375\376\347\275I\252-\276\026s\300\276h1\257\276\303\341\253>\310Z\256=\207@\215\276\322\327\304?\213\300\240>\002O\003\276\363\240y\274\307\023Y?\321\002\003\277\300{\230\276\014@\023>\205\3717>PV\226\276\352\362\273?\361\240\340>\363\225\371\276\276\243\'\276\212\n\323>f^\310\275\262\"-<\375\245r>}\020\340\276\010\351\335\276@\343\316>\273#\204>\256e\220>\273{\021?\247\226G\277\206&3=\347e\003<\274X\312>9\216E\277\374\242\213<\324$\274\275ME\020>uz\221\276\nxE=\303\0000>\330OT<\232\266\356\276A\031\027\277\323\3229?Y]\017\276\326\225C\276\271P\363\275]{<>9\376\234\272E74?\270F\261>\353C\013?\322\207\031?\246\177\343\274\304,\373=zZ\020<\330\267\345\275\355w\202\276\020u\210\276\221\'\000=\370\355\020\277\025,\367\274\233\"\001\277\"\262\274\276\267\230#>\002\r/\275\036\034\214>>S\006=\345\333\r\276\242\245\271>\371\215\020\274z\006\r\277J\n\206>\360=h>\026\344\232\276\374\270J\276\364\212\\\276\243\306\"\275H\344C=\346\334Z>R\252[\276p#\271=@\023!\275\351\260U\276:\351>=C\252\\\275\250#\010?p\250@>\263\237q=\366\003 ?\201\222\026?:\023\312\2752W%\275\224\341\211\276S\023\316\275\303\034\026\276>\335\032?\333\212\314\276\rP\355\276:M\357\275\350\352\364>\206Fg>\247\311\026<\354\035L>\001\3375>\206\230\213>\373\006\202\276\\\342\353>\201\326\360\276M\023A=\273\342*<OX\032?\335\266c=\237I\346>\362\027\270>\215y\242>\0336\006\276N\026\333\275.\363w\274\207\234\027\277\231$\324>L\274\204\276\226\377\"\277V\303\356\276\214Y\021\2760>\312\276\333|Z\276\370\226\025=\251\207\\>\313\316V\276\267q\206\276\014\003\345<4\320\336\274zZ\214\2765\221X\275\030\330\034\275\344\364}>\234\335\340>\020\335\336\276\374\276\311=\304r\220>@\274\362\276\234\336K\276\331\202\220=\360\271\227>@\315\201\275r\025\265\276J\256\353<\223\245\367\276\023\253b\276,\222\033\276aI\316=[/T>\003\325/?j3\005\276\277I7\277\323\021\211\276\377\300\\>\01732\276}=\210\276\317,\363\276~v\020=\034\032\342\275\361\023\032<E\254\016\276\324\016\345\275\03351>b\014\313=3\2172\277\t\361P\276\340o\216\275Wm\202\275<\204\251\276\200\363\311>X\230g\276\262A\221>J6\246\276\3277\320\275\360\206\330\276\320\013\025;\227\302\366\275\325\336\375\275O\347\241=\237q\222\275\r.n>t#\334>3\027#>\016\203\337\276\206\317p>)\353=>\245\006\216>\232 g=\3219\200\275\"\346g<\316q\261>Pk#=v\332$>\244pt>Q\000\332=V\224\236\275Ur;=\330\"h\276\261\004\211\276<\267L>K\3614\276\014\321\002\277\255\302\203\276\260\223\313\276\244\332\266\275\030\274\326>\004{\032>f\033\037\276\324@k\276\274\'\n>6\262:=S\227\006>\315Z\230\2762\357i>\333\304\275>\300\255\270>y\316x>b\256\365=\236\006+\276f\2741>\261\n\255\276\345\215\"\276\314\231\307\276\227\225\224\2756\215\025\276\373\245\324>\200~*\275\250\025\277=\003\314\031?\013\210\r?j\365\316=\037\3608\275a\244<>\025\313\372\274u\373\036>\203\330\341\275Ns\025>D-\031?\246R\'<3\374\206\275\346\0244\276dJ\212\276}e\317\276BS\323\274A\020\231\275#_(<|aK>[\003\307>\315-\330\276WT\357\276j\236>>\2131\177\276\250;\033\276\2566\035\277\201m\242\276$\310\315>F0\252=M\276\216\276\260:)=5$v\276\t*t>\007\315\010>\002\367\267\276G=\371>\002\031\311\275\372hE\276\361\266l>\335\331\377\275\325h[\275\'I\313>h\235\007=\215(9>\366fa\274p\020\\\276\335\237\220\276\\\275\307\276\347Y\267>\355\024\313=\253$\326\276\2431\201>\325H\310\276\341\320\016\276A\377\272\276\006\017\003\276_S\242\276\022\215\007\277\251\232\237\275\000\344m>\304*\204\2767\003\202\275\347yJ\276V\236\005>\323\356\233>\337\247\265\275b\240:>\231Z\275=\201R\303<\224T\255\276\212\204\250\276\026]\376\276\371\370\313\274\t\365\036\276\306,\341>w\356[\276{\264.\276\026PG>\204\230%\276\')\265\276\r\301T=*\256\231>\210\031\036\276\251\225\252>\301\363\253> r\345>M\013 \275\3021\347>H\323\314>\337\301\235>\211\323\307\276\317\345F>\273#\362\275\022\324\t\277pw\242=\333.\254<\204%}\274\3600e=\336B\351\275a\327\001?\213(v\276\324\030\264>\236\247\034\276\226\327\235\276\256-L\275\367\246\003=\241[\207>&`\251>*\037\341\276b#\220>&\007I\276\271\242\312\275\371^>\276\313H\345\276FJ3\2768\362\">\347\364(\276\\v>\274\370\246\021\277\253@Y>\t\217\201\276\034\253\\\276\n\314\213\275\264\325\\>qd\255\276\251>\032\275\206)\315\276\257\231\024\276\240\0063<\024%\237\276w\021y\276\337\255\366=1\316\253\276\226\013\033>\245BW>:\351\347\275\305*\002?\345\321\021>Y\"\212>\267<C>\2109\017\276\362\371\026\276\244h%>;\227\341\275\027q\222\274\004q/>;\376\211=\023=\221>}IU\276\370\271\312\274\027\"\305\276\243\006\235\276\215V:>\352\346q=W\201c\276\023\210\334\276\212\n\n=e\364\264\276w\257]\275\372\366j\276\346]\250\275\221\262\001\277\257\353\001?\222F\323\276Q\222\212>\020\213\177\275h\372B<)\344\037\276\314\236\206>\343\237\323\276w\006S\276\233^\302\276\211Z\246>6\374\344>\302^\356<\000\252\364>f\232I>n\376\223=\236\204\223>CSn>\360\234J;9\304\235\274\262\312\244>\241=\267\275\343\206\222\275#\273;=~\332\014\274\203\0241=\271\003\366>z:\266\276@\251\314\275\311\2224\276\327\363v>!/4?7-O>X\260\233\276\344\355D\275r\337X>\216\333\024\275`\203\364\274&\221\207\275\354\375\204\275\242\326\241>\207a\365\276\353h\225>^F\037\276Pv\212\276h\300@\276\r<);\305\005\005\276\370\257\006>\312\331\232>\301\3511>\372=\006\275B\217\001\276w\342\203\276\006K\304>j^!>\t2X\276\\\034\331>\032\227H>d\305\325>~\314\231>1\362\366\274\325\220\014\276is\003?\347C\203\275\201J\227\276\201\222r>!\317\022?\031\250\'\276\266\271\261>\000\005\225>\353G\310=\323\356\216>&[\276\276R\354o\276\005\234\245\275.g\200>6I\271=\3560\230\275\206\335\244>\221xt\276q}\237=\njB\276\305g\241\276D\'\350>\216u\275\276dE\275\276\036\367\247\276\333\213\352>\245dh\275~\036\262\276\0035\005>\367\211\261>\246\220\313\276\307\371\224=7\313\231>\235\001\321> \337\013>\274\214\213>K\214#\276\374\271\237\276.\344@\277A \232\276\234\361\327>D\032\267=\253\274E?\302\211:>MO\352>\235I\251>\026\203H>\022\027A>]JK>\321\021`=\255\273\252>\0358H\276\250\032\322\276\246]\207\276\323~O>\216R\235>\235\n\203\275\373\300\232\276S\003J=\004(\241\276&Uz>S\241\026?\240N\027>\001\214 \276Z4\243\276\355\373/\276\345^\036>B\027s\276\006\217G\276\244\311\363>Y\362\006=\177v\244=\373\"\326\276J\343\220\276{\273\234>\260\200N\276\017\337\257=Cr\331>\034\335\030\276\310\3538\275;i\244<\034>E\276. |>\253\314k>\250\302\000>\347\017\367\276\244\365\376\275\2162C>3\203\356<\333lp\276Sg\206=\256e\276\275\254\325\210>\305*\304\276\242~\364\275\3504\332>\322\245\315\276\310\301\222\276\323%\021\275g\316\023\276K\214\025>\033\353^\276\250+\234\276\035\333\371<\337\354\201\274\206M\301\2761\034\r?8\325\335\275\001\'\236\276\3134f?\023+\247\276\326\326h;`\373\017=\035\375\032?\207\234\306>`(\002\277\241\261\203>v\023\217=\205\376\212<\'\270\246\273S\216\273>#\331\007\276\204\200h\276\006E\200\276\223\r\206\276\177o\375\276L\007\364=\325e\317>\223\263\200>`\t\263\276W\034>\276q\250\027\277e<\005?\352\031\272\276\001$\237>6G>>\024\260/\277\232\006\246\276\315CA>P\337\237\276\255w|>\244\033\004?<\223\036=\024(\303>%\035\261\276\tX\010\2775\236-=\303g\234>\2246\037\276\240\214\304\276%\241\013?9\014\007\277\355\263\302\276\276;\006\277+\270\013\277\313\271L\275\030\317w\276\231\\\262>t\005\215>HM;\273|ej\277\214\302\213\276\370y\013?s\323\247>\231\316j<\300\207t\276\321Y\352\2758\001\325\276\010\224\364>[\\\312\276\023\256\244=\232\313\020\276^\306\304\273A\267\265\276\216\006\261\276(\210\350>\320\232;\277/a\202>\221\273\365=\311\321f>W\221h\276\220%4>\236\235\266>\204\033\370\275\\O\207\276\320P[\277\375\245_\276\212GM>\340m\231\275\235\227\310=\323\364\336<\007{\312\276\254_\315<z\017\360\276\367\251\241\276r({\275o\340\322\276\357\203\325\276\3176\032\276\243\370@\275\241\273Z\276\260\352\347<\364=\346\276f6!\277\002\0276>\310\004\022\275\305\227\"\276Ah\301=L\0357>\342~6>\240\231\327<\315\233s=EV\265>@5\222\276l\305\237\275`P\217\276\212WD\276\034O\202\273\220\261\271>\222\365-\277\357\364\017\277)\002\020<g\367\221\276\312j\350\276\021P\232=\325\300<>\"\330\320=\2660I=\267F\224>P\247\306>\014\306\014\277\336\001\204>\247f\022>\232o\203>\2617\256>LU\020>d\217\026>\337\r>?\310\007]>)\210#?\216\310\325\274\263\220\276<\302k\264=eQH>\275H\374=~V\355\275>y\006\275\364\3068\274\240W,\276\261I\214\276\025`\315\275\335\204+\276\255\017\"?\000\313\t>\270|\323=\234\3516>\363\353b>2\203\245\275\207\005I>\260\317\214>t\235\204\276\260\031\261>,&\003?\224D\231>\363\010U\276\365\"\r>r\246\242=\244\202\235=6\240\222\276\313\254\355>u\370\241>\000`G>\352\325l=\264cw\273\242\350q\276\270\322U>\252k\360<\275\270Y>\032?\277\275\261\007$>\220\322\266\276\335\247\331=\277\262k>\t\373\230\276\014f\330>\243g\252=}4\202\276\177\214a=\214\007\013\277|(l\275\272\231B?l\343;\274\374M\234\2744\025\264<\243\230\273>\020\233\227>\361\265\256>\257\375\277>\244q\370>\251Nf>\277o|\274&\204\033\276\005\361C>4K\351\276\363\305\205;\031/8>@\372\325\2769\311\236><\211\024\277G\276y\275\003n\262\276\374\023\324\275\333\"\210>$.\241\276\020\227\235\2765R\303>\210\032R>5\306\361\275F\220d>\021NI>\027\371Z\275\036\350L>\3550\344<\006k\207\276ai\215\276\322B\342=\n\230\202>\000\270\245=f\342K\276\232M4\277\302C.\277\333\250\025\277U\313|>\036`^\276\3301\257\275\036\356s>/\034N\273\302q\035>1\371\n?\3149O\276\231!\313\275_Fr>\301\302\344\275\211X\366=\3662\367=\004R\003?2h\216\273\2208\316\275{@+=\3522\276=\3634\221>_\246\223>\201gG>\227\021Q\276\362:_\276\366\002\243\275\347\356\352\276\240e\272>\177\245\242\276\274\212\032\275\274\337\320\276\271pV=\221\240/;\371\037\022>m\272Q>\351@\021\276\030%\212\276\344\326\225\276\025\033E>Q*\000\277\022\211\306=\366\017!>\035\257\256=&\304\014\276\266\240U\276\247\262\347>\351\'\355\276j\245\033\276ayC>\335c\210\276\"\324\310>\002/\254\2748F\342\276~&\004?dc\002?+*\217;\n\261\260>T\032\003\276ew\033>\301\223{\276\247-g>5\200\215\275\017\253J\276\326\273\301\276\033\320\007=oa\302\275\026*\032\276\335\333\313\274KK\277\276\367}6\276\273\360\341=\035sZ\276\035\r\202\276\225\246\232\276\300k\376\273\007c\027\277\246\347\356>B\242\032>\325\024\036\275lox>d\r\314\276\3369\225\275\361\376\254>\330Ck\276+\021\353=\373Y*>\225\252\006\277\2562+\276W\224\021?\177\317\355<\212Z\002\276\361\252\233\276S\177\266>\230\216 >x\326g\275\265Ib>\030\025\301>"
      }
    }
  }
}
node {
  name: "dense_1/bias"
  op: "Const"
  attr {
    key: "dtype"
    value {
      type: DT_FLOAT
    }
  }
  attr {
    key: "value"
    value {
      tensor {
        dtype: DT_FLOAT
        tensor_shape {
          dim {
            size: 64
          }
        }
        tensor_content: "H\211\256\276\334I\216\276a\003V\276)o\227\276\3355\325\276\'\275R\276\250\344\235\275\210`v\276\362\224\006\277\347\217\014\272\251\000\323\275\274jW\276\030v\"\275Y\321\301\276\321^\215\276\253H\270\276:\225\262\276q(e\276\263\007\200\276\336\207[\276\250\302\032\2764\322\241=\232\377\254\275\346\272\225\276\260\366\202\276\325\365*\276\\\\$\276\335\357\026\276aZh\275\250\212\221\276\375Z\326\276\212\233\314\275\222D\300\276qJ\213\276\3411\206\276c\023<\276{\366\261\275\021.\177=y&\n\276\360\357|\276\364\226t\276\364\2631=\374\236\325\276~\203\263\276\203\314\265\276%\377\013\276G\371\214\276\226\274\034\276\330\301\236\276\016\001d\276\2165N\276\300\326n\276\350\010\365\276vM\221\274\3344Y\275#S\214=D\251\366\276!\276\303\276q\263\345\276\025i\230\276\267\354\332\276g\375\211\276\n\234\034\277%\373M\276"
      }
    }
  }
}
node {
  name: "dense_1/MatMul/ReadVariableOp"
  op: "Identity"
  input: "dense_1/kernel"
  attr {
    key: "T"
    value {
      type: DT_FLOAT
    }
  }
}
node {
  name: "dense_1/MatMul"
  op: "MatMul"
  input: "dense/Tanh"
  input: "dense_1/MatMul/ReadVariableOp"
  attr {
    key: "T"
    value {
      type: DT_FLOAT
    }
  }
  attr {
    key: "transpose_a"
    value {
      b: false
    }
  }
  attr {
    key: "transpose_b"
    value {
      b: false
    }
  }
}
node {
  name: "dense_1/BiasAdd/ReadVariableOp"
  op: "Identity"
  input: "dense_1/bias"
  attr {
    key: "T"
    value {
      type: DT_FLOAT
    }
  }
}
node {
  name: "dense_1/BiasAdd"
  op: "BiasAdd"
  input: "dense_1/MatMul"
  input: "dense_1/BiasAdd/ReadVariableOp"
  attr {
    key: "T"
    value {
      type: DT_FLOAT
    }
  }
  attr {
    key: "data_format"
    value {
      s: "NHWC"
    }
  }
}
node {
  name: "dense_1/Relu"
  op: "Relu"
  input: "dense_1/BiasAdd"
  attr {
    key: "T"
    value {
      type: DT_FLOAT
    }
  }
}
node {
  name: "dense_2/kernel"
  op: "Const"
  attr {
    key: "dtype"
    value {
      type: DT_FLOAT
    }
  }
  attr {
    key: "value"
    value {
      tensor {
        dtype: DT_FLOAT
        tensor_shape {
          dim {
            size: 64
          }
          dim {
            size: 64
          }
        }
        tensor_content: "\025R\247\276K\001\231>\243v\000\277\377B\001>\376\"\342>\263\235\033\276\2759\231\276\353;6=\263\327\322\276\322\306\231>t\222\366\276\213\277\313\276I\003\230=\267\364 \276\026J\024>|\210\022=\207P\005=Iz\202=u\314\274\276\255\301&=\335\231!\277\032\206\246>\247D\262>\333\350-\2764\315\221\276\310\225\016\275\232\270\220>\322wO<&\005\245\275\037P\365\276\337\250\017>\270R\224\276/9\007?q\252\030?\275%!\275\001\021\224>\376\340n>\201\356\263<\206\266K\276\274\230\222>\315\330Q\276mY7\275[1\361\276\017\323\013;\200\\a\277\t0\023?\265\363\262\275\352\364\235>\336i\337=\366\013\261>E\317\322\276<\360\032\277m\036\200\277\177\\\004<\020+\375\274\2654)>\346\247h\276\277q\261\276\023,\213>\276\277n=\370\210\033?\233\303\270>!\017(\276\022\3635>\243\371\341\275\341\305!>\236\361u\275\376Wj>\343R\367\272 \334\230>nn\235\276\337\302\215>\376\250\276>\202\275\350>\220\315\203>\254\216\327>W\337\346=n\005\010>\221\000\254\277i\322\203\275j\312\013>C\374+\276PL\332<\037\177W>-\024\216=\247Q7>\321\006\241=E\361\r\275\272\t>=\254\006g=\305DV\277\322p\256\275R7\r\277\345\t\262=\357\230\010\277q\036d>,\225n\276\246\304\022\276\353qY\276\013\035\213\275\303\344\354\276\200F\005>o\261\327\274\004\227?\277\026\002y\276#\333\006>\257J\r=\260\301\366\276\373\226\263>\222\274\000\277\246\216?>+\337\224<\310\361\206\277\276-\231>\004\205f>\221u\215=\301\375\342=\235\242#>\n0\316>\342\267Y\274&\245\n>~\264\n\277\201\326K\276\033\007\252<\312\264\342\275\026*\010\277N\223R\276\212PF>\211\372\247\276\311V\372>\200\332\001;1\357\244\275\374\366\315>Y\272\213>]\326\023?N\370\277\275\341\036\'\276\214\177\363\276\027\361\207>\236Ve\273\332\340\'=\236\375\231=\375f\230\276\266\036\023\277\314\301\275>\204\023\r?\304\222\315;\213\231k\276\306+\240=\375\000K\277t4\360<j\265\216\2766L\371\275\373\003Q>\366h\210\276~\251\007\277\224\007\327=k\335\235\276\006L\'\275\347\225a\277\360\356\244\276T|\331=\271\002\337<\377h\226=?\265\203=\203\373%=/\231<\276\265Qr>\363\023\342>lw\302\276Z)3>\376\265\212\275\252H\277\273r\273\006>g\375\272\275\'\266\343\276\232\016\345>\333\242\201=\374\210:\274\321\252;\2757\277\365\276\217Hg\276\230\324\317\276Z\2531\277t\036\222>\263\323s\277\255\r\363\276\366Ef\276\337+\306=\200\343\330\276;\'.\275\347G|\277!\024M>u\245\304= \373)\276\005\220R\277\220\356h\276P\206\032\277r#\021>\306\323\205>\363\331[\277\0322\230<+\242y>\031\334\345>\214\253\360=S\377\261\276j\261\363>D\261n>\373\356\330\275\215H\245\276\336\241\256>\\\230\032\274kb6=\346\212\226>\322\3172\277vY\000\276\337m\333>\302i\014\277\234\023)?\256\'a\276\004\254\351>\372\302\260\276A\203O\277\240]C>\223\t\007?y3\031\276\244\032\357> p\035\277\323&\317<E;\021>o$(>|qL>\372pc>\177\014\312\276\\E\265\274\020\035\205\277\211<\245\275e\212\321\274\203!\271>Q?\364\2764a\033\277P\202\205\276\253\023\230\276\013\306G>$\214G\276\010\203\221\276\244\340 \2767M\013?g\213\324>r\332\000\277\243\361\236=\207\253\224\274T\200\240\276\001O4>\311\331\027\277 \327<\277!\340(>P\312\325\275\227o9\277 (\030>H\244\034\277Tp0\277\330:\365\276\032\350\004?yt\216\275\317\221\346\276\363a1\277gU-\277\025 r=h\254\022>\240\363\350\275&\263\227\276$\213K\275\240-\244\276\'\200\266>-\0365\276\265$@=\336\255\363=\034\334\224\276q\361n>\207\277\205>l\355B>\314\267\261\275\273kP\277\330T\200\276i\203\361\2743l\231\275a(\037>\320\320\265=R\033\371>C\215\033>\007\037\224>\320/\211\276\245\341\005>\266\003\207=X\304\201>q\206K=\371\002\002=\"\323\364\276\024\315\207>3\020\234\276\347\223\372\275*$\210>a\204\230;P\253\021=\321\177\201>\200\336x>\215H\327\275\262\325\031\277\312\006\323\276Z\t\000\273\010\016\327\276\303\221\344\275\337\271t\276\\\367}\276\370>\304>\335A\016<2_\024=\335\363\311=d\245\001?\222[.\276\327\353\234<S\324C>\016\356\373=\351\320\276\275\262\3734<m[4\276\001\024\255\276$mC\276l\177\017\275n\266}>\314I/>?!\021\276^9u>\227\300\277\277L\017@\277\336\2408<\006\'u\276S\275\235=\310\216E<\\\372\313>\227\232\003\276\240E\242\276\376\023\026\276r\315\364\276\\\343\321\275z\004^\277\274\352\223=Q\2429\277\\_\307>\275\272\361\276\374\203\233\2765\343\247:\033\351\3619\332\032\356>\222G\310\274f[\226>\216\220_=\321\214\235\276L\375\027>\267\230\313\274\312\032r>\213\212\023>\366\305\261\276\315\033\004\276\264:\021=\252J\031=AE\024>\363*\207\276c\202/>].\211=\337\314\322\276\313re<\314Y\216>\207\225.\277J\264\220\276\374\331,\276C\3443\276n\233\315>$\252\262>\215\305\021\274\247\t\212=w\020\030\276\344\332\232\276*b=\276\232\337v>\t\370x\276\216\342\010\275N\265\t>\262\272\030\277\356\272\032=\241)\016>\302\0226\276/`)\277AV\270\276\375G\\\276\344\034\367<\000\261>\276\315\316c\276\'\274\246>;\274\324>7vG\2756\363\235=\351\001\311>\327\221V\276\010\025\272=\236\240l>p\253\377\275\270b\325=\333F\332=\334\024\036<\3365v\273\257\246\211\275\314\262\">C\033\375\276VTO\275\232\ne\276!\330/>\264\'\376\275\204V\215\273\341\026%\276\362P\275\276i\324\026>\2070l\276\353\373\314=\307N\326>\377\236\261<\206\206A\275\204D~\275\031\213\350=\272\256\355<\037q\274>E\207\273\277\316\032M\275\261\214\203>\211\007-\276,\3420>\272\251=>g\257z>w\250\317\276%K\216\275\205\t\353\276\232J\007>\317\211\366=\307\371l\2767\225\002\277\177\";\276h\222\204>7g\350\275\022\246\006\277\250\224\227\276\215\037\351= \r\243\276\254\214\246\276T\376R=v\377\272>Y\260\002?\356\344\215\276\265{\222\276\324\351\010\275R\010\020?\315K\330=\250\376\260>\276|\233=Ua\347=\313)\\>\273\202\275\275n\307u\276$\320e\276$\221\004??i\330\276\032\372 >\2612\370\274V\022\335=\204\006\334>\353\307\336\275\231\246\200>V\247\\\276nS\302\275\260\002\231>u\224\200>\247\t\367\275\032\0073\276U\\\223>\303\326\025\276\177j\216\2750L*\276\316f\303>\270\265\204>\037[\320\276\331\340]>$H\275>)\221\302\276\361\247\223>\036\211<=\276\326\213\2760\013C\275\235\267\301\275t:\211\276\327_\373\275T,\256\276\024Yj\277\305\010\013>\217\004\213\276\2052\313\276\371\364\317>\336\233l=\326\206m\275\231\306\341\276\327K\237=\025\332|\276\334t\017\277\022\2045\277Ru\201>\246\336\026\275I\246\322\276\276\226\274\275\241\233\013\277\351\266(>9(|=4!?\276\242\374\233=\270N\t\276\030\253(>_\210\330=\336-\324\275~\276\000?a{\330=\315\367e\276\276\352$>\306\035\t\277(WO>\333\252\336\276\215\327D\276\362\037G>[k&>m:\307<\345P(<\240\204\020\276\322\302\001\276{\334\377=\227_\326\275*\337[\277W&\006?\217\306\034\276\367\240h>\217\014\357>\207\277\376=\374\314\242>\031\020/\273\007B\214\276\200\215\271\273\303<\021>e\037\367=\352\215Y=\315\250{\277\362\242\327\276\336\264\354\275\004%\n>\032\367\002?\236\014\230\276o\376\261\275\367`\013\277p\305\204\275\024\033\326\272+\270}\276\365\275x>\367!m>\375c@>\355/\237\277\340`/\277\"\035K\277\2012\350\276\024#\260\276\371y\251\275\375%\211\275\231$\031>\375\355R>g\205\353=\210\240\215\275\371\255\237\276KL\253>\254 2=\nSd\277m\004\340\275z\367\370>\013\023\207=\3277o>O\'`\276\337\305\362\276\304\231;\276\230~O\276\252U\233>\317R\002\275\311\217\347=\356\'\301>\224f\217\276?\252_>\037\t\037\276\035*\243>\255n3\277\372\201\256\276\2679\313\276\357M\005<\203\026\236\274\003\nH=\355\317\326>MW\321\276zP\215>\250a\260>&\246\252>\033\361+:\033Q\276>\305\351\371\275\022\212\005\277iY\227=N\272\246\2762\360%\275\005A0\276\272!5\276.)\027?\253G\374\276\2260@\275\210\253\205\274(\313X\277*\204\236\276\334\304;\276\210\361\251\276\200\276\333\276!\364\307>~H\001\2767\324\244\273\367\362\364\276\266\227\254\277_\270+>b\257\226\276%\253\202;\312\217\005?j\n\"\276f\205\017\277\310\350~>u\020\020<B\326\340=\345s\324\276!f\003\276\236\325&\275\212\366\014>\032\272#\273\021\244\316\276S\005\025\275\373=@\276\345\201\026\276J\n\300>\207\307\354\276\322\276\314\275\002\206\242>\252\353\373\273\267\260|>\225\312\222\276\347_F>\262,2\2761\377\032\276\364%\265\276]\027G\276\220.}\276\220\336^=/\0001\277\242u5>\257\t\022=\310\007%\276\221\245\273>\356\253\r>\376rm>\2207D\277\353\334\332\276\343n\262=\322E\377=(J\240>4O\312>R>\243>S\327\337\276\322\t\302\276!w@\276\365\322\230\275\323\032\373\276\033\363\256\275\r\214\233\276G;\362\276\227\324\033\277N\217\225=$M\203\276\207\370m>\003\225\265>\016\354\223;Q\207\361>\203\3469>\'r^>b\t\027\276\021\002\026>\337\311\275=0\367\002=\033\307\316\276v\216+>g\031!>\223;\223\276\214\016\234>\017\334\\>\226_\010=\326r\305=#]\267<\001\021(=T\177t\277\221\346\017>S\215\025=W\241\301\274\003+\300\274]2\274=\271i\215=c\353\300>\343V\245\276\260=\240>S\001\203\276\375\303\242\276\222\204n\275~\216y\276\032F\352\275\355B\230\277\210\363\273\275sp\251\275\277WP\277\300U\345=\342*\004\276\353\264\364>\303k\212\276\355r\205>\362\251\370\275\177\352z>\310\223\215=&\221>>.r\222>L\267I\2761\345\332=\001m\306>\026\355\370\276\235\237\260=\345\370\334\274E\356\322>%\223\313>\333\027q\275\316\300\373\275UZ\013\276f\326\244\275\317\315\016\277\336Y\227\277\004\315\016\276\232\004(\276\241_\205>Q7F\277\343f2\276\362/0\275\"2\326=\274\362k\277\213\'\356=Oy\223>\251\310m>\344?\271\275qMv>\301\370v\275\324k\246=\007\010\232>v\250\013\275\212\372\205\276\333\373\214>xm\245\276\013(w<\303Z>><\2057\276B\000S\277\310_,>\310~!\277\330\365\206\276\336p\005>\024\314\212\277\362\342\010>7\307,\273\005\264\021>+\016\306=~\025\250\276\nVR=\343\001\241>Mec>\323`\251\2761\361\031\276lKI\277p\334a>\025=\333\276\323\206s\276\260\326\224>\313t\343\276\010/\023\277\353\330\270\276\240\212P\277\224\030r\276\314{\204>\202\222\\\275\254\343K>\r?\036\276\340\320\322=pB1>5\"\033\276\3275J>\305\203\340\276\257\212b\276W\257\\\275l\033z>\357\201w\275/\232\021\275\352J\206>\254\357\322\276\320gG>n\320$=\312\246\003>/\020%\276\217D\032<\272\230\334<|\302\317>\270\234\360\276I4\270=\327z\206>d\344q>\365\300T\276\364`9\277\363E,\276/~f>\361g\204=0\354|=\211@\330\275\350c\007\276\252Y\317\276\324\030\367\276\375}\311>:\0016\277(\007\365>\035\036\232>>\252\203=^n\017?qt\312\2760\323\316=\37500>QZ\325\276\224T\365\27647\211\276\223\333\365\275qy\002\277pV\303\276B\242\300=!(z\276(\266\245=\362(k\276\313\2278>y\243\273=\304\nJ\275\212\250\014>Z\206R\276\313\373\233\276\333\n\256\276ZU\213\275\365&\202\274\351`\334\275\364\242\271\276b\244\335\276\322\354\220\276\355\000t>1\230\371>]\t\320\2730\006\037\276\3134\274\276$8\325;m\034\324\276\034\364\351=\324\366\315=\371`\021\277\312m\235\276\2248Q>o\310\240\275E\004/\277\2425\201\276\276\'\305>\021\304\240=\013+\355<\3555\264\275\346\276\242>K\013j\276\177\310^=\240&C=\245\361<>\372H?>\276\020\203<\032\371\014\277\"\306\234\275/#\206=d\374\340=\370d\002\276S\226\276\276Y\316K\276U\026K\276\262\230\210>\357e\377>\327\346}\276\362#\245\275Er\017\275\211\031\252=\304\224\243\276\215\374\n>w\203\326\276\202\020\033\277\023\343\236=va\360\275\304\257\233>\215\034\024?\007\376?\275\357%V\276O\257\001\277\017E\005>I\316\312\276\363\200\237\276\277\320\310>\314\245\001>uf\256<0\272\213=\203x\271\276K\n\226\276\021T\213>9\200&>e\351 \276\t8n>Jr\032\27714\025>Qz\377\275m=\247\276\2022\356\276\205jO\276\003\321\007\276cM2\274\253R\037\276d\236\274\276\037\003\000\275\232R\035\277\271l\023>\246\240\325=\330~\234>\322\032p>\330\273(=\301\367\235>f !>\253\244\373=%\003\314=\265\3749>loR\276rF*\277UK\321=\034\325d\276\317\316\376;\\\332v\276ahQ\2761\325\207>\003d\211>C\177\321\275\271\214m\276M\365\217=?\235$\277Z\302\262>\23144>\324\367\246\276x\202\200\277\021\344\000\276r\317\227\274\231\356\316\276p\3325\277\226{L\275N8\372\276\332\' \276$\342#=\200\242\226\276g\205\r\277\250M\220<\333\365A>o\337\217\276m-\316\276\375\257*\2774\342\"\276T\246\006;\310&5\276\331\225l\277\240\370\324\276\254\256\312>)\037\021\277\343\020\313\276\321\325?>\n`\250>\351t\227>K\321\300>J\334-\277\300\262\201>\327t\013\276%\\\315\276O}\r\276!\005\237\274\223\017\317\277q\021*>\270%\224\275\307\310\270>\207\207\007>\335,\240=\363~\205=\325\036\254=2m\346\274\240\311\244>\345\314&\277\220\207\347=\324\331\230\276Vz\016>\2770\341\275a]\010>\236\014j\275\353\264\030\276\320/\255\276\365q\333\276\222\341t>\\\223\203>\256Z\263\276\236\204\010?\316\353\375\276\346\265\237\276G\363\032\276\340\"X\276\254\231{>\253 \004\277\265\342\357>\230\246\203\276\234\350\367\276\275:\255\276\034\002\247\276z\267\010\275w\357\036>\003Q\260>&T\360\276\0014\221\276$\376.<\322D\r?\252\337\222=\014\271\215\276\341\037\221=*\233a>\356\252\314\276\315\255\023>s\325\007\276u[E>\336\251-\277\244b\331\276\037L\262=\247\325\\>\303G\370\275\325l8>\346\323\236\275*\267H=L\352\334\276\214\010\266>=S\024>f\333(>\034p\364\276O\2206>\235]\255\277E\332\340\276\261\226\230<2!\305>Fq\206>\336\213\247;\333\341\006>\252\327\377=\312\214X<\305\316\246\277\353\265I\276\2065*\276\357\014\\>\330\262\016?\246\263\362\2750\244\247\275\331\004T\277\320\031M=\035;\252>Ab\005\2772\215\t\277\306\210\013\276~\250:\275\215F\203>)\010\353\276}\304l\276\244\323K>XG\330<\247u\216>\203\272\264>\216U\317\275;\213\036\277~\253G>P\2057>\202\013\003\276\377xx\275\253\232\001?\367\"\272\276\373w\003>\236\177\326>`\003Y>\270\316\002\276\237\270\010\2778%\033\276/4\020\277b\377\305=m\334\254><d\351\275\r\3527\274\034*\330>\304\320\326\275<q\330>\020S6\276C\014\233>\256\t\001\277\220Z\035\275\330r\220>\327\027\002?i\203\267>\006\230\316<ZxT>\330i\200\274z\377l>\t\346Q=F1`\277\364C\371\274#X\227\276\236i\252\276\257\372Y=<5\212\276o\030X\275&\232\\\277G\267q>\263\323\357\276cc\006>9Bo\277M\001\n>\3715L>\025Me\2760\0353>5\313 ?eA\227=\027\023\021\275\373\225\177>\210\300\223\276\310]\273>\'iV\275\035\005\\>\266\326X\276\377\314\210\276\033\243\240\276\213\214\302\276\214\0021>\261\031\377=\302~D>[m\322=\215\246\323>\r\247i\276\032\242\021\277\311]\206>=E\326\276\263\331\277\276\237\347\225\276C\365R>i4\232\277K?0=?<\226>\020\230;\276f-\365=,E\"\276\022m\242>\323X\000\2759>/\276\014\272p>\333\032^>o\350\003=\007\367\227>\264\224\304\276\203c;=\317\360\353>,\330\364<\223\363\314>\241\370\271>\020\232$=],\353>\375\341\255>\277X\223<\3468\311>6Q\333\277\352:t=\025\207\221\276\273o\262=B$\330>tDi>\216J\256>\256\264\\\27606\301=>p=\274\364u\214\276\220\376A>\270)\212\275W:\033\277\316\026\212>Yu\330\276<[\226\275\365UV>\033\240\322\275I\030\253>K\362\007\276g\353J\276\354\243(\276\036dm\275\277C\230>\034)\360\276\3100=\277\3209T\276!\273Q>\365\311\007>\230g\327>\313y2\2765\236\023>\303\013\222=\367\005\274\276\262G\362<*Z\027=\210\277k\276\300#\334\276w0\214:\270.\227\276\275\307\256\274\214i\017>\031i\322=\336\336\232<\271x\342<\322\325\233>\244\344]\275io\246<R~\013?\207\370\235\276L=l\275\220&\010\276\333&L=\320[\365=\030>`=\014\336\246>\234\305?\276\227|h\276==\323\275\035\246\376>\343u7\276+?\014?\016\017\302\275eo\362\275-\223b\276\356\267\376\276J[\2629>A\213\274\341\022:\275\010P\211>\307\356\343\276\215\361\224\276\210\225\271\277\035\025\240>c\312^\276?u\014?s\274\377\274VO\354>H\220\252\276\030I\017\277\021V\356=\026\027\037\275\205h\340=\177k\231\276j\331\303\276\262R\266\276\223c\033\276\332\225(>\037\005W>\343R\016\277\215\213\356>\221\273\245\275\222\245$\276+O?\274o\001\312\275\025!\215\277\207\303S>\023\037\235=M\340\261>\361\274\323=q-m<\245;G\274X\023\036\276\003\311\273\275\375\230[\2767\300\372\275\220ob\275\\\005~>\264\343\313>.\247\303>\256\333<\274Cf#>R\374d\275O\312\322\276\3239\222\273\344\305\004\276\207C\017\276\003\177\023\276\036\005s\274\nL\024\276\314\321\266>\365\300&\277\224Nh\275]\325\022>\206\032\002<\215H\270\273f$\233\276\245\362\317>\317\017\252\276\360\236B\276K\270\212>\236\n[>d[q\276\234\233-\276\216\200\232\276\215\325\251\275H\313\200\274\202\322\356\274\226\341\237\274\263&\003\277u\260\327>\2734\021>&\210=\276:\251\202\276\374\224?\2778B\343\276\312*\037>\220\235\364=\222\t\223\276\2541\007\273E\301\031\276\247X\023>$\261\016\277\272g\206>6\253O=\272r\343\275\304O\220\276\006\n\272\2767\307~\2748\027z>\033\224\277=\335\225\230=;\330\333\275\344\250\260=\216\254\000\275\313\257\302\277X}\024>u1\246>\004Ut>\202\320T\2777\324\356\274\241k\215=\363H\271\276Y\326\240\276YQ-\276\224\244,\276\225+f>\252\321\002\277\246\344\326>\272\207.\276HdM>o\013\303\276\277J+>S&\220=l\035\217\276\207\021\033\273=\274\370\275\326E\300\275c\232\031=\327\254\307=Fs\306\275R5\335\276\340\350\220\275@JU>@^%\277\025\344\'\277\265\374\362<\272K\027\27653e\275y+i\276\013\'\210\276\341\020\207<\254\nL\276z\nf>\247\024n;\207\003F\274o\202\\\276\376\tv\276\231\351\207=|\226\224>Y\354x\276\240\207g>W\267\324\276\346pj\276\332\304M\276v,\256\275\200\027\322>\312\374\224\276\332\0017\277\313V\231<\263\2769\275\316\217\010\274R\247~\275\377\226\200\276\021\222\226\276\376j\206>\272I,\277S<\271=_\353\031\277U\022\363>\035>\010=\362\001\344<\222#/>\004\004S\277[Q\262\275y74>\\H%\276\014\327\350\273\375\251\223>\327[\000>\325.\000\275\227X\007\274\242\203\026>\353|5\276\345\027v<;zN\277\340\010;\276\236\3065\276\036\324\260=dVp>\017\205\031\275\355\005\035\276\210\275\001>@\325\241\276\250\341\241>k\267[<\327vc>\344\312\036>w\227\364\275\207y\201>6@\216\276+;\253\2764\267\\\277JX\306=\037q\251<\322\334\374\275\016I$\277\016$\210\276\033\033F\277\374`!>\370\373\377>\363\331\362\276^\313X\276~b\265\276\325\303\313>-_?\276Y\303\016\277[\022\375>\340\366\"\276\246w\274=\212\305A>\272\006\220>{T\010>Ba\200\276\025.\357\276r\3578\277\250+\315\274\320\021j\276\003\342\211>FE\204\277\003;n=8k\'\276\226u\326=\312\351\255>\246\325\351<Q\342\024\2774:\231\276\243\250\320\276\023t\212=I\336Q\274\233*\007\277\267U\256\275%\n\272\276\200\257\340\274F\021=>\215\256\000\276\031\321;>\353C\004\276\307K\004>\264T\323\275\365\007\342\275\301\021\224\276\336u\030\276\233\013\240\276\360\357\n\277w\203\027>r\022\251\276_\023\205>1\242W\274\204\020\205\276d\035\223\275\252\334\263\276\236\257#=\031\235\213=\3728\345>S\007\264\275\360(;\276\366z\017>2dN\276\310\247\270>\314B\030\277 P\336\275\316-\350>9>\000?\242/\260=\236\037\311>\222}\257\2765d\003\277\330\202#\277\227J\222\274?\346g\277n\302\200<\244Cv\276\203\"x\276\322\242\233\275k\307\207=\332\037\215\277\231c\022\277r\241\034?\032>\223<K\006\261\275V-\r\275\001\325w>\366\'I\276K\354\007\277\201\264\267>\301\375\306\276\204^\217\275B\306\032>\270n\017\276\222\324\210>\001rh>a~F\276\362B\252\276\252\237\306\275\021h\006\277\340\034\357\275A\300\254\2761uJ<\235\323<>U2\204\276\375\321\310>j/\226=\210L\211\275\222\334\301=0\203\255=r\025/\277\022\007)>\272rS\276\357\331\270\275\336\016\035\276I#\361>\\\316n\275\024\317\254>\305\204n\275\000\372\237\276\030\240\246=\205+\260\276\021\347\312>\303\334\032<]<\355=\366\n\333>\355\276\232\2776P5>\277\370\221=O\206\223\274ES\276=oJ\245>\261\270\367\276\377\007\326=\375\350\315\276\007\t\315>\302\001\376\275\006\227\271\276&\200\266\276\371\202\237\275*o\352>\227\203\214\276\227\242<\276\353\375\254\276\335\333n\276\365:\212\2767\235\311\276\332\371\277\276\366n>\276\001\312\027>dtO\276\023\351\315>k\342\252\276z7\225\275\"\331\265;\016C\331\276\031\266\025>%\255%>\253 \303>z\211\275=\247%c\276 \336!\276c\020\304=\302\355=\277g\000-\277\306~\237>!\210L\277\346\255\360=\327>w\276\333\331\265\276m[m\276\224)\n?=n\236>V\\\013\2777\322p>[\271\260\276\315\311\207>\335O.>l{\r\276\350\224\201>To\356\276\300\207z>L:\266>\013\216\243>{\263C>33n\276A\241\261>)\266\2178\010\216\004\275\310\207\321\276\316\217\022\277\037k\310\2761|\363\274e\310\'?X]\350=~\271\222=\004\326\013>\020\207z>A\327M\276:v\201\275$\355\000\276\246R\016=\213{\030>\203l\236\275($\321\276\372\317\026\275\004v$\276\2253\001\277N\221=\276c\365\002\277n\024\021>\253jZ=@\263\334=\307\272\204\276Wqw\276\361\313\207>w$\240\274\024\037E>\343?#\276\236\337X<$\266k>#\260\257=\345\321\264\277n\223>\275f\260\277\274\037\036\036\276\256\310x\276!\232\323\276\374\313\336\275\206\240\177\2769q\261\276\216\215\001\277yq\335\275\246\334\305\276\267$\225>\3345*\276\271]\357\276\022\242q\276\273\337\367\276~\355{>\304\"\017>\272\320\224\2755`\023>>v\304=)\004\222>\222\264\000\277!.|\276x\331\010\276\343P\242>G\345\022>\357nF\277\243\332q<H\257\003>J\037\237\275\333\033%>)\327\023\275\203_\332=\245@\356=\214%W\276\325X(\276@L\375\273\2749<\277c\356f<\273y\311\276w\345\205\276|\305\217>\021\376\375\274\307\203G>\250)\027?\2651j\276C\265`\277q\031\016\274\3337\235\276\005\344[>)\344\023>\354\230\\>$\0330>\200\354\261>\232q\263>\020\307\254>\233\317+\277_g\017\275\334\'\365=\030\264\013>P\347{>\264\364\367\276\347\357\237\276\224q\301\277\240{\374\2769\256\202=o\312\240>\217\206(\276\242B\265\277X\221\230;52\215>\272\0235\276\264G\310>\245\2408=\327\370I\277\271\342W\277\237\251\302=\262<\200\274\264\0101=\t\204\314>\037r\271\275\340\234\377<D\246\006\276\367gt>\263\241\235>\206z\336\276\203\305\356\275f\330=>\244\351\241\2763\037\213\276\256a\273\275\345\225\033\276`\215\241\276x\312\205\2762\350[\277W\234\315\273\342\331\322\276zd\220>\202\224\376\273\020\214L\276N\241\205\276\007\217\202\276\200\303\031\277\212\010\214=\323i\304=\344\267\347\274\264\317o\275\316\352\234>\237Y\312=M\300\342\276h\326\304\276\306<\005>M\253\264=T\350\206\276\260tC>\355\323\301\276\212\376\373\275\336\275\216>B\017\n>\025U\027>\200.\373\276\325\222N\276\214\003\223\276Ry\345\276r\006\346>\361.\353\276\364Ou<0\230E>\376\206@>\300\263\227\276\313\375\311\275k\245\207<\305n\210\276l\351O=\375\006\233\275}3\036\276\007\344\202\275\254t9\276\273\001\214\275\036\"\036\277\r\013\200\276\2321_>\352\014\251\276`\215\377\275\335\310D\276\265\366\250\276\020\322\004\277\037]\001?\034\313\336\274u\000\201\277\323\321\305\276]\205E>3\264\016\276\277Q\213\276\356\365V\276\237\363\254=j\255\375\276\347&T\275\370T\201\276\375n\033>{A\246>+\025\232>\037r\024\277\345\277~\275Y\332\371\276\272\255p>\025\271\005\276\033AG>\255,\273\275\276\300\340>\372\016\023>I!\360\276\356=(=\361\375f\276L\351C\276\351,\275<\237\272w\275\2323\210\276\324\3035\275\023\376\023\277\312\\r>\347\220\346\275bX1>\224\240\350\276R\226c\275\347F\253\276\033\312\r\276\216 \246\276\246?\263>p\035\230=U\200\006\276\201k\227<\212C\232\276\271\260\004\2773O\026\277\320.\330>\260\234\347>U\254\317\275\230\352s\276\016]1>\210\302\007\277m\353b=\247I\226\276\031\312^=\330&\265=3\202\222\276\253\0104>)\362\364\276M\020&=;e\312<\2344\244>\274\r\370>\221n\227\275\"\266\333=\237\244\260>E,8=\245\262[>\\\253\202>\201Ai<\0047\010\276\331\357\013\275K:\177\275\026\212g=U\367|>\243\275x\276\366\202\345>\006\3228>\353=\271<\rfw\277\354\374h>\331\352\267<\234Tp\274\356\347\207\276\254\244\023=q\223O\277y\246\330\274\344S\303\276\022N\n\277\236\324M>\226t\010\300j\302\014?^\333]\276\257\264\312<\200\216l\277K\304\234\275\037\272\007?\341\224~\277\020bu\277\210\036\310>\260\022\271=\372M\">\021B\235\277E\r\226=1vZ>9&\254>\020\3152\277u\364\315\275O\002\013<\r\245\241\2752\321c\277B\357\221\274\212\374:\275pq\265>V\324U\277uR\211\276\207\257\033\276\3553\024\2751(\344\276\220\326f>t\327@\275\037\227,>\2735Q\275\211\301\236\276!3\312\275\246\310\344\275\001\"\222>\036\370\231\275H\275\225>z2\221>+v\350>\205q\246\275\345u\020>>\327N\276\\0\002?\256\350\223>$\226\033\274.q\244\276h\256\300>\337D\363\276a\322\226>\375\255\322>\207\342\320\276\230;\305\276-\r\254\276\026\2747\276\207W\202=\323V\220>x\n\270\276\245\352\260\277\242\006V>\034+\301\275\201\001\330\276\177\261,\276\201\'h\276[M\022\276\207\017\313\276M\022\263=\215]\266\276\211Z\276=\307t\322>\240\266+\276.\3248\276\025u\354\274\342\306\277\276(\274\250>6\364\227\277\200\277<>\335\301\365\276}-\222\276\355\2511\276\335\243\223>R\314\357>\363>/>\017\177:\276\026\210\333=\205M\265\276V\277\357\275Y\355\203>\274\300\327>\247E\250\276\221\0310=\354\353\027\276[G\254>a@\026\277\317\320\247=\020\230\005\277\022\277\224\274\337\270_\277\321V\206\277pJc>\2752\257\276:\020\213>\224\337\341\276\335\302-\276\225\0059\2766\247\017\277\331\267\032=\266\r\263\275\354\367\262>2\3738\2768\027\237\275T\306\337=\200X\233\277\2721 >\217\315\362=\362\373Q>\023u\311=j\346\225\276\316\027\n;\366WX\276\337\003?>\302e\214>\231\2074\276\315\376\235>PB\221\275\320\204|;l\2326\276A\352\027\277\227\340g\276\353\264\327;\317\355@=H\'\n>\305?\213>!\356\302>g\240\030\277F\252\023?#tq\276\200r\253\275SU$?\306\204\304\277\374\317\002?I\002\255>\277e\240=\010,\271\276\370\017\234\276\254\236\341=Q\234\226=\272\031>\275B\033\257=\301\271\360\276>\t\271\276}\306\301\276\246\354P?T\257m\277\251\336l<\221\220\007>\031\"\020\276SB\n?%\023\343\275lJ\361>]\355\303<\342\"\217>\215\351\222\276\2263\320>e \344>`\301\243\2773\351\230\275\214\263 ?;\243@=\001\366\303>Z+\030>\333\276\241>\243pi\276\000\223W>\206\352\036\276t\017\212\276\277\261z>\036J\025\275}\313\004>\267O\224>Fb3=\000\237\270\276]J\247>\0000\351\275Y\206\276>b5\204>\215kF\276_X\242\275\"Yf>\334\265Y>\227+\201>_<h\276\033\023<>\360HD\276!A\000\276\360\035\205\275\302\224\221>\341o\023>3\240n<\277\273\221\276\277\255\243>\274\204-\276\217w\235>{OS\276^\211\003\277\225B\252>X\026E=\033\230\224>U\3771>\310\244\246=\2313\231\276\343r=\277\272/\313>\233R@\274\313\030\314>\275\317G\276\373\030\216>\367\210\254>\323\034b\276\3446\016\277\311R\033>(\307\253\276\000\337\300\276\273\374\021?T\005\010>~Z\244=~\377)\276D\227\312\275\375\030\252\276\370\315\362=\t\312\226=a\271\272>w\373\027\276R\314\361\275f$:\277c\363U\277\361c>\277n\262\324<3\200\262>\304d/>\016F\306=\0354\374>\263Zd<\237\262~\276\345\376{>\r\037\037\277\212\222\226\276\374\332%?\003A\204>\225\322<\273\315\345\277>7\334\231>1=p>\322\333\016>5\360X>N2\340\273\370\200\327\276\320t^>R!\"<\306\315G\274>\241\207=\232\214~\275\033u\001>\227\000\005\276\0025K\277\336l\275\276\314\215F>\234\213\227\276\035\006\003\277)-\307>\267\311\214\275\n\265;>\035q\270>\314J\263\275\347\241\303\276\354\234\241\274\006^`\2767\252I>\363\343>\277d\314\361\276\314\303\203\276>\225\277>{+\\\277\366\273\324>\231\021\333=\3677@\277\261\332\366\276\360\314a=S\225\213\275\373\373\237\275\310\233\036\276AW\005>\342\2216>Y\326u>C\r\206>U6\202\275\277\337\211\275\244~\201\273\251\345\220\276\001tC=.\024%\276W\216\310\276`\313\253\277J\345\363=\002j\350>3\316P\275\256\017\021?\177\025\002\277b4\226\276\'\371\352\275\202\347\\\275b\333\317<\240Z!\275+W\331>\352z\010\277\335\314\356=\275W\257\276\357\215\200>\010\3553>T\263\304>K\317\264\276\323\032\007\277V\2013\275\263\341\025\276z\n\273>`4\337\275s\021\347\276A\n\236\276s5.\275\311Hw\276\212\205\247\276\'B\217\2763\276\202=\021|\324\274\312\274\t\277\217I\200\277\275\350\003\275c\215\326>^[\276= s\315\276\027\032o\276\377\233\330\275\233Ac\276O\'\326>r;v\276\235\017\355=I\236\315>;5\255\276w\235\216\276\361S\234<\013\031\365\276t[,>\336n\277\276\235@\223>`\334o>\346\265\243=Y\273*\276\360K\032\277\334\321\035\276\301\254\016>S\342->}R\221\275\223Q\321>E.\017\276&\274\276\275\214A\217>O\0029>\274/\360\275|q\233\275\210\306\263>*\007\212\276\367v\215\276$\241\002\275\242\010\375=\310(\007<\301\241\326=3O\277=\343w\001\276\001\245!\277\3168\217\276G\227Z\276\372\034\301=\334+r\276\306\200 \277\245\234\235\276\264x\250\276\031S\275\275\026\363\333\275\361\267&> I\034>\205\244\336\276bQ`=\340O\026=\365\022\213<\377\321\374\275\337\226\267>\244r\327<\363KH>\261\372\267\275\360\372\201>\275\324\226>\254\344X\275\211D\271=\001\037\034>\304\224\217\276v\320\360\275\035\036\026\276\356\207\250>\330\267\215\276\2235\036\277=\006\242\274N\301\201<\3506\360<\301\324\037>\002\246y\275\027\251\356\276P\035k>\370\226\r>\355\350\204=\301r\225\276w4\247>\301\312\340<b\355\363=AF9\276\360\320\337\276\2551\224\275 HM\2760\002\035\276y4\034\277\031\266)\275\356m\220>T\0211>#B\317\275%\317\314;fi8=\222x\211\276\022v\016\276\256y\005\277\nFF=\367g\236=\264~\345>\034lD=I\004\237>,B\007\276\223\257\376\274\332\3449\277\026\241%\275\352!\320\275>\034#\275\014h\273>[\031\025>\254\217\207=\331\235\237\274<\203\351\273\013\277C>\215\323!>\000\347\\\275\243\240\316\276\235t\252<\372J\023\277\252m\216\275\024J\246\276\337\365\254\275\337\262\336\276G\037~>\252\323\336>\373\030\336\276\205\263N\2767\2178\276\247;\243>o$\311>b!T\276~\037\255<\370\007\356>\223Z\021\277\372\360\231<\365\207\337>\r?\304=\206\367\232>\221xr\277:(\024?\rSQ=YGQ\276\356\362h=\327P\273>U\304\005\276\264\323\003\277\325\230\252\272\254\"\006>\3033\350\276N\312\217\276\207\037\355>J\360\034?\242\217P\277\307\031B\275\014\262\322\275Y!\363\275Qu\025\277\376Y\214=R\270\241=\253\003y>\202\371z>\001 \217>3\275\272>e\335l=B\314\035\276\036\037\267<9B\023?\251\252\003=I\204\247\276\370\022\364\276\327a\016\276q~\226\276Y\341\362>\033\3500\276;F\313>\242\225\032?\244,c=\004\227\262>\'\353\334\275\326}u\276e\243\245>\354\353\007\276\331\0045>\270a\007>)xo\276\364y\273\275\273\345\262>\350\274\256\274x\000\230\275\354$\267\276\221\220\344\275\275]k>\013\310\207\275\205\nL\276%\231r\276\n\265\336\276\220e\213>\324\031\025>!\324\034\275\273#\265=3\337z>`\365\014\277\260\202z\277\246\251\263<>M\261\275\204\275\220\276\260C\343;U\214\177=#\303\016=\332%\346\275sl=\276lV\n?b\223p\276\r\216\200\276\226\267\230\274\266\273v\276\211\374\370\276\230\332\305\275\377\260G\277\317\306\255\275\262\330\230>\255\274\236\276\240\203,=\333\240\004\276\030b\247\276\025\230O\275\037\300\002\2751\316\024\276>\335\301>\216\350\265\276\03480>U\3355\276\212\222\254\274n\330\214\276\336\033\233\276\272\222\234\274\033{\226>Hp\306>@\265>\276ypC=\301H\305\275^\243\277\276\364J\257\275\020\344\224>\243\323\257\276f\311\276\2766\250\355\275M\215#>F\256\022=O\336E>^\301\215>\370\315$?\010\322\370<\320p\251\275o\250|\277\2033\345\275\303\377:\275\250\273\021\277\254\346\245>\233}2\276USq>\371q\3569j*\340\275\376hz\276\270\343\303\275)\201\305=\r`\206\275\356c\212=\362s\024\277\311\006\010\276\204\320\306=-h,\277TI\006\277d\r\256>\014\356\310>\360\005\351>h\245\267\276l\236\222\277\222-\340=\331\333^\276\306H\354\276\226\000\211\276\347\020\027\275\026\343\256=\371\004\234\276\346k\230=\242\021(>\202\243\272>\225\346\207>\223\026\267>,O\220\274\205`Q\2763l\";\200\357O\273>e\266>\245\213\370\276\276K\210=:\235D\276\345\232\232>\231w\334=9\241;=7\276B>\242m\007>Q\311\212>\230\253\020=\341\225`>w\321\271\276/b\032> \022 \277bs\377>l\267\223\277\203\253\325<\305\320\013>\245\301\253>c\246\365>MR9\275\363i\210=\\\333\265\276\307\263\317>l\001\201>&\225\224\275p\226\200\2777\322\225>\220\\\204>\372\340J\276H\351\225=M\371f\276\010\\\362\273Z+\373\276\nl9\2753\003\325>\356\227s\276\226\216\304\271\325\332\214\277cQq\274\017\254\353\276N~#\277\257\334\224>e\235+>\220\257\357=\020\025:\276r\000n\277\316\315\302\276\317#\210\275p\213\332>,\377r\277\213\202\307\276\n\2109\276\220\031\210>_G\205\276f\324]<\362\352\235>\345\370\325\27626l>y+\230\276\247m\266>\002\223x>\2324\221\277H\026\300\275(\243\317\276\017\272-=q\001\305>_\230\"\276\375\337\267\275\3064\257\276\366A\221\276h\013\225<\177\315\232=\301s?>\271.\353>H\326&>\006v/\276\367\250\201>\240\"-\276\237\307\344>6_\200\276\356t\374\275O\261!\277\222u\256=\3740\037\276\354\337\235>B\257\005>\263\235h\276^\016\225>\353A\324\275\210\274\026\276\251/\321\276\342K\316\276\217H\314>\036\243f>\0328\223\275|\251\241\276\373\010\010\276/\367Y>\263\'{\273nr\330>\327\014Y\276\375\2145>\311A\331>h\032\304=h\232\302\277~\223.=\324\002\200>\247\307\207>,\330\250\2764\211\273>\217O\032>\354\351\r?\313\033\203>\316^%>Ta\267>6\021\214\275\370c\324=\220:\206>J\007L\276\336\321\361\276\331(\300>\334\0259\276\022\302\207<\031\216.\277\252\373Z=\245\312\270>E\243\001\277\254M\\\276\266)\354\276n\n\035\277\002\033\224\276V\024\006\276\355D\n\276{\307\266<\353\333\010>\240\022\243\276\200t\246\276\223\205\246>\265n!>\347\014]\2773\004\266\275\243\366\024>\2572\212>|f\215\275\350N\216>\352c]\275\250\240\324\274\255|X\276\273{\334\275\3170\331<4\t\230>\276\234,\273\202\221S>^a\177<\335v\225\276\323\036{\275\004\035\245\276,\323^\276\272A\217\274\241\265\253>\225\326\337>\215\007=>\242\235\324\276\334\021\377=\216\275\264=T\372\206\276k%A\276\352\014\216\276h@\344\276\277\341\317>P\3472\277\354\237\r\276~\214\345\275\351(@\2771\213\226=:a\n\277\367\311\022=u\030\311\277W\tz\277\030\035\333=0\026\313\275.dF\276\336\312\260\276\021\267\225\276\026B\330>$;\331\275\027K2\2765\321\271\275o<\252\276\255\2071\276\330\363\247\277\362mo\276\227\224\301\275\037\373\202>\372\\\006\276\300?W>\025>\026>p\363\000\276/\223\032>r{k\276\034\322\314>\317\264O\276\244\177\272=\324{\251>\313\331\202>\030\254\260\275\225\022K=o\270\025\276\371 \226\275\024|\316>\356\217\231\274\242/\003\276\002f\032\276\232\315\204\276\303\374\350=^(\034\277>\010*\276[\304Y\277Y\307\306=-zs=LY\254\275\013\370\362\275\370\307\340=/\030\203>Ag\023?\002\357\r> \005{>\024\316\206\276\204\277I<\232=\006\275\216\305j<\267$\343=#\360\205\276\204\357\354>\303t\021\276>\001#\276\373%\232=\007F\266\275\362@\327=\254Sz>\363\304:>YP\000\277_d\034\276*]\300>\265s\246\2766a<\276:\351\002?1k)\276)\346,\277\206t\326>\374\266:\277\303y\031\276\317E9>S\331(>\374\374\207>b\3456?\232\2145\2768\203\013>\340\001+?\335\035#>\353\302\376\275*\002\223=3\r\320>t\211\r\277\231\250\325>e\250\004\277hFq\276\357@\315\274Lbm\274Cz\300\276\211\270 =2\356\377>\374I{\276\344\010\205\277C?\r\277E:\222\275\322w\310=\254W3\276:\223\234\275\t\263\031?.\307>>\364\351\232\2778\316\036\277\214Ah=R\202\342\276\033\026\314\275b\254\365>\367-S\275\220\372\320>\260\234\236\276\310-?\277O\356u\276\334\362\276\276\364\233\004>dq\203>\235\347\006;\340#\242=\230i1>A\025P?]\307\037\2764_d>\243\217_\277\033\0050>\266?\340>\002+w=\032\375\223>\321\353\002?\001[\224\276\232\231\333\276\236\3521=\377\213\204=m[\213>j\010\024?\367c\202\276h\362\223>\217\201\231<:zI\276\355@.=\251\223\260>\rFi\276eT\361>\227\351r\276\001\020>\275\227N\240>+p]\273\371\037\023\277\3012\225\276\001\211p\276D=\204\276\212\013\252>\352\313\321\276\030x\316\276D\262\211; \367\265\277^\323\371\277\235!i\276Y\271\256;\314\002\253>\216\355\336\277\220\203\357\276\243\235_>q\315\375=\227A\320\276\2050\016\277\362\321\200=I\371a\277\303\356\323>\210\202F>$\372\223>\273\345\205\276\230;\021>}\261\263=\334\360\001=D\223\256=\225\250K\276@\2606>\204\357o\276\326`4=\342i\024?8W\323>\022$\316>k \010>b\n\266\276\377\267\373>\025\217\037\276\363\240\221\276[\2523=\336\245\241\276\212\311\355=\020&\217\277O\263\027\276\203\347\277\276Ws\314\275E\362\000\277\3050\224\276\246O\377\276f\317\002\277\0210\232\275\317\"\322\276\313W\215\275\365\336c\275\362\367\345>\3568\327>\371U\321=\010\212!=r\t\224>\274\356\371\274\220\373f>\342>\375>\033\374K<\037=\274>\2243\316\275\036\372p\276\355\264\010?9j\346>]j\205\276\354\371\373=qZ\331\274[\204\275\277W\025*\276\220\032\037\276M\2530>\003\r\366\275\204\353\235>j/\303>?\233\245>\215y\244\275P\330\024>\260\020\036>a\002\020\274\267\241\246=\023Aw=\036\355\n>t\263t>\277Z9>\3143\306\274\236V\273>\323o\004\274\024\"\n>U\312B>u\303\250\276\351\362j>\215\362\322>\202u\230\276\351m\247\276\014\030Y\273\254\341c\277\305\373\223>+8\207>\267\342\030=\342\200\205\274\330?a\276\366f}>\257\221\243\277\365\334\277=\006\357\241\275\352A\207\276\243\020\230\276\326\315\244>\023\263\303>\3668J\276TZ\246\276\323\362\207>\203\n\336=\256V-=\253\210\021\277>\273\271><\256\251\275\236\213C\276\"-\033\277\304qt=\221\301\r?\322\355\247>\010,\034;\351\257\230=Y\253\255>\240\n\201>C\330\t\2758\261|\276\017G+\276\r\211\266>\270VK\276\025L\257\275Gj\225=\200-\017>O\302\350\276Ag\262>\272R\243>\375\257\016>\340\223j>\004RB=\345P*=\343*\013>\261$,\277C\255@\276F\372\212>\006\2130=e\307\242<+)@>\255\334;\274\273\002\354>\370\221\372\275\354|\236\2760\037\037>\000\263+>\313\256\000>))\330\275A\245j\275\276\0340=\350C\314\276(9\313\275t\366\023\277\347\220\220>\307\342\200>\002M3>07d\276\225\351\307\276\034\267\301\277\242\376\271\276\254\246\305\276\303\352\200>[P\213\276\277\2418>\301s\231\276\251\377\252=\320J\025=\243\202\006\275\264Z\026\276\r\314\202>\020Vo\275\336\301\211\276\306\025\365>)\244\307>x\213\034\276\n\005\343=\226\003O\276h>\370=\363O\341>\374:\002\276\031\312\343\275K\273\005>F((\276p*\226=:;\031>\347\014\201=\347\221\250\276\345\205\217\277%\242\267>\005\243+>x\364\004?o\215\253\276}@C\276\026\301\016\273\023L\244<\371Q\251\274f\246\022<\030y\343\276\251\223E\276\372\031\204\2763!\205>\204\305\267\276\234\360;=\037n\260\276\2266,\276\347\262\373;rF\303\276\356\271O\277\330zE\276\200\316\024=\035\027\242>N\270\256\276Y\232\036<W\375\324\277\330\203\001\277`\312\320>\250\023k<\230]!\275\255\254\232\277\020\354\031\277\377\206\247>g\205\034>\247\327\306\275\233y=\276\000Y\243\276X\022U\276\t\212\314\275\321\3362=\002\324\t>Gz\232\276]\005F?\212\272q\275\372\335\270\274\204\037 =\350\216\250\276\352(k\276o\242;=\274\365\370<\023\205\255=s\\\025\276\214L\334<\n\032\316>\270Uo>c\306-\277Pg\001?\200\366\177>\255\361i>4\234\256\275g2\037=\270A\230>\036\006\034=41>\277\213\302\226>{]>\275/\303\313=\351\212\262\274\200#\311\275\255f\351\276*\001*>\217zM\276\213\241\372\276s\343\357>\231\271\014\277\271\3459>\222\331\023\277\031k}<\323\273b\276\340O\021>\030=\202>\201`\237>\235\371\221\276\264\014:>\031\252R\277kt\303>|\350\033\276E\374!>\316\210\036>\334\311\317>~\324h>\\\367/\276\022\021(\275\314\277[>\371\334\212>\317\214\226\276\275Le\276\211\010\006?<\016\014;\332\025u>\236\347\"\274\230oc=$\221\000\277`\022\027\277\340\307\315=\000(\353\275t\343\272=\016\354:\277w\323X\275\2371\020\273\317\314\277=\0073\351\276\365\210\204\276\\\025$\276b\214\242>K*\005\274\267\367#\276\277L\313\274\202x\275>\347\363:=\206Cc>\367\302H\275\243\'q\275\034\347\203>bg5\275\366\300\366=\241\247V\276\357\030t\277\006\371\302>l\360\242\276Y=,\277\337\245@\276X\240=>\026\206s>-\006\216=C9\246>\"U0\276<Af\276s\216\305=x\246\364>\277\212\240>\230\273\227\275\273W$<\261\013\213>m\032u>\306e\233\276sX\301=7\235C\277\t*\363\275\244\270@=\267@\216\276\3636A\277\377\032D\276\375\202X>\330\203\371\276\334\003\347>4\336\026>\2716\325\275/v\235\277o\2048>\347\364c\276\343hC>\311\005\311\276\032\0078\277\242,\003=_\360\006\276j\276\014=\211\027\353\276K\035\210\275\345g->\342T \275\"R\023\275\233\177\236>\324\352\365\276\035\364\316=L\324\020\277\343\256\t\277\3466\207>M\235\360>\313\222E>M\343\203\276\355\241\275\276(\r?\274R$\007\277\3663\346\275\224\201h>l/\216\275\223\265\257=\263\224n\276\244XE>\311\324\250>\374\004\337\276\337*\202=\201\301h\276\206\233\350\274uE\244>>/\032>3\200\210\276\247?\022\277j\367 \277\312\022S\2772\242\222\275\247\273\014\276W\2122\276>e<<-\004\232=\016pD\277\365S/=\273$\351\275cpp\274\335\235\374>i\230j\276%\353\341=@\206\227\2742F\223>S\016\324=Ar\244\275\323\007X\274\361l\200>b\222o>\225\"{>\266\005\312>-V\251\277NE\355<\002\261F\276\033Xg\276K\373\010\277\034\225\000\276\326\233Y>\245\007\203\274\243\330\'\275\215\370\337=\206\003z\276t\001\374>6.\177\276.\031\242\275\233\253~\275\253\215\001>`\210L>\032\313\006\277i\352}=<\226\244\275\024y\224=$\314\244\277\'\274\n\277\223\326$?\215=\372\275\307\374\035>\201\201\270\275\321{\361\276\225\034\370>\212\365\364=\010\344,