node {
  name: "MYINPUT_input"
  op: "Placeholder"
  attr {
    key: "dtype"
    value {
      type: DT_FLOAT
    }
  }
  attr {
    key: "shape"
    value {
      shape {
        dim {
          size: -1
        }
        dim {
          size: 13
        }
      }
    }
  }
}
node {
  name: "MYINPUT/kernel"
  op: "Const"
  attr {
    key: "dtype"
    value {
      type: DT_FLOAT
    }
  }
  attr {
    key: "value"
    value {
      tensor {
        dtype: DT_FLOAT
        tensor_shape {
          dim {
            size: 13
          }
          dim {
            size: 64
          }
        }
        tensor_content: "\022\354\034?\212il\277\2541\377\276NA\n?\312\"V\276;\t\317\276CW\200\277\222\366\256\274\377\035\277\276!}x\276\241:\215>BZ\206\276c\023\302=ur\n?\215\0044?--\"?\3048\276\276\266@S=\313x\003?l\017\020?~\336\331\276\266\255<\274\245\024H\276\216*;?\237\276\230\276\234\210\267\2766\033\235?\356\310\344>\027\236<?\034I&?\252I#\277\247c\320>\317\205\342\276\277\001\316=\004%\331\276\261\236\020\277\211\346 ?\306\317\240\275\307\305\013\277rJ\242\2752\267\366\276\026\363\r\277c\364#?\275\207s>|\014\251>\205-\030?\225m\244\276\375\261\274<\255\361I\276\305\251\267>uN\237?\347/\247>\306\302$\275,\270\342=B:/\276&qj>\004\263S>>\265\226>\007\254\026\277\344\242D=\370\227\002\277\207-\031?J\021\216\277.\373\027\277\341$\017>\005\273\014\276\236$\327>\237\306\r?R\303R\276\274\331\013>\363m\216>PCR>i\345\247>W\222\233>\224b5>\247i#?\274;:\276\214\030\003>\377\006h\275\007d\005\277\036\203\357=\221Dg<\252\026&>\330_\340=YS$?\222\341\250\276>\202\026>\371\234\316\274\377\017\232=\033\242\253\276\307\356\027>%\233\t\276~m\267=!\260\000\277\007P\271=\324\2569\276\360(\362=\223\0228\276\004#\277\276\273\301\"?>s\256<\036b@\276#\325\257>l\222\324\276\212\344\023?\243\026,>\326Hn\276\206H\027\276x\216Z\276\362\032\032?\337\344]>o\242\343\277q#\346\276S\177\374>\207\\\366>\203YB?\223=\031\276$\023\214\275\277\177\020?\345\347\001\276\262=\010>\236\314+\277\026\375\260>C\304\302=\347\363.\276\024\363\034\277>\257\332\276\374\210\333>\352\216\r\277\233h\242\276\315O\276=\202&\303\276\231\307\217>/i\201\276\203x;?\342\007\303\276Y\346\356>\330\000\024\277X\3712?2L\217=\027\222\370\276|=\201>\t0\321\277\2570\032?\225\3113>\300M\\\276G\363\263\275\034\203\260\276\2256,\277\234Y\224>\245o\317>\200;\007?\026\355\010?\300P%\276^K\020\277\352ZQ>\357\271\300>s?\253>Q?\267\276\203\376%?j\274\315\275\350\311\231\276\003\313\236>\t\005\360\276\016G#\277Y\021x=\014\363\227>6\337\331;\332p\211\276q\020\343=pwc\275\211\321\017\277\357\365\330\274\375\346\306\276i\366\006\276UX\247\277\242n\034\271%\036\014\277*\212w>X\006p>u\223.>\256\320|\2727(\324>\340)\205\277\2325\205>\273n`\276\350\265\262>\034\017\242\276:mR\276\336\312#>\300\315\363\276\r\243\366>\254\227\333<\301\242=?\251\032\376>[bg?\303C\226>\373\337\177\277.\000#?S\202\215\277\206\342w<\371\237\003\277\\\373\322>\327\314J\275\337\232R?t`-\277\337\367\320\277\261\222#\277\345El>G\312t?}\257)?^6\340>\221\331\217?\232\204`?\235\343O\277\371P\034?\303\035\267\276B\226u>\314\367\035?P!.\276\225\331\004\277\344\277\003\276\017\304p?\307\263A?\\6\213?\210H\222?\001M#\2743\200\221>\321 \036\277?\256->\264\3473?\372\201d\276\tcN\277I\254\247=\227\322\336\276\364\025\035?i\260/\2770\216\314>\203\315\224\276\376z\224>\222u\301\276\272\207\204\276[\306\001\276\330\363??B\365\316>.q\352>\032\314D\277*\201\212>\001\320\273?\334{w?\354Jl\277W*G?\360\370\225>\203\301/=\200oF\2772\036\252\276y%\023\275\206|\256\276\254gJ?!wz\275m~#\277n4z;\023-\240\275)\030!>\243A\325\276\331L\207<\310\355\033\277\002\t\262\275\315gl>\0149\320<o\224\037\277\352\210\203\276\371\251H\277E\357\t\277\016\037\t?\264q\251>m49\276\313\240\351=&3\301\276\370\230j>\324\2470\276^\240\010\277=\310_\277\227v,\275\204|\007\277|\240Q\276\355\0026\277\\G\211\276\356\243\311>!LL>\251\247\253\276\327\222\320\276b\375\350>{\007g?\300.\242\276Y\267D\274f\020<\277\306\264\207\2762\247\030?\321\234\263>\334\001\201>6\313\302>\361\304\253\276+,H\277\350\374\001\276Qn\016=\255\267\"\277\240\264*\277\262\314J?O\206+=\316\266\240>\327~\345>\351\020\233\276O\241\226\276\304h\004?\267M\016?!\233E\276\214\205Z\275\3241\037\276c\007\232>]\022\t?L\323 \276j(\034\277\225\317 \277S\3159>\223\213$?&\001\037?\254\0314\276&\'\375<{\316\214\276R]\374\276\323\232\004\276y\037A>6p\334\275]\354\301\277\236w\364>\005\275\307>\014c\371>\000\334J\277\363\3442\276\215M\225\275\264\325M\276\264\276\001?\002\302/\277VR*\277\212\020\355=&^A?U\370\007>\304R\274\276kKB\274\250\352/?\240Ye\277kp\205\276T\235[=k\246\343\276\321\266\274\276\013\271s>\375\271\275\276\022G\234\276yB\006?}|\014?kh\256>L$\'\276\265\344\236\275\334\202\010\277\256J\364\276\300\217\020\277\334\250\206\276\035\004A\276J>\266>\\\023%?\315\0308\277\304\216.\277\211\177\031?8\'\017\277\222\n\217>\004\257b\277\353\300[>&}\325>\275ST\277\257B\\\2777\025\177\2768\342\363\273\033\003\367\275\256\001\037>\227G\300>h\343\t?i\267\240>\301B\262>#\315\231\276\030\222~\276\311\273\030\276\032\374\353\276\374>\245>\001P\235=\005w\031\276\360q\271>07\250=\215f\223>\001\333,\276\234\031\t\276-J\373\276L\230\027\277\335I\242\276\017\227A>\315\002O>\340J\205>\"\225\037\276M^\025?\177\330]>\375\223\327\276\247\215 \277\331l\367>\037\207I\274h+\263>X\034\021\277x\310\010>.\310\225>\274\303\253=x\204\010\274\346>\214\275U\310\310=\233\2134>\225 \201>\\\007\274\275\373\210\364>\034x\n\276u\000\016\277\302\247\203\276\375\274\215=\213\345\200=\375\032\"?c\022\023?\234,\206=BM\320=\304\256f\276\366\226\210\276[\\ >\2335\221\276\037e\265\276\200\245g\275(\275\311\276\255\276G>+\246\226\276\353\353V\276\347u\357>v\014x\277L\030\220>w\264\235\276_\200l\276u3\275\276\361}#\277\273\231\252\276-\201\001\276s,\252>\205\233\312=S\357S\276\251\331T\276b\237F\276x\006\032\276j\352\000\275\350\212\314\276w\322k>\260\214\201\276wL\263=\021\214!>\021{\013?\273\006\207>\331\232v\276\354\352z\276L\234Q\276B\253(>\274\333\037\277\332\366\246>\360\276==\241\270*?\0074\007?\031^\321>\313\016\220=\273L\177>\352c\243>\023\321\177\2769\254]\274\031-\225>\036\377\241>g4w=4\013s=\342\0314\277R\322\002>\016z-\276\017\017\002<\000\216\247>\311\300>>\276\275k\276F&\003>\022\312\232>\251\367\372\275a\006\240=\235Q\310\276\\\204\361=\3731\341\274:\324\317\274\257\213b>\177\223{>\022\032->\006!\203;\003\245\323\276\324\224P>~{\230>k\332\341>3|\300=\200\202\303=\206\233N\276\016=\004>\255\200\n>\314sd\275\035\002\312\276\240\273W\273\334\215\350=G\347\"\276\035\360\377>\262\321\252\275Y\335\343>h\346\334\273Np\332=3h\332\2766LF?\375E\235<(\212i\2757\"\\=\016\232\035>H\256}=\306\203\004\276/h6?\224\034\230\273o\025\010\276_\345\277\275\250\235D\276i\325\357\275\226\245A>)\376\347<\002\255\343>cA\235\276\302\022\017\276\003&\221;\351\013\217>\264;\300=\333e\355\274\243\335y=\315l\010\274]d\243\276\252,M>\246a\352\275\"\324Q\275\350b\032\275\230\035\213\2766g\t\277\245?\333>8}\235>\322\254\030?M\203\027\276\026\001\220<\326B\026?\030\000S>\367\343\356=\344\233\225\274<\302\361>\274\205:?\271r@>\233@\303\276\001.\273\276\301\344\275\275/\345\332\276n\242\346=|\324\343=\274\207\t>\252\236\r\276\210\310\355\276\345\234\366>\002\001\035\276\223\261\364>N\365P>\250\256\241\276\031\207\232=\222a\037\277u2^>\221\340\355><u\032>c(\331\276y\375\010\276\001\352\361>\032r\201\276\226\305\014>\335Id>\375\325\370=\235I\303\275\327\214\241\276\317\2273?\030C\005\277\005\224\007\277\227\236y>SM\326=Z\3522?`A5\277<\334\363\276\276*q\277,\372\031\276\340_\341\275\363.8\276\334o\r\277\001\243\272>\n\270\270\276{\211C>o~\r\276\216\021N>\256\346$?|V8\276^m\261\273;Um>\264]0?!n^\276\224\020\361=#\000\024>\352Ta=\\\350D\276\377\"\215\276\363X\225\276\013\243\243\276\352\321\307>;\235\010\274\356u1?\347\322\256>\025\364\333=\337k\267>\030\337\344>9\273\351=\246\223\246\276\262\3338?\240\327{>\250\037\253\276y\242\314>\016\250:\277nyc>#\264\246>\321)\302\276\221\254\264=\357\375\024\276z\206`\275\227\263\205\276\256{A\276\272I\017\277\027\266\254=Zz\030>\221\373\274\275&\274\021?6D\272\274\200\355\'<\031w\035>\000\014\025?Y2\312=G0\001\276\325\351\347>\016\273B\274\017;\232>y\247\023\275\244\303:>G\250\254=\013\033\241\275\003\rr\276%\333\312\276.5\022>{\3460\276\332\241v\275u~;>\000mY=\306\230\312=\376\275\361\276\351\375\003\276\250\310\364\272\241\244\246\276\275\313\223\274\333\221\242\275\252\360^\276\353\240\316\276\214S\223>h\212\301:K\326?>\351UQ\276\035\274\276=\375\177\310\275D\245\351\275\017\343\240>&\364\201>\233P\001\276B=\252\275\274\346r=\027\345\371\276\215\'\352=\235\335\'\276\205\371|\276%\325s=\010B\036\274\332\231\364>\311\345\035>\330`h\277\227\304l?k7\245\276D\341\030\277!!E<y%\333\276\235W\215\277Nq\251?\020\304}>\335Y6\274\034\301C?\302$F\277r\345s\277\237\355\020\277\004\256\205\277\263\205\\\276n{\201\277\331\242\204=\230\252y\277\246x#=zM\036\277\305v\017<q\320\002?\226\200C\276\035\364\334>\303\256\016\276\351(\310\276\272\237\305\276B8\301\276H\2319?\024\203\202>\215\030\340>\304Q\215\276\213\324\207>\241\226\263\276\247%/>\330\300*=F\022!=T\303\341\276-J\343>\377\270\203?\247NY?\271\250%\277\210tJ\276%\256\267>!\353.\277\343R\245?M\257%:\r\tU\275\206\255?\277\341\223M\276\0006*?%%<?3\215\322\276#O\300=\201T\177?\002q>\277\'\242\234>G\244s\277\262~\006\277\205g\007\276:\204\373>\023\021n?\364O\004?\241\363/\276\304\367\363>Z\222\034?g\271Q\276\330RF<s\375\003\2779\263O>\336fT>W\332\315>\010\023\256\275Z\001\320>\200{\211>#\016\\>\352\376!>\246\260\031>CO>\275,Ct\275\017\010\007?\251L\036>\261X\004\276\223\036\342=qh\222>w!\007\276\n=\325\276\\A\322\272\323\261\231\275\034\332\206\275\037S\202\276$i\354=\022\332\373\274\320i\001=\320D\324\275\035#\217\275\331\323z=\'\200\351\274\273nH\276Rc_\276\235\265\205\275\316\313\377\276\323W\037\276\340\2659=5mX\276\361\014\307>2f\356=\336\344\260\276x\357\001<\004\367\373\276\347\362k\276?\253\002>j\375\232\275_\024\253=`\224f;\217^F>H\022A\274P\221\271>E\3324>\365\357E=\301\030\304>IJ\201\274\354\2331<\320\360N;&h\270>}u8\276\256\026\035>"
      }
    }
  }
}
node {
  name: "MYINPUT/bias"
  op: "Const"
  attr {
    key: "dtype"
    value {
      type: DT_FLOAT
    }
  }
  attr {
    key: "value"
    value {
      tensor {
        dtype: DT_FLOAT
        tensor_shape {
          dim {
            size: 64
          }
        }
        tensor_content: "\210\030\275\276\316;\340;\310\217>>\270\232\374\274\020\364\216>\247\252\022\277yc\237>A\'\246=\2264{>\270\361V\277\244\324\003?|\031+\2778d\t\277M\276\350\276j\037r?\247\374\225\276\n\034K\277\3410\266>\256\253\241\276\303\244\006?\341\203\033\276\0303\266<\260b\307=\000\363\035?jh\214\276K\374\311\276P\031Y>\365e2\276Fk7\277{\307\013>\001\356J?it0?pX>?v\177\036?\314E}\277\250\337\201\276\270b\016=\270\032\013?\314\036\377>Sn\267>\300\267\225=%\201X?X6\027\277J7\262>\017\346\'>\334=\000\277\247l\005>\002F\246>*`n\277\271\367\007\277\325\2007\273\251G\260>{\365^?\202Q\027?\250\362\177\276\343\221\017>\030\333.\276\350\017$?\306A\244\276\220\313\313\275B\250T\2776\250\237>\325E\214=X\367\n?"
      }
    }
  }
}
node {
  name: "MYINPUT/MatMul/ReadVariableOp"
  op: "Identity"
  input: "MYINPUT/kernel"
  attr {
    key: "T"
    value {
      type: DT_FLOAT
    }
  }
}
node {
  name: "MYINPUT/MatMul"
  op: "MatMul"
  input: "MYINPUT_input"
  input: "MYINPUT/MatMul/ReadVariableOp"
  attr {
    key: "T"
    value {
      type: DT_FLOAT
    }
  }
  attr {
    key: "transpose_a"
    value {
      b: false
    }
  }
  attr {
    key: "transpose_b"
    value {
      b: false
    }
  }
}
node {
  name: "MYINPUT/BiasAdd/ReadVariableOp"
  op: "Identity"
  input: "MYINPUT/bias"
  attr {
    key: "T"
    value {
      type: DT_FLOAT
    }
  }
}
node {
  name: "MYINPUT/BiasAdd"
  op: "BiasAdd"
  input: "MYINPUT/MatMul"
  input: "MYINPUT/BiasAdd/ReadVariableOp"
  attr {
    key: "T"
    value {
      type: DT_FLOAT
    }
  }
  attr {
    key: "data_format"
    value {
      s: "NHWC"
    }
  }
}
node {
  name: "MYINPUT/Tanh"
  op: "Tanh"
  input: "MYINPUT/BiasAdd"
  attr {
    key: "T"
    value {
      type: DT_FLOAT
    }
  }
}
node {
  name: "dense/kernel"
  op: "Const"
  attr {
    key: "dtype"
    value {
      type: DT_FLOAT
    }
  }
  attr {
    key: "value"
    value {
      tensor {
        dtype: DT_FLOAT
        tensor_shape {
          dim {
            size: 64
          }
          dim {
            size: 64
          }
        }
        tensor_content: "\306\373$\276\035\'&>\013\004\313\276\016\223\257=0-\235\275\211\231$>H\265\275=\210;\340>\n\010\036\276H\037\010>\250\210\032\275\346YL>\034/\220\276l^\245\276\t\253\037>\351\021\001>-s&\275\tz\033<1#\335=\315<\306\276\362\002\211=\273\226[>$\334t\275Lz{\276(\300\275\2753\2263?\236v\375=\365G\270\276*\235$\274\270\020b\275H\332|\276\215C\355\276{\037&\274p\343\214=\265\334\263\275\356k\325\276\262l\320=\317\356t>\332\201\221>\350\344\276=\277\014\277>\376N@>A\n\021\274\t\274\260\276\310\221\352\273^\350\326\276\226\275\317\275\202#N\276\\8T\276\016\312~>\3374\376\275\2232\275=MQ\315>\206s\267\276\213\r\241\276\223r\355=Ir$>)\346Q\275\245(\013\276\377.\247=s\345\001\277\032K\311\275\270\266\331>\247\315\006\276_4\266\275\035%\003>\236\252\215\276/<\006>\312E\253>\341\2249\276F$\250\276\242\356\031\276\321\204\022\277\"\2727\276\222\\\030\277Z\270\364\276\256\336^\276Z\3649\276\354WM\276\030S\"=\006\352\352\276\323\0346>`\343\341\274\373m\217>\276\310\263>\';\313>\240A\263<(Y\223\276\276\030x>Otw\276p\275W\276h!\225\276\025+\013\277,u\236;\026\235\375\276\"\270\224\276\276\233\377\274\016-\351\274c!>>\204d\024\276|\322\222>\236\031\366\276\231o\004\276\323\022\253\2762P\362>gO\371\276\307e\354<\265>\230\276\301A\341=\031\206\357>\017\3123>\231\231\275\275\203\276\r?0\273\260=\306{\365\276?D\255=b\017<>\246\0306>P\250%\275\224%\320=\244\310l\272\031 6>Qcd>\0021\263\276\331m\234\276\340\244\376=\227\211\205\275\')a\276\024=}>G\203X?\352$\204>\\\000\304=\"g4>M\3400\276\325;T\277V\353@\277Z\276h\276\224~\375\276\226a\025\276+\'f>V\260>>*\003\337=\215t\010>x[\343>\257$\177=\313\\\027>\266\370\037\276<.z\276\313&\035\277\320\177\016\275\316fl>\252\247\244>\016xl=&\317\r>\004\351A=C\346Q\275\0211\356=\367T\354>\324s<>\303\366\016\276V\303\301=H9r\276\247\2368\276\246\372b>{\001\334=:\306\374=\005\231\256>\022\270\021\277n\206\007\2779!\301=\3762%?\366|B<\246\243\256>\265\020V\276O\224\251\276&\332\334>u/\256>\210\004\313>\2005\004?21\242;P\310}=\370\323\337\276m\322&?\371\377\013\275E\267\372\276\200n\023\275\262\303\351>\017~\320=\002O\277=P.\235\272\227O\235=\267\364i?\354\261K\274`\322k=;\202\255>5\264\355\276\002S\375=\003\245\027\277A\324\036\277\300>\221=\204r\201\276c\300\244=\030\031-\276\034 \316> \3456\276\331\210n\276)\021\356=\266,\245>\016\245\247\275\203|g\276\367\335\210\277y\253\347\276l\306\024<\353l%>\241)a<\036U\215>\314#\334\276s\364l>eEp=\366\217\270\276+P\222\275\334\267S>\364\250\200\277\310\356\252\277\267cN>8\367\357\276\250v\240\275O\211\231\276\036K)>\255\374\002?\255\235\356>Z\223\245\276\263~f\275\267\273\334=\355\252\360>\214\177\307\276\355\326\303\276N\272\017\276F(\374\274_\233\375\276D\211\"\276\353=i\277%\363\037>\346y\236\276h~\305>\215/\006?.8R>\356\204\251\271\345f\035\275\231\351\031?\300//?Wl>\276GK*\277\364\333k>q\277N\275vT=;\326\3545\274\201\304\\\2767o\017=Hr\273\274q\243\024\276F\016\345\275`\026R>\014\027\251\275\256x\261\276\023!\000?\031\037\245>\204\350\027\274\014\365\336<\262-\246\275\351\365\007\276F\327\252\276\223s\207=\256\227\203=q\211\002\275 $\232>\335\024\372\275wC\022\276a\347\021>{\333{>\321\204\307\275\273\356\220\276\345|\013\276L\231\014\276\2666I\276\222\344\004\277\302\016\021>\351\221*\276\230\310\257\276\251\331~\276j\205\226\276\234\032\020\276IO\202\276n\n\026>)<g\275\350\005\027?\003@T\276\005\237B=\263i\030\276xV\234\276\256\3121>\243\336\322>\227\302\315\276)\300[\275E\330\312>\222\342q\275\301\340\311\276\025\242\201>\346}\350= \274\007>\242A\352\276\267\002\257=\016\317\271=\214\tp\274\335`\224<z\245.>\205U9=\345-\350\275\304q\334;n\324\023\2767\316N>\034\322\243\275\231@\037\276\333&?>\006%\037\277\244\216\273=G\010\037?\030\241\203>mq\354><\346\203>\251MJ?\303\203\240=\001\336r\276K\366u\275\255\266\271<\203\337\203=\311F\006?\025\tB\275nc\003>\240 \365\276\231(\r?\305\032\235=\306\336\203\2750\232\005\277,\372\365>i \231>\267\264\243>\366t+=u=\035>\216k\327\276\364\345\201\276R\306\216>\235\241\016\276\'\325\340>\340I\257>X\246\257\274\264\243\304>\267\335D=\220\002\335=<\204q\276\267\261\030?Xt\237<\3400\020=Q7\263\276\321\247\235>\321U\261\276bh\030?7\215\016\277\237\002H>\245\340\302=\355\243\252\276p\322)>\2463&\277L\030\346\275=\213T>&\242\257>i\321\026=/\234\365\276\3553+=\233\225A\275.]\224\275\225\003\222\275\031\267\372\274\3120\302\276\225\272)?v(\377;c\247o>x[\204>\335ta<]\272\301>\246\234\303>\360\2349=A\353\234\276l5f\276\031zQ\276\322&\002\275\033@\274\276\332\014\313=c-\345\274:\276K\276\222\227\254=5~\016\273#\265;\276\031Ta=\351\247\205\276\350\006|\2750\233M>\334\307\272>\2010\366>\2715\215\276\255\261\026?\2439[\275\227\022\207=wu\227\276\305\376\200?\303\2522?\271\240{\276\274\324\t\277~\336\240\275\313\230\367\276\177P\272\276\325\251R\276\304\317u\276\250p\007>\035n\262=@\326\244<\213\332F?E\031\327>U?\025?c\017\330=82D=\310\202\205\275\367\\\010\275\365\001#?\364\243|>\'Iz=\034*\311\276\233^>\277k\257/>\032~\331\273\326@\274>\254\200\216\276yb\000\277k\013x?q\351-\276\372\023{=\023\363\254>\360\375\307\276*\327\240>\022\344\365\276}\262\321\275,\257[?+\343>>\364\013d?\221W\250\276\345\354&>\223\372I>)\226\207\276\311G\242\276\234?:?\341^n\274m/\306\274O?\375\275\253pc?\375<\324\275\201\250\037?\275$\303>\363p$>\217\324\223?;V\021?\377\3347?\233\232\323\275P\245L\274A\354\035\276\320\360\000\300^_\224>\010r\031?\317\347\250?\347?o\277g\241=?\310O\017\277@\257\370?3;\235<\376\277\352?\310\222\026>4\021\264\277\016\"\247\277UM\t\277a\241\232>b\346%\277%f\032\277?4r<rr\250\274\022\222\355\276\370\r\246\277\\\306\262>\211\010\246>\271\274\202>\272a\217\276\362\322\274>\002\344\013?rC\220?P\002\002>\252\336\264\277R\222\013\276\330O+\277\336\354\201>|,)\277C&\327=\347k\206\277\340(\217\277h\355\300>3aR\276\271\347x\276\366ig=\010\3479>\330\300\314>\2278\237=I\305\013>F\205\214\276\246-\335<\217M\030\276^v\333\275\303\360\"\276\220\021\371=@\003\014\276u\341>\276\343\r\007\277\247\327==\374\240\\\2742k\003\277\3579\034\276\230\031\254\275tV\030\276\221\254\350=\345\332\356\274W\366\305\275n\251\253\275\220(=\276QS\020=\221\360\201\274\376\2550\276h\226o\276Np\004\276f\315J=\321\261\273\274\001\216\257>h\253%>D\2757>\375c\367\274\272 \231=\033\230I\277\337\362}\276\322$^\276_Fc>wk\204\274\351\371q\275}w\223\275\345\216%\274\253\204\016\277\267\353:\276\262\034I\276\025f\321\276F\037W>3V\357\276wy\'=\355%\373=\021\031\264\275cn\033>\324\033~>\224\340.\275\205%\231>\036\224\366\276\270\252\200>ec\320\274\2008G\277\345\032\210\276x-\373\275\202\230E\276\210&\352\276\004\225\211>1\210\002>\024\372\224\276\355L4>!\016\021?E\232\250\275\253\210\014\277}\247z>O\021\016\277\237\314{>\314G\317=\264\253\264>YU\211\276\377z\217\276\266U3\276By\313\275\035\035v>\007-\274>\331z\202\275\241\304\211\276Q\000\306\276\311o\215\276\257\032\243>\207\252\241\275\370\350\355\275\333l6\276\354L4\277\351\257\237;\207\256\010>\006\372\261>\326\347\035>\360)\t>H\025F?e\224O=\337\222\253>\373\252\026>2\226\307=\351i\306\275p\341\007\276\233K\376>;Y\326\275\232,\005?\200\330\273\276M\277x\276\027)\272>\"\007^>9\316\260\275\220kA>\362t\352<\275\272\243>\252\n\006\277\010\001\016>\340\314\243\276\326Y\024\2766/\312=\207\274[\277\361\302\327\276\315\0059\276\356[\221\276\326\377:?\221U\275>\233\340\334\276\246E\037>\332\345\345>\r\351\246>\276\"\276\276\347\2042\276\t\302\260\276\n\267\346\2769\363\020?\"\216\\>l;\241\276)\317\n?\336\333\002\276\203\026\324\276~\354%>O\300\301>s/q>\372z\t\276b\203\251>v \252<5\323\223\276\216\361a\276k\363a?uNX\2762\340\310\276\352h\000\277\342\032\265=w\207\253\276\263\201\031\277\3505\274\275\277g}\276xm\310\274\255E\345\275\340\265\377\275\021[j>H\370\275\274\202\373\235>5\216\212=L\034\333>\301\377\030\277\320.\205>DX\372\275\370\221\355\275Z?\213=\025\205\355>N5\000\277\224U#\275\264?\022>\323\342\276\276A{f\275NZ\035\276\320\257\203=]\225\376>\2533\037\277\264\256?\276\'\327\300>\226\266\300\276\202\303\303>@\032W=\021\203\242>\350-\332>.\317\351\275\350y\201<\225@\207=\336\\\233>\271\364\356\276=v\214\275p%\222>pu\227=B-\034\276k\204\347\273O\2551\276\241\316/\276\037\307)\276E\352\036?\222\256\222\275\200\324Q=\203\006\220\276\347{\253\276\255\235c>\307\275\232>\270\300+\277\205\335\370\276\360\245e\275\336M{>\\v\023\274\023\037\373=\203\340\373\276;\0049>L61?(;i>`SB=\227\206><\202\253\326\276\374J\225>\237WT>2\366\201>K\035\247\276Cx\324\275U\216\227>\000\247\201>\ty\212>>|\021\277\317[\327\276\025\311\222>\222\032\346>\347\242\274\2750\314\r>J\347V\275[\360\264\275e \233=\247S\250>T\377\253\272\216\\\267>I\206\241\275@\035\303\276\241c3>P\213T\276\373\370\362>\037v\316\276\311\377\346\276\033\230<>\3007\006\275\353\245?\2769\354\001\275\227w[>p\305N>\035\337\303\276h\376\037?2\2420\275\353a\371\276\316\204\200\274\t\223]=\030\360e\276\216\214\250>\352g\257\275\335?\035\277\342\201\010\277j@t\276K\205l\276P\313V>\340\250\222\2754(\027\277_\010\017\277;GI\276\315\232\313=\335\226\242\275I\2165>\377\333i>\223\027\274\276\316\345\222\276\013\202|\276\233\220\315\271\033\333!?r_\032\276\331\222 \2751[\225>\323\013M\276\354\001\337\276\366\340\231>^e,\276\373\207\276>%\276\014\277\225\026)?\266\315\356>\356~\033?)\266S\276\205\017\345=\334\247\010<\020\234\213\274\333n\301>\2522\315\275i\220$\276&\344\201>_\' \277\216\262\333\276D\247\216>\202\224\312\276\303\362\255\276K\247\006\2753\373~\276\335\217\351>\267C\022?\265-3\277\311s\337>X^\343\275\226\301\250\276Wv\301\276%\230\262>\217\017\246>?\255\210;\371\001\307\276Z\376\032\276\2520\322\275\317\307\240:\360\203\000>\211\350i>\314a\010\276&\341\217\276=H\t>\350\254\002\276\222\000\361\276K\021\316>\300n\276=qF\204>\355mN>=xi=\"\272\206\276\010\252q>\272.\301\276*\232\320\276#\254E\276\227\234\177\276\243\315\275\276\360\037\217\276\276\003\250\276\373\350\022>\242Z2>\264k\254\275<y\036\276^\237\306\276\361\233\243=\327\315q\276! \277>\361OM>D\035.\277wI$=\334\006)\276Im\356>\030,T>k`\243\275\264\'\375\276\301\212\205>\363\t\237>5?\311\276\361o:\276\026\273\037>lN\364<b,\354\276*\t\370\275\370zV\277\223\214\236\276\365Oo>l\374.=\366\261\263\275\255\304\t>)\233:>@\235\243\276\207\327=>\272\366H<\203L\261=\331\032\320\276J\273\301\2764\020\310\275r\235\025\277\227_h\276\364\311\345=\2234\237\276\034\202\264=6j@\275\223\247\243\276\177v\253\275V\230`\276w\320\022\277\001\312&\277{N<>\347\275\322\276\220k\354\276\213l\334\276\275<\311=\r\362\236\276\310\331\376\275\342\254\336\274;\320p\276\300M\335\276\376\212\266=N\342\361\275\310<\216>\2335\353\276\313\230\324\276\316\316\\\276(\203_\276\253Q\251\276\024\004\177\276\347\356&>\311\203\200\275\335\013\225>\373\311:\276\317_\254\2769\024j\276CA\275>\033 \007\277\306\217\254\274n\333\232\276upV\276\240\344\006\277~\020=>\360!K\276\"v\305\276\025A\305=P\257\t=x\020\006\277\207\034e\275\352\000\246\275\302tx\276m{\016\276\206\227\274\276\344\371\001\276HD\311\276\375\323\334=XU\030\2775\252\360\276\353 \334=\023;\t>\204\'T=\2628\212\276\367Y\370=\375\364\024=am\004\276\342O\301\276\274Z\315>\310\032\013=\t\020\370>\351\307\032\276\343@\006>\326V\353>\254Qv=K\302\305=\231a\327>\346\362\300<\027\000%>b\257\314\275\032\250+>\201\372+\276\002\024>>\360\317\036\276\255(\021>\240\255<=B\227\303>\233\363.=\214T\025\277K\212\021\277=\304=\277\021\213\216\276L{=\276\363\030\321<{/5=\334\363s\275\024\033\034\277&56=\311\034\334\275\306\3011>\346\201\210>b[\312=\023hT<s\216\223\276;\210h>\005<k=i\342\023>\227\371\200=\032Q\207\276|\243\247\276\271/\\\277P\260\033\276q6\032\276\214\375\262>,P\377\276z|\352\276\336\005\031\277#\324\234\276\223\236n>\013\354\031\276\022\240o\276\033VJ\276\316\302c>\313\304\240>\377\tX\276_\241\276\275\274\036\364>\"\335\311\275G\262|\275Gh\013>\226\252W\277\343\275\237\275\001\247\337=\366\351z\276#;\200\276N\\\205\276\2365\"?\331\226>?\356b\311>\312\207\024>\230[\344=\2767P\276\312\023\034>\267\270\220\276\301\236K?\207\224\240\277\365h\005\277\252\251\344=\005\023\377>\006l\002\276N\330\373\276p\244\374>!b\212\275\324%\007?\264\211\263=<\227\215\276\365&\244\274i\302\215?\311\247\006?<G\351=\037\337\266\277\266\201=\274\344\324\362<\374\333\002?\326\216;>\260\274_>DM.\277\231\220f?\017\277P?\366t\355>|\346\363>\r\202o>\241\327k=\3144\201?\340\031\024?\2171\026>X\234,>\227\215\357>Cn\020\277H\347\322>g\211\236=\007\311\210>\230V\303=Y&B\277\222\371\254>\"\013\207\277\354\344\343?\027\3007\275\270\021\201\276B\"\334\276a^\252\272\203\347\262>\033\244%>\003\273\232\274\373\263\256\276\273`\204>\346\353\357>G>\021\276\240\021\005?\037<\004?\323zE>\036\307\257\275\213u\214>\340\250\232\276/k\t?\226l\272>\251\3175\276/\'5?C%\016\276}}\225\276G\2020>\225\203@>y\033:?\377\3208>X\244\245=\247\303\270>O\355\255=\"6\017\276\266\"\n?Zu9>\034\303\224>\250\335D\276g\020N>\331Y\231>\324\277;\276 Co\275\372;]>\016\362\010\276\311h\355\276\361l=\275:df\275\313h\001\272\325\215\233>\211\206\177\276]\025\215\275\032\005|>i0\225=d\017\355>k\2670\276\337\317->\217\212\213\275\375\223l>\275\362v>\2100\022>0\266\321>\3008\003?i\220\023=]\243\025\2739T\234\276\277%\262\276\026\352\255>q\312\014>\177\307\211\274\210\313 <7\244\221>j\264\322=\370n\265=\034Z\340\275J(\235\2765@c\276\326c#>\256\033\321\276\247rL\2773&\317\275q\223\200\273\250\372\367\276\\\222E\276\025\003\346\274\243bA;\232S\220>]XT>\215j\223\276\0068\376=!\353d>\250\327\361\276Sp\217<\362;\032\274\305\307w\276\256\331~\277 i\275\276\013G\207\276k\257+\275D\360\315\275}\372\270\276\317\2721?\213\221\034?r\271\351<\014\"\211>g\230\206>O\373\032\276\335\023\205>\027\367\037?\354\237\210\275\335\\h\276\224\335\203\276o\370\215\276\344\250\300>\213\r\035?\377\303\032\277\224\010G\276\013/\'?\030\036\035>\341:g\276\006\002\353\276\370\242\327\276=\371\r?\316\"Z\275\203\203\336\276MO+>\347\201\237>\\\rY\277Jv\331\275\317\245\002\276\245\214J>r5\004>G\271\365\276\351\220\331>\362\\\355\276\210 6\276\206\200\007\277\014o[>\304\227\252<5W\255>\330g)<R8\237\276\233Q\313\275\r\337l\276\276<.>\271\317U\275:\374Z=R\336m>M\033\244\275D\025\206\274\034s\236>\2748)\2767\013+\275\360\267/>\233\320\346>-\233\023=:J\276=$\256U=\244/\234<\357\300\000\276\244l[>\355\032^>V\2664<6\244c\276\364\347\213>\33140>Z\222/\276\316\265K=;\302\307>\004) ?\317Q\234\276-\257\364=\347\020\247\275\206\332\231\276\036\032H=\315\275\230\275\2306\223\276\265\001\331\275@\357s=\261\240`>b\206\320\274\261\'\304>\016\275\005\276C7\313\273\303\337L\276\325g\342=-6J>X+\302\274-\217\225\276a\353\240=\304\315\255>\237\002\242\276\312m@>}%\013\276G\275\254>Zb\255\276\203\206\025>\234\241,>\301\254\000\276\272m\311=\225\377\233<\206\000\244\275Ee\307\274\254\366(>\036\370+>\263\247a?\274]\255\275\334\254@\276vIh>\305\246\027\277\257\262<\277\266\351z>\247\267\350\276\275\330\022\275\273\334\\\276\251-\225\276\005\301\025\276\033\264\355\276Y7\"\276\223\177\341>#\235\225\276\356\0335><2\365\276r\374\225\276\321\231\\\274\321\326!?8\005\004>\346Y\331\275\007\013\262=\223\363\010\276\014\215\322>\270I\346\276\375\223M>m\265\216;\002p\312\276\262\010\'\276\277\203g\275\357\352T\277o\246l\276\037\023\027\277Z.6>\237C\300>j\320\r?M\000\267=\217\220`\274\013\275\262;\204W\037?s\230\260\275\3644\246>\245?\347>@,\007\2773\037\001\277\002\332\316>V?\362=}\370\216\276\276\367\311\276\254\344\216>.\215\232<E#\335>,\'\341>\025\257\343\276)\330\202=k\\\353<^\302\273\275}\217\020\277S\347\203\275\351\230 \276L>\334>\350\354\263=\006\236\035>E\373\314>c\207M\276I\t\262\275\316\230\255\275\364\003\301\276\376\307\272\276&\013\224\276\200.\370\276p]\260=\026\371P\276\207\366\t\276\246\265\330\273?4\263\275\322\003W\276\315\244m\276\314^S\276=\363\265>\304\211\307<\345-\021>\330\\\002\277!\036\217\275\367\025\031\276\333\236\203\276\261\264\352=\321-\032>\367\230\231>\006\231\301>\213\257\224>#Ao>$\334A\276\377\234\266\276\rQ3\276\025\'\341>\3471R\276is\243>\346j\334\275^\345\217<#\005\307\276\330z\035;?h\177\2766\224l\276\321)\001<\260;\321; 2M\277 \206\377>\275\210e>,\021@\276qu\303\273*\235\314>A\017\202\275\236\2674>\236\025\307=\204\327\361\275\037\026\275<\273\230\375\276\375L\324<\254\032\026>7\345<>LYQ>\274X^>\336\376Q>\200\373\271>\177\204\325\276r\202\326\276\200T\243>\002u2?\362.b>\000\340\027?P\356\310>$\267N\275\020X\342>\241\323\016>\234;\220=\340\340\027\276\351&t<\333\3377>\327<\326\276\017\256\022?&>\321\273\r&\002\276\231\245\020<\257x\340\276\354uh\276.\357\244<O\271V\276g\006C\276x7\212\276\264\321\254<\204\321\301\276\310\277\243\276b\004\312>\361\023\330\276\354B\373\275R[\331\276j\007@\276\317\020\311>\241~\324</+\260>Y\251\000\276\313\0135\276d6\260\276\004\020D>\353\037B\277{[\247\276\311\311\274=OI\263>\317\212\343> #a\275X\224\004\277\021&\"\277:\033\335\275I\350\t\277W\007h\277(M=?@\031\343\274\3663\206<X\200_\2761%q=\264\235\254>\231\377\261\2760\025\202>\3336\365>\252v\345\2765!\301=\037|\304>\234\363\177\277\201rD>f\033\207\276[\3109>K\350\374\276\23651=\217\312\027\277eT\237>\247\300\226\276\350\332h\276&\\K>\266\213\314\274P\333%>0\247\240\276\272\311\030>9\216\036?\n\351\247>\344\275\022\276\313R\273\276\237\023D\276Gz&>c\330\353\276\220e.>P\022\204>+-\003\2774\252\362=\260\347\210>t\345-\276 (A=\256\230\303<\301\037K?[\252\340>\325u\t>\370\331\033=\330O\311\276D0\017\277\r\n%\275\243)+\277Y\226k>}\232\226\276\007\265\001?\256\333&=\300a\247>\277\360\257>\241\324\347>Y\016f\276d\354\247\276\255\372\244\275>\367\032?\303\345\355\276\341\327N\276B\277\212\276\371\264\205\276L\347D>\035f\255\275\t\302\274>\322\245\331\275=\300y?\032tM?+h\020\276+%G?\333l\250\276)\\4\276@\236\343>q\202F\276\014\215@>\346\340\024\276\361z1<\304P\227<\303Z\317=qkg\276N\321)\276\r|L\277\346\364\324=\232<\332\273G\306\326\275\215\350\234>coN=\317d\017<K4\027>\362v\r?\303\366\304\276\314\213\316\276\315\352\305\276d\245\250=ER\261\275\332V\273\276\373\271E\276\020|\r>/H \277\"\265\216\275^\034\032\276\237\326\017>\324\200\303\276\217\307\374\274cw{\276)\022/\277\213~\326=j\265\200>\322N\350\273q\"\006\275\233\275T<\350wQ\276\270}m>a\354n\274-\002\226\276\300\232X\276)\207\000>e\277\\>*pT>\023<\232\274g\030\030\2766\240\305=\230\246\237>\321\322E\277}\025\252\276\362\323\371=\206\033\235>\3043\251>J~\302\276q\321\256;\260\216\200\276\020\313\241>\223,[>\021\336\002\276]\014\227>\200t\306\276\323\314\254=\316\265\200>\023\335\226<\334?2\275\r~]\276B\272u\276z\2104\276`v\226=\021\302\217>9\261\306=\022\275/>\'\372\266\276\264\377q>PX\250\276:\312\\>c\245\331>\246\320\274\276?\352\372\275uT3\275\312g1>t\241\007?\225Ae\276e|\343\275\317@\262\275\234\243\322>\006~N\276\221\302n\276\346\366\014= :\2439\2125\200\275\236\363{>h\030:=K\325\001\276\345=\010\276\316\250\375=\'@\362\275\255k\'\276`\330\355\274\347\332\207>}\263\274=U\020\311=\312\014\243>\177\026\276>-\\n\275\022\026\241\276\276\313\351>0)2\276\027\263\203=9\251\304\275)B\272\276\nNi=,\333\240>\234\366l>Q3n\274[\206\213\276\030\377\027>\353\334\357\276\366\355>>d~K\276\036b2>\243\200\r\276\357\177\346\276\254\260\343>\223\246\\<w1\300\276X\361\212=\337\304\271\276\341\340\007\276\2179]>\260\302\322\276\2328U\276\326\010\n>\202{\226>\225\303Z?\204I\300\276\217\273%?\262<b?\361o5\275\212wS:\323\322O\275\252\266\033\277\246\001\214\275\346\247E?\\\271\242>\005\234\017?r\\!\275\021\230\241>\245$\364>G\317\036>\344w\245>\243\344\324\275\213\237\321=\257\004\266\276a\022\301>v\342\020?Dt\317\276\326G\033\277,6P\275\345}+\276jJ\343\276]W\210\276\036\204\000\277\325\010\305\276n\025\212>\273\2333=$9\340=\205}\227>[\245\230>H\007\265\274\"\373\341\276\202\313\014\277\314!6\277EP\005\275\002\361\236=\325\\\235>6|O\275\266\267\270>{z\\\276\362\317h?\211\337:\277\225\330W\277$U\177>\334O#>p\313\210=\335;\236\276\250\275Z\276\354\226\020>d<-\276\275\351\275\276\333\223\014>\204T\234\276\301\336\323\276\033;\262\276\003\353\033\2762\007@\276\270=j>h\024T>&Y\305\274h\254\365>}u\204\276\247\233.\275\343\267B\276I{\227\276t\034\335=:Y\022\276\325\177\004\277:\374\317\276\207_\216\274&\300\347=\335\200\212=Y\003\210\275>\333f=L\2345;_\252\033\277\324\020\267>{\201\351\275\263zw>\227U_>\352FI\276\201\342F=H\322\216>\013\320\032?\314j\013\275\257\300\">K\001\223>\256\340\014\275\341b\212\276-\373I<\240\231D\276\221\206\234\276\035e\377<x\227{>\\Ie\275\000|\313=+\006\021\275\240t\201=1=\257;\347p@\276Zu\001\277T\222\261\2755\2777=\261\371\214\276,#b\276N\313\362\270\244Gs=\300D}>\025\363\370>6\016\335=v*\220\275\003\230\245>g\206\352\276\207(\250=\363\254e=lV\036\277\204\373k\277\374\036T\275\220\300U\276\242\300\305\276\201\014\313=o\343\r?\007,\036\2763\206\244\275\025\014\275>CFV\277\301\257\024\277y\215H= \333\275\275\354\227Y>\021-b\276\223f\026\2770x\255\276V\351\352>\272\\$<\236<\323\276\2435\336\275\267+\236\2761\236S\276\262\210\264\275\330\300k\277\007\311\037\276\202\203\034\276r\024\327\274g\231\007\276\222\033\364\276p+\226\276\244\324\t\277\306\310,?q\n\274>\324\230\016=\237\245\377<1\032|\275#\253\207>\200R\003>\325\240\353=\365\267\272\276b\276\t?\213\241\312\276\"\324\207>*\234o\277\334~\020>\267\250\307\275\245\337\310\276\255E\221\276|\264\021=+\2366=z\204\230=\364\371\r\2768Y\212={\220\241\276\355\241\371>\000I\017\274\027K\020?\031?Y\276\374:\300>:\3315\276\014\276\305\275\256\265\031\276\322o\350\274\243qD\277\260:v\276\357\207\301>\352\300\314\274\275\313{\273\262\241A>\326\032\211>\233D\276\274\347.7\276\302~+=r\177\251\276\272\352\037\276\227\364\022?\003\035\202>\361\200\335<\202\226\r<\026w\030\277\237\010\227\275\371=\313>\323\tK?\033Z%>oj\246=\254*\330\275\374\375\333\276\321\377\244\2767\'\035\277,\243\360\275<d\013=\025\231\304\276\3651\355\275S\353+=\311O\325\275\320,\245>\253\353:>\356\344\003?\314@#>#\266_\276\371e#>!\030:\276p\217\207<b\201\002\277\350\366-\276K\022\323\275\025\354_>U\r\201\276U\314\317>\214\216\302=C\311\350\275\2454+\277\256\233{\276\201\030*\277\260\004f\276Be\227>\360j\204>\360\226\'\275\245\213\257;\252\304\327=\354\341\344<\244T\377<\3467U\276=\010\270\276\261\276M>\256 \350\275\245\267\n\277C\"\205=\226\336V\274\007e\001<\275\354\206;\262\314\243>^d\246\276\376\010\275>\310\216\263>~\350\252\276\2610\250<0\260\337>\006\353\\\277\307\371\215>\347s\240\276\272/\367\276\016^\305\275n\234_=m\257\213<\271\313>>\036\262\322<z\310\024={\355\013?\013O3?\027\375\034?\256H\372=\236\235\251<\201S\350\276dn\203\276U\376\360>j$q\2764\217\202\276h\221\260<\025zV=\020\372_\277B@\224\276\220\026\240\275\021ou=\224 \200=\222\325V\275\2679H?\375R\325>\003\255\354\276:\212\006\276;\027\031?\310J\036?X\301z\276\265\366M\277:\2228\275\277=\"?\221Z\207>\346\270J>\371\217\027?\236\341\315=\222[\"\277\202\257\216\276\346\245\2649%_^\276\"fj\274S\232\025\276m\202\006?\313p\021?\255\352\215=\013\313z\276\031\272\377\276\235\362/?1\033\305\276G\000\240>\346\261\315\275,\204\001?o\016d\277\301U!?\355\2233\277v\3604\277\014W\217\276\022\026\326\276V\272\325=c\235\377<tf\257\276\242\362\177\275\037\362\010?\3307\271\276\007zp\275\366\361\372\276 e\007?\373\232\225\27640\356\276\n\220\250\274\223\363\003<0d\241<\312!\325\276\376\205\354\276\234\350\357:\255\'\276\276\235\035\330>\306\376\242>\305.\354=\242\306\237>3\005\344\276\3168\034\277\336\271-\276\305\256)\277U\314\201>\330\024\313\276\326Z\016>[\001\206>\301F\264>\303\367\225=\243\373\225\276\374\340\342\276P\215\245>\276\243\344\276W:&?~\231\225>\264\274u\277\222\354\275>}\234)\277V\001o>a:\365>\341\241\313\275\331\342\307\276p1g?\352\336M?\327m\367\276\352\364\230?+3\226=\302\302\366\276\276\020o\2760|[\276\370D\220>\313\207\356\276\373-\321>\222R\242\276\201\005u>]Ua\277\372\262\314\276\"=Z\276\036\342\260\276\3310\231\276\023lN=]\367\177\2777\377\362<\270*\270\276\n\236D?\224\'p\276O\304\013\2742\3263\276\252\272\024\276\377=\017\275&\360\013\277\205w\245=C\330\037?>\227v>\366u\201?\306\3524\276\214t\356\275\010\t8\277v:\211\276\357\361\r?\t\263@?\306p\303>\030\235\203\274\303\'p\277\267\264\255\275\255g\323\276\202\223\n\277Y\221\035<\241A\'\276D\004\005\2769\356)\276A\223\221>\366\242\255>\255}\010?\310\311A?\303\nh=\300}\025\277\r\344\t?\231p>>:v@?\243:\203>\237<\336\276\027\251\322=\2357 \2779:\200?{B\311\276\213f\021>\256\360\364>\002\2553\276\355J\265>Z\344\267>`\324\221\274\010as>@\266\215>x\027\030>\222\321\017>\346\004\227>18\277=\rs\247>\326,\321\276\000;\032>\343\256_\276>\232\315\276\272\260g>\337\352\374\276M\310\231\276x\274\265;\324\227%\277\tyo>\327\231\214>`\312\215=\376\237V\276\372\t\320\276-\241\301\276\304\247\375\275\005f\373<y|\217\276J\231\000\276\266\003\246\275\342:\324=\276a\273\2765\301\n\277\0144\205>\256d>>\304v\254\276k\310T\275\2403\320=i\220\006\277o\\f>\2719\205\276I\3313\2766\322\031\276\352e\317\275\237b\211\275G\313\320=\337\231\006\2772B\202>.\366W\275i\n2\276\366\031\255\276@\362%>\267\314u\275A\263\355\275\2163`><\233\314\276\364X\"\275\243j\010?Yx\005\276\245\226H><@S\276\371\312\321=%5\n>\330AI\274 \336\336\275\330\355e\273+\223\'>\302u\224>\274s\320\276\004\024\223>O\001\003>\326\244\233=\250\344\306<\240T\r\277*\261\212\275^9\032>\232v\244\276Ek\023>\243\303\360\276\341\033\013\277\302\271M>\201\214\336:\277$\014?\001\024\005\277Y\2133\277z\317\227\276\371\366\234\274\2409\350;\377\253\274\275R\207\335>x\375\352\276\367\022 \274\265\355\342\276\302s\254\276oY\262=\323\277(?{\217\026?\033\310\362\276)(\002\277yJ\223>\202}\010>X\267\222>\306m\007?\356\177\207>s\307\313\275\227\211j?W(p>\225%\024?\253\2357=\215\231L>\205iE\276U\033\201>\235\313\303>\023@\027>\213\337V\276\320\320\001?\225t\212\274L\251S=\002\264+\276\303: >\316/\237\275\222\316(\277\214\335h?*(\220\277\240\303\347>\017w\370\276k\342t>Sf~\275\323)1\277\000\'\276>Z5\262=\250CH\276\276F\t?\346_\010=\322\002\371\275\367s\312\276si]\276\007`\366<\000\213\366\275\"\200[>=E\261\274\245zz>\273m-\276\236s\010\276\251d)\275\365\377\237\276\311\273\303=b\362T\276vN*\276\252\342\026> K\226\276\321p~\276\2507\276\276\217D>>\274\325\276>\231u\202>\312\273L>\037\335=\276[\306A>l\324\215\274\346#\010=\226\274\220>.:\032\276Y\314,\277\371Ih>4N\376<\267\354\306=\213\253\247\275\343\352\342\275X\214[>\230\365\004\275\301\216 >8a\204\276u%\033>\277\331\212=\032\251c>+\301T>\254N\303=A\320\010>\271\274\217\276m\357\245\276\021\332i<h\244<<\357k\224>\2627\230\276\r\0146\275\243\026\237>T\301\200\276\366\312\225<V\201N\275%Hk=xK\026>\234\033\037\275\347U\031\277\017\2449=\253\320\302>\332\"\366=X(O\277\240B\374\276\314\344\217\275\254K\027\277\367\227H\276\276k\232>\367\334{\276\030 \313>\304\370\262>Sc+\276!\367\301=|\241\024\276\016\254\216>\0221)>gf\021?\037\024!\276\320\030\301>5\314B=E\303\001>\367\232\232=a\231\302;\372\307\321=\010\315\341=\016\245E\276\265^\230>nkr\276\302\253Z\275\213h\n=\203\200\263\276X#=\275-y\247\276\271\207\222\275\333\013-\276\027\353\027>\303\226\260>\232\337b>\272n}>I\225C\276a\224\375<\017\315\270=\203\211\304=\231\362\220\274\357z\271\275\347\247\321\276\346Y\325\276\021\360\030>\227\322\204\275\321~h>\335\332\031\2750\221\245>{>d\275GZ\375\275\262:\231>\232q\331\2763\227\016?\300J[\276\\\226\200>\342\342\264\275\025mb\275U\322\002\277\342\306\321\276\323,\204>\300\257\014\275e\376\307>:\3120=\317O\262\276\306\000\026?\207\230m\276\360\237\261\2751\233b\276\217\027\205\276\306\255:\276h\257\350<\324\371\332\276\262)\210\276\211\233\347\276\365\323\376\275\244DT=\363\341y?\250\363\307=6\226\315=G3\342\276m\274W\275\267[\022?\214\356\242\276Vx\274\276,\310\227\274)\0312\275\326\317\220>G\343\316\275Q\362\335\275^\021\230=\375\207^\2768b\017?\231\025\365>\372\360V\275\230\034\233<\264\007d\276{\362\272=\3013\023>2\336^\276\352FY\276\251\226<\275\351\332\031\276\r\363\316\276\tQ\240\275\375\241\303\275\3108\222>Q\237$>C\222\333>\nT\207>\223Y\366>\037t\031\276u\205\240=\313q\321=\201\236\370\274O<J\276\372p\371\275(\266\257?oM\350\276\327\245\344>\315zY>W\215\002=\230\322\"<]\215\021>;\317\370<6\327\240>\035\261\037>kE\247>Lf\356\2760\2674>m\350\257\275\017\321\203\276\002n\014\277>+\306>J\013\371\276\014f!><L\002?U\"\355>\257\211P\276\361p[=f\205\357\275\315)\355=n!{>\250\320\310<2\271\005\276Q\225\211\275\236\260F\275M\025>\276a\210\255>1m-?+\214\311>\365n%>\321\016\212\276\020\213\247\275\004\216\241\276\277#c\2764\177\220=\025D\271>\267\331\023>X7-\276\340cT\276$\236`\274\322t\337\275\353\r\304\276W\366)>\307Q\204>K/!?X\215\277\275\263\334U\275m-\223=]\021\023?!b3>\207\240\001\276\321\207\322\276\t3\027\274\004\3421?o\212\226\2760\240%>\255L_\276U\001\212\276\034\006M\276\021R\373=Y|/>v0-?/\376u>\332\r\303\275\013\007\262>{xA<\307\024\344\275\'\014\017\273\035\277r>\360\006\331\274\312h\252>S\203&?\022\3233>\373{\325\276\330/\273\276\030,\212>\3435\000>RN\244>\343\375\331=\222\000/?Z\017\247\276\305\226\226\276\333\301\227\276h\237\243\275\343d\334>\317\004\273>w\321\371=;e\236\2763\367C>mu\310>\302\023@\276m\357\266\276\335\006\020>\313\330\241>\320\224\306\274\031\263\302\276A\353\300\275\230\255\037\277\373dE\277\264\307\310=\216E\361\276%\t\316\276\247C\364<\253a\022?t,U>\345\264\021>)(\373\274|p\236=0\376w>\265\"\325\275\305\014\325\276\324\250W\276\333\250\355\276\326X\331>\310P\256>\220\363\342>\226U\270<\351\0051>~.\363\274+w\010\277\275\276$>\272<\233\275\\\274\220\276\\\001>\276\031\211\031\276tI\203>\361\321\237\276\025\032\335=\226\377P\276^\230,>\243z\371=D=s>\275\265\n\276\223K\013\275\3368t\276\371\264\025\274|\\P?x\223\237>i\007#?3\005\033?\262@\004?\367J\221\276\267\3359\276v\010\262>\344\314\306\276\\v1?;\313O\276b\261v\277\202\350\'>\004\026\224=+\214,?/\016\222>\3559\236=+\354\224?\226E\221?SxL?C\310\373>\335\n\362\276,\222\313<\007\237\237\277\036\264\302<\000\n[?\341\265A;\\p\250\277\273f\315>\222c\273\276J{r?\004 \033\276Gq\216?\226\202%>\312\306t\277?\360\251\277i\373$\275\216\037\377>&]\344\276|\310\327=O\362\267>\370zx>\326\'\224\276m\301U\277c\2740\277\324\017s?\'u\333>\361%\335\275u\210\020?\207\006\232\276\244k\246>\002\354z\277\315\344\200\276{\314\326=\335(\204\277y\031\324\275\307%\331\2745{\215\276<\336R\276ypj\277bS\221\276\'\322\356>T\000\370\276\r\376t?\232tO>Q\355D>\001\224\274\276\233\010!>\204\255\035\276\255\321F\276D2\023?\231R\245?\352\303X\277@\326\275=[\323-\277Y\340\241\274f\247\226?c\376\325>3\006\261\276\302\244\236=\266\034\300>\270r\301=\020\302\220>\374$\004?\247\031F?\240{\001\274!\257\217\276\344\221B\277\020\003\"\277}3d=\025\217;\276\334\001Z>U\272+\276u\035W\277^Y\014\277^\357\220>\nJ(?\361Je\276\246\\\216\276\217\022;\277\232<\250?\035\350\301=;\343.\2762\365\304\276\303\350\300=\361e\242?U\244\001=?7\347\276\267\200\266<~@&?v\022\310>\005e\305\275e\333\310>\'\355\231>\236\251\326\276\001\026\313<\207||\277\262T\363>;\212\240\275\274m\247>\265\'1?\336 \375>\004\255\247\275\347\320J\276\021\205 >\235T\274\276\261\205\337;\235\177\216>\330]\373\276\375*\336\275\345y3?m\375\315\276\317\r\205\2759\367\236\274\343\371#\277\377\0007\276\317h\036?@\3349\276=!\222>\317\234\347<\312\364\005\276\203\227`:\210fs>\244;-\276\301?\274>Y\005\374\276\242\254\001\277>\332\023\277\036Df\276kO\003>\224\265\002\276s\346\327>\323N\221=S\340R\277\234\366\254>\034\255_>2\257\n\276\257\376\250>\005\230\326>\217\351Q\276\271q\315\275\220\247\220=&\335\315=\014B\252>\036\346\310\276\322k\000\277\255\335\230>05\226>Y\333\351\275;\031D\277\3638\261>L\036\035>qz\211>\350\000\353\276\001\326\340>\357A\335\275\3656\334\275I\237]\276OR\354<\235W\362>g\320\205>o\356\017\276\3405\000\276\335\251\214>]\0341\277\370P\334\276K\333M=\323\033\365\276$\217\034?G\250:=\302@\243\276\204\300U>\371+\026\276k\312v<\014\325\364\275\343P\267\275\360\212\362>K_\255\276M\013\325>\235Z\255>\2107s>\234cZ>Cl5>\004:$>(1G\276]\263\253>\241\330\355>\322rK>F%1?0\215\007>\027a\355=^\320\343\274}\200\"?\370\320>?\020\347\222\276\320\251\204=\213\332\240\274\275V}\276_\360\020\276\330?D>I\337\223>A\002\023\276O\367\301\276\252\020\024\273\007<\227\275\242\201\032<\374U\366:\302\304\363\275\231\033\177=\213\245\327>\021\266\262>\236\344\351\276\352<E\276\215,V\275Y\217\345>!\0037>/r6?\\\202-?\365o\006?\315\326$?\272\2524\2766\360\254>P\354Z\276g\233\250>\036/\355\275\213:\225>\220s\016>\235\027\310=\246x\353=\245\177\000\273\032\360\302={S0\276\300\177\313>\215rn\275\325\034\025\276\267\212\036\277\310\211\247\276<\264\316<W\331\275\276\240\307\306=\365\337\031\276\364\370=\275w\312)\277\037b\215\276\320\036\232>>\336%\276\260\030\037\275[5\337>(&\350>\354^\326=f\300\256=C](\2754\013\341\276\t\370\302=?}\215\275\344\270m>\221\026\007\276\023Y\324\276\335Z\270> yz\276*\257!\277\360\247J>4\351\215>\321\"\'\276\343\373K\276\357\236i\275)\264\021>\037\361\243\276\002\025\025<tR\315\274\262z0\276\242aI\275\207\243\251>[\000\214>\377\016E=f\226\313\275\233m\276\275JB\334\276P]$\276\263\267\277\276\353a\205=\022A\313\276\213\351b\276\201WC\276\233[,>\373\003(>\240\003\326=\356\004o>\036]b\275\333\024\030?L\332\220>\312\354Y\275\210\225\007\276\372\035\014\276\262\2108<\342\220\312=\026\220\036\276\262$\341\276\372\262\n=\223\220\n\276\215\220\257\276T\360\350\275\367\302F\2762\253\346\276\331\225\340\274\334\221\277>o)\225>\331\251\340\27501\313>\355G;\276\312\375\304<D\"5>\tC\324\274\334\217\215\275\003y\241\276\246(\372\276\315\006\325\276y/*>\367\357\365=\313GS\276\037J\251\275\240\233{\276\261\220\t\275\235B\310>\360\314\323>\364\270W\271\340?\201>o\243\n\277\250\035R\276\020L\006?1\260g>\301x\250>\310MB\276\230~\301\274\355\205\305>\331D\205>V\243\013\276\212\275\235\276\370\030\313>\317\332\255>\274;G\2767X\317\276\307\375\314=U~g>n\251\352:\272\312\217>\324\2763>\327}\302\275\256\217\016\277X@\201>\233M\373=n\225?>\367\257\207>\004%W\276C1\025>\302\272}=\237\002\034\276\215\000\357\276\206\360\216>\220[\022?\3745$?\314\2628<e\375\037\277\'\315R\274\273F \276\335\022\004=\037\210\360\276\327t\211=\032\346\210\276\375\230&>n\263\225>\242/\343>j}n\276\275FO>~\202\204>\234t6>\376\371\250\274\220\217Q\276\272\\\231\276A7i\276\001\310\377\275\264\200\210>@\316H>\307E\365>\030#\316\273\254\330\214\276\021\226\023>\2347\017\277x\372\221<\225\224Z\274\344\357\n<\322\306\027\277A\353==\032nN>\320\235\303>\001\023\372>\036\"\241=e\004\">\367\345\004\277\251\321t=\224K\203>\262\253\265>\027\240\206\276\034T\266\276\'\002\013>x-#=\371|\355\275i\0353\276\330\2750>\340\002\327\274\036\216\273\2762q\275\275\365\350\016\276\352\335>>\003x\245>\330`4\277j\227p\275\037\272o\275Q\305\002>\0012\222>6\247\022\277\341\312\342>\tlm=)\304\022\276\273f1?\270\334\315\276\252\354\'\275\032\234+\276\0319A>\330\330\333>\271\243\031\276\261\250;\276\212\013\001\276\235\323\306\275x\352\273\276\344\312\217\276\362/\231\2761%#\276M\217\230\276\362\224i=\240)P\276\335L\022\276k\330X\276\366\375\'>\203\036\327\276\'\272d\276\315\006M\276\002\353s>1\345\202\275*\031\270\276\322\312\244\275\027\r\256\276\256\235\312\2759\014\333\275\356\026\030\276\304\366\235\276@1I>\375\342L\276\'\331\351\276\213\213\231=\265\370\241>\352\217\367\276\312!\272\276\341N\202\275\014\337\354\276B3\215\276\235\013\235>G\352\016\277w\246\233\275\373\273\335>\004h\236\275\024\255\362\274+\023\337\276\274\243\266\276\260.\344\276Vhe\276\266\364b<bN\275\274\205\204\026>\006\360 >?T\235\276w\320<\276}\024\331\274\246Y.\276\223\302\366\275\n<\'\276\034v\001>-\017\217\275\214\022\313\276*Z\215\275\024.\245>\217x:\276\017W\325\276\327\005\274\275D\025\276>xu\214\276\200\326\300=\203\247\371\274Fu\345\276-1\030\277\233A\324>+\343\220>\215r\032?Y\357\200\276|\377K>o\377\005\277\362\2317>\363\026\251>3@R=\374p\301\275Y\232U\276\035^*\276\240\365<\277\232\t3\277\202\002\343<y\001\">]/\313\275\302\377\304\276\310\312H\276\212\034\023\276>\310E\277\037\230^>\350\207\375>\006g\200\276\305\034\245\275\212\230C?\314\274h\275\025\367\346>d\372\004>\343[\241>\006\266\353\275x\226\315\276\254\004$?\243p\"\276J\265\230\276X\364_\276H\206\256\276YM\246\276\3502\231\2767H\321\276\t\377\360=o\034\010\275\323/=?\347K\004\277Qu\332>\341\217e\277#\214\003>\314\031G>\000\224R\277\327\262\352=Fq\227<\342y\246\275\326l\321\274>\214\221\277\337\222)\276\237P\347\276\022\033\277\276\037\327\017\276\333?\026?\025\365\323\276\036\223\264>\353-\343>\243\036\222\276\304-\315\276v\022i>\214?\014\276\306\304\005?q\365\346=u:\022\277\212j\030>\'&\200\274\007<t\274D\253!\277\217v\241\2752\327\343>w%\356;L\003\264\276\300\034\277>\341\224\260\276:\307\016>\'\230\315>sM\001;\370\354\243\276\273\r\363\276\324\302_\275\"\214\221\275`q\205=t<\235>\002K?\276%\025\034<\236\332X>\"gO>U\314[=\263\215\035=\242U\363>\016\265\376=L\004\026>Y\212\261\276\243?\252=7\372q\276$#\031\277\305+\322\275\360H\374>:\231\337\275\237*\261\273(\022~>\370\221\334\275\227\355\222>\010\301\305>x\025C\276\356\261\264\276\363\305\275:\300\351\315\276\333\335V\277\240{\212=\321A\n\276GD\240>>\377\010\277\262C\'\276]Q\253>\310\363\316>i\2341\276m\tl>E\213\005=\\\360\265>\030h6=\t\345\020?x]\024>!7\335>l\245d>\302\307\217=A\242D\276\250}z\274\200\236\373<\322\246\236\276\376\323\270\273\347\274\350\275#\034\320\274\360\364\306>\304jD\276\202I\244\276\241\236\313\276`\346\327\275M\367\247\274%\204h>\367fL\276\033\364\204\276#\010\372\275\317\037\255\276^1\223=A\351\257<(\325i>#\256@=\256\026\312\276\004\025g>v\317\245\275s\224\217>7f\024\276\276\264\237>J\263\227>\000\to\27610\365\276J\212\204<@\013,>\t\241\312\276\272\227\367<\371w\311\276\207\265\360\274\307\303\241<\325\266\256>\232m\217\275\242d\305\276\"\231>>\260\315\334>U\200\034\276\321\206\240>\245\177{>\252(\272\276\202\257\237>\034\351\201>Sb\260\2766\003s>\200\243\014\276W\201\332\274\022\375\216>\335\365\274>\243\203\005\277]\330\244\276\342\"\342\276lI\000\277\310\367\371\275\252s\335\276\027/\351\274\276\031\334>n\250\210=\013D\006\277\010$\346>\257\211\316\276\340\"I>x\235\001\277\263\255-\277\257\346\262\275$\232R?\341\314\345>\324\204\332>\033\327\024\277\014 \273>\333#\t\277\343%\356>\327\257*?+\332\036?\273]\232\276\232\341D>\233\337\037>\210I\254\276\363\247\306<\247\337\343<`@\314\276\305\205\212>g\006\201\276#\303\327\275\374\313+\276\3446\033>?\274\250>\317D}>\243j\254\276<]\023\276%\203\007\277{:\261\275\2437\215>\256\003\021\277  \255>\313\014\014\277F\374\323>\213\320\244>\31020\277\002\337\006\276CQ\267=\376C\272>\32419>\274\1772>\310\035\243\276\376\311\303>q\\\346\275\247X\250=\233 \224?\023\366\001>M\021\325>t\240\273>z\265\306>\002\202)\277+c\276\276\272\257%\277\006\204/\276\346?\317=\323\204\314\275U-m\276\254\251\234=e\266o\277i\355\016?\340\013U?\261W\211>\245\265`\276\200\204\247\276\r\3254>W\021\350\276\3473\031\277\354\003\032\276\r\023\215>\354\232*>\220\024\357>\225[\034\277m\2677=\000o\033?\245\313\213?\311\005\343>@\260\240>\376\201\"\277\2600)\277\256\335\237\276|\033\315=\370\351\260\276\256\305\017\277\237\246\234\276\221zG\277/\177\217<~\271b\276p\300\220\276\240s\311\276S\304\341>\316\242\005\277m\272\237=)\037\216?\177\022,\276v\316l<\027\367\r?!kL\276\020\365\352>\2742y=\272\240,?\033\032\221\277\204\323\257=!\335\276>\177\342\355>V\231\205>\n\260D?{\211\255<m\201~=\021\266\262>\221\002s\276\273\031\260\275M)\213>\370\005P=\343\266\024>\262\261\025\276:tK>\205\234\261>\272K\n\276t\301I>\233\375\371>b\325\247\276\223)\013>\363V\010>\233\032D=\377IP\276\300sJ>\021\323}>\213\225I\275\022u\301>5\247\307\275\177\001K\276d\201\322=s\211/>Ym\260>4\002\334\276X\317\330=\365\221\205\276l\013\204>\311\265\224\276\330a\251>\000\017y<\265\330\372\275\275\035\221\276#\t8>\226k.=LJ=\275\237\212\271>\024\243E\275\302x\007?\241T\302;\'\265\205\275\270\240\215\274^\346\221\276\332\275\315=\333m\341<\r\257\336\275\325\330\023>\244\224l>\257\'\026>\356\356\230\276\304\"\263=\020\250\333=>_\024\277\326u\255>QY^\276,+N=gg(\276\373:\361;Wl\307>\346\'\315\275\303u\005\275\231D0>\303\312\253\276\030\032L\276\217\237\347\275\351\355\266>]\315\244\275OBr>\350S\267>\205B\264\276\016-\002\277\373h\254>\252\3070\276\014\271\177\274\261m\345>T\227=>\274\336\273==P\310\275\302 \206=\020$1>\241\267\001>\256p\367\275\376\'\200\276$\376~\2759\233\t\276\223\261\211>\211\205c>\244=N>\336\205K\276e\336\027>\247V\352<\333\213\004\277\235q\272=\251#\245\275\033>H=\226F\374\275\370\206\230>X\346\267=\265\361=>\356\004\207=:\000\\\2762A\005\276\250\355\000\277,\244\274\276&\372&>\022\252\002\276\336R\005\275+a\277\275\377[K\275\016\010\334=\206K\263>\246\010\375=\300\230\005>l\222\200>\345\207h\276\177\253\210\276\003>k\276\022\2365>\005K\376=\241a\214=\017\217o\276\375\246#\276\362n\014>\003\000d>\257\332\210>i\267/\275\265D\215\275I\242\366=\272\212\255>I[\374\275\241R?>q\206H\276\243\020i<\324\213\312\2769\276\337=,]\355\275\267\026\361<JR\026>\215\324\203\2758\267+\276\334\3562\2766i\265>\0014\262>\371\300\215>\244\337t>D\350\215>o\312!>j\034,?\355\306\226>\225\354\002\277\322r\273<\035\227\307>F\312\357\274W\235\333\276\001M\014?+-\000?\'6=>\321q\036\277\346\221\3477W\226\023>=\031!;\231\343\216?(\205->F<V>\272&\230\276X+\353\275wgU>W\325\241>\276)\302\275\376\273\226=;\301\226>\225\360:>\300\222\000>\341\306\347>! ;?\346\255\031\275\036<h?b\204N\276\303o\344\276\253\364\357=I\242G\276^\311\034>,9]<\024\005\340>=\324\022\276\204=\265\276VH\321\276U\217\224<\211\326\252>\213\332C\276\275\231\320\274\354\360\252=M\213\230>\377Qz>\271\313\013\277\223\033\024?cd\211\277\277\243\313\276\226\256\202\277-\245U\277\221\005.\275\002\263=\276\027^,\277X[\377=\004Oi\275mTp\275\036_g\277\215\277\205\276a\020g\274DaH\277\210\006\252=_\030\034\277\311\347d\274\022At\276\2325\222>\031J\200\275\316\344\217\277\326r_?p\017\212>\022\022\227\277k\031\374\275\001\352E\276\230qu\275`\003\024?)7q\277[\2549\275\261\232\231\277\023p\267\276)\025\231?Xr\220?\271\363\363>\337\313\262\276\353\0074?\375\377\254=*\343\257=\225Ha\275mXL?\344\231\014=\370\210>?\305\2424>M>\360\276P\211\247>\005\306\262\277\277+\361>I\222\314>\035a\345\276\034`\036?\014&k>\033\272V?\271\277\356\276Xy\034\276\003\347\007\276?\327\272>}\320D\276\334\232\367>\310\227\026>\330\322\370>\2076Q\276\236\030\022>\357\023->g\020\300\276:\262\030<A\016\245>\356\033/\2779\036\212<\207\210\201\275\000r\365;\"\240<?|\346\005\277\200\213\036\276\325\262z\276\202\261\246>\364\2157?[\235\303>\0273\256>1\207o>:Et\276\311\341\315<\303\237\231>\032J\221>\235\335\273<V\001\213\2769y\315\275w\005\265\276\031\243\n=\362\320W\274\314\355\245\276DGe\276\355\003\363\276\371f\256\276\255\241\202\275\316]\274\276\307\025@>\252\211\203<\265\263\\;\210\363\376>\317\347W\276\035r\203\275#\320\250\276IN7\276&\270F\276Fo\215=\260J\320\275\222\034/\274\246\201e=\211\312\002>\002T\001\275\3121Y>\270\306\027\275d\nj\276[\3156\275\224\027\226=1\230\311>\344\0007\276\000\224\005<\035\315\325=\002\035\200\274\202dy\276e\016\320\276^A\213>\324\035o\275\006:\254>\241\365\302>\271\265\262\276\233\243\322>\322\027\021>\005C\000>\024\034\016?\274\361\315\275\001\020n>\243s\230>14\307\276\315l\226\276\235\350\260>*\t>>a\321\007?\265\002+\275\233\273\255\276\255\t\276\274\342I\014\277\3264\020\276\222\2355\274_\006\004\274)U\377>\222\323\234\276~\0207?\320\337Q\276\371\313\256>\345\036\357\275T\016\314>\020\243:>\265p0\276\"\3520>\033\262\212\276\217\213|=\363\301\200=\255\210\232=0#\270>u\312\241\276\366\304u\276\217p\034>\206\202`> %g\274\347\313\377>\201\324\277\275\005\352C=\020}\010\275N\254#?\321\357\245\275\246\246C\276\365xC?\271\'\213\276\365>\342\276l\246)?6\366\251;\241Y\225>\360m:\277\261@\354\272\312\232\314=#\370\273>\366\255\364\276\341De>=Ie>o7\215>\335\255\242\276\035\356\000\276(\262\t\277\320\235\004>\342\237\366\276\r\334\276\276\214\260\224\276+@\215\276\373;\204>\261\302\021\277W\267\212\275-\305&\276@\205\245\276Z\210\317>\031C\346<\366\360\222\276\220\246?>\224\224\265\276\001@p>\t\312\206\276\367p:>AF\352\2768\371T\275\267\324\017?\200\255\243\276\225\004\352>\225\270\250\276=Z\000\276\027\254\021?Q\213\215\275\205N\220>5\210\201<n\313\214\276\361\032T=\260\230\321\276\334s\236\274L$Y>\300E\t>\266\373\016\277\364\007c>\233\206\265>\262^i>&0#\275{hw\276\273\3346?8\317\'\276\312\305\026?\203`\025?\252\347\017\275=d\216>\016\360\272\276;\261\253=\326\037\317>\240\223\306>\244\272F\276H\376\226>\265\345\342=+H\212\276\314\226\266\276\2315m\274\3309\247\276\\)\213>_\214\"?f\266\036>\0062\220>\257\256\"\277\346\305\227\276@\267\243>R\246\270\274\233\006->4V\266=f\366\007>\201\352z\276;|\254\277\2268\242>\033\356\240>\317O\t>I>c\276\007\333\220>2\346g\277\326\352\260=\222L\t>2\t\'\276\240Z\254>\262yW=\034!\210>9\013\263\276\357\334l\276\335\322\342<\234.e>O\022 \276\326L\005\2773H>?\030\'\357\276=<\200\275\016\026\001?\323\361K>2@\022\277\366>\205\276\247\273\331>A0\272\275\027q\320>z\237\374\276\004:\361>S\371G\276m\033M>\306F\246>^\262)=\334\\\355=\310@\234\276:\263\003>\262\372\240\276\226\014\327\273\307\205\024?\363\312\020>~\355\205\276\030iZ?\366\177\261\276X\205\254>\222<w\273\303\304\001?\312\267\251\276\026o\351\276r\220!\276\275\021\227\273<D\211\275\231j\277\275Ru\026\276w8D\276\324f\255\275\266\002\233\276\317\315\253>\270&\364=^n\232=\377?\363\275\257\307\357\2769\353\013\277\200\342$>\365\016\223\276\016\211\214>\212:\373>\20088\276/\n.\276\327@\235>j\nC\276F\016\375>\343l3\276\246\036\243\276I\232@\277\203\251v=\033\231\000?3\341\372\2765#\373<;\303`\276v[\275\273\003\027\264\276\340\350+>\\\2525>\272\267\023=*\333\322\275O\211\026>\370\262\303\274\341)\312=s\246\340\273 \341W>\357-\207\276\"\250\033\276\221q\211\276[{\024=\342\002\273\276\214\307\232\275\235\311k\275\273\231\271\275\224\342\330=\256\213e>\323D\221\276\353\025E>|\343\271=\361\342\034\274\223\"\010>\306E\260\275\017\024\2519lR~\276\271\200\254\275^\234\310>\366\037\206=\313\344\301\276\354\210t>\230\257\026>\310\237\025\277\321\031\035=\306\234\267\276\244\335%\276\'\375,\277\266\235<\276/i\203\276B\245\223\276\010P\230<u\214\315\275\247K\217\276\330\255\247\276\275kN\276:\370\275\276\327F\242\2765\224\301\276\"\331\323<*\341#\277\274X9>\310\254z>\376\3305>\026\214\333\276\251\250&?\325\020\315\276\340\025d\276z\315\275=\010\312\225=@\017\242\275Y\034\217\276e\027e\276\"W\243\275\316W\304\276~\323\312\276\202e<\275\361\221\003\277\210\375\266=\300\365\031\276\375\256\361>\366\261\220>=\2773;\264D\000>,bK\277,1\204=K\007\'=\"N\223\276A\352\210\276Bj\207\276\010\220\024\276\002\353\177=\306\272*\277\016\272\323=\007\231W\276\317\310\364\276\357\216\215=T\236\347\276;\023\034>>\353P\276\030\256\'>{\354K\275\355\307\003\277ai\251=\342\272|\276\307\336B\275\373\234\314>.\\\006==\204\212\276\253\236O>\031(\244\275\rE\001>\376\236\375>\3010\341\275\374\020T\275.#\005\276)}\256\276T\262Y=5Kz\275G[v=N\235\010\277\221\036\014>\305]\215=N\363\250>U\240\004?\342:\323\276I\002\260=\323\032s\276\tQ\324\275w\327\023\2773o%;\255\014.>}\307\322>,4{\275\370@\222>\006\246}<\277\270\330=\002\035\312>\215\322$?|\350\247>\0041\265=\253p =!u\037>2\376\341<\0164@>\331%B\276\030q\326\276\334e\370\275\323\377/\276\363\225\226\276y\204j>\373\346\272>-^6?\033L0?H\322\357\276\354\233\201\276\377;\311\275ZP\260\276^\324\r>\254Q\317>Z&8>\367Yq\276\374\334\275\276\256\033\374>\340\303/\277\265D\277>\341\205g=a\245\244\275\346w\252>\313MD\276\306\306\210\2761\267\246=rH\305="
      }
    }
  }
}
node {
  name: "dense/bias"
  op: "Const"
  attr {
    key: "dtype"
    value {
      type: DT_FLOAT
    }
  }
  attr {
    key: "value"
    value {
      tensor {
        dtype: DT_FLOAT
        tensor_shape {
          dim {
            size: 64
          }
        }
        tensor_content: "\336\357\241\276\355\206W\276\272\311\001\276\026\372`\275\236x0>\373/\017\276\273\021\006\276\213U~\276\360$^\276\251/%\277]\t\032\276?\014@\276\0259\310\276.4S\276\010\3329\276\\\"\250\2767\350D=_\231\017\276\345\253\365\275!w\251\276\226)\013\276y\247[\276\002\272\253=vn\201\276\023\261\237\276\203\226H\276\332\001s\276\307\005\325\276\034\312\227\276\'\304\377\275\215Wa\276\001F\240=\013f\223\276@=%\276\314\003\365\2742G\343=\213\345s\2768LB\276|\031\267\276i3\207\276!3\234\276\030;T\275\315\225-\276\204\237\325\276\026\252\345=\351\201\005\275\375\301T\276\337\332\352\275I\003\270\275#k_\276p\032\230\276,\256\213\275J\352\323\274N\245Q\276\271t\321<\220}r\276\233\352\202\276\353\220.=u\034\030>\024\267\366;\277\216\206\276U\3507=E\243&\276s\370R\276"
      }
    }
  }
}
node {
  name: "dense/MatMul/ReadVariableOp"
  op: "Identity"
  input: "dense/kernel"
  attr {
    key: "T"
    value {
      type: DT_FLOAT
    }
  }
}
node {
  name: "dense/MatMul"
  op: "MatMul"
  input: "MYINPUT/Tanh"
  input: "dense/MatMul/ReadVariableOp"
  attr {
    key: "T"
    value {
      type: DT_FLOAT
    }
  }
  attr {
    key: "transpose_a"
    value {
      b: false
    }
  }
  attr {
    key: "transpose_b"
    value {
      b: false
    }
  }
}
node {
  name: "dense/BiasAdd/ReadVariableOp"
  op: "Identity"
  input: "dense/bias"
  attr {
    key: "T"
    value {
      type: DT_FLOAT
    }
  }
}
node {
  name: "dense/BiasAdd"
  op: "BiasAdd"
  input: "dense/MatMul"
  input: "dense/BiasAdd/ReadVariableOp"
  attr {
    key: "T"
    value {
      type: DT_FLOAT
    }
  }
  attr {
    key: "data_format"
    value {
      s: "NHWC"
    }
  }
}
node {
  name: "dense/Relu"
  op: "Relu"
  input: "dense/BiasAdd"
  attr {
    key: "T"
    value {
      type: DT_FLOAT
    }
  }
}
node {
  name: "dense_1/kernel"
  op: "Const"
  attr {
    key: "dtype"
    value {
      type: DT_FLOAT
    }
  }
  attr {
    key: "value"
    value {
      tensor {
        dtype: DT_FLOAT
        tensor_shape {
          dim {
            size: 64
          }
          dim {
            size: 64
          }
        }
        tensor_content: "\240P\374\276\030\333\376\274\2747E>\227\014\362>\345\347\360\275\005\206\331\276@L\252?3w\200\276\021\264\352\274\231\366f\276P\000\004\277&\n\030\276H\212\034>x\r\206\273(L\224\276\245\313\330\274\0345\025\276B\327\005\275}\021\006\276\311\032\351>\007\305\337\274z;\037\277\032\n\222>\301c\265=\265(1\277\301k`=\353\332\026\277kE^>y\367\276\276#\2467?\376\364~\275\251f\337\276\020\267\t?_\255\317\276\335\364@?\373\354\003?\t\372\237\276+\026\367\276\360\234?\276\017\224\t\275\250\034}>^gs\276\204\207\371\274\001Xv\275Xn\201\276v\253\241\276\340Y\211=\2168\333;\0266\211\276\205$\230\275%\261\205\276i\354\277>N\020\030\276\336\201\010\277Z\313 ?Q\010\031?\224\272\350\275\032EB>eg\235>\365\265\275=\300\031W\276\271\207\235\276\036\364r\277\037\020\325\271\322du>\211\364\270\276\373\205\014\275uR^\276\255\025)=8\336\017\276\313-\255\277\374\367+\276\270$\201>\262A\342=\330\031\274=\244\031*=!:\013\277~\224>\276\010\211\n>\223\311\235\276\370\324\264\276#\016\277\276lF\253>\021\307%>\257\036\036\277\335\2713<)\343\241=F\225R\276|\330\346\277\010\024D\277\233\310\377\276ks\355=\372\374\033\277\237\277E\276\213\336\241\276iB\262\273w\255\205>\251\"\224>\000\325G\276d\177\014\275\236\271s\276`O\024\276\032&\007>\317\277K\275\350\225\250>B{%\277\002\367\342\275\004Ik>\273\250?\277\202&\030\274\322\027\320\275\177jM>rXK\276\226<\227\275\373\341\312<\177A\\\277\321\367\006>&\205\306=\202$T>\371t\376>\224\276*\276\324<\024\277\357\271U\274\0071\341>\347\331N>\232\t\335\276\310\362\377<\332\373\013>\237\375@\277\262\307\313\275\372m\254\2768G\235\277\220\343\253=A\026\200=\244\326;>\243!\323\277:F\306=\232\243\215\276r\210\275>6\001\331\274\276\034\217>gZ|\275j \360\2748\350k\276[a\327>Z\206\t?\"Y\211\276d\016\"\277\277\033\200\277\026\302\246\2774\006+>\307\342~\276\224Tt<\006\343\241\275Ri\022\277\204\"\376\275\023\246\233>\027I\337\276\273\210\234;\212I5>\037b\010\300\0237k\275Dg\r\276\005^\322\274\200\2108>z8\004\275\261\305\030\277\177\r/\275\030T1\300Y\201\032\275p\033\245\277\205\016\241\275,\355\020\277~q7>\206\250\003\276\357\200q\2776\207\242\275\242\263\006\276\217\017->PF\326\277\275\207\203>\344\370H\276\204\034\205>R3(>\3756\374=\274p\007>\223T\r?\035\300\305>o\224\235\275$\334\307\277\245\to\277J(\017\277\035~\344=Q\251\311\275qq\363>\n\337\231>\230%\313>A\316\232>0\002\006?\225\345~>zlJ>M\2042>\227h-\276)\344\221\276\333\230\337\275\002\177\266\276\026N\010?\221.6>\350@\300\276\213\326\317=\312\030\014\277 w\t\277a\266k>\333\017\243\276\3772\010\277\333\301\235\276\262=\256\277\027^\275=\231\023\022\276\004~z\276\205\010[\274e[=\277\020\231\r\277\036S\022=\327I\267\275\373/\255=\021l\211>\220\376\325=\"T\313>_\367\225>\373\233\243>\354p\353\275\265\252\004?\200\025\230>\204\262\002>6\273\202\276G\212}\277\375\276\r=v\310~>\355\nm><&\003\276\245\244\035=e\t/\2777`\332\276#\236\177\277:\364\251\276\010\260\245=\235?\201\275\341\307+\276\253.\017?C_{\275@\342\230>hz\263<\350`\210\276 \231\016\277}\213\225\276\240\210\234\275\377a\036=\000+x\276\301\033<>|&$\276*\213\036>3\317\034\275\262\305?>\217\226\314\275\303|\270\275U\027\230<^\257k>4\\\317\276\341\003\203\275\3154\364\274|\305\315\275\356\347\274=\212\216\253\276\361G\314=6G\024\276}H\253=\224\207>>\355\203\365\276v\300\233=E\371\237\277\013\345\202\276\274\2074\277Y\034\325\276c\006\010>$\033%\275\3213\215>k\200\343\275\000\r\231\275U\262\026>\257\345\342\275B\345\253\275X\271\304\276\276\335><\331\212\247=y\310\200>\330t#?M0[\2749\370\233=\257\315>=M\217%=\242\326\\\275\"\224\247\273\350S\341\275\020;\351\275\244\300\311\275\2225<=\3468\r\27739\037>\270\314$\276K\231o\276.\2175\276\246\324\357\275N\004\246\275\250\014\227>\331\367\342=\200\035\205=$\2423\276\3152\005>\261,\272\275\360\202m>\264P\032\276c\214\270>\212Tf=+\227\344\276\212N\230\275\t\364\214>\267T\026\276&\322\221>\027R}=\376\246\220>2\023\251>W\226F?\031\035\237>\303\356H\277\304\000|>\362\032_<\361\\\021?\320\245k\2756!\000\277\341l\r\277\212cU\277\003\373]\2770aF\275c\274\022\300l\276W=J\010[?r\\\325=\037\211\233\276\351\316\375>~\370\354\275Y\373\234\273#\276\020?\242\216\313\275,\232\352\276(C\227>\3472\302>\033\332\367\276\242\304-\276\355\016\001<\037\247]\277\0243\013?\007\270t\276\215\201\377\276\326\320E=|\354y\277\373K\210<mcW\275\367B\005>\0013\360>\000\220\022\277\323\250\241\276\030\345W>O\'\324\275A\035\344<\306\232\265\276\326\265\230\276\312=O\276\246\272\r>hM\271\277\260\350\205\276\n\003}?\2440L\277 TA\276\005\r=>\247\327d\276\277\2075\276\207\332\216>\354_\n\277\243\354\270>\203\247\301>\341u\327>\227[\256=\0207\326<\205\3303>W\327\247>\254Uh>\265\252a\275H\2004\277\323\361\260\275\177L\356\2756{b\275\234\260\010>C})\277.9\252\276\2542|\276\310:n\2760G\275=Nb\032\277\244vZ\273\002\323\004\276\340\333\022\276j\246\313\275u,&\277\270\346\353\276\234-X\276Y\377\261\276K\214\245=\r\327#?\301\346\236>\027\324\250\276D\233\274\276\007@\375\274\3674\210\275\003w\335>\373\353\023?`i\313=\n\315\347=\237P\344<\025\370\361>\316\265\250\275C\022*\276\372z\036\277\341\322[\276\373\212\241\275\361\203\321>\272\340\271\275-\n\244\276#\325\257=E\305.\277\261\nj>d\311v>6\276\213=?\262\033>\t#-\276\203\240\233>\227\010}<\216M\210\276A\342\227>\264\204\354\275\010\300\372\276d\260\303;\307\021\335\274\rP,\277\352\006Y\276T\304Q>\317P\317=4\212x=w\201\262=B\325\025\276\311M\205>\321\224X\277j\203\036\274\320\232\264=\021\254%\277A@\003?w\006\330\276\362(5\2778\241\003\277\"\260\337\275/\002E>\346\362K=-\334u\277@\375\212>\000y\207>\202\037\201<9v\037>\006c\263>\327\246R\276k\207\227\276\202*\255\276n\224\020>J\216\271\275!(J>v\2464?\200\r\336=-7N\277y7\356\275\026\364\177\276N\301T\273\203\350_\276\322\217\306\275%f4>btG>\003B\217<\224\214\206>rQ\236\276\036\203\277\275k\213\333=\276\331\030\277>\372\n\277l\022\303>D\224n=\"\334o\276n\220\234>\024\366\312\276m\200\346>\241U\002?]T;\276`\324\207\275+\317\025\277k%y\275J!\022\277*\017\351=W\355\325>\252\000\263\275o\221R\277\n\000\366>n\213\316>i\360\373>5Z\346\272\344\374\305\276\301\306\212\276\230,.\277\363\007\266\277\341B\344\276?\001\310=\203[{\274\227\300\334>/w\"?+\001\313\275>\316\016\277+\002\257\274\211,\266\275\304\260U>\002\245\326\276@\377\003?\036hE\277ve\352>}\221\330=\032\214\360>\301\036\317=\336\253\307\2746\031\314>\3746\301>\241X{\275\251\274\246\2762\366D>I\016D?\316t\207>\311\226\210\276\362\351\333\276]\273\253>\266\3313>\225WB>1\212\237>\033\200L\277H\215\373\276>L\202<0\270\326>\242p\337\276\307\226\253\276\327i\250\275\314\356\001\277$f\202\276\031\310\016>\315^3\2761e\017;)(\342<Kg\376\275\013\215\241=m\\{\277\024A\267>p\010 \277\237\373\337\276\330\312N>\327\275\"?H\350\341=\202\017=?\215\241\035=\346\244\005\300\312\361L\276\320\010\026?\212\305%\276\177s\r>\277%\255\276g\241\255\276\221\216#>\372\240\360=(\t\332\276\305\371\241?\030\000\"?\224\254\235>H]\031\275,\346\234?|T<\276\230o\036=@\276\022\277\254A\303?\247\332v\275\314\005\200\277\3308\363\277m\204\377>\300B\222>\202{\233?\243v\313>^\2032?\220\243\224?\326\020\236=\340\273\037\276Y\336\245?\203\3201?<\301\204?\014\325\227\275\371\373\234\276\351I\205\274\345\222!\277<\252C?W\364\375>\333\225\020\277\273\331\316\275\332\275\242\277\307\246\216\276*\376\343>|\200\022@\230d\215\277\211t\023>\026+k\277\357\010<>!\3632?]\377\314\277M\231\266\272\016\236Q\276\020.e\277\377\236\253\276$g\230\277\021\362\350\276c\272\222>&\027\242\277\034&\243\275bVn>\315%\216=\350;T\277wN\275\276\244\'&>\177>\234=\220\373\301;\020f8\277\351\342\355\276\342\022\272>Z\307^\275\tBE\273\340YN\2769\017\323\275\027I\241>i\033\260\275\\W\223>\241\257\016\277e\n#>\350\335r\276e\000\177\276\n\r\256\276\3734\216\277\350\233\021\277\267\360\026\275\n\334\'\277\300!6<w\017<\274\373\334\022\277\224\005\375\275\363\333\300>\005\321\r\276$\331\212>:\325\324=\344\247\234\276Qf\343\276\362\2165\276\246\337@>\234,\311>\303b\000=i\r\025\300\250\314\214\276s\257\205>nd\211\276:q\242\277\341\030\271=5U\217>\324\216X?\202\337\353>\362e\t>\356*<>\376\235l?\341F\025?\034\210\202\276Nxk\277d\203c=\310\376y>\350\262\227>\0343\001\277\364\357\000?\302 V>\026I\250<c\321C\277\324\r\263\275R\2147=3\245\215>\254\364\246\276\246\030\213\274\274~\231:\2477[\276\310\270\334>\037iA\276\"\267!\276\327\276o\277\352\373\237\276w\241u>/\244\003?\3640\277=\341!\231\275 Fd>;\231\263\276\262\261\372\274o\026w\277k\003D\277d\372\\\276\201Z4\277\032\325#\275<\262\377>\201n\030\277\264\233\277>59/\274\302v\370>\005\336\177?Y\352\267\275\243|w\275\247\357\333\276\037\274(>\241\356\216=\326;\223>!\032\223=b\244\001\276L\315\001\277\372C\327\275\303\255\254\276\367\242\224\277_\321!>\223\342\177>gu\022\276\271n\023\277\t\346\265=J\372\030>\214@\266>j\3516\276\177\203\004?\224\332\271\275\022\264\317\276\230\277\232\276x!7\276\242|\032\276\363\272^\277\037a\217>\276\'\373\275\343\236\206=\367\272\312\277gi:\276\007\334\375>\232\014\026\277\272Sz\276\342\253/>\335\315\352=\017\320G?\250\201\305\277\002\322\302\276p\360\204?Jrm>\303\227\262\277\263n!\276\317\202\035=\000\000L\27628E\276\305\377\242>\242t\251>\221\214\242>s\340\036\277/m(?{\035?>\030mO?Q<&\300\273*\373\276\264\204\213\277\242\364\357>n\372x>3|V\276\307I\303\277\310/\024>\240\362\n\276\024\t\332>}\333K>\370\213\317\274\354{\353>U\300\220\277\026<\023<D\254\027\277F\301\256\276\243\270X>\2224!>)\350\032>N-\315\274\212\337f\277\372\276\334\275\343O\214\277\036M<\2770\341\316\276\013\021c>\231\365w\276\300(\255>\271\337\324=\251\255\021?\370E\366>\203\306\021\277\031\035\273=\220\311\r>\266\272\335\275G@1>\225\371d\276b\330\307\2762\227\002?\324 \030\276X\250n<S\261\222\277)j6\300\304\277}>\020\246\352\275\270\266\004\2767F\022?\346\004f=\326\237?\275\037\347\026>\334\025\253<\305q\032>\372V\276\275yw\267>\007\356\361\275}\022\356\276\035c\204\276\345\345Q>\240\341H?kD\277>8W\330>\r\235 =\n\325\266=\206\353\256\276\360\357\262\276/ZA>!\355\000?\r=\206\273VP\354\2772\266(\276+\031\025?\376{\301>\245\255$>\225\347.\277\356\022\036\277#\206\202<@\320\233>\245\322\001>\340&\205\276\026O\370\274\325CT>\304\022\237\275gH\256=\206\253\241>\226\231\344\277\305\247\360\276\034\222\307>\203\226\364\276]>%\277\255a\204\276}i\333>\260\033H>\364t\260>[&\367>M\n\016\277\246\305\362\277\253\377>>\016\316\370=\300t\201>\210\232\225>x\026f\276Vm\375>\'m\322\276\2678\324\277\260Zk><\000\313>\363\014#\300\222b\210\275Q\366/\275h\376\326<H:\021?|\360\262>\316\357\242>\322\017\323>\361_2>O%\363\276\300\302\376\275\021\301\002\277k~d\277\273|\367\275[\324\300\275\376A\263\276\251\265s>G3c\276\006\224\357>UX\006?\310N\313\276\365\335P\276\254\013\243\274q\327\203>\261\234J?p0\224\274\371v\212\275X[\240\277\240\020G\275\017\005\235\275\030\252\257>HmP\275)\022\341=\242-\010?\2708\324=\375\3172?\332M\364>\335\223)>U\373\244\2767{\252=\022\345\006\275\223\0267\277\0220\262\277x\251K=&|\311\274\370`~>?\312\t\277g>6\275\317U1>\000\232\324\275\226\254\320\275\277\372\274\276\305\355->\016W\221>\t\365\372\275k}Q?\336\376\000?\334_\006>m\3623\275\330\215\026\2773\244r\277\204\321\036\300\206\260\230\275\001:-\277\311\205\331>y\026\222>\2434\013=\301\331\250\276\200U\253\276H0\250\276Q\267\377\276\274EA>\321\357\225=\026\"\267=\023\010\t\277\177;f\277e\267|<|t\361\275.[@? \016\037\276\366\332\032?\323\002-\276+\240\013?\345\227W\275_E\234>\006\223\346\276\254\003O\277f\367\265\277\306\223\200?\263<g>\277xb;n=#\300\000\275\366\276\005%\246\275\352\310\033>\356\333??\204m\226>\245\236\024?\356i\213\2744\n2<\242\010\036?\244\200+\277O\207\375=\3670\225\276\313$&\276\267\2776>\217\377)\300\276V#=0hz>zC\013\277\366\261\246\276\330}\241\276\333$\026\277\013\333g=\273m\362>\327\305N?\301D\025\277}\344=?\200K\2769\351\210\376>\313\364\034\276FUi>:\031z>]\324\211\276\375\236\'\277\257\373\016\276\215\360\236=\376\240\351>\253\360\265>\244z+\273T[\205\276\261\240%\276GG\032\275oiE>\307\275!?tYC>4\024\010\276\243|\364\275\366_\330=\365AG\276(\326\340\276\201{V\276\213m\303\275\377w\316>w\315\230>\240o\301\276\005o\221>\002\306\374=Kl\247\276\372\323\233>\0379\205\277E\255u\275\324\227\312=\030*\230>\374-\270\277\034\r8\274,\\\231=\254\320\322=\275\340\344>\026\200\026>m\261\363>5P\000=\206):\276\256K\240>(g\306\275\370\344\t\275\345\323\312\277\306\236W\2747jq=\245\\\252>\237\251!\300\306Q[?\315_\020\276^\025\007\276\334\304\247\276\016e\210>7\346&\276y\\:\277\361\241\220=R\260T\275\261\250\232>\361\333\020\277\371~p>\355\311H=,\357%\275\000\013\000\277\224\244\347=y|\212>\251\017\262=\255\275\026?q\317\274>?\001\327\275T\303\202\274\013\177\004?\3663\234=S\337\273\276\250m\212<\204\274\020\275\363A\271\276\030\230W\277 \310\376\274\226m\203>mg\017>\t\305\201\274\325h\210>1\245\225>k\261\326\276\265N\203\274\271\361\330=*e\371<\347P\252\276\202\242\274\276\223\212\246>hr\224>\017\335\320>\305W/\275\225\312S\277?\351\006\276\274\\\r\300m\352P=\364\220\220>\004+4>\362^\212\276s\376\250=\005\314\014=\373\000\254\2760o\330<\364\3137\277\217,#\2773]S=\321\034*>yd\'\276\240\310\246\276H\245\216\274\306w(\276\2127b\2759(2\275\203\346\312>\307\345\261\274\330\216\334=\013\234N>\035\0341\276s3^\276\377\340>\276A\347p=?\335\267\274P\377v=\346\227#>[\374\234\275`\212\t\276?\224\345\276\367u\233\275I\204\236<\340\264Y\277\221\000\037?\222Z\216\275!\236\344<\033xx=\235\211D\276\22213;B\240\226>\315c\223<\221\361(>\216\347\375\276\316\033-?e\232\305\276\36219\276v$\000\277\347X\020\276\371\017\371\276\221 W>L`P\276\207g\204\277\035\375\333>@\021\244=x[\336>\3723\020\276\223\260\264\276\345\324&?\r\3338\276\375k2\276\001\263\321>\246op\277\362\2602?mf\363=\'\342\222>\303nm\276E\313w>\002\323\233\277B`Y>\314Oq=\332\270\266>C\242\253>\211\300 \275\230\032\005\276\222QA\276!\001\203\276\036D\242\276|\371\254\277\374\327\374=\260\251\203\275\243\254\300\276,\252u>\332?\234\276\252};\276{\321,\273+\004\251<j{\257\274x\317\343\275\227\242\213\277\033\350\004>\335W\230\275\221\203\210\276\3222\226\275\036\246#\275\301\336\311>\216\'\334=\033\373&>\200\327\303=\321\346\203\276\341Bu\276\320\266\000=\305\n\333>\264\013\266=\271\255w\274\037\220\250>\300\021\365\276\325eJ>\325^\345\276\017b;<B\014\220\276\357\247B\277/6\023\2751?\230>\212\355\"\277=\335\341\276(\205+\277\021\rc>\"\244\322=\367\032\006=\327\310\262\275,\374\"\276F\276g\275\242F\352>\020\371\211>\242@\305<\246\006\257\276/q\213\277_\321\030\276\260\263\265\276\013\217\353>\221\253\235\276\305\3520\277\376\265\203\276\224 \353>e\232\300>:\031\002\276\232X\306>\275J\277=\377\213Z\277\366s\255\276\305\217\331\276\246\246\327\276\214m\353\276\240\035\270>`\353c>%\323\004\277\366\350\322\276\000\360\031>\032&\323=\0311M?Ep\277=k9\210\274\232p\220\277\211\266d>\363\203\226>\242\206%>3K\347;\274\336\361\275Q\346H?\017R\222=\201\363\334>\372k\214\275W\274,\277\226\275;\277)M\376\274\034;\006\275\275b\003\276\356\2569>.]\002>L\234\016\277\305=\210\275U\377W>\375\021\230>\312&e>5\316.\274\t\346\224>\364A\312>\325\325\272<\230\364\210\276\252\327\246\276^\365^>\371\316g\277fW\"\276\031\221Y\2735\204\354\276.\305\323=\255\326\231>\002\013\030\276\275\022|\276\226\036\034>\364\032\246\276\0262\'>\362mP>\204\366_\276\360V\301>t\307\032\276\005p\034\274\2608\006;99\210\276\035\326k<\335\021s\276\365\327.\277\3134\314>/kU>\371\345\361\276W\227\215=\3624#>\227\243\310\275C\215\023=q\r\315>n8\202>Z\302m>\250\314\245=\037\026R\277\037t\034\277k\312\241=D\364t\2763R\241\275a\325\003\277\027\365\324>^[\212>i7@>^\026\233\276>9\035\276\r)Z>Jj\010\277\220\'O\276\263%C\276&\326Y>\244\366+>\363\362\270\276\263\330\214>r\320\340<1\322\227\277\270F\007\277-\242\317>\336Q\227>9\330\345=%\247->T{\244>N\324\035>\212\277\274>\334\235\376\276\254\020\266\276\027\204\371<\207\273\231\276\260B\026\276\332\321\014\276s\222F\275\360\006\213\2763ZJ\276\273\335\306>\316\236\323\276\254\345\021?\305\300B>\374\257l\276\247Sj=\275N\020?\253J\326>\026\0103\277\337\316\366\276K\242\233>\304\026,?|\357\206>.\036\004?\357\231\251>\323\233\337<\235R[\276\304\224\373\276\267\262\000\300(\210K>P\355%>\026\201\326\276\363\261:>\217{T\277#T\207>\237K\302>3\266\372\275\016\274\240>\272J\n\275\371\350\337\2769\001\'=\327\014\022=\354\021}\276\375\213\263\276X\177N\277\316\351\304\275qb\235\277j\322\345>Tw:?\220\352\256;\225\007\037?\016\331\026>\244\242\221\276g#A\276\304+\336\276w5\371=8)\216\274\204.\034=\231\314S\277\001~\">I\021H>\341\361\036=\033?\231\276\205\303W\276!\"7>\005\265\262\276#\363D\276\240\245d>\343\354\353\276$\323\222\276as\266;)\327\236>\332,f>(\257z>\200\254\023\277\350=\217\275h\220\355>\242\374\210\275\333\361\212\2769nQ>\354)\223\276<\276\003\274\377\025\260>O\270k\276\2607\277=Q\310F\276^4D\277n\305\025>\363\010\215\276)\223\227>\234\375\241\275\364\235\234>|h\021>\371\217\344\275\351zg>_\010z>\036\270\252>\365}$\277\360\214J>Q\2222\276|\267\235>\302\312\261\276\257\222R\276\315\262\333\276{\306\312>\361\332b\276\206\315\361\276@\035.\277%\007\210\276\300\020\376\276\030\244\201\276\342\360C\276\257;\220\274\223\202\003=\357DX:\265K\224=\2164;\277*\261!>_r\213\276\234<]>\005\034\177\276\343\332)?=\004%>A\031p?1\216\031\276F\272\350<\217g\242\276\263[[\274\210\236\\\277Wfh\277d2\310\275`\342\373\275y\365\207>>\310\017\277\370\022\275>\316,\003\276\010\324\337>\276\177\365=Z\374?>\306<y\275\273\244\320\277e\312\220>\240\250%>\302\264\312=\2426\257\276]\364\001?\263\202(>\262\224\024?\013d\357\276\013I\177?\355\243\034?\311\340\330>\356#\243\275\016\202\264>(v\257\275\271Y,>/\303\r\277\221\316W>zn\221<s,\342>\274&6\277\0258\276>\277u*\276\3573\275\276\256`\375<\314\371\351=\220\370Q>A\276\230\277dV\201>\001<\226>\213}\266\276\322\330\231\276O\312\210\275\244Y\002\277g\036\035\277\004\3734?\030\230$\275t\000\341\276\213\235\231\277\271\315\273:\352\037\321\276\275\"\206=-\002\211\276\335[\"\276Q\250\265\276z67?_\207\270>J\337\023\277\020\363\006\274\304\001\201\276$\025\240=\023\"\316=\302\035 \2776P;\277\225\321\210\276q\002m\276\247\274\024?\016\246\276>=\022[\276\332Yc>\002\376G>i\232\013\276\202;\357>\362\305c>\007\326\360\275u\260%?\327N\014\277l\274\373>pE\305=:\360\342\275\221:\313>\301\364\325=\007\240\376>`L\205\277\374.\213>\216\237(>\305`%\276\234  \276\216\362a>\334\217e\276sr]\276\351j6\277o\336\310:#r\236\276DS\000>\0141\244\276K\357\007\277\202\007n\277\234\221^?b\354#>\355\r\226\276\025\213\'\276\271\271b>\335\363\234>\340\336\201>\303\254\231>:A\007\277\363?\023\277\361\222=?\234\301\033\277\327\357\234\276\240hp\276\334l\224>\035FV>\005\341\223>\251\353o\276\021\324G>\243\323K\276\364j\216<\022j\205>\363\250?\276\014\177\310\276#\231\336\276\3261/\277\215\014E>\302\274\351>\322\266\005\277\341t\322>\245\261\302>/\0354>\243\3028\275\274\303\223>p\347<\275\253\260;\277\223\335\234>?\000\343=My\014>P\3261\275\217Q\375=\302\315\276<\250\"\n\275\304\331L= \270\022>M\300/<\177\270\234\275\230\271\n\276\215\264@?Xn(\277 D(\275\267\345\207>\234\274$\276\202qg=QD)>W\345\264=\276\303\273\276d\016\345>ow\210\276\312\'\304=\017%&\277\256xM=w\354I>VxI>3\206E\275aG\"=\361\346B\276\337*\224>\242\237\331\276\273\034\314>\373)\342>%\365\351=\315X?>\376\267\261\276X1\230>\206\324\325\277\027\3406\277:\270s>M\032\005\276\\\220\231<\343\346(?\353\375c\276J\363\363=\240t=\276vDL\271g\264\241\274d\365\246\275\276A\203\276B\215\347\276{7J?\242\266O>9\317;\276O\331\375;\300m.>\237ug>\346\341@\277\316\006F\277\025/\210>\374\262\367\276\026\257:\275\346\\\242\277\"\271\225\277V\353J=\354\310\021\276\364\354L\300\000\211\217\276\242\260S>_\344\'\275\260F\362\276\271E\360\276\217\024%\276\302\'\025>\n\337\201\275\372\254\016\2772\320\025\277\305\234\257=\336\016\312>\356\276g>GE\210>\301\310\210=!h\304\276\273\361C\277\240\273\226?\241Z\005\275Z\213?\277\226\212\016\274\275\227Q\277>}/\276\345\314+\277\321\013\345>Z\347\010>\301\365\252\277\224oB\277\317\'t?\275\215O\277)\220\244>\337\233;?\323\265\304>\243j\221>\323/\200\276\205\377\366=\221<;?\357\230\026\276`\302\260>\024\210#\275\363Q\021>\324\315\370>Hm#\277\216\314\317\277\263U\214?\336\270\225>\364\365\226\277\321\302\314=\227\212T>\355\216\206\2771S\315\276\263\240\322\276lj\014>5}\221>\363\375\\>\315\tn\276\311\304\316=uB\221=\317\315\312\2775|\220\277\003\370g\277\221q\363\274Q\250\234>\266\212X\276\026\207}\277\334\264K>*\273\\\276b\26039\342\370(\277\262:\366\274\262\244\217>\275a\363=<\361A\275\375g\374=\312\362\252\276\2143\272>A\002\261\276\257\263\364\276\'\036\214\276\317N\347\277-E\013>\253\237\001\277\244\226\267>\010\354b\277\305\347\353=\027\030\252=gk\237<\261\010\351>UP\374>\032\221\240\276\325\261\315\277\325\342|>B\333\227\277&\332\360>JC\000>\306\353\031?\000\335\240>\376\333\275>\332f\020=\353\327\227;\317\375\256\277b\231\312\277=\205\310>\237,\025;s\373\340\275^*>>\271\312\376\274\274\326R\277%\243\324\274^z\005?\251T2\277n\275:\2757\255\033\300\0303\204\277\021O\345\276_\220^=g\203\317\275#O\225>\310z\275\276\362{5?D.\232\276\\A;\276(\270\250>~a\354>\304\010\274\276WH\022>s\350\005\277\n\327\036?\026\370\252\276}\024\206\276\253\244\373>\366\354\031>\334\036\221>\t\303\353={1|\276>\221\320=\347\021\210>N\275\200>\"\020\211\275\252\313\036?\310#\023\277Q\3439\272\266\316\t\276^o\256\276U):\276\215\031]>m\023p\275O\3672?\312\367\324=<\355A\275\346\310q>g|b\277\022\253\254>?d\022?o\217\010\276y\314\334\276\373\370\273>K\314\021>\350\010\003?\351\377\321=\362]\024=\'\342\232>\307B`\276\233w\004\277\307\343\304=v\313\022?\207c\'=\340k!\275\330@\275\275\257\\\225\275\221\362\336<\001C\017\274\274\355\303\276a\220\034\2760\303\313\276\332\263u\276\213J\212\277\372{\347\276\364TO>\376\202\230\276\300\216I?\237\305\251=\177\234\204;\3622\221>\274\275\365\276\337\223\237=<XF>\026\377\214\276\376{\320\276\375\325Q?\003|l>\366c\336>b\324p\277H\344\215\277\267\343\253\276\350\242\215\274g\320\377\276\034\321\261\276kc\235>D\255\307\276\321\241,>c\371\327\276\023)]=\346^\034\2764\336\360\276I\344V\275\304\310q>c\210a\276\351\213\217\274\374\370\373\276\224\020\327\276\242@P\276\200\316\363\276\305\356\231>S\010\201=6ku\2769|\346>#\005Y\277-L\337\276\323@\257=\n\000\243>\022\213\233>\031\3521>\232\272\r=\r\014\203\275\364\035\212\276]i\212>$\277\213\276\246\205\317>\334}\230=\324\242S\275\'2\341\274:?W>\277-\344\275\244\023\216\275v\024\025\276\354\361O\277n\346\300\275S\005\344>l(X>\233\332\006?Q\367\230\277\361e\307>\314h\251>\2036\235>\346}\222\276x\025f>\323\376\372=\231\333\014\277\006=U\276\261\244/=\'\356?\277\267\342\353> \252\007\276\243i\204>\007\007\375=x\336\020\277?\302\330>:8_\276F\301\204>i\201\246\277\231\274\353>\305`^>\314\002\210\274\326i\250\276\024\010\371\276\315\017\010\275N\303\311\275m\372\034=)\321\\\276\240g\226\276(\2769\277U\275\265\273\302\000L= {\005\276c.I\276\220\324J\275\306f\230>w%\256\276\223\035R<\352\275/?\244\251\330<\232#\005?\206\206\205\276F\312\261\275?\316D\276\317|9>\321\322\n?H\301m\274y\025D?\306:\271>[zE=\206\303\357>/h}\276w\362\002?T \232\276\205~\020\276\345\366\014\277\250\333!\276dxX>=\301\246>\002\014\022\277_\240#\277\271n#?\227\315\031\277\266\315\217<;\0369\277\361\317\017=F\315F\276\330\221\251=@\\->\2247\224\274.\343\273\273\373]\202\275\337\373\262\275\202\013\004;H\001T>\336\031\016>\226\327\342=j\003\365\275\256\002\274=\346m\003\276\010\025G=s\203)?%\316\201\274#o\n=A\273\005>2\232\370=\374\327\316>j\201,=\233w\250<\226\250\300=\233\002\355\274\326\334\004=\351Y\225>`\272\t\277\037qX\276\324\006\002\276_\243\246\276\2279+>\354\037*\276\036\014\332\276\377\313\022\277\220>\254\274\200\233\327\276x\373\226\276Q/\217\277Xu\355>\234fk>\330v\031\277i\203T=\356b\377>o\206&>}\203\036\277iB\377\2766\375#>s\360\n\276\374\3052>m\311\n\277\250\372\314>\354\010d\276\302}\237>1\256e>\240\346\265\276IhM<6.7>f\275\357>\036\217\303\27699~=r\200&>\340 q>\035\364\305\276\365\357\247<\322\323\207\276#\351\360>B X=\377\025\027\276\335\236D>\030\013\212\277\314p\243\277\236[l>\036\014\250>\231\n*>\'6\275\277\264-e>-\201v>\312\271\305=\235\000a\276(1`?\226\352c=\204I\203>U\027$>\031h\303\276\ng\235>\025\243\004\275\346*-\276\\\003\232\276p1\027>\216\363J\276\320r\255\277B\025\273\276\276\023\345>c\3638\276\231\276\203>\256\361\212>(,\261<\262\031O\276\'\277\352=\373n\202>aU\356=\375\377\370\277\316\027\366=8m\340\276-A\346=\3347\356>~\027\312=Q\026\240=\262\271\244\275\036\350C\277S#\365\275\373\356\310>\243\240\301\277M\201\365\275\262\014T\277\n\246T\276\020\261p\277\324\217\207>X\332\253\277T\360S\277kn\253\274\013\230C=\362b\323>\244\214$\2778?\250<3LJ\277\272\007\001\300P\327\343>d\334[>\3128J?\033\016\221\276\355\020\300>\223\275\005\277I\313\200\277\305@\'\277\r\232\273\276-\333y\276\0272\r?3\314\331\277(\242\274=\242\302\220?\262;_?2_\375\276\337\325N=\376\351?\276\035\216\036\277\217\0341?\252\025U=\202\300A\276\322\024\211\276I~\237>\357\200H\276p\016\261\276E!\210>\266L\312\275\203\314i=\221S\240\276\202\343\031\277\314&M\277\257\222/\274\365\377\252>\237\302$>\3347\235=\300\213H? \310\221\272\352\027\245\277\241\004,>\302\353\255\276\027)b>C$\230>+\370k\277\353\276\337>\324-0>\326\234\210\276<G)?x^q?\324\034\224\276<\303)\277V\344\014?\301\366\302\275\221$\300\276\315\307\024\2770\256\240\276B\020M?\354M\277>dLt\277~cR>\032\006\033\276sgN>\361\004\244=s\260\213\275\3178\210>\320\007\224=\372y\240\275\334\223M>\023\232\265>\332UU=\364!B?g8\366\275\360\222\177>r\230\207=\224\333c>F\032@\277@7\027\273\270\264\267>_\313&?\267A\\>s\035\n\276\354\366i=\267\321\200>\266i\352\276%T>\276$&\034>\252n\212\276l\216\373>\250-\223>s\3735>\225r\212\276.\035\214\277\315\034\243>\357\243>\276\263\254\267=]\355\004?d\003\236\275q=L>#\357\307\2761\351\345>3y\206\276\300(\252\275J\252\225\277\027\216:\276[\215\016>\247A\356\276b\355\361>\262U\031\276\204\262\346\274\227:\212=\034P\036>\322\365\301\275\225\235\273\277\335\3163>pz\257\275\307E\335\276=\224\035<\355\tJ\276\240\341\277>\026ey\276\323\306)=\264F*\276\253\324\013?\362\211\000?!`i\276\233g\337=:\347\"\277\327\234\217\276^\341\257\276&\032\266\274b%\330>_F\272\275>\222\332>\025\234h\276\357\303\022=\331\022\023?P\365\274>\027\356\320\276\211\333\263>C\342\201>\325\336\302<\302X\342\274\031I)>\201|\006=\332D\247>\267\324v>}\274\351\276\362W:\276Gjv\275\002+\343=\245M\222\276\032u\305\275+\177\020\276Y\354A\276\\\333{>\340\262\270>c\304\373>F\213\335\276\227tS\277&\233\023\277J\303\207>O\307\010?\3443\034\277\254\243^>\205b\245\276\013\271\305\276H\364\341\276\217\244\207:\244\224\250=\353\037\332\276\343.\222\276\357\341\232\276\245\233Y\274\23336\276\376e\005>m\324\277\276y\327\246\276\371\324V>h\253\335\276\353~4=\265\364\310\275\\\2322\276\340F\255\274\001r\334=\270K\235=\324\022\201>\352\234\307>\233\336\\\276\274i(\276\347\214\210=\n\2243\277\374B\220\277\210e\237>\257(\377\276h\355\251\274*Wb\275\242\244\373\276\357\266\204\276\334K\323\275bS\236\277\337\351\020\276\013\3162>Aw\031>\322T\177\277\362}$\277/V\261>\227\227\304\276\336\250o>\2672\354>\245\206\032\277\321\036\261\275\356y8=\333\240Z\276\221\277\242\275\007\3049>\262M\222\2747\210\024\275\202\206\226=T\276.\276\341\214\023\277\313xh\276z\362\317>Y\245\016>\233\026\351\277\035\242\030?\206 \013>\036?\362\276\004?\206\276QJ\374\276\242\310p>\020\343\324\277\312\021\">8\001\215\276E-\365>l\372\247\276\030\355\034>\276\262B>\215\026\237=\367/\310\277\237\217\246\276\177\351\304=n\022\261\276\314eS>I\212\023\275\374P\364\275lv\330>\240\010o\277$<u>\255\t\220\276V\t\352=|\240\222\275\347y\016\277\376#\202\276\023\3217\276I\213>>~\241\223>\034\221\251\276\206\326\366\275\035\276\217=\204\000\232\276\310\024\203\276wk0\276:O1>\236\301\032\277\007\267\010\277{j\235\276O\321\201\276\206\344\200\277{\3702>Y\230\371>\301\315\336\274\364\217\304\276x\335\330\275\3034\360=@\312\271\276A\327\001\277t\271v\276\254\010\360\275IB\264>\025\257X\277\341t\322=\211Gf\273h\266\271\276\201K\000\277\232\275\006<\206\367,\277\353,\325\275=\227/>C\230\226<\237]\375\276\036\363\312>\253;#\276\231\253m>z\206\201>7k\245\276\014\226\235=\256LK\276\367\352\320\276\037{\020>H\230\346<#N\366\276XJ\022\276!\217\316\276\217&\314>\3104\006\275\317,\204\276=o\242>;\205\234>\236~[\275\355\236\277=A!\263\2747\324\252=;\336\254>\357\332D\277sz\"\276\257\222\242\276n\355\t?L\336[>h&\005<\016\177\257>T^\201\276\261\313\341=\314\337\217\276\202\036\277\275{\204\337\276\2260\257\276vK\306>\\.\200\277\3109\225\276~\\\240\275\342\254\\\277\021A!\277\223\277\177\277s\311\210\274\276\201Q>(l\270\276\001\300\322\275<\243]\276\002\350y>L\273\230\276\261x\013<h\276t;K\230f>\242a*\277\273W\013>?)\316>l\240+=\206\271\330\275W\303\257\276o\"\340>\013)\377>S\212\324\276\034\020\004\277\024\323\331\275\372\311\276=\351\310\003\276F\333m=\371\317\030>\276\022\201\275\014\251\245=\261K\224\275\220[@>\363\265I<\021F\247>[\000\246\276x\177V\276fm\001\277\021\334;\276\"\207\254=\354Nx\276\215&B?n\217\'>1{\236\276\343\376\027=p\356\253>\340\033\275>\366\232;>\022\307S\277\370\262\346>\200\201\213=Y\320/\277o\215\326>>d\263=|\217\341\275\364%\264\276.\250\026?C\206U\276\312~\024>O?\245\276`l\021=Sf\356>%|\021?\310<\214\276\262lQ=j\244+>\212\354\225\277.#i>\001\316N>\000j0?\211P\244\276\272\325\010\275I\031\007\276C\366$\276f\211\237\277\265\337\367\276\255\334\245\274\035B\212>u\025\r\276Y3\272>\205\037 \277O\001\270\276\201\275~\277\330J\352>\003\307Z\276\312l\346\274\324\032\025\276\022\t\310\276\362\3731>\202\367\257\276\'\250\010\277V\2640\275\373\313\261\276gm#>\264~\352\275\364t\204=T\327\000\276\370\247>>\325\027\201\276\341z\005\275\031\260$\276\373\267\360\275c\304\275\273\0242\201\276\317\247\210<\263\030\032\275\032\032\366\274T\233\024>\021\034\277>6\037\343>\236w\350>O?\267\276\2605\205>\200B\300\276\177\266%>\034\375)\275*:q\276C\034E\276\203O(=\025\006\331>\320q&?\205\356\257\275\314\251c>\256`\316=\306\007\236\275\2334\206>\247\360\232=\237\005\017?\342\354\252=Y}\215\275\315-\270\276\022+\317\276\013\235\244\276\005g\223>\331\365\342>\033%\324>\362\2529>x{\005\277\336:\261>\247\214\370=}tN\274\214\257\251>1\224\271\276\35478\277>\224R\2753\276$\276A4\271\277&\376\354\276h@\276=&v\177=b%\332>\036\373\320\276a\013\360=\030\001\270>\371g~>{\360\n>\330JS\276@\027<\277L0\310>m\030j\276E\0272=|\347\274\275\224\250\265>\263\033\351>\372\021\324>\276\330\234\276\352>\303>@\221p\276\213qs\277\371\336\201>\335$\271\275\300\207\370\274v\333\205\277\270\232\033\276\t8\231<D\334I\277\344}3\276Rn\232\275\231\341M\276\255?\276=|\201!<\213PA\277\374\n\020=\022\265\276\275\013\271\016=\375\371h>\266}\237\274\024\270\236\276}8\301>\225\255\200\274\217\303\277\275z\374\261\276\371m\026\277\353-U>\213\361\263\276\035I\364>xC\023\276<\347\020\276\'A\234\276\\\244\'\277\315/\202>\250j1=\027%!\276T\356`>Fx\236>\025Q\335<v`\014\277D\215\337\274K\'\361<\317\035Y>\315v\307\277\234\304X\276YgJ=\364\372\221>Z\357m\276L\354\266>\336\342\371\275L\376,>oO\316=.\031\323=\231\355\227>bSd\277\321,6>\263\204\335<\221\333?<b\230\025\277\347\254\225>ci\'\275T\264\233=\336\003\332\276\265B\260;\217\022\263\276\034\304\347=|\023\346=\212D\366=\223k\327\275G7\006?\271{\375\274Q\036\204\2779\325\221=\247\010S>\030\305\016\276,\354\204\276+R\201>o[\245\276b\313\321>\357\275}>V\376\307\276\325\001\020\277\201<0\275Zy+>\276m\325=\035\253\314\275\'\237\">\t\3331>\362\261}\275F\223\334>\0037^\277\010\025W\277\201\310U?\252\264a>uE\355<\362ix>\241\323\345\275\304\016\t\277\217\270\301\276\'\276q>`+h<\216f\366=\351`|<\233\330E\275\004\310\r>\306!\031=\255\357\212\275\242\227\027\277^\003\352\276\027=[\276\206v\020>\361\305\313\276o\342\211\276\247(\250=w\372\335<\251\230a>\030\034\216\276TA\201>\276\017\314\276>:B>\346\026\026\276\325\247\200\276\341P\337>\007\351=>\364\354\363>\211\035;\275\272w\361\274\365\337\235>\246\333\213=+]\254>\314\006\375=\331\\\235>HK{\274\034\276\016? !\214\275\271\345[?w\304\013?,S\265>J\"e\275\350\0224?q5s\277`\316 ?\307K\375\274b\304G\276\254\340&>4j\222>\255\257\034;\273\351\204>o\253\022\276\305\310 \273\004\233\307\276z\375(>*$\253\274\337\272\332>\277V\361=\010,\212\277~\312\352\276\240\200\364>\356\273\022?e\274\261>\362~\235\276\273\032\244>e\372\273>\267\023\262\274\321\205\250>B=\333>\226\200\251>za+?K%\245\275\360\371\332\276\336v\204\276M\337\356\276\365\375M=\317\210\265>\237\213\377>\325\360\375=r\240\203>(\350\233=\023D\225\277\201\330W\273\351\214\027\277-\320\001?\321\330\315\277U\231\034>\270\206j\276\227\232b>\246\2672\276~\271\n?\217\030\264>\373\227\240?\n\234\373>\345\247\370>\022\200\025\277\375\331\202\276^`D\277\222\004\202\276HY\261=\'X\020\277\311_\254>\313\363\'?\\z\377\276?\'\374\276F\363X\274\020\257\177\276\315\272Q<\255b\n\277\323\253\243<z\2531>\356Y\260>T\2073>W!\006>\347-\365=\277)\211>\023.\223\274\247\316\302>\245&\005?\"\005\204=\343C\204>\022\367q\277\324(\341>D\362\337\276K\244\267\276\006\2146>Hh\020\277\363\005==\352\264\356=\346QR>&\032\005=\010\376\362=\002\322\355\276\177\216i>j4\336>\030\301\245\276\031\337\374\272\2207x\275\2253\003>\214\"\367:R\300\320\276\326&L\277\037\233\270>\372\2259\276,\333\016\276W\002\277\277\314\303\251\276)g\230>U\236n=<\r\200\275\270\340c\276\313\234_=\255(\307=\237\241\246\274\206\035\000\277\334\253\377\275h~\007\277\355M/>N\241\274>\323\315\267>\334\340\030\276\036\231\031\276\272\350\226>\331&a\276\313 \331\275_9\226\276\027\006\211>W\245\227\276\3748\020\277q\257\227\276\035\255\340\276\350I\240>Y\r\274<\233\203\013>\332(\020\277fB\017?[q\353>$\277\373=wGB>\322\312\354=\365#3>\007\236\025\277\370\306O<9\tw>\006\032\217>\274\222\313\274;0\270\277?Y\267>\274+\361\276rm\244=\275\276\305=+\321\036>\022\273\245\275D\356>\276\373\036\005?\340\021\"\277\201\236w\275\322\215s>3)K\273$`\220>\204:\360:uRu\276\304fd\276N\260+\275\250\022$\276v\211g>\335\226 >^4\222\276\327\020\307\275{\322\225>\006\272\212\276A\345\211=\247\027\254=\353\246\305\277*\257\337\276\345\314b>d\265\336>\021\272\201=N\030\222>\"I\235\276\3320\024\276\023\205\014\277\310F\234\277\273\367~\276\370\234u\277\316\n\324>\034\260C>i\276\202\276\r\260\326\275\003U\001=\256\267\227\2766\344\227\276a\276\265>$\243\344>Ab.\276\264h\227\276\215,=\277x\217\352=@\273\216\276t\t{>a\3756\277\315SB=\211\371\014?\350\226\274\276\256\204*>\205\377\010>\254\225\251\277\210=\252\277F\371q\276\332v\302\274\037\002\244\277fX\353\277R\002\231>\344\332\273>v\006\226\276\355\002\033\276\030\3134\276\357\352\265>Sk_\276\305\030\330>\371L\363\275a\315\030\274_\317h>\1778\354=\342y^>^\333\357\276ysw\276}\022\227\275G\354\227\274\3220\377>D\351\264\276B\033\367<q!#>\261\373\353>\363\273\262\273 M\245<\200y\274\276g\320*\276\206\246O=\217\354\317=\210\266\345\274\204\271C\277c\034\221\276:}7\275\257\3042>\032\026\375\274ho\017>\224\214\014\300\351\001V\276\333}\206>dE]\276\354\322\241\276\004e\332>f\204\353=s\006\307\276\230\204]=<g\340>Q\353\232\277!\377b\275\230{\000>\220\332\301=\205\314\335\276\367\305\252>\341NA\277\216+\303>\315\311S\276\r\000\336\276\314\361\334\277\260n`=\375\246D\277b\321\200\276n\262N<\323-\260>lhS=k\323\221\276_\221\034\277\335\302\374\276\002\247\261<\035[\213\275\316\360\303>C\221b\277k\304[\276\002\200}\276\367\357\007\276\243]#=\312mH>\033\177\211?\241a\205\275\000g\302\276\236\367\350\276e\036\003?$G\027>\316X\204\276\n\353\345=\250\262\302\277\215\006\023\275\372\323\302\276o\3316?BX&\277\353s\355=S\\\342=\227k\367\277\360\257\303\276\356\224\364>\201w\252=\204\032\267>\237\264\206>=>L\276:`\027\277\302\207\250\277p}\033\274\260\374\262\277=\374\007?\nk>\276\346\305Y\274R\007\306;\346tc>\272J\273\276\247,\001\276\322\331\020\276\357\303L\277#\001#\276m$}\276\026\340\233>[\331\367\275\004c(\276\231$\260\276tt\230\276\2711\035=\177\333\374\275\002\013\221>7\000\035\274\315~\315\276\214\304\364>\342\331\026=\003\331\260<\033$\007\275h\337\220<\311\017\230>I\032\001?\267qk>B]\265=\235\320{\277\237a\306=\001\023\031>b\335$\276\346)\177\275a\352Y\277\027,\031\276\263\356@>\3626\265>{\353Z\276\000\026\331\276&\274\007?-|\241\276\373jm=984=H\262\331\274\324\006\310\276\225\227w\276\346\325\256>T\257U>\247Ku:\010d\222>v\035\231\276\2236\350>\274Dw\276\326\016!>\215bq\276(\005\017\275\245q\326=a\302\253>-S\200\277\306\265\240\275\304\224\326=j\370\270>[\207\'\277[\361\202\2754\336\355=;\357\200\276\021*\337\276\n\241\">\341\213m\276\234\303>\276\035\231\034?\007Q\207>\332\204\276>?6\226\276I\204\024\277w\203k\277y_7?h\342b>O\356/\276`\355\352\275\026\010\374>\235\311\210\276v\337\023= \211[>kK\005\300>\265\370\275\203ZQ>\362\374P>\311K\205\277_\016U\275,z_>\301\372\224>\340h\374=G\346A>F\200\234\277\203E\311>O\004L\276b\027\n\277\262ta=*\247\264\274\354\263\t\276_\017\020>\235\003\205>O\203\215\276kv:\300\221\273\031\276r\035(\276N\013\210\275\"\200\205>x\020k>\361]%\277\312?\000>\363Q\304\276\253\205<\277\254\325F\2762\271\335>\016J\344=w\203\007?\377\327\225=W\237\334>^\247\364<\226\031\242>E\030\320>g&&\277j?T\276\230\343+\276a0\026?\004*\020\276\030M\261\276\210\324b=\371\337\246>\"<\353>m\241_?\216L\"?#>\330\276\r[%\277\231\222)\276H\370\233\276\223\226\003\277:2i\277\336\"O>5\020%>\307\017\361>y\257\331\276\364\374\327>@R\004\277\271\266\364\276{\336\021?SI-\277\217&\221>\220\372\375>\307\001\027?\2025\236\277%\023P\276\376\255\233>\304rr>pe\224\276s\033\217>\rH\351>\211\017g>\325 \004?\3169\372=:#\273=\227\342\032>3\335\254>\232H\005\277P\352\377\276\220\363\017\2779{\001\300\211\206f<\346\251&>\367\016s=\216W\004\277&\016\266\275\026_y>Pc\030>p\036F>\347\303\261\27695|\274\247\374\273\276*_3\274\007\272\010\277\037\372\025>\010\2129\275\353\277\323>g\022\242\276\217\004\314\276d\277C\277\232\325\364>r\027\243\276\377\325\014\276\206\330\301>\n!\271\275C\360\242=\216\340\305;\272\360\212>c\334\211\276E3\272=qg\024\275ze\020?eH\274\275\315\215N<\002\260\223=\376\305\034\275Qh\245\276J\024\020\277\363\305\013\276\300Q\">\374/!\277\350F4=\343\2334>\232\233\035\276\031G\247\276t\023N\276Qh\001\277\325\3171>\233\315\001\277\337\031\220\276?\t<>\260\361\273>\372\2038\277\231\327\003\277\345\251\034\276\037\3574=|N\215\275l\351j>\247G\255\276\347\355(>\200k\247\276\337\013D\277\340\300\220\276\230\010\220>\213\023\t>\021;|>\225u.=\335\014\030\276\035\261k=\343\224\237=\016O\376\276d:9\276\347\207\020>S\024\312\276\022\016\022>\326\350\276\276\024N\300\275\344f4<\345\240\273\274w\302\260\276\202\036\206\274\037g\345=\363P\t\277\314\371\225\275J\243G\276T\313\004>\332S\277>\331CL>\205j\372\275cf\032\276O\340\017?=\372\307\277\215c\246\276\256\202\372\276Bl\216>\306\\\243\276\272\221\203\276\306\240\200\276T;\210\274^#\270>g(\217>\024\377%>\273\263j\276u%\320\276Y%\231\276\247\326\244\276\255g\341\276\027\303\036=\255\032\025\276\334\245\206\277\275tL>Ht\341\276O.\215\276\234\370\033\276i\027\242\276\317\250\243\276Q#L\276],