node {
  name: "dense_input"
  op: "Placeholder"
  attr {
    key: "dtype"
    value {
      type: DT_FLOAT
    }
  }
  attr {
    key: "shape"
    value {
      shape {
        dim {
          size: -1
        }
        dim {
          size: 13
        }
      }
    }
  }
}
node {
  name: "dense/kernel"
  op: "Const"
  attr {
    key: "dtype"
    value {
      type: DT_FLOAT
    }
  }
  attr {
    key: "value"
    value {
      tensor {
        dtype: DT_FLOAT
        tensor_shape {
          dim {
            size: 13
          }
          dim {
            size: 64
          }
        }
        tensor_content: "%\3768?\224\330T>\371\225\220>d9\254\276\214\021\321>\301\t\343\276\362\342\225\276\316\255 >\271jy\276\265Lv>G\337\201\276n(\027\277c6\334\276h\256\354=\255\235\323>\247\016\344>\317\t\254>j\303\232\276\236\216\240>0\005J\277\325\221f=\031{}\276\227\r\251\276A\232H?D\266\000\277yF1?\253&|\276\032\253\360=\366Q\306=]\247\226\276\356_e;\324\373\232>\017\275c\276<\250\330\275\360\214,\276G\231[\276\240\212\201\276\261$d=T{\213>\003{\241>\361(\230>\005\344\277\276\031n\317>%\te\276\034!\377\276\223\221\270\276\225\340&;\2567\027?{\312\005>\021?)\276\332m!?\346\017\023>\0358\262>\277\247\245\276\352\347\253>#\t>\277eU\303>-N\035\276UX\211>\331\336\t?\323d\305\274o\251\263>\207\022\346\276\221y%\276\354\305\306\276\254\364\265>\312\020(=5S\277=$\360\261>\304m\302\276\271^$\2775\362W=Mk2>b\360%=\355\000\027>\036#\032<LU\237>\024A\035>\355\247H\277b\223E<\307iL>0\014\207\276\212\325.>b\021\026>\335G\231>\237l\257=\231\301\272\276\253\030\327\275X\2231?\202\274\210>\310B!>\223q\241>\304\3474?\023\267\350\275\303w4?\261\302\030\277\301\347\233\2764)5\276\336\225\343>CH\215\276\367hQ>\256\346\230\276\215\337\370>\004|\302\276\365\307\365\276\031a^\277\325\302Q>j\260\312=\nr\307>\000\241\212\276\267~\346>\315\003S>_4\230\276\335\233\013?\010\267\001\277\'.Y>\322\t\277:-&\234=B>\007?\023\326\272\276.#d>\013\243*\277idK\277\364E\343\276\033\202\n\275\322SS\276\216q\002?0\220\030\277!\244\264\276\021\323\202\275\255\256\204\276t\276O\277S}\376\275\311\3152?\022\374\312>\232\243\\?_\307[\277O0\206\273\206\326\242=h\202,\277\276\n2\276\303\214\335>\370\246\227>\302\201\322\276g\223\323>tW\303\276\344\231\220\276=\223\345=\360\367\177\276n\334^\276I\0249\275\201\367\334>e\217\034\277woQ?\374c\007?i\350\246<(!\023>\252\244\205\276\213J\213\276\nP\242>\322C\314>\006\305$\277Gb]?\212~\342=\207\322+\274e\300j\276\241\261\246=\301\220\240=\t\334\321>?|\037\276\016\007\037?Tm\230\276Gz\270>\332\007\273>*\2036\277\314\224\017?P\236,>8\265\206\275^\232\354\276\267T\035\277LK\355>\353-\361\275\025&-\276\313y\337;\341*}\276M<\027>\357,\230\276\232\366D\277\252G\262\275Jf\237>\313\036\225>\307\007K>\336\025\301>\327\265\270>\357\375\356>\021\224y\276PR\201\276\334\352g=}Ca\276\263}\374\276\255\0045>\014D.?+\310\334=<!\'?\261\210\322\276\222c\226\276\3607\016?\321\241.\277\343\013\235\276e\203*?y\226.\277\352\322A\275\310$\264\275\255\233V\2765\300\307\275\372\217\230>\002\225R>\000\003<\274\371\031G>E\200\302\2768o|\276\234P\201=\220\343,\277]\356\203\276\243\207\320=\0029\006?`\313\266<\231\340,\276\340 \303\276X\020\347\276\226\277\272\276\213\023\332\276\304\210\007?\240\311\202>G\271\006? \n\002?\261\321Z>Y\310\370\275\326\314\232>\0251\230\275\322\3158?Q\264\037?7\214\344\276\306\031\366>#k\000?\204\347\027>\rE\303\276\240\314d>Y\r\221>\013l\277\276\350Wr\276\020\003\001?\022\t\340\276f\177\027>\314\241\331\276oT\016=\273D\235>\304]%\277\014\345\002?f\345!\277\266Z\032\274\340\322a?l\370\227\276\267\244D\277\260y\303>A\177v=U1f>#\\\352<(\365\211\276\034\325j>\204\214\352\275\216\252M\277\301\264\241\275_\213\222=\243\373\322\276\316\026\306;\002\251\351\2768Dt\276)\341\236\2761H\023\277h\204\374\276\276w\014\276S9\034?\317\025\"?\244|(\276-\241\244=w.\005\277@\370:>/\3652\276\33617=\010\320\032\277i\326\336>-\020+?/B\264=\323\3165>Ot*\277\t\351c>\204.4?\362\352\237>\344\251Q\275\232yF\277\376#\006\273:>j>\244\315\023?_w@\276?7\206\276\300+\021\275K\246\245>7\201\310\275\016\2349?\203\304\036?o\t#\275\030V\264>\313\240\036?\305\317,=\342\356\017\2756\276\227;)\261\263=\352\321\255\274S\344\016\277\r0\006?\304\305\020?\370k\033=\341\213\251\276\256\2248\277\020v\303>\022s\336\274 \201\013=0\261\004\277\263^\262>\343[\357\2756\205\353>\022\365|\276\024\212\360><!\010\277\027\013\352\275*\246\234\276\254\314\017?\264\263\332\276\224\202\337\276\267\245\230\276\250\033\362;\321\370\235>C\225\002\277\333`\340\274/\245\220\275\301\340\022?\240\367\235=<\301??\256\233\023=\252e\351\274\010\255w<\237\306\005\274\350\217\016?\314\032\342\276@Vb=\355\207V\277\204h\017?\016\033\322\2761\230\312\276C\223\373\276\240`\323>\232\300\201<\371r\235>\013\355\340\275G3\207>\200\302\263>\364\323\243>\315\"$=;}_?\240p3?\262|^?\030\251\307\276z\033M\276 P\363=y\335\367\273\034\023Q\276\201^O\276\214\322b\276Z\374\203=kxu=#\271\224=\324\003\343>\332>S\274\313\340\013\277\311W\373\275)\001,>t\000\224>O[#>\234\331*?tb$\276L\303\231>\267\310{\276\201j\372>\020\206E\277\202\261\235\276A\303\262\276\253\004U?}\242{\274\236\363\232\276\2343\037\277\230U\034>\301-\265=\354\206?=t\\\321>\256n\320=E\t\366\276W\034f\276\017>\306\276\355y\017\277\026\3061\277\013m\225>\217\352S\275\355\335\207\276\210A\246\275\"]\000?\271\034\244\276\177\336v>G\3501\276eU\004>\216\374\243=\272\306\302\276&Y\237\276PO\330>t*)=\221\177\004>\035\250\034?*-\334>\272\202\"\277\207h^?j\007\024>\357L\016>\357\304D\277\242\217l>\314\037O\276n\300\331>^\3042\277p\326\355=\243v\334\276\275\305\036?\354\201\033?g\233\260\276,\206;\277\230!\274\276zJ\020\277\237\016\t?\005\320\004\277K\032\013\277Lm\231\276\240\n\'=\365\213\353>\306\355\304>\241\263\332\276)\223\210>\007\350\334>\306 \013\277\233\251\023?\3709t>\230\342\021\276\334;I\273k$\021\276\013\251\300\275\370\304\331>\014\025\374>\275\230\335\274\221x{\276O\264o>e\370\347>\250S\013>\007oQ:!\221\020\277p\376\037?\220\003\375\276\267\317\024>EN\376<\227\206\251=@\207\325>\0368\355\276*\001\231>fwa?\340\367\010\275\013\005G\277\265\325\222\274\244X\357\274\366\366\342>\377\'$?\212n\206\2737\202,?\035\353\240\276\220FK>\234P\270>_D\317\275\02493\276\3607C\276\364\367\357>\204L \277\233\001\'\277\006\214e\276\272\026\246\276\241)\201>\371\027S>\206SP\274\273s\223\276\325q%\274&\234\021\276z\345\237\276\346\2522=\"\274\200>\326\312\355\275\235\373\023=\311\243\002\2775P\226>\327\335\251\276i}\252>\241j\351>\024\352\276>\365\342\235\276\345\020+>\262\201\323\276\375-\220\275x\343\243>\034\023\254>\351\177:?\232c\321>\344\t\240\276C\004->\023\000]>\003i\271>8WF\276E\224\037=\350k\017>\265\251\037?V\331_\276>\254\255\276\355\033\225\275\204w\304\276 ;\201\276\235\341\351\276?f~\275LP\334\276\347\277j>U\343\346>\327z\017\277\'\364^?\324\322\324\275\331\240\315\276\354Y\257>\273\010\t\277\251\327\212\276\236\3416>C\264\211<\342\340\347=\307\262\371>\231r\256\276\t\217Y\276\301\335\327\276H\006\336\275\302\362\276>\035\215\366=\313G\017=e\260\025>\335\307\n?\241j->%tO=/.\310\276\035\"H?\000\233\363>g8\003\277F\007\220\276\250-\022>\361\370y\276\244\335\322\276V<\330\275\203\001\034\275%\020_>\n\201\227\274\377\231\307\276Ex\241\275_\261\323>\252\250\002\276\004\343>\277\307j\016>f\211\227>\317Z\272\274\262z\313>Sdb>\202D\000\275ok#\276\226x%\276\233\3512\277N\305D?@\212\211<\233q\022>R\231\n\277\t\010\225>H\256\031?5\234\252>\005\021\214>fm\'\277\246W\374>\266T\030\277\337\000\346>)\032\301\276\356\'&\277 \"\204>\356)\325:+\361\241\275\'\324\007>\002\240\344\276\000&\023\276R\r\236=!\375\005?\332\202\333\276\013\245\\\276\037\376\272\276\221\215K?\236\227\344>\202\371\232=\254\212N\275\302F\344\275\344\341\001\277\3438\005\277\316}\007?\240\006\306\274q-_\274\312\326\013\275SG)>F\311\004\274v\212-=y\362d\275\023\004\373>Y\276\203\276\027\232\000?\301\230\277=k\367\221\276\017\360\260>Ka\026?\2173\207\275\032\231$\277u\n\t>/\026\277\276\245\302\314>\352\377a?)\206\261>\344\002>>\275o_\276\017\202J?X\355\345\274\222\253g=V\013\276=ZM+=\361>\r?\265\034,?\007\334\n>\354\233\013>\356gT\275$\372\000\276f\371\r\276\313\365\361\275?#\225\276\377\302\241\276e?\023?c\\\222>\204P\225>\326\3448\276\375\210\376>\303y ?\016\021`>*\362\341\274\202\236\036?c\300\235=\375\267\332<\205\260\301\276\330\021b=\236\002N\277\247\341\331\276\375#\365>zhC>\300$\273>\367%\035\277\257$\'\276\007\006\233\276\235\203\"\275\010P\000?\020d\264>\235\217\031\277\206ju\276h\007v\276\204\364?\276f\264\227\276\247\036\245\276\343\204\203>\333\000\'\276\251!0>\256\016/\276O9\010\276\314\213P>\332\264~>\317\266U<o\263$>|\233\272>\345\371c\276\303\307\r\277\371\215\367\276\336\273\233\276I7\325\275\345\247(>\235\232|=\177(8\276KQ\251>I\032\312>\256\210\240\2760\326\256>\214T :\031\224\031?\275\016Y>i\212\361>k\3734\277XT\227\276C\313\220\275\004r\257\276+\346\242\275\010\377f?\337\321(\277x\310_\276\362\025\314\275\234_\225\276\370\325e>\343O5\277hH\260\276\226\313\215>7Zc?\256\301{>\\\365+\276H\266&=\356\364\234\276\321v\314\276{)!<\306\371\266>\033\027\010\276\266\006u>[(\000\277\325c\020?\333OZ\277\233\234\340>U\324\227=k\"\315=\354\241\340\275\231\370\233\276\372\343I?\334\007\030\275mf\322\274\327\367+?\234oD?p\304\314\276\264a\350=\332\372\244<\221a\244\275\215\356\023\277y\302j\275\341\244O>g\342\332\276#\375\r\277\n\212\227>t\014_\276\020E\001?\252 \005>O\266\333=\200\3202?\376\272\242>\307\274t<\300\007\335\276\214(\221\276RO\316>\346\371,?\017\026\247\276\nx-?v\321\270>\350 \364< \016s>\210N\177>\303vA\274\321\373\241\276\212\t\342\275\372\245\247\2750\361\310<\257\310^\276\363\215\302=\371\324$\276v~\347\276\266\214\252><\013\255=\231\372\304>\245\030\035\276\243!-?\261\020\277=\206\244f\2771X^\277\317\003\373>\3460H\277\353E\254\276\nH\215>\245\217->\247\377\270\275\355en\276\232Y\367\275>\027\355>$d\212\275\200\341\241\276q\013\265\276\360\276\267\276\376wJ>%\246\237<wB\033>1X\026\277\225e%\277\357d\316\274*w\006>H</\276\016\n\334>s\365\317>BO*>\253h*?[\227\245>\336\272I>\304\017\266>^5\310<\272J\236>)\000\227\276\355\250\245\276i\214\255\276NN^\275"
      }
    }
  }
}
node {
  name: "dense/bias"
  op: "Const"
  attr {
    key: "dtype"
    value {
      type: DT_FLOAT
    }
  }
  attr {
    key: "value"
    value {
      tensor {
        dtype: DT_FLOAT
        tensor_shape {
          dim {
            size: 64
          }
        }
        tensor_content: "\342Ln<e\"\224<\255[\240;.@\202\274\212V>\274\024\304\257\274y\352C<\236Yc\274\331\022a<\002)\220\274\306\235\255<\023\244u\274\263r\235\274;\350\177<\360\343a\274\373\310\355<\2310\213\274\315\025~<\214\302\272\274u\\m\274\034\244t\274\232\307\333\274 \215\231\274[\002\217<\351\245\231<\373\307`\274\205\257?\274\000\210\213\274\245\'\262\274I\362\232\274\354hp\274\305As<\247\310\223\274\t\324\240<p\'\203\274b\022\031<Azf\274A\350\215<\2563`\274\271H{;v0\\\274\034v\231<dp\023;\373Jh<\0341o\274b\233\004<A\034\226\274q\237\231<\220\245\274\273\260t\201\274Q\022\035\274\"\245\232<\317\030y\274\245\177Q<\240c\363\274\017\035\223\274\017\264Y<\275\227]\274f\222\242;\312\247\207<\336\267\004<\364O\205<x\004\326\273<]\216<"
      }
    }
  }
}
node {
  name: "dense/MatMul/ReadVariableOp"
  op: "Identity"
  input: "dense/kernel"
  attr {
    key: "T"
    value {
      type: DT_FLOAT
    }
  }
}
node {
  name: "dense/MatMul"
  op: "MatMul"
  input: "dense_input"
  input: "dense/MatMul/ReadVariableOp"
  attr {
    key: "T"
    value {
      type: DT_FLOAT
    }
  }
  attr {
    key: "transpose_a"
    value {
      b: false
    }
  }
  attr {
    key: "transpose_b"
    value {
      b: false
    }
  }
}
node {
  name: "dense/BiasAdd/ReadVariableOp"
  op: "Identity"
  input: "dense/bias"
  attr {
    key: "T"
    value {
      type: DT_FLOAT
    }
  }
}
node {
  name: "dense/BiasAdd"
  op: "BiasAdd"
  input: "dense/MatMul"
  input: "dense/BiasAdd/ReadVariableOp"
  attr {
    key: "T"
    value {
      type: DT_FLOAT
    }
  }
  attr {
    key: "data_format"
    value {
      s: "NHWC"
    }
  }
}
node {
  name: "dense/Tanh"
  op: "Tanh"
  input: "dense/BiasAdd"
  attr {
    key: "T"
    value {
      type: DT_FLOAT
    }
  }
}
node {
  name: "dense_1/kernel"
  op: "Const"
  attr {
    key: "dtype"
    value {
      type: DT_FLOAT
    }
  }
  attr {
    key: "value"
    value {
      tensor {
        dtype: DT_FLOAT
        tensor_shape {
          dim {
            size: 64
          }
          dim {
            size: 64
          }
        }
        tensor_content: "V\036Y\274\177\353$\276Aq\201\276\1774\311\275\205\036\265\275\343-->Nu*\275ILd<\317\261d>\256\004\202<\344\037\\\276\377[\243\276\323a\221\276E\236\n\276N\206\226>\315\000\242=\327\341\n\276(%\212\276g\rC=Zxo\276\032\356\336\274C#m>_\336y=Qu\234\276 >t\275\260\376\223\276 t\374=wu5=\242 w=B\0223=9&l=\233r\255>\322\350n>\014\303\237>\256\203/>\367\323\262\275Op\022>\265\362\320\274\312\354w=j\276\203\276t\212\263\275\215\333\246\276s\2023\276\370\316\204\275N\325|\276\342\026\210>\212W\315<\"\277\307\275\213\237\003\274\267z\303\275I|\252=\023^\202\276\231\264\335\2750,\374\273\202\336\310\276\267^\222\275\237\3464>\037\324}\275\266\343\336=\213\371 >\030\343\307\274\010\327\217\276;\276\346<\353\362\303\276\020\001\214\2750G_\2759v\263\276\377\027H\275QD)>\214\026\304\276\335\356l>\253\177\212>\026j\202>\301\n\262\276\351\005P>*\204\223>@}\031>\2055\327\275\214\214\355=\003\270I>\316G\320\275&Ad=\267>o\275\274W\214>\201\240\031\276e\243\013>O\251\225\276\001\213i\276w\370\377;\025rm>5F@\276\222%3>\2750\207\276\037,J>\\\217\276\276\242m\034<\030G\000>%\026\215\276\222\230\302=\273\220\035\275\231\000\251\276zU\273\276\354b\210>\034\335\016\275iQ\300\273\367\207\222=\220\275E\276D\003v<-\344\271\276\007\306e\274\205\232\312\273\333\351\230>\3771\364<B\207\"\275\362O\002=-\205\023<R\347\250>\373TY>\317\353\212;\372T)\276$h\271\275l\001\000\276\371_k>\\y\251\276\352\212[\276\033\232\345=\277\360(\275\205\303\250;\2304c>\"~\352\275\350\343\212>\350P\030\275\231\021\322<\253~\325=\003m5\276\303\303G>\227K\003>\225\331X\2765\261L>\265\335\321=\271\301\357\275\313\324_\275$\2421\276\323\354\364<\221\214\375=\276zb>U\232j\276\374\241\005\275\"\276\010<\325\236\216>\200U\352=\273\3249\276\025\036\213>J\024\017\275Cr\272>k5\257=\323\376\250>\343\336\234>\376EI\276\236\254\367\274\027\204F\276\020l\032> *\370<)\335\210\276\357\',>i\202b\275\314\025\335\275\222\351\215\275\306\342H>>\034\307=\351\2608\276,)\247\275:\227\234\275\236\022\253=i\204^\276).\214>\317X\226;\207\010\222\276\231\367\264\276dV\032\275\304\0029\275t\321W=\212\301o\276j\2176\276\276\0169\276\366\233/\276Z\2530>n\014\376\275_VX>\226\375;\276+\230V\276e\343\365\275eu\216= \312\304>\021\330\214\2762YM>\227i\256\276\373\307^\276\312H_>\t\363\376\275#a\016>F\010a>\263\303N<\372\311@=\314`\276<\301\216\005\276\300\002\216\276\255p\343=.\021C\276A\346\000=\210\340\230\275 \247\250\272\314WF<\256\001$=\r&w\276\277\212L>\'*\026<?o\370=\341\336\230\275\247\205\263\276\323\014\253\274<*\235=\352O\217>.\336 \276-1\031\276?\335\267\276J\253\034\276\304\013\023>\307\3761\276\316\025\324=\323_\373\275\222\371#\276\352T\207=`\237\211\276b\2509\276\021q\355=m\360\270=\310\217\300\275\331R\232\276\037/\037<\017\017>>o$f\276\231tX\275)\207\266\276\332nq\275i\360\224=\202\235\314=fL\221\275\223N2\276.\035X>\362\377\335\275\"^\t>\n\013T\275m0\254<\360\333\212<55l=\260\302C\276}&\377\275\252\217\365\274\306E\341=j\211Q>\266 \022\275w\325\n>D\215\272=\365\005o\275\227\315A\276f\374\013\275\344\2458\274MB\036\276\247\035\023\275\364\374\231>\305\036_>H\023\353\275?g9=\230\321\270\276\016c\255\275\232\211\304\275A\357%\275;\274\216\275\371\246x=\252\374>><o\206\276I\364D\276\312\3350\276%k\213>\300IX\276\242\312D>5\313\333=\330\r\270\2750\035\230\275y\021#\276[V\\;\217~g\276\322\2168\276\265\207n\276w\200\261\275\233\031\253\276q\352\236=\224\275x\275\367\026\'\274cW\232>\004\313n>\n\036\026>\355\306\021>\014\211\000\276\005\270G\274.\022\022>l\024\356\275M\204\275\276\221E)>85\032\276\334}\375<\311\330\214\276\365\317\024>\244#,\275\306\324\177=\014K\330=\365\206A\276%G\350<p\003\255\276\220\0167=o\213\277:\021\263b\276\326\224\351\273\266\r\205\275\037\0208>\334>\211\276\355\252\267\275}\031\036>\323]\013\276y\222\205\276F\310\203\276?\322L>\224\306}>\352\230\366\275\347\016\r\276\231\006\220>\364q\226\276\253\025/>\303\233\262>\272\013*\276\t5\265\2751\265==\271s\376\275:9\373=\326U6\276+\234\224=\021\333\247\275\354\201x>/\007\245>\026v\272> \327\025\276\017>H>\320o\037\276b|\013\276\363\231\221\276\255\302\231\275\027\361\324\275\245\222s>P\315F\276\300x\227>J\3226>\332\242\260\274l\026\301>\214\036\262\276\334\311\312=\204\310\231=\014\037\"\275Ty\346=\332\013\216\276\270\320\312=?\351\273=\235\322\264=\225&r\276&\020U>I\237\016\276x\321P\276\221\016q=\320\026\250\275\2310\365=\201>\004>\025\317\241>_\276&\276\251\321\253<l\2473>\t\302\242>\035\213\334=\327\205\001\276\320\252\263>\256\316z\276\304\277\335\275\305\033\360=\334X\010=t\272\356\275=\272\233=a\266\000\276J\230@\276|0\214\274\315\021\307\275\035r\235\275\335\037\037>\324\256\205>\367\351o=D\231K\276\356\030\253\276\033\006\346\275^S\357=nW\014\276\227\332)\2763\2553>Fn\341\275\326\360\007\275z\3042\273\026Fc>_\245\210=\t\366A\275C\033;<h\334\237\276~\327\\>\273\t\230>\303!\365=\202\322\213>\360\307\202>\017\356\305\275\367\207\213\276,\311J\274\320#i=(_\217>Y1\215\276\3421\023\276Z\030\315=G\345\343=\321{\243>\265\243\337\275x\260\261\275\225\0270\276YP2>\362\264\244\274B\254\251\275\273/\230>~\202\006\276G@:\276\323A\321\274\3231\255=\273\271\307\273I\210\262>\247\023\020\276D\3771=N\331\255=\354\245\033\276\240\002\212=\336\261{>\234\227\205=\242p\214=7\321\323=R\326\034>\350\275\226>\332\020\275\276%\344\215;?VC\276\013\222-\276\261O\300<b\250\322\2754\206\021\275\361\034\206\276\t7\255=k\350\367\275V\017\000>\010\004\327\275\023l\243\275\r\241v>\242\316\225\2769\341\007\2757\237\206>\035\264\022\276\235\227t\275\311$\017\276\235\262W=\347\326\240>\355\352\365=%\001a\275f\316\020>\202\246\207>\353\261\311=\333\037x\274\217\251\004\276.\341\346\274\366\023O\275\206\010\233:.i\036\276ql\033>\341\005\202\274\351\025\331\275E\207\214\276\213Z\211:\306]\033\275~\367\340=?\241\003>\365\302\227\276Q\335f\276*\350c\275\2036D>\372\302b>&\214\003>\252\t\275\274\035\254\376=\325>-=\311\362\224=\240\314Q\276Y\260\025\275\250\252\370=\371r^\275\023\003\373\274\242\375>>\244\026\221>\241>\277>@\330\274>\267\352\r\276\267\241+\276\372\007\271<=\243y\276X\250\257>1\376\017=5]\230\275\274\323e\276\022\237\220\276\023\001\215\2754\277=\276\213\307P>\344\365\355\275d\217\374=\307\272\013>\005a\341:\2117\020\276\213\022\373\275$\242\300<\374\215\314;\324\315F>\344\201\265>@\273\210>\373\306\317=-4\203>Q\330\232\276{T;\276r\257\224\276\215\263\262\276S\224^>\020\267\375=\253+\224\276[\375\216\276\276\345$\274\203\316\326<\377\3135\276C\257\247\276\026\221B\276\321\372\232\276\337\037\017=\345;\254\275\221\274\234\276\342X\256=\236+\004\276\217s\360\275\336<l>\201I\377\275B\372g>\"\315W=\255%\273<\275\277\244>#\2744>\250\245\310=\014\202\375=W\365h>\207gf>\226\224\217\276\002\316\242>\241\301\277\276\017\240\320\273q\235\232>\354\224)=V\237\013>\024\344\240\275\010\243\355\275\267=\220>^\323\303\275@\323\214=(\315\024\276\237\013*>\346\3659>\273\347\"=\335\222L>\207N\221=I\033\264\276+\257\306<\355\025\206>\256\264\226=\005\242\260<\264_\215<\2202\207>\036\370\037=\251i3>\210\223\024\276\377/\270<U\237\252\276\177%\211\275p\362t=\244\262A>C\037q>#I\224>y`\243\274\206\325\221\276w\312:=\350vW\276\215\025\237<$\006`>_\021z>`&\004>\353_\014\276\315@G\275\320\201\321>^*$\275k\225\305\276q\355^\276^,\252\276<dT\276\024\310\305<\030\2358>W)N\276?\253\245\274\315+\225\276\246\024\374\274d+\376\275]\315\024=\001{\t\276\247\0169>UL`=\204\346\246\276\205?\313=\325\230\235>W6%>\3716\222\275\2530\030>\252\312m\276v\350/>\316\265\234=aN\237=\031\\\315>U\031e>I\n\250\276\360\033\003>?\244\261>$j\214\276yR\001=:\212\305=\221S\255>\014\273s\276\360\251\374<>\376x\276\225\365\306=$\305P=\322\352k>q\304\202\276\315\246\205\274>\315 \276\362h\030<\334\255\017<\347\247\326;\203\331k\275\265\"\312=U\357\034\276\214\212x\275\234Q\200\2753\214\234>\277\014\267>3R\311=\001\353\321\275\246\t/>\034\030\250\275\010\262*\275Z\331z=3\266\326<\031\203\016>\204\037\031\276\025\357\031>\334\345\275\275-{\341\275PJ*\276\300\254\010\275\303\353\341=/&\376\273\\MI>o\264\035\276\341\017\361=l\274\200=\241{I\276G\013\217>\254\344G\276\274\366a<\345\333\304\2760\'\223>/\243O\276\362v\320=\235\366\204=#\223\244\276\200\345\205>\333\350\266=G\\\315\276EE}\276V\200\032=\005b\024\276u\304\032>\3305^\276\tN\210>\334\265M\275\371J9\275\336\242u\276l\331\347\275\'!\200<z7\244>T\343\246\276\214\336\252\276\262#\201\274^!I\275P\232|>\210\312X>l<\021\276\000:)=4}:\276\037\2429>U\022U\276\335. \272:\342\235>n\020\007>\230}\027\276\262\362\034\276\034\2731\276T\207\247=gqW=\322\311\005\276\244L|\276kT-\275M\215\317\275\3271q>\263\027\276\274PgL>\236\301\034\276\200rC=*WP\275\2649;>\360\021\226=\370i\234>\264\316~\275Fn\027>\347\333/\276E\323\241<\330y\316\2766\302F>\352\223\274\275\376\373x=\223\3001\276,R\202=\\\202\033\275\343\027\035\274`\321\004<\365AL>\202\334`\276_\020\271<\022\310\322<\302\006\256=ZW%>\242\314P\276\273\221|=>\337\246\276\020\262\014>\004i\202>j\333|\276x\036\017=\356\365i>\025\360.\275AI\001>\336\t\225>\365\350Y\276\373\032M\275\221\304\210\276\036\364\020<\0058\203>\200\263\215\276^\312\210\276x\227f>\327I\306\276\262\251\263\275\031\321\225>\226\306\026=\341\032\371=\022\007\017\276\232\223O\276\367R5=\022\364)=\3558{\276\342\345\230>\257\214\270=\345\223L>\235l\034\275jz+\276\371\312#>\\\t\224>V\023\215\275\303\3032\276\356\313\210=\303\374\302\275\265\326<\276\250\032\013\273F\004\005\275%\323\263=\355\236\271>N6\302\276\314\226\304;\272C\230=\312\255z>\311\326r\275\216%\276=i\301\225=A\371\264>\031\340-\276\353\3012>yC4=|!]>\036\332\230;/\334S>\200\303?=t\300\315=0\355q>(j!>%\376\304\276\374\367\t>\211\373\212\276\200\033\030>\300\303\374=\0004\242>\'\230\225\274m\356\207\276\326\177\203\274j\200j>\246\377\340<\203#\220>\247\024\r\275\242{\224>\361\333W>\373\373\\=\177(#>\341q\245>\021sx=\307\234s\276\014\335\237\276\223\332S\276\271v>>sZ4\276\350\225\267\276\372\256\343<\226?h\276\227\271\242\275\263\362\304>\343\212~\276XU\271=-\217\243\275]\213\345;\214G\314\274\211H\252=\204LI\275b\352;\275\325Q\377=E\273\003>\304\314\222\275\233XH\275\231\021t\275\177\307\n=\370\372\226\276\220\032\346\274\301\367\014\276\000\240{\275v1G\2763*t\276\325j\304\276\2234K>y\016\362=\250{\274>h}\260\276h\244\037<F\2005\276\357\034W\275\367\201M\276\2246\254=\362|6=\267e0>\240\231Q\274\274\306i\276\337h\301=`&\257\275=E\347\275p\036\326<E\331\275>\014\307\232\276+\321r>+\200s>\303m\212\276\236~\350<kS\034\276\231\330\316=\247c\225>8\212\255\275\0179W=\232\336s\275Ml\225\275\r\304\r\276\346\255\300=\302\300\024>[\373\223\275\366\222\">\330\371\225=\006\033\234:|\2747\276\034G\210>\222\303G>\213\216\356=\370F\354==\317\241\2755F\325<`3\237\275\331n\302\2757W\323>\016V\344=n+\372\275k\367j=f\231|\275\302\177\365<\007\332K=_\343\272>\005\020\267=\257\302\035\2763_x>jk\326=\036\372\267=\273~n\276z\'\304=l\'\240;jtn>\3319I>u\212\177\276\264q\203:\304KR=\t\226\231>tXg;\231\014\342\274I\206\213=\375h\263\276|\301Q\275\246X\222>\365\036Z\276s\030\220\276#\317\"\276\033C%\274k\203\203\276\270\271\031\276\211yJ\276#\322K\275\247\244\201=\036\271m>\024-\267\275\302\275\247\275\004\262s\274\272L\214\276\032\303B>\373\346\335\275m\256 \276,T\256\275[\265\372\275\220\320\213>\360}\317=\020\216\206=\006i.\275\372\347\241\276o\226\207\276N\227L\276\334\207\'=\004e8>\376\3141\276 h\233\275\335F\267\276\206\tp\275;\316\026\276\235j\030>\326\017\353:\273C\213<\220\240\236>\224\254\243\276\343\250_\276\274\306\177>6E\021<\ts\030\276\210\352\304=\331\366\200\276\335\022f\276\271\306\232=\362\372\322\275!\000\204=\374@p>\3535\237=\327/\002>\216\307p\273\214\272F\275J\370->;\305\267=\375Nx\274`Kx>I[B>\007v\001>\232\236\312\2753\215h\276\247\367\'\276\032\331\333>L\303\233\275\"\317\320\2759\241\273<\001 \031=-\207\254\275,0)\275\366\2359\271\200\210\023>\266}\245>[\022\027\276+Q\204\275\335\215i=\307Z\036=\344A\345\274E\335W\276\212\021\237\275\016?L\276\034Bu>[\031H>\001\262\363\273\\\374u\275\330+L\276?\201Z\276\373\267C\275\340\256\257\276\013\237\377\275\266\364x>\030iv>\210d\273>D\244\035\275\022\025\236=M\177$\276\307\r\213\275\315x\022\276/_\344<\266,\312<\301F\272\276\245\376\000>o\214\301\275\304+z\276\020\323h\276\251 -\276\200Qx>0\":>\247|\275=\3338\311=\004\302\366\275\322`\200\275\017\337`\276\022d\222\276\331\225\344=\303\260\332\275\325f\306\276K9\304<\215\372\312=i\326\361\271f=\023\276\257\261+\276\225e#\276\3411\223>\366Tt>\330J\231>\225\223\340\275?,\224\276\371% \2764\212G\276\311\027\303\276_\3014=\203o\221>\317\000\267\275|n9>\245\301\225\276$(\216\276\325\2334\276\314\245U>u%\312\275\0215\"\276\251\222\247>\0063B\276\220Mv\276\356H\267>\257E\205>\243\224x>&^\023\276\263\026\326\275d|\302\276Q\347\274\276Q\352o\276kh\255\275\232\273\222\276`-\235\276\347\265d\276\355\275`\276\036T\303=v\303\212=\216\020\231=;\027\374\272\205\004\215\276\362aV=\000\355\220\275g\022;>\361M\317\275p)\014\276\224\230!=\225\202\030\276:\335\244\274\253\226%>u\227P>A\317\206=X\n0\276\352\272\343\275N=\204\276z\350:\276\355t\253\276\336,D\276P\375%\276\266V9>\2727f\276\206\275\375\274ldh>\353\211\222\276\371\216,\276\351\341\321;\r\261\203>\212\306\021\276\346\270\246\276,\240\">\375\370\363=Mf\244=#\0024>c[\023>\224\317\241;]\306\257>\276\374\260=\2021\'>\3277\257\275\224>U>\325\265d\276_E1\275\351\tx>\016\245\223\275\323\336\301\276Ns\341;\342\211#>\361\277\214>\206\374\221\276\025i\330<\022R\352\275\013 \005\276 S\374=bO\026\276)|\232\276\360\304\221\276J\0361\276/2U<\302\365\005\276\n_#\275\310\351\370\275\344*\211\276i\266\242>\341.\254=m\017L\275#\331m\276\254r\304=\215\336U\2761\t\n\275\221L6\276\334\203}>K\3139\2766\241`\276}\272\261>\302\031;=~0W>\365#/\276\246\304\264\276\310+\016\276\335\261\374\275\272]K\275a\200\366<}\330\014>`Y\363=\313\371\216>5}\323\275\372d\224>\326\342\243\2763\252+\274\313\264\324>\026)\246>\373<\032\275A\036\252=\331\363b\2765\360\342\275\206\023\033>\0222\034\275/+5=\263+\026=\340\026\251>Z\225\312=:\252l=\341\346W\276Hq\251\276\352 m=9\223\000\276\177X\324=\234\276\262<e\231)>\001\242]\275\313\360\246>bCF\276r\230\235\2756\250\212\276\315\225\033\275`\2667\276\000KI\274v\\7>u\246\020\276\244\'\310\276W?\375\275[c\002<\243Q\222\275\344I\261=Q9\037\273\026\254\300=\370)\210\276\244\177Y>:~\211\276\245(\204\276\200\211\222\275\340\2234\275I\323\016\274#\361\326=\0360<\274*M\232\276#\234w\2727\177n\276\336\236\274\2762\023\024\2754\365|=\254\360\347=\314=\320\274\252\202n>\\M<>\024n]\275)\225\032>\237\362\320\275\247\021\211>u&`>a\2212>\001\266\204\275jLj\276\344\273s\276\n+ \275\241\277\341\274\310\230J\274\201\034\263\276\022\205\251<(\222\020>n8\017\275\332\3727\276\251\324\264=Ba\275=\242\031\233>-X\370<\351b\037>\212\023\333\272\303y\202>u\210l>\253v\247=@3\037\2765\0210>\014\353\246>f7\224\276dV\237;YP\267<\375K\235\274\223\276\020<\255\336\245=^Dw>:a\236\274\3576`<\263\004\226>6?v\276vi\307\275\250\240\007>$H\242\276H\212.>\257\025\227\276\021\204\263\275\311;\214>\265\333\235\276G\207\377\274:{\247>\343*\241\276\202\247\024\276\005wv=\274\267>\276B\r\360\275x^\021\276M4{>3;\226<\213\343\226=F\201\002\276k\263\237>\032\"\272>\nd\213\276\306,\245\276\333\350n\276\005{\213=\247\226\237\276B]|\276\300N\236>\007\t:>\317\344\306<\340\235\030>\3770\376\275{\026\227>\310\245\035\276\257V\225>\002\317T\276-Qh>\271k1\276\313\350<\275\205 \036\275\310@\210\275n\223\004\274\215\322\234=bf\344=\234\225\270\275\013V\357\275r\004\255=\361\304\321\275\331\250\313=\215\001c\276\272\345\363=\023\244\325<B,\272\274\352\232\341\274\265a\261\275h$!>\327\307\235>\266\3142>\333sD>~\331T\276,8\220>B\005;>\343\023l\274\250\270\010\276\n\233\300=\nOX>)\316\251\275\224\320,>\203(O=w)\321\275\030l\003>\301I\373\275k)\326=X\0132\276\016\205\250=\225K=>\355\003\246\276\253x3\276C\0319=r \001\276\263\341\226>:\251\251>\361\202+<\245\354T>s\272\214\275\001\375\352\275\0352\217\276\017\316\021>\260+\017=Z5\004=\335\210\237>\346Y\231=x\036\361\274!\203\211>\256(\222>\204\235<\276R\342\270\276\356\013S=\312B-\275r\327\277=\216\023\346\275 \0315>\201\213a\275\236I>>H=\025\276\317\216\234<\360L\236\274m\003\342=\034\022\201\276\2767\210>\261ZY=\357\333\351\275\245;\347=\313V\304\275\334Js\275\357\304\240\276\277,\263\276z{@\2761\024 \276]\201\214\276O\n\331\275\266\222\357=\211\312\343=\0215\270\275\346\245\">~\221\007\275v\246\251\275\310\226\221\275E\253\376\275-/\177\276\351ci\274k\226\354<\316\337\351\275=\024\221\276\020\342\226\275\211\251\252\276FL\304=Gy2\276L\204\314=\352\t0<\316F\354=\356\'\300\275q#\370\275\352\301`>\355\300\210\276\316\362:>`\017\253<f\355\026>{jP>E\274\254>\007\026[>Q\262\030\276o\316\031>AwJ\276\374m:>\357\337]>\022/\217\276\0001R\276\223\237\361<P;\211\276\274\342\036\2769\016\027>\005\222b\276\245h\r>0\005\316\275\005\302\256=L\"\340=s\246\267\275\310\"A\276\034\210\221\275+\361W>\212\351s\275\301\376\204\276\021@G\276\230\241\217=\215:\031\276R\353\202\276c\254\205>\2554\316\275A2E\275(-S>\302%^\276L\306&>V\350\255<\331\036\211=~\3427=F`\216>\323;(=\361<\030\276d\347t<\332\334E>%\327\320=:D\252\276\032%\303\275\344\007\332\274\241\304\273\275\275\n\331\275\002^~>c\3770\276N\275\240>\207\304\242\275\25102\276\377\024\n=\264\335s>\033$\361\274\023\022\236>#x\034>\220\314i=\020\326U\276E:\241=\231t\245\275v\345D>@\325<>5`5>\032\216\204\275\177\377\276\275\323\253\361=\353\376\311\275\257`\301\275\244\304W>\346\235\274=\356\t >/\025\365\2755\337\313\275v\342\026>\362\022\365\275\341\302\277\2757&\'\276\'h\207\276\213\260\251=\372\274F\276\221\341J=\205\345:>\304r\332\274\003\322.>C\347M=bn\263>\251\030\002\276\021\233\312=\342\375\366=\206ef\276\347\304\223=>\003\265=\377\376\037\2762\225V\276\261\341\256=q\226[=\216bg\276\\\211h\273\347\352\022>\225\370\211<\005\3071>\322\036_>!\3721>O:/\275\240\255\243\273\234\210\351=\027-\025>-\317\267=Z\032\030\275;J\027\276\360\353I\275\265\320k>\215\203N\276<2\343\275\343;\217\275\222\2441>\230\253\024\276.\325D\275\341\255\217<\037\004\000\276\211r\323=\\75\276\220\243w\274\256\221\265\275\367\361\006>\014!\002\276u\nn\275e\231\254\276f\200\372<\233\312\325\274\":\026<\264\363n=\204o\254\275\260k\327\274\262\230W\276\"\220\221\275\034\336\275=\\{\367=\344\3752\274\302\237m>q\372\233\275>HB>\275z\215=C\000t\276E\340c\274W\321\246>!\205\217>,m\250=\317\263\240=<sQ>\226\t\276\275\216\365\232\276\321\230]\276\3473j\276\035\206\271\2752F\002;\004\337T=\024\322\022=\306\024\272\275g\252\010\276X\350\271>f\252\302<O0\264<\234\264\243\276\032m\260\276\336\314\310\273\242~\217>+\227j\274^\353J\276\253\320m\276\007\276\035\2762\261\340\275/\317\215>\260\305\250\275\277s\315=\333\021\223\276(\027\345=\274\371\311\274L\267P\276\220\247O\276\007\334\207> \021\324\274Z\236H\276\026;p>\245\235\212\276Ql\231=\304\033\330=F\007\270<S^\371=$\242\210\275Su\n>bm\027\276\025\177j\274\222\216\200\276(\365\310<\352^\247\275\254~\017<\225j?\274\035Q\004>\334\022-\275\315\343\312<\374\266\266\275\030\247\364\274\004\343$\276\206\255Y>op\337;\363iK\275\355\270\000>\377@\374=\264\272\311\274{Q\252\273Kl8\275\377\307\241\275\343!\314\276\253C4>\024a\215\276\301l+>\231\240\226>\345:\251>\354\211\255=/u\212>\340\226\026>%@\206=)\007\325\275r-\244\276\n\354\177=\214:\337=\301\365b\274\033\210\300>\255\341->\220\323\261\274\003\327\307=\321\260\004>u\372+=\003\030\370<A\357\276;\\\326s\276b7}=\362A\305\276\034`\247\275\312t0=8\006\023=]\267$\275\035\272\006>-Y\354\275A\366\r>\337\032\372\275\332\360\030>7\3013\276\233\225\315\275\205\241\016=\255\r\r>\013U\263>n)#\276\305&\314\275\341\321\274<\343\025\252>e\263z<\326\364\263\276;V\214\276Tv\021\276\272\2414\276}\331\225<\243\203n\276\3329\237>2.\350\275E\346\355=\\s?>\344\250\032\272\276\032s>\330A\274\275\311\251\214>\235\304x\276k\317=\276\340R?\276s\274&\276T\367\007\2766,\212\276Fz\262\275\2332r><\324\273\275=\343\\\273\246\t\021\276$\363\030\276P\0172\275\207\265\277=\0074\215\276\217Sl>d7#>\323\375\351\275t\310/\276<]\247\274\231\020\022\275\233b\247\275\007\310\213=\375\370\262=\t\276x>\246\306\276\276\212<\314=m\303\342=\376S\331=4\370%\275\360\220\004>\246\255\'=\327\001\231<\342\221\241\275\277\230\357=\257\244\313\276Y\316c\275t\242;\276\270Z\260\276\242\303K>Y\373\274\275\227P\260\275G\305A\275#\311W>\243^\371;9\025N\275\230\306A\275)`\242\275#\221\211\276\204(\327=\2713;\276\253\232\021\276\304wh\275AR\216\276\204\333\213=u\177B\276\256`\265>\343\205G\275\351\356A>!I\031>\305\331K\276\002JV\276\rs\010>d\360\232>*\341\027\276\310,\310\275\375\013\220\275\004*O>B\263S>\341k)\2769\315t=\017?;\273\370]\245=\354\301\264\276\342\321\006>]\311\t\276\304.!\275x%\347=S\232\255=v1\033\275\373Y\240<\235S\245\275\317\257\273\276\333\277\277>m\241t\276\327=U\276P\264y\276\025\212]\275\271as=\364\345\271=\032\265\315=0X\247\275M\213+\274\0223\334\274\312=\220=J\243\020>\345A@\275\366\332.\273k\240\347=A\220\201>a\315C=\331\004\277=\252\204\342\275Wk\213\275\277\306\245>#\337\212>\347\267\252<Y!5\274\355e\274\276\301\006\226;=\273\013>\354^J>\001\026Y>\201+\261\276\206\257A>\253\024\244>~\027\017\276\221F\216\275\344\341\"\275\007\201\017\276\000\305\023\276\346\272\014>\001\\\273>\3053\256\276z\265r\276\225\315\205\275\347I\016>,Q\322=\211?Y\276s\200t\276ax\227>0\350e>l\371\346\275J^\205\275J\346\217>\324\255H\276\240b\204=\023\336\030\276\335\323\210>\345\323\350;\210\363\272\275\\l\206=\200\315\013>Q\226Q\275\377\345\257=V\276\311=\246=2\276r\306\354\273\206v\375<J?\273=u\322\301\276\220\235\216=\2354\213\275Y\3609=\2602F\276\t\363x\276I\355\326\276X\353\206=\205\356P\276\032\222\276\276\247\315\225>\026\024\360=y\341\016\275\355\302\313>i\305O\276\323\016\017\276\374\370\377<\376Zj\276\230\3719\275\272\271\020>\260\006\204\276\222\036I>T\364\231\275\360\351\361<W\241\233>\'Z\203>\200a\263>2\214\233\276W\022\024\273e|\n>\371\202\025>cO\\=\000\022\235\276g\265\326\275\257\002\310;{\000\036\275C)\035=L`\023>\205<J\275\313.0\275]\227n\275G\240\037<u\335\317=\311\"]=\330P\007\276\005\324\277\276\201T\344=\354R\"\275`T\031\276\237\220\032\276\360\334k=x\222,>\215\347\003=\331O\272<\256\306<\276$\255d>t|\246\275EE3>6R\312>{\312$=\355\331\274\275\351\270\006>\250~\307\275$\265\231\276\322S$\276\n\233\013\2765Q\317\275m$\247\274M\252c=\223\265\204\276\324\234\317\274\264\025\034>6m\202>\337\303 =\025\254\"\274|\222\302<\365#\357={P\272\276\364]\260<v:,\276;1\t\276sN=\276\337\024\227;\300Z=\276\364\232\271\276\243\2624>\240\315#\276\366,\302\276{\253f>&\017\022\276(S\315=1W\271>\025\256\352\275\353\266p>9\261\254=\364^\230=\273\317\346=\220\323K=\342\022\320>\366\202\273\273\020\306\366\275Q\377O=s9\004\275\354v\020\275\201\246n\275\375=\337\275g\'\200\275\014\276\037>\023T\223\275\030\362o=\324\344\202\276l*W>p@\010>Z\000m>OV\311\275\253\030\214\275\322\035\214=\316\320\316=x\260<\276\343\004\017\276\016|$\276XaV\2768(\251>3\310\361\275*\212\214>\207\030\303\275a\013\033>(\271\201<a(\257>\032\311\035<\006\333\317\271\225K\232=]u\">\262\202\366\274D\3121\275\310\371W\273D\031\314\275,\3426\276\231\366\226\272J75\276\224\037\034\276F\242Q=\2778\263=\310/q\275V\265\275\275\322\025\260\273\203\020C>#^}=W\247\220\275q]\253=i\326m\276L\361\001=t\2505\276\272\035\232>\301\240r=\250\244\244>\200\246`\275\230\335^>V\375\023\276\243\223B>\0357\t=\272\351%>\303x\242\275w\224\257\275\267\321\241>4?\344=\035\2702\276x\305c\275\177{\252\276\010+L\276=\332P=5\006\316\275S-\235=6\320K=\355\222\210\274<\257\251\274G\203\022\276hL?=\214\362J=\032\n\361=\372\346X>1;v\2768\000.\276\357\324\363<M\256\370;\265\'\227=Z%[\276O\210\211<z\037\\\276\010b\256=q\316\227>?\240\003\276\310t\000\275\363k\222\276e\362\326\275\342ft=\206\351R\275\367\345u\276\250\025\235\274j\355\200\275\376\031\324\274\203\374\246<<8p=\353\0362=\377J\220\275\t\247\302\276\301\243g>\314\311/\275\367\233A=\t\235\317<\213{\301\276\254\366\241>\317\313\350\274\023\333\006>\324\215\374<\212\024\212\276\314u+>\360\301\031\276:\0131>\331\035U\276M\236\313=q\332\323\274(\205.=\250\273\246=\002C^\276\353\367\316<0d\032>m\261\205\275D\240\202\276\206\346\261>\217\310\306=\323\257C>\314\343\365=\273\275\364=\211\343N\276\227\320\235>{\323\022<\023\022\274\276\362o\262\274X\346\263\275\244\267\374\275\340\331\3408<\317\223=\336\3566\276\373g\235\276\255\271\222\275Z\320\007>\355\232\245\276\023w\016\276\360\215\370=o \262\276&\211_\275\232\032\322<\030\016\254\275\260uw\276\375\026\247\275\361\307~\276\315\006\322\276+\236\312>\001\177\223<\246x\013\276\353\361\327\275\220\355\252\274+_$\276r\002\207\2755\023\242\276\3267R\276P\271\033\275\367\200\247\275\014\272\372=\031\365\234=^|\302<\307\323\315\272\277U\022\274\252\354\311\276\360\220c>[\273?\276\350\212\257>g\336\312=\003\177a<\302\375\221=\341\211\003>\367\277(>\303\021\256>\304\007\274>\257\002\200=\234\330\030\275?Vs>X\374S\276>\200\223\276?\026@\274\313A\250>q\375\366\274\206#\240\276{\225\275;\272\371\024>\003(\016\276?\264\224\276m\270\204>\223\017\273\276\212\327b>j\\\245\275\034m\256\274H\262\303=\216\263m>\025\020L>\276\031l\276:a\327=\r6\\\276#\027\363\275m\023\212>eIf<^\226\266\276\002\010(\276H\037W>/\221\231=\347\020\340\273\376\315\267<\374\2410\276\3765H\275c\311\303\275\003\332K\276\320>\t\276\276\005c>\342&E>\300`U=\257\2378=_Z\014>\3229\333=0K\306>\026\177\217<\177\210v>a\"\006\276\311(\231>sU\225\276\212i1>\002\230\221>Vh\342=7\232\261\275\231*N\276FN\203;\346\357i>\022Y\327\275\221\371\272<\253U2\276\230k\256\2764\363\205\275(\n\353=1M\030\273\366=]>*X\253\275\310\207~\274#\023\245==\225@\274\226\037#=Y\377\321>\031\034\263=\225\'T>\210\337\032>\215\371\325\276\007\363\260=~\027\207=\210\303A\276-\265x\276ce\016\276\366\360\033>\277\355\370\274\0333\353\275I\201@\276CR\312=\23354=\022w\253\276r\343\313<0\336 >d\307\201=a\320\202>\203\364\200>\000^\201>g\261C>\027\t\250\2755\271F\276\355 \215>\262\366\214\2764\241\025\276y\027\202=g\300\222=\243\005\314=\333y\315\275\035\376\237\276\361\234\222>\300\377k=}\271\010\276\014K\341=Mex>\324\232\247>\347k?\275\314V\210\276\355*H\276B}4>\351\252\203>\006\202\200\276\324\216d=\274A\217=\315y\263>\236\344\207=P\2766=&]\235=\014\332R\275\312\336\257\275\274A\305>\027\035\211\276gA!\275\re\032>\314\266\340\275\230\333\312\276\225\316\n>s,\335\275S]\230\274]\n4\275\370]i>\307\033\346=+;\001\276\'7K\276j\346\200\274>w[>\007{6>\221\274\360\275\025 \235\276\322\'I>\035\375\007\276\243\262\031>\241x\204>\341hJ\276\303\365:\276u\325\241>{\005F>i\217\332=\n\325\342=\376i_>gC;\275I\345\032>\004\246B\275\324\366I>#O\366\274\002\026\006\276\037\315\333\275L>\200>G@\262\276\207/=>\266\235\224>\337\254m>\316[F\275\210\301\203=\310\337\177\275\032V\320=xj\021\276\323\322\207\275\203\260\230\275\340\350\221\274?\005\001>-\236N\274*\031Q\276\264\232\234=\203D+\276\035\215\351=s\204\004\276B\357[>\337\376\226\275\r5\300:\006\025\311\274\212\017]>?\352.>\303\325\014>\000\233%\2765\351\263\2767\0072\276|:b>\354\327\215>\275\3550>\217\367=\276\333\262\303=\370uI\275\346\310\207\276\t\302l>\371\005\334;\364\372\205>2\377\255\276\260\033!>sOX=GSK>\355\334\254>\241H\262\273\274\212V>*ww>t\003\274\275A\315l\275RO\232\276\215\313\177>=\255\001>\312\233x\274\007\231Y\276\226\330k>\n\0061>\365\331==\223\3335=r\245(\275/l\256=\306\006B>\243\337\216>j\0331\275\334\017\003\276s\311_=\233\034\246>&\032\225\276g\236\013=6\366@=l\206\212\275_\375U\276\034\233\206>ox\027>sAG>\"zW>\341\375w\274\363\253\373\275\3149r=*\312\t=D\033\312\276\241\251\036\275\3610\026=M\252\201=\337\363\005\276;r\307>\006t\024=\233\007\234\276\320\206M=G\335x<\264\230M\275\3437\201=\027\274b\276j\243\261>3\246\276\276L\024\022=P\322\370=\352j_\2765+\367;Z)\252<\035\322\325=_\362:\276\004S\205>os\236=\376\007\033>\031Tf\2754\036\202\275\251T\007<%)\227\276>\221\361\275S*5>\361\333\035\276\302\260X\275\260\263\003\2767\025c\276\363\324\006\276\000\361\010\276\344\215\020>\354e\256\276\247J\017>\326=\367<\216\211\252\276m\351T\276\240w\310>\246\343\002>5\014\237\274\351\275:>+\203\036>\201x\033>\261(\255\275\236\347\032\276\205N\034\276\002h\212\276h\334\313<7C\212\275\327\177\010>\276\362^\276\251\"\341\275V\010\005\276D\356*\276+\343R=q \274\274\333\347\257<\013\362\201=i\231\016\276\\u\247>\321\321\032>F\030\304\275X\262\207>\336u\231=Y\345+=\031]\312\275.O\325<\270\374\230>\204\211\246>J\177\246=\313\344e\275\304\366d>\232\2564\276\266\373#>E\362\214\275\304\302\034\2768:\025\275\300_\235=1\004\211>\222$\202=UM\366\275\360\255\215\275\342\257\216\276\325\316\220\276g\324\370=\017-\003\276\377\000\304\275Va*\2759=\177<\034\322\243;\236\272\203\274\037\203\212\276\245JD=\262\327\252=\203\205\306=\302\3117\276\361\270o\274\225)\212=\360\013t>qvQ;\031P\364=\367!\300=Q\000\327\2751\035\247\276\271\032B\276l\277a\275\014/}\275\244\323\356=\207\232\272\276\312m\234>\274\215\247=\330F\213>\354+h\276\007\373\036\276\322\214\026\276Y\322\332=\227-\301\274\317\200\210<\351S\302=\016\317\247\275\220Gh;\202\354\013\274u\247\207>(\206\001\276\273\205p>\314\220\236\275\016<\270=\307/\247\273\262=^=\233\017\'\276\375\324\\>\033\350\032>\330\325`>\0308\222\276n\030\312\275\r\211u\274:\243\210\276Z-R\276\242\271S>\313\300t\275\356w\\>\243\0208>L\357\004\276\226/\244\275\001\3249\276&\216<\276K \227=?<\344\273\262\267$>\010\372U\275\022\332\210\276\"F\310\274\254,\250=\361V\005>\210\364\334\275\3749\233>Z\257\202>\215-\354<1k\200>\372\250\233\275T5\315\275\313\352\254>>\315\216\2768W\250\2752$?\275w\306\224>2\315O\276\026;R\276b\217_=\205\363\021> \350\266\275\223\333P>\213\007\301\274\032t\253\275<NO=C5\200;&\370>=t]*\276\210HG;\310Q\236\276\221*\360\2751{\'\276\334\037\267\275R\003+\276\3249%\276:{\224>\315\022D<\213\262\320=xB\232\276x\316\035>\364p\240\276\030\275\324<\314d\234\276HY\303=\207:%>X\034$>(\356\277>_-2\276\205\202\257=Z\241<\276\373#\265=\314\362\007\276\307\201t\275f\010P\276\'\257\n\2752)\233\276~_p\275\357g)>\356\024\216\275\007a\215=.\252\354=?\023\302=\351\t3\275\355D\203\276\352\310T\276\3730\250\274\314\362\316\274\273\211\255\275\352\247u\276\253C\234>\036&E\2765E\202\276\345\032X>\233\345\003\276\253\017Y>h\211\265\274\311\026j>\031\252\264>q\202\262>\231\334J\276q}\255>\236\331\"\276y\343\232\276\214j\305\2742\2174\274p\311\254;\r\204\210>\236hB\275;ga\275\252\337\206>\025+\251\276D\005\266=\035\363>\276\016\231\000\274pp)\276\272\312r>[\026\210=a\310_>+_\256\276\350\243\016\275p\323\224\273J\370\202\274\340\2237>\217\306\310=\356\033\226\275k\314\224>\200\357\240\276\032\273 \276\307\340[\276<\340`>D\352`\275\000\352L;\216Y\231\276\225b\n>\2542\301\275#>\215\276\002\\5\276\223K\n\276\345\2613>\275h\373=\314\301\246=,4\227\2766n\277\276\024Y\202>\204\032v\276\326~J\274\260\246K>.V\374=\301\327\335\275\222}o\276\264)`\275\030\002\350=\206\n\347\275\312\211\210>\211+\014\276|\250s>H\3157\276WW\262>\007\361\222\276\310\303 \276CeS\276\375a\221\276g\346\257\275\212o:\276W\'=\274\232q\016\276\261\273\231\276\323D\201\275\201\241\253=)8\240<0\347\003>:\201\n=]\262\223\274P\236s>\272\214\226=\351\037\023>\237\214^\276\257v\374\275\322K\312\275\366\377\357\275n\311+\275\024\226\305=\256~l>\337Y:\275P\271g\275Z/\014>\376\210\017>\271\265\221>\005\245\207\276\005\366\265\2753\313\006>\357\332\223\274\245\273\"\275\205\253\270\2742:f\2765r}=\376\341S>S5g\275\256\2564\275L/\210\276~\377e>\253\343\303=_k!\276m\261\\\275\006*\201<\001\227\207>\370\3647\276L=l<R\201)=I\000\362\275\346m\022>\023z\312\2768Zg\276=^4>\273$\341\275cZi\276\202\370\033>\250\277\202>\231w\316\275\332\243p>*w\260\276]\226\207\276\364G\203\2760\212W>Dp\t=\312\203\203<\217\337\000\275O\030\205=\207GU>\017\014y\275@<\\>\314(\247>\232\221\206\276\230XA\276\376\213\220=\324\204\211\276\002\304\247\275\202=\221\275\375\316\245>3\211V\276]\326b\276lKi\276\251\207!\275\257]\030>\212\017\243>\275}q\276\205~\270={\014\025\2760e\260\274\276\343\256\275\306\325\310\274\317\335\024\275\363\267\240\276\234\356\231>\264\374B\275%\366C\275s\372\n\276\274\214\206\276\356\332B>\327\364,=\313\270\322\275\272E\261>\375\2366>\262\354M>\027\213\033>\0167\307=LC\331=\3772\000>@\n\246=\331\302\034>\007\213{>\236\220->%ZB>\304\356\221\276\360r\343\274\325\t\311=.\252A>\250\267\340=f\326)\276/\275@\276G\003S\276\t\360\035\275Q\232E\275e{,=`\360\260\275J6o>\033\346\242>Z\276o>\001p`\274#\360\310=/6P\276D\0075>i\334<>\211\326\337\275\245\'\277\275&\322\001\276l\344\253\275\237\321\r=\017\245|>\2229\377\274\022\370\244>{\002e\275L\013\023\276\010\204)>t4\273\275\343`g=\363\216\006\276\221#\016\276\367C\340=\005\235,>\243\234\177=\233\321\300\274\366\310\237\276xj\244=\332P\013\276-e\027=1\226(>\277\266 \274\333S=\275\351BQ\276\254\264\314\275\010$P\276\005\246\275\274q\222I>\307E\007\276p`)\276\361XN<\244\253\213\276x<\243\275w\001\363\275R{\'\276\220\n\212\276\2269C=6\212\262>\360U\305\276tm?>\375^\207\275h\222\212\275\346i\255;\242$\333\275\376O\310=6\331\210>;\037\262\275\271\367\004>A\227\242=\002J\261\275\365S\305\275\\-\"\276\226\032J\276\205%|\275\315\355\t>\201\202\r\276X\256\216=\316\205\177>\nRY\276h6#\275\364s\244=.tp>\220\r\224\275(\004\361\275\027\\\336\275\233D\214\275\265\205\333={\003X>q\374p>r\347\211\276\376p\035\276\257\276\363=\344\240;>\\\232\030\276\271\264~\276\350#\005\275X2\306\275\261*\304\276\260\266\227\273T\255:>^\341\234=\242\264\230\2764\214\205>\027\001\002=)\252\223>\033\376|>\253\206*=\30728\2745\307\302=X9p>\364/.\275\020\023\233>K2\033\276W\002\362\275\207\361$>A\240\021>\"p\344\2713\336t\276\276\361\377<\355\356\213\276\305\222\301\275\341\235\330;.\313Z>\256\235:\275\t-\205>\331\335D\276\3032\031\276p\223\022\274\327u4\276`Cq=\224\014\007>\241\321Y\276UA\037\275\235\000y\2740\254\340=\342\n\223\276\022\371q\276\022\251\232=&\t\"\27635\331=&}\216\274\005\313\236\274\273\240\272\276\344\307\000>\262\307\030\276\334\355z>\036\332\360=m\272\373\274\222^G>1\330\r\274\037\n\">\205s\300=\001\225\304>y\025\217>\332P\013=g\304l\275\237\355#=\267{u>\324\013Z\274\227\314r>\372\234q>\014\002\362==O\020=\341YS>\301\214\342;57M>\350\232\004\276\037\317\344\273$b\026>O(\n=\335:\225\274\261Z\243\275\234W\272=\362\350\302\276FJ >\333q\357=\033\377\'>X\271\240\275_\210N>\r\2332=y\034\333\274\t4h\276q\000\227>Ut\200>\212B\n\276k;\350\275\030z\004\276\225\2160>\031\365A\276\376\247\241=O\236\257>%X\320=v\275\020\276\275h_;\334\032s\275\002h\243\275\341\303O><\327$>\320e\376\275\233!W>\364\202\264=\336~\037\275@\222\303=p\017\355=\250\335\201>TS\325\275\251j\001\276\313h\200>\212\277E>w4F>FIn\275\334\334,>\311i?=\31610=\302\006\212\276\233M\000\275\2648W>\231\335Q\276;o\312\275\226k\303\275i\334\235>L\020\030>u\363\342<\224\245\303>\256\2123\276\224\002k\276\037\2528\275\243\253m>\002\302\022\276\327c\225\275)Q\315=jh\233=r\350f>\334\037\371\275\323g\257\274\037\267\303>H\t\234=\320\177\272\275!\314\307\275\320\207\360\273w\002u>\346\252\376\275t\206P>\t\320\r=\212\333-\276\306oJ\275&%T>\317:\257\275\323\355\016>hn\273>\262\307\331\275\232\354w\271\021C\016>k\006\010>l.\256<\316)]\276\003\363i\276q\250><\021\256\216>\363L:>|\246*=.:\251\275\216$R= \356W\276\202L[>\254\331\365\274\226\333_\276\327\336&\276\025\213\277\276\332\343A>8?\223=\021L\227\276\016eJ>m\336\244=\355\375\226\276z\274\004\276\036\233\206\276P\374\245\275\225\"\034\276\334T\013\2764mr>\313\024\253\273\017]\315\275\246;\263>n\357\374\275\215\340l\276\"\250z\275-\256@\275\002\324\357\275\250H`\276\007\021}\276\271\244\262\275\242*=\276\337r\036\276n!\033\273w\020\375<W\2669\275\005\375~>y\364b=\305\322\343=g\216\305\275;\316\241>9\210\025\276\271\002\246>\335\300\211>|\347\264\276\306)`\276\004\260\022\276*\372g\276\302C\035\276\260\273\246\275\230\363\310\275\345\300\t\275\3655x\276\275_V\276\n\020\t\276aQ8>\247\254v\275\310\002\344=\005o\262=\225\302\203>P\231\271\275 \336g>\352\273\214\276\357\201]\275m\013p<\244\306\333\274\254\n\205=6\324\371=\341\023\210>w\233`\276L\3116=\365\233\213>\337K\371=;v\250\276`\014\267=\213\213s\276Y~\241\274\214\220\343\274\023\315\261\274\035\332b\276\3509\233\275m\\E\273\355\201F\276\235,C\275\242\277q\276\337c\233=\202qg\274?xm\276@\303\374\275\237\373y>\372\251\207\275\367\333\216\275\324\300i=\372\026F\276Hcs\276\267q\203>\001\035[=+\234\223\276#5\272=\355\001\277\276\010\"\201\275\367\006\347=G\217\213>DK6\275\315\t\026\275\361o\322=\2601\t\276\235\2332=\332l\325\275\254\025\262>\252\255\346<AWq\276Kq\017\276\323}U>\3030k\276@Q\267>7\332\335\275\312\251\234\276\307\353\266\275\txJ\275\030\224(\276:\256\221=\006Y\210=\211\327\220\276&q\276\275\300\200J>8\342\275=\323\003\364\275\202\231C\276\270Y\241>\202Z{=\267\267\252\275\217\367\362\275\203)\305\276h\020\313<Wo\343\274\275\365W>\035\276\343=\273AA\276\246\232\245>_\307\352\275@\014d\275*7\244>{c\230\276$X\215\276\224\016Y>\276E\006\275\010D\345=\227@X>\332\225M>\203\033\032=\260\003z\276I.G>dm[\275\361\321\240<r:S\276\367\001\007=U3w\274%\227\000>\302\351\016\276h\324\277\275\213\332J>\214\274O>\345{:\276C\371\310=,\324\204>\336\001\257\276\327\360K>\301t\203\276Y\302R\276cd1\276\332\025\000\275\317\355U=_z]>\324T\313>ll\016>\032 \361\275\232\004\302\275\246\331:>\216\210\265\275\322\3633>\274&-=\006\006->\353\214\206\275\202\006\016>%\177\354:>\275)\276x\025\232\275\217\026\206>\273\306\030\276\2403\2249\3427<>\033O->2\342\307=\361T8>\216+\335\272\222\361\245=\321\022\362\2750\007[>\254[\304=\3067\256>\240\371\244\276hJ\010>R>\200>\251(f\276w/\216>\324\030k\276\361\236t\276Q=Z>A\350\334=+\r\316\274\226\251\205\276\344\316\256\275\320So\2761\330\013\276Z\3539>\300\274P\275\010\311\200>\344~!\274v\270\n\276\n\252\341\275\345\320\204\274\321c\307\276su\210=\215A<\275\032\",>,\364\376;\313L\356\275\252\017\243=N\207\272\275I\315x\275\270\r\033\276f\213/=g\334[\275\024|\203\276\267\341\021>W\200\022=\372\275\342\2752Y0\275\tN\031\276[D\t>ln\220>\324!\352=\323:\013\276\034\206\361=\307\025\203=\361\264\252\2765]\271\275\322\036U\2767\024A\276$\032O>\2769 \276\007Y^\276\315Q\306\274`\357\201>\310\2561>\341~\202\275>\350\210\276\"\250\205>\334\367\211\276:\272\306\2751ac\275C\306\030>+\252\216=\341\366\265\276\277\344-\275\225\312\336=\023\025\201>\211\021\033=\225\260K>:Y\232\275\255\027\215\275\021\345\366=\263C\205\276\373\342\310\275\257KY\276\263bo\276q:\323>\353\241C=\317\227\r=\211ME=W\252^>jR9\276\017\223S\275\242\335\025>\n3\332=\316\215\243\276\013\270\227=\253(\235\276Pn\226\275g\016U>\243WT\276\217\035\217=\337?r>c7\304<4&\256>\210\r\346=\342\372\317\275w$\341\273\352\301\333\275\333\265i=\024\221\317=\215\014\270\276U6v=\3260U\276\262\373\007>K<1\275\240\266\210\274\316,x>\0029X\276)\275\211>g\230\315>\003&\310=*j\311\275\361\251\223>\377\211\264\275\217\003z=\375!G\276\345\325\210>\371\034u<\334\212b=h\303\017=\220\201\226\275xd\226<\362\340.>x\272==\026\262\035\275-z\214=\271\276\365\274j\235\356=\324\'\336=\025\023\264\276&\344<\276?\360A\276\373\361G\276\244\224\304\2753\234:\276\334\317\236<p\002\277\275\376\233<\274\036rV\275\345\361\021\276\005\230H\276\374\017\234\276m\247\"\276\222g\021\276V\010\222>C:\'>\030\n\230=f]\370=F g\2764&\010\276\260.A>\323\353\376:i\355$<jOC\276\231\031\">\274BW>\350p\224>\214\006s\274\231F\261\275h\337\371\275\246\346\030>\352\356n\273(X\000>\343V\264=P\235\001>\357fF\276\374N\245>:P\017>4Q!>y\316O=v\240x=6\177\016\276\241\316,>\277\245\305\276<$\210\276r\013R\276\342\337\177=cnr\276\t\027\001>\177\363h=\263\230\r>\253\004\270> \034\003\276\362YU\276\272\310\021\276\226B\036\276L\300\237\275\231S\236\276\276\030,\276\014\277\027=s\315\274=\220\026\337\274w\212n\275c\035+\276k\266\312\275\231q\302\275\037\004\237<\346k\321=Z\324>\276\370}\026\276Vs\266=s\026^\276f\343\305>\330$\242\2762\357]\276\016\306\330\275\222\333\377=C\177\337\275\371uM\276\267\262#>\240<d>\251N{>\343\243\231\276\374_\267\275$\032\366=f\030\312>k\375\035>c\201\365\275{J\203=\tO\343=\340^B\275-\203o<\314\372O>\035\275\230>\343\250\027\276\n\306\032>\n\370#\276\223\034_\276\025)\336=\010|\301=\206\213l\275\216\211\337<\345\240\001>kQ\\\276\003\2556\275\254C?\276\t\n)\276\330\3235=\232\326J>\377\365\275\275\346$a\276\365v\323=\342\331&>(\346O\276\245E&=\272H\236\276M\270\326=\030?k=O\371\243<\207@r>Erc>D\371\264\276\tg\220\275Q1\230=e\010[\276\242+\225>\"\002$=\205\320q\275\\$\025\276aqs\2763\257\343=d\361\220=\355j\224=N\254\300\275\374N\302>{(\274=\311\322\220=>\235`\275\006\020d\276\333\326.\276\260\363\210\274\374\177\"\2763\310\254>\367#\023;\206\322p>\222/\225\276Z\236\205>9\311\253\275\300\373\260\273\3522\221\276\2500\356=\231\002\304\275\036\245\321=\202\270C\276\356\364\244\276\256\340\256\275\242ud\276\340\233\233\276\333\265\262\275m\022->\2377\276\275\r\232\233=\220g\247\275\237\246\314<TQ\t\275x\344f>\307\320\205\275+\t[<}F\254>y\307\214\276\014\215}=\273h\014\276\375\227\215>\252h\274>c\033\265=~\'8>\030\374O\276\374\225\260\276Y\200\235>\025z\376<\213,\227>)\261\263=J\217\201\274\343\300k\275r<r>\357+>\276\t3\222>\211%\202>\361\240d>=\230\301<X4\204=\200:\201\275\354x\202>[\267\217\276\276\200a\276\002\033\220=CG\253\276\037\335\261=\241\365(=\256\303\242\276\231\026]>TL\026\275\354;|\276l\215L\276L\n\000\276B\261g>\372\271\377\275\207hf>\t\016\317\274\332a\275\274\330j*\276\267\305\250\276(\023J\275)\214\204\275\275\270\251=&.\314\274\327\334\032\276\375\217\215>x\366\372\275\366\246;\276\337Gg=\3053\315\275\345D\016>p|O>}7}\273\261\\K>\342c\217>\361\333:>\013\002\206\276\210^\276\276g]\270>\035U\016\276\201\000o=\345\216H=|\220\355\275\023\264\027\275Sr\010\276]\001\002\275m\354\005\276\"C\253\275\354\2332>\277\276e>Gi=\276\227\n\224>f3\032>mM\272\276\256\342q;Lb\250\276\177`\251>\366\343\204\275\253g\226\276\027\217\023>[L\253\275\210p\030\274\341\361d\276\276\230!=ADN\276\007\206p\276A\007X<\215\365v\275\205\256\351\275\022\0226>z\313\361=\261X\312>N\226\213>\314\340\245>PS4\275}\256y<\340\\\222\275\227\226.>\022t+>t_B>z~\'>\321\300+\276\223\254\312\273u\006\036\276`\023j>\260\177!\276\237\324$>\025E\372=h\343\262\275\362\222\304\276\333\330E>\n6N\275Q\255c\274\264f:>i\2728\276\004jD\276\000#\372<\021\024\005\2765K\210>\tUc\273\351;\036>@D\235\276\227\247 >%\3446\275<5\226=\365x\305>\261\177f\275\206\252\320=Nbv\275Q\353\014\276(>\006>v\005;\276\323\354\336=#/]\276\2727:\276\220=:>T\027G\276\035\376\271\275\230h\247\276\251\352n=\'\177R\275\354\325\006>\273\245\207\276\366\261\255<\275i-\276\252\276\207\275f\004\\>dn\206>Nc\017=\000\350Z\275\343\275\232=\020\330\312=I\363r\276r\020\227\276e\327\370\274\270\257\213=\272k\341\274\356\2123\275&\227\271\2760\240F\276v\027\177>\335\325W>N\304\000>\374oC\276\307VR\276j\340\211\276#\230\312=AmC\276-*\010\275\1774f\276\320\004\266;\270\302:\274hQ\214\276v5(\276\371T\251\275\373\224B\276^#\027\276\265\037\203\274k\275\262>9N\007\276\006\256\207>oK,<AT\262\275,<\002>\005\305\325=I\030/=\334vC\276\321.6\273v\224\020\276\265\261\301\275H\353\210\274\362\034\010=\273LQ=\345A1\275V%\014=\312\306\241\276\332\177\032\276\345\322B\276\336\265\257>\373\202P\275\264\253\005\274>\352\334<\323\253\317\275\360GH>]\307\177>\022@\030>m\360\213=\\\035U\276\2120\246\276\346\216p\275\021\036\313=\340\006\r\276Q\223|\276\'\327\001>f\201j\275c|\303;/\177\264>M\225\374=\231\300\r>n?A=\216u\317=\265\252\211>\"\036\300\275\3779\240\275\365x\247\276Q)\313>\252\241\021>\\\n\203>\234\014+\276\264\220<\276y3.\275\273,.\276W\244\200<\333H\217\274\350X\254\276\302ro><\025\220\276\005Hi\276w5\277\2754\243f\274\272JG\276~\272\215\276J4&>\340\342B\276S\251\026\275\021\332\033>f@\274=\037I3=\006\022\333\274\275\223;\276\350\263\341\275m\306\'\276\267\243/\275\340\351\304\276\367k\016\276\252.\332\275xXx>\321T\371\275a\344\227\276\257E\247\275\035%\363\274\222\363\201=\320bu>\\*g\275\\)\">\355\026\222\275y\244;\276\006\311h=\211\021\217\274)\243\016\274X\204\232\275\304f\261\276\241\215\203\276\035\255@>^\207x\276l\301\202>\260\211\313=\230\311\202>\325\301\303<4\352\272=1v\220\275\235\357\240\275@\226>=\217@c>x\020\350\275\312n\267<F-\236\275\365\332L\275\256\033\013>\3213U\276ZQ\032>\363\211\202=\313>\200=\321\326\033>\351\023\227>\027\240o<\014\327\245\273@\211\020=\231Db\275\350\025\312;]k\207\275J\303+\274]\376\321\275+\331\225<\310\204q=!\262\016\276\354;\313\276\366\005/\275\361c_\276\243\025\\\275s \213>\317y\244>\214\3517>\016`\247>\020W\237\2769D\302=\214\006[=\344C\225=\273tV=H\264P\276\307\366w>\265\356\232<\311g\036>3\3423\276\233\251\215\276\320|\220\275\344\370\323\272\336\014\210<\376/o\2751~{>\177\032!>\314\272\230>\251S\020\273\233@\261\276\362\210u>\t\ni>\025?\013>I4\213=\202\250[=\300e\177\2763)\220=\241\3375>\326\225\004=\313\032i=\262q\227<2\240F<B\3609>c\010\313=rR\263\2751\250o<\322\376\037>\206\215R\276O\230\256\276e.\204\275/S\271<\266f\306>QM\032\275\301\214\021\276H\357\222=\206\257\257\276\331\2672=\201\034\034>M,\202<Z\360\345\274d\016t\276V$\r\274\306\234\234\275[\366v> I\351\275o\024\271\2755|\242\275\333\231M\275\'\312!\276\236#\251=\205\0020=\306\033\'\275aW!>\010\377\232=jf\025>, \004\276\026\314)>\027\337\177\276\321\276\214\276\365H\214\275\277]8\275\260\334\005>\320\326,\276\362\335\337\2744\302\020\276\300\306\r\276\037\203\202\276\377\r\351=T\031e\276r\254\001\276\301\023\030\275l\221+>\005\253\271>M\377\224=l6\247>\216z\206>\275\367\023\275>+\207\275\314\366g\2763\275\304\273\257#\200\276\356\370\311<\rf\001> \221d>\223}*\276\2151+\2762\274\376\275\241u5=\271*\237\275s\'}\275\374T\007;\216\030\024\276\350SZ\276\344@\374=!\035\212\276\232H7\2751\312\237\276\277\001\207=`\201c=\272\377\356=j`\356</~\300=j\305\'>\006t\374=\372Zd>}\313a\276\211NW\276\024\304[\275\205N\253\275\270\230&>\304A~\276-j\274\274\205\300\335\275S\230\266\276\302\363:\275b\277\'\276J\300\206\276\007YH=(\025o\276\341\364\'=\036\272P\276\302\210,\275I\2674\275M\310==\014M\256\274\275M\244=@\364u=\366\362\312\275H\000d\276\301v\200;\234\306\240=\257\025\207>g:\255\275\364\0034\276`h*>\264\256@;\365\310\372\275\036\367\267>\353f\202\276\345v\030\276e\271\367=.\365\323\275s).\275\001\375\303<}\244 \276\364,\275>\002\2613\276W%\337=Z\255=\276i\233\353\275\277\025\270=\203p\033\2769\300Z\276\034\215\014\276\254F\364\275}\013\023=\274\017\357<\021\336\205\275*C\310\276_N\317=\030\275X<\3246\322\273\355\321:\275\003\225>\276\342\036\002\276\365\247\300\276,\374&>]\340y<e\022\247\275\270\215t\274\374Z\222=pd\301\275\347\277-=\3218\035>`v\200=Q\266.>\272\221\033>\224\\F\276$\034\340<\341\255J>\235[j>\352Q\277=\347\357\313\276\363\204j\276\031\005.\275R|\275>\374d\211\276\311\274\031\276\n\333\312\275\240\237\262=6\260\000;\254\326\020\276r\212\227\275b{\007\275"
      }
    }
  }
}
node {
  name: "dense_1/bias"
  op: "Const"
  attr {
    key: "dtype"
    value {
      type: DT_FLOAT
    }
  }
  attr {
    key: "value"
    value {
      tensor {
        dtype: DT_FLOAT
        tensor_shape {
          dim {
            size: 64
          }
        }
        tensor_content: "W\"z;>\242h<Mc\232<>C\324\274\250Xv<\2148c;\267\271\\\274\271\310\211<N\276\314\273\354J6\274J\371.<\365\321L<?\324\332\272W^\033;\204\372\227\2730\223\206<[\266\215\274.\317Z<u\207\201<\222\371?\274-\246\006\273\033)F\274A8U<\306tz\274,8\341\273\275\004\002=\206\213\265;\267`\326<Y\331\030\274E,\032\274?\334\204\274\347/\005<\334\364\327;\375Q\001\273\336\001\036\274\021\023\224<nL\251\273~W\022<h\3450;L\203\200\274\000\000\000\000)\322b\274\\\007}\274\023\037k\274\330YT\274\261\304\321;\226\201v<,9\330\273\314\367\031</x\022<e.w<\237G9\274\322/o<\303M\006=\335\275\244<\3336\t\273\346\330\205\274\325<\032<\365+\355<\231S4<\343~o\273\303P\036<%\220\375:\242\327\215\274"
      }
    }
  }
}
node {
  name: "dense_1/MatMul/ReadVariableOp"
  op: "Identity"
  input: "dense_1/kernel"
  attr {
    key: "T"
    value {
      type: DT_FLOAT
    }
  }
}
node {
  name: "dense_1/MatMul"
  op: "MatMul"
  input: "dense/Tanh"
  input: "dense_1/MatMul/ReadVariableOp"
  attr {
    key: "T"
    value {
      type: DT_FLOAT
    }
  }
  attr {
    key: "transpose_a"
    value {
      b: false
    }
  }
  attr {
    key: "transpose_b"
    value {
      b: false
    }
  }
}
node {
  name: "dense_1/BiasAdd/ReadVariableOp"
  op: "Identity"
  input: "dense_1/bias"
  attr {
    key: "T"
    value {
      type: DT_FLOAT
    }
  }
}
node {
  name: "dense_1/BiasAdd"
  op: "BiasAdd"
  input: "dense_1/MatMul"
  input: "dense_1/BiasAdd/ReadVariableOp"
  attr {
    key: "T"
    value {
      type: DT_FLOAT
    }
  }
  attr {
    key: "data_format"
    value {
      s: "NHWC"
    }
  }
}
node {
  name: "dense_1/Relu"
  op: "Relu"
  input: "dense_1/BiasAdd"
  attr {
    key: "T"
    value {
      type: DT_FLOAT
    }
  }
}
node {
  name: "dense_2/kernel"
  op: "Const"
  attr {
    key: "dtype"
    value {
      type: DT_FLOAT
    }
  }
  attr {
    key: "value"
    value {
      tensor {
        dtype: DT_FLOAT
        tensor_shape {
          dim {
            size: 64
          }
          dim {
            size: 64
          }
        }
        tensor_content: "\236U\210>\037\302\326=\002\250&==\220?\276\236\025\265\275\277\306o\275\2217\240\276\367d\001\275f\361$\276@\242\250\274u\021\370\275\031\374\036>\346jL>]A+>\351\313\313\275}S\005=\364\177!\275G\363\344=\256\201H>d\001\200>*\250\230\276\315\332T\275\273\032^\276x\327\017>\\\304\344\275\314\335&>&`B\276\211\036k>r\210w=\235\277\206=\017/-\276\252\024\304\275\215v\247>\006sr\276\232\221!\276T\325\242>5\230\227>\347\037\231=\001\212\215\275\345\254B\275\225\257\302\276\\\r\341=\3143->c\332#>`\032\t>\202\266d>\374\256\247>2\304\224>\306\372E\276\371\270\337=\324?D;\031\311\275\275\246\244\305\275\177\246j\276\265I\371<s*r=\335\203\217\276\326\272\302>q\031\337<*r\373\275\374C\230<5\307\220>\365u\t>\262\262!>\367o\241\275;\200-\276\255\n\252>\310\220\267<P\222e=\315\225\n:\"\335\\<\303X\203\276\233;T>\361ZP\276*\356\214\276\034 \372\274\327\205\367=\200B\r\276@,\014>\347\262\007\276Z\350W\275\326\255X\276\006U\375<\253U\023>\320g\037\276\2649z>0\234e\276\261]~\276E\3346>\255)\255>\364f\217\276x\337\366\275K5\213\275\025\030\014>\034\241Z>5]\254:\327\306X\276[\2334>\236\\l\272o9\305=+\241\033\274\310\227\243>M\3768>\265\363\222\274I%\005\276K\236\262\274=\033\007\2766Gz>\357\236\245\276c\316x=\370\262\224\275\314\340]>O\276\261>W^\223\276M\365@\276\'\t\250>\0107\301\275u\312\270=\242\205\n>\365\\\223\275\226\1775\276\364\017\257=\247x\211\274\263\020\202\276\253\323\223\276\327\252n\276]$\034>=\226\350<\001Lj<\233\227R=\373O\206\274\323\311k\2753\357f>xx\275\276\322\025\251\2753Gr>\246\245n>\231\254\336<\210\n:>@Y\210\275\021\366\373\275>\007J=Ys\013=\312\0348\276.\217\344=\205\274\325=a\352d>,\333\270=\342Nv\275\275\221\347=\203\213\350\275-x\330=}\314\316\275\353\\1=e\210\263\276[9\211=\313\370\267=\301&.>)n\266>\017L\341<\354\201V\274\356\311\314=\346\357>\276\374\363\016\276\240\023\035>(\256o\275\241\213\324={\202\021\275\026\2078>\217\367\205>\022m3=\350\256\246\2755\252\276\276\010R\207>\363_\241>A\324d=\212y5>\363\225]\276\227\024\243\275\227)-\276\332`H\276EE`\276\372V^\276\256\336]>E7\326=G\340\202\275*\346A>w\306\002>\242\343\240\276\343\373\240>T\022\231>\315n\035>\241\355\002>\345\356E=7\223\252\275\326\233\240\276\014P;\276\365p\264>\016u}\276\0340\324\275\235\013g\275\t\305\217\275\025\335#\275*\277:>x#R>\315a\207>\262*&>\226\257\251\276\'\370\031=\314\025\206\274\305\342\270>\277\034\355\274\006^^;i\361\036\276\217\205\010\276\035\224\010>\277\341}=!\275Q\275,\342\025\276J\303\273>\241r\225\276N\n2>\305\026\224=\376\311\273\273\031\300\301=2\262\341\2741J\312\276\256\371\227=5J#>\213\204\326\275\305\241\337\275\236\363t\274\353.\221\275\356\225\213\275\256\261\244\275\224\214\304>\377\371\000>|<\351\274\005\271E>\342\321\255>\207\271i\276X\220\220\276\253\374p\276\242OO<[\207\205\276\244\010\362\275}\307\357<V{\n\276v*\332\275%\361\037>\201\340\370\275m\307\220\276\210:A>[-S>\215i >\350R\255=$c\026\2760\320\013\276\347>\206>\266\021Q;\221\n\311=\275\037\271=\333w\231\276\267\355,>y\344;\276A\014\">\206>[\275!\005\303>(\027f\276\225>\260\276\314\203$\27629->\236\254*>[\320\306\274\371\271\260\276^\244\266>\375\010\252\276\017u\272=\007J\350=P\331\207\276\343.S\275\237\000\030>y9W>\220\347Q\276E\314s\276\t\263\017>;tj>?/\310\275\276<7;9\234\214\275\034\205\'>w\224L>v<\234=z\210\214>\366\230b>\216\002\003=&\010\263\276\344pL\276\007\002|>\212\312\037\276\315\320\031>\275\010A\276h\036\202\275\366\352\256=T\207\267\275$\325\016\275\032]w\276\205\223\231=\327rP\276\270wi>\311\0134=|Z\211<j$4>\300V\033>\245\013\201\276r<@\276c\354o\276\305\264\264>\327\t$\276A)\357=x\301\361\274Y~\224<\\\347\034\273U\365g\275\336\255\246<%\037.>>E\300<\317\3404\276U\3778\276\023\315\270\275\214\223\301=\366\001\007\276Cw\026\276\207\024Y:\332\331r\276 \033z\276\027\241D=*\n\227>y\302\001=\037\342?\273h \311\274\271\236\231>\320\036/\275\237\021\222\274\210:\310=\n\177\323\275.\324;>i\031\222\275\353\343\036\276=av\276\256\261;\276\036\267Z\276\323\243\316=\330hB>S\311\r\276\254k&>\370\n\214>.\261@=\243\365U=]\0031\276\3034\370<0by\275\253\212\260=\362\314\247\274[8\305\276\307\316\331=\273\225\226>M\324\337=\271\203t\275{D\033\2751 \204\276\254sq\274s}\343=s\t\261\276\252U\334\274\034\257\350=\227\275\034\276\212\361\232\276\274fq=\252kT=]/\277>r)\335=J\305\311\276\204\026\200\276\355\n\247>H#\265\275M\tR>r>\004\276\005#[\276\375GV<\3525\233>\371D\256\275\267\'\003\276\360\243\351\275D\014%\275\177\337L\276\234hz>W\330M=\315\031:=\205\322\003\2756\361\362=\356\017k>\334O\t>a!\215\276\006\265\236>#\243\253\276\356\301\251\274\346\0331=\n\2360\276do\251\275 #U\276\257\211\221\276\351\217 \274#\233\263=\305\033\232>\263M\237=w\210\023\2769\253\244>\361=\305\276\202\305,\276\035\017A\275\245\360\223\274\271-\261<%\272\255\2759~\214=%\203\334=)\323G>6r\300\274,\310W=\235\260.\276J\263{>\202\214\273>\351\373B\275\016\353\313=\033L\201>\366} \275\322G\266=x\315)\275+\027\336=\324=\315<M\241\271>\361\367\225>\330 <>\3174\251=\035\021|>\312\336\271\275\310$\300\275\306\033D>g\351\372<G\212\241\276\016\233_\2763\265Q=\365\005\231\276y\335\251\275\336g;\273.\347\034\2744F\333=\363\313\245\276\334\252S=5a\202\276\265#\010\276#\260\033\276J\303<\275.\2733\275H\002\334\271(.S<z\236\335=\244\366A>\207\231\257=\2672\251\275\tC\010\276X\036_>g\217\364=\2774\335=\313\037\005=\027/\343=\245\332$=\035\247\375=\216\343\261\275\225\303\031>q\001A\276\rH\335\274\214P\013\276\020NK\275\343_\2769\365\"\003\276\222\233\000>\324\342\313\276@$\003\276\235\311\355\275\025\343\265\275\010E\332\274yW\303\275\217U\252\276o\255\257\275\212\352\330\275\3271\003>JR7>\205P\267\273T4\265\276yw\226<\334:\320>4\254i\276\221\376B>\370\004\310\275\313\352\257\276\206\250V=\021\345)\273Ib\236>\261\032\256>&$\t>\354/\">\334\227n\275)\305\225\276\265+\000=\005\377\210=\257\337u=e\250\t\276z?\271\275\312\373\260\275\213%u\274\356c\312>\324\256O\274\364|\022>\363\256\027\275\200\212}\2757\022\207\274_l\034=\230\300\313=\210I&>x\343\300\275\254\260m>O\262\236\276\241,#\276\177\350\">+N\016\276\342\035\023>\234\361\200\275=\2623>\275\303f>\324;\001\275\375\311\266\276\025\030\225=\246\177I=/p;>\013\316\024>\002,\266\273 pj\276u\0343>l]\212\275\010V.\275\332\'+\2768\\\231\276`i\224\275\027$\213\276\207\304N\276\213\024\317\275\237c\216\274jw\206=\333\224\205>\304\264A>X\023\001>\255E\007>\\\033\217>\014.\244=l7\203\276\033\034z\276\206\350\026>T\260\214<))\333=\021vK\275.\273\002>\201\316\275\2752T\275>j)#=\315|\214>\334j\007>\210\004\261\275\207\320,\275Rp\367\274\254\326\215\276G&\'>9\266a\2761\302\211\276\271\373\247=\221\321\301=;\234\235>\016M\201>\333\344\366=\246\236\310=\302\277^\276q\'\014>\024\346\017\276T\320\222=\304\360\216\274\261\324\325;}\364F\275\326U3>\270\'\265;`\253\035\276\202\235b>\377r)>\3275\r>\273\010\202\276\001`\345\275\215\202\357=_\016F>\013\241\235=\250\373\225>2\n\216\275.\355\315=\235\032\216\275|\376\274\275\032\3226=o\365x>\206?\020=\007\306%\276\306\270\377\275\037\202\217>\177\260\212=\310\200\202>-\234z\276~\037\321\275\356\007o\276\002\270\302=\241cE\275<a<\276F\014\246\274\212\320\247>\025\262\021\276i\204@\275\325n\313=\240\271\210\275d\262\205>Z\347\257\275\367\335P>T<Q<\345\374\204\276\025\001\010>eI\300>N\276\213\275k6\344=X\224\307\275\313D\261\275\366\255^>\2372@\276 \274\212=\353,\016=\222\233\020>\330\023f\276\265 \256\276\033\r\027>\312p\366\274\277\363\221\274\335\211\">\236\375\214=\345x\374=\241C\202=.\366\013\275,\371\223=oV\210\276\227\362R>9\014\215\275\342F\355\275\354u\206\275&r[=\256\363\177\276k z>\373\373\006\276\310\017P\276\314b\034\276Y\366\204=\266\207U\276F^\272>4\033\201\275\213\354\010>Y|\353=H\271[>p(=\276\336\031\230\275\334\3440\275\256o;>?\n\r\275$\234?;\242\025C\275\262\374\">\366d&>RUp>\265B\345\275\301\033\334\275\2514\244>\276\020\222\275\024\037O\275\031t{\276\005\335o=\330\025\375\274\010\002\222\276\233\217H\276\221\373\276=\025\307\t>\255\240\262\273\217O\245=\267\2369>\334\022\204=\300\016-\274ZwG\2751\016$\275A\304\222\276-\300\243\275zWQ>\303\221l>\r\265\365=\360\331Y=\332O\273\275=Z\340=D\262\025\273\003m\032\275\240\327k\275m>\037>y\363y=\270d4=Oh\">\013\207\304\276\201\263\375\274vV\220\275#\337\030=\317\007L\276D3\250<\334\274\353=\204~\016\275m\234\022>\317\033T>TD\031\275\231\230z>\242b\241=\206?\246\276\253\177\217>~Q\035>\206\357t=\020\032\212\275\2447\'\276\245\366\253=\361\356N\276s\032\361\272=\373\035\276\002\205\325=\210\316\254\275#\257\245=5\347\225\274~8\272\276\255\263\277\276G1\031>\017mi>r\327\025<\327\014H= F\246>y3\313\275\352\325i>\276\261,\276u\210\000\274i \232>\2574\205<{L\226\276\256\344\244>6?\220>\016\003\032=\005\304\212>d3\005\276\223\315\317=\310)n\270\261\267\255=\355\036%>\312\026|>!\331\241\276\255V\215=\332\260\240>\355\373S=\251f\004>\204\r6\276wSf>o\350Q>\206\234/\275o\"\252>\206\006\245\276\313\232\023=\363jD=_\036\352\275BN\224\275\007\311\021\276\'Vg\2759\364;=\021*\236\274\217+\030>\240[\226=+\210\t>\354\207\230\275\277v =\271!\032=\271?\223\276\216\333\200\276\251\257\204\274^\233^\276\240\022\342\275K\237\177\275ie\035\276hG\263<\367&C=\222\252\335=l1\305=\252\365_\276\213(c>J\276\273\274u\353\r\274\311\2723>\276\234\333=\264\221`\2755v\217\275\3560\246=g\234z\275\010\234\240\276\366\353H\275\366\244A\276\r*\207\276\202\3041<\243\255<\276N\"#\276\345UD=\262j\343< l\264>)M]\275K\007\225;\337y\241>H\tQ>\344\240\230=09\026\276-\363M\276VQ#>\024\350\255\275\30114\276;\037\273:\241\003\325=\343\343u\276\341\233\204<\206\315n\275\020\274\261\275\343\"`\276p\220\213>\360pE>\235\244\356=\351\360\032\276\354\310a\276\354\340}\2758\036\212>\264\323\023>\313\032\274=/\270\205>%\317\246>\320\217G\275\242@\372=,\327e<W\204*>G\305\203>\333E\374<\215/q=V\326\021\275y\373\301>T8\'>\224u\220=\235\335\203\276\371p\234=^6\263=\242\263k\275\312\350\217=*T|>\304\035\221\275\207\216\322\274\007\271\304=\242A\221>\3758P\276\373\000\016\276%\203\367<\352\240]\276*r\357=\021\276\362\2741K\031\276%#\241\275\262\252q>\331\360\211>\341K\223\275k\022\200>c#\250>\320\363^>\267\241\327=\243\216\273=jhc>\312\367j\276_\327\\=7\206;>,sS\276G\255\330\273\343\026\330<O\2132>\232\275\226\274ti\004=\254\201p>\304e\255\275=\233\231\275\252v\023>\326\010\275\275t\201\204>=\301\223>\305j\353\275\263\322\030\276t\273\270>\370\312\023>w!A\276h\316\242>\350\347\223\275\342>^\276s\251\004>\373A\"\274K\261\356;G\321W\276Sd\201>\371\364\201>\272\260\006>_\270>\275\364_;\276\327V\017>M)u\275U\351\231>\306\233\005\276U\365*=qGH>]\353\254>\251\023D>>\342\027>\327z\313\276g\3711\276\207\336\200>\350\016x\276f\315l\276\203jq>s\324\232\276eX\275=\203\341e=oi\'\276\320\304\313\276\320oM\276\207A \276\333\211(\276\317G\367\274\254\371\025\276\n\211\326\276\001\340\331\275\211\244\350<\241\002\361\2734\266\253>\267v\351\275\243^$\276,\240\223\276\225\014\023\276$J\275>u\337Y=\334\304\031>\257\001\254=\3722\237\274.\260\214>\326c\003>\255\346\340=\260z\313\276\325N\262\276\253\330#\276\212D\200\274\215\377g>\026\213I\275\023\217\243\275%O\014\276HcN\276\224\234A\276M\206|>\376?\324\275+\262\232>\\~\304>D\035\235\275\010\005\221>z\265[>#:\236\275\033\250\211>\244\243\230\275r\2115=\216\272 \275\376\3422=\340\215\337=\033LL<\201\263c=G\006\343;\004\356\221\275\365V\206\276\301\024F<\361\341\234=T_T\275\256`.>\317\264\314>+\220\316=@\2152\276\355#Q\276\312N\257=s\030\253=\243K\222\276\007G\307=6W\350=3\331\241\276\036\201\236=/\2146=\313\241\032\276/\020\204\276\024H\220\275\333\242\\\274\031\336\377\274\024:\313=\001Gc\2763\033\200=v%$>\361\331k\276\271\320;\276\036L\252<5\272t\275=m\213\275c\305,\276\006\037\371=v\232\246=\333\230\031\276\231\270\026\276\2039\256\275\273+\232<T\000\253\276Y\327v\276\302\360W\275(\"\035>\014y\341\274\"\364\347\272\273yU>\340\334;\274\371\371\020>\275\234\334\274\006]\272\276Yi\300\275\"\336\257;\344\303\221>\214N*\275W\235S\273\275\302\247\276\025\301\204>\275\211Z\276\240b\253=\275\211\231\2761d\205\275\376j\r\276W)\n=\347\373J\276\353\271\277\276\37004>=C\023\276\314\266\025\276\032\366\014\275$?G\276w\017+\276H\345\310=\372\rn=\200=\247>|Mm=\271\t\226\276\206\262l>\267e\304\275\313\364\022\275\016\t\007>\360I\256\276k\345\203\276B\342\273\276\017z\203\276\313\217\375\275N\3639\275q:F=\037\313}>~\274\253=\300X\246>\355x\307\275X\273\200\276[\242\020\276\033Y\236= \352\251\274\316\344:=!\371\000\276a3X\2757\357\266=\361\253u=\026\362x>\261\313\223>v\352\221>Bs\277\275N\240\235\274&\261\237=\351#n>\266H\222\275f\331\235\275Xe\243\276|\035j>s\301-\276\227\0267=-\352\310<\322:\023<\034\352\023>\371\215\034\276g\306\204\275\226w$\275\340j9>\010j\302\275\320\317\007=\243\035\202\276\323\034\n\276\330\013\257>\353\340\370=\241\345\275=l\203\014\276\367\226\227=\254u\001\276\366>\254=u\357\214\275OC\236\274\340D,\276Cz8>\223\312\243\275\342\021\002\276\201<B>\224P%\276r:j\276\272\251\356=~r\374\275\246\321\203\275\001\321/\2755\300\362=\321\241H>\370G\237<5\322\257\275Jd\307\275X\313=>\344\024\367\274\005\300\241\275R\213\010>\005U\005\275,> \276K\336%\276\254\326u>i&\230\275\212\0230>x\2138==)\277\275Z\364V\276gf\247\275\236<`>\363\341\234=\223r\372;`\225=\276\254\204\017\276\375\027\220<\231!\320=Y{M\276\223\0078\276\\t\225>\215>\210\276<\265`\2675)\220<\222B\304\275<C\213\275\317\276,>\007\212\002\276\17772\276\332\001\001\276\356\002\226\276\300L\216\276\330\264\220>\004\327\210=\223$%\276\354\236w\275r\311\362:[;Q\276\324\317v=\310\225\331=;D\235\275\215Xf>\243~\373\273\263+r\276\t\267\333\275iw\202<\311\007\207>\355\323\232\276\231h\362\275\254U\314=\001\3238>:/\216=b\265|>\241G\312>j\357g>\n\230X\276\2148V\274\013\374\005\276X\247\034\276SE\314\275?B\237<\006B\n>\300\310\316\275\013\260\003\276\362^\266\274\252\020\210\275&q\247\276~\324\220>S\315\304\275bH/\276y\344p=\343Q\331<(|\313=T\3779\276\331\355\016>\327\316}\276\362\313A\275\263C\307<{t&>V\333\206>\037\005\205>\247\251\345=\251\370\250\275\345\361\026>\337\237\221\274\330\217\025>\373~N>\215*\027\276\277_\362\275\254\320<\276\323\315]\276\326\241b>\340\206]\275#r\227>\355\270\'\276\013\352l\276\027c\247\275\330\3705\275\356\246\376\275Mg\320\276&\'\036\276?\301\r\276_\212\222\276\346\365\305=4l\255>k\217\000\276\177\240\327<\023fh\276\"\305\306=]u\273\276\034\220\306<C\305X\274\t\246\350=J\343\353<v5O\276\256\317\004=#\026\001<\301aV\276\205G\003\275\254\320z>\221l\352<\344\217&>b|\216\276\271\207\261\274\363\341\342=\271\244J\276C{\222\275\306\314\365=\232\311N>\361\363R=\275\2278\276/j\021=\234\010\256=\350\2472=`Pb\274\247.1>\325b\204\275Cw8=\256\202\204>2\"T><\245\256\276\264\274\337\275~\360\263>\310v\243\275S\247\312\275\003\262\334\275\312?\201\2769?:=v\340/\275\350a\316=\303o\244\275]\237\202>\003\347\270=\027\343\270>\242\236V>d\223-\2768\312B>5\276\226\275\207\037\025<_~+>\347wA\274\3163\342<\335\202\240>\237\337p\276\035\317\335\275c\357\030>:\"U\275\374MO\276\312m\004<\361\335\376\273\311s\341=0\270/>\177\230\270=rP\365\275\262\270V>\006\004\252\275\001\335\215>\273Y\206\274o\362\252>\022\225\270\275\341\316Y=0\036\236>\036\036s\276\203\'\345=\204^\253\276\314\007S\276\242\307\204>k\n_\276\215\272\257>3\240B>\252\023\301;m\234q=\212\362s\275\027\025B\275\203>\304\272\325\344\230=\315\276%>\033\234\275=\353\276\232\276L\354\344;\352\214\263=o\231\246<:\324.>\033\2473\275\247R\327=\232\025\232\275A\025\254=b\273C>\303\303s=\002\306\253\275\007\030\261=A\357\217>B\256\244\275\017\026\223>\026\307\313\274?\304F=\232\223\201\276?=\030\274?\202D>\264<`=p+\023<_5\266\275\212\366\007>{u\\<&\222j>\004!\207\276c\344\204>|\265b\276\023Rt\276\260\254@=v\242\211\275\226M\233>\201\255\206\276+\002\312=*\036\247\275\333\354W=\231\212\226>\237*\031\275\257\300a\276U\030j>\317A\350=\377\220d=\350n]>\370\215\227\276i.*\2765\373~\275^\242\r\275\017\024t>\366\323F=c\337)\275\010\257\325\276E\347\021\275\325\006\003=\353\352\231\276\202i\270>\213$K>\017\226\022\276[R\r=\312\024\265\2753\211\224<F\014\027<\\\271\306\275\354o\234\275\007\364\021>\211~p\276\037+`\275\325>\256=\306\243\017\276\262)j\276X\343\016>! \207=\235e\264\276\243\225\001\276B\357\\\276\333jD=\342\217\216>\2361a>\365Fo=:\020\206<\247;\257>0\274\224\276|\3701=8\232\372\275 PQ\276\2629\'\274I\357&>\337\204\210\2762\216\213=\001\345\276=\270Y\221\276\351\025\'>\327w\000=\300\201:>\251\032\037>\375\374\263\2750\333E=\242\371\001=8\3058\276]\240r>@\205\364=>\346\257\275\231\373\314=l\270t=\"\330\234\276\224&A\274\204%\034>2\237\320<\220$\2648\313\206?>\257\000\243\276\203\034;>\024\r\302\276+\256\021\276C\373\310\275\225rJ\276\'\321\360=\232?\315\275\200\203F\273\027\034H>\'\217\201<\021\351\003>\020\222P\276\206\316L>\316\237v\276r\322\206>^c\205\275\021,\204\276\003\243\220\276\367.\007>\315\314\t>\230\376\021\276\274|\304=\332\2256\276\3203\013>\354\264E\276\036\341*>4)2\276\337\256C\274$\002\344<\353\036\026>\317M>\276\335\344\204\276\0019\314\274\314\215H;\262b\036>Y\201\221\275 \023\004=\207\206\200;\037+\264:\253\234\377=\007\314\226=F%\236=m\264\017\276\266\230\226\276\0362\201=y\003X\274\355\233\202=\234\346l>\320\356d<>\372C\274&\256\327\274\267s\212<BY\246=\023I\221\274\np\255=p\343V>O<~>\351\335{<\357\355V\276\232\300\262=\"\311\270\276\010Im\274\270$\221\276\276\324\226>\034\002\312\275\032\023]=\347E\264\275T\353Y\276q\257\263>\342\2350\275T\274\240>r\255Z</\267\236=\377%\207>i\320T\276\224\276\300\274Y\331\022>Az\317\275r\214\341\275\027\007l\275\211\024\343=1E<>\"\250\314=\270\337\232>\017\327X\276*\342\221>+\326)\276\005\301\'\275\213\010%>nT\251\276\356\204{\276]\023?>\346c\261=D\264&\275\367\342\253>\3670A\276\327P\223>6\202-=\364\230\220<ZH\321>}\272H>+j\026>\221\357\247\276D\0324\276\030\254\214\276^\016\336\274\317\307\300\276k]\232>\215\226\027>\031\255N\276\017\234 \276~3X\276\371\272\247=\350\022\267\275\227\371\315>$lv<3\206\235\275P\215~>\017\"K\274\002\257\016\274\234\3645>\245m\372=\311h\243\275\024(\025\2724\2206=.\370i\276\266\260\215\276\363\324\r=}\211\000\276|\351s>Xq\240>\325kq\275(\301$\276*\223J\276\005\022\302:\030\3743>Z$\313<,\032@\276\261G\252=Mk\335=1k\240\276\303\264\302=<\266W>dy8>\013\277\335\274\310Z\212\276\274\323\016>\361\327m\274#!\256\276\337\376\213=L\3200\274\320\252\233\276IZ\220<y)w\276I\250\342\275}\274\276=\203\353\207>\260c\t>\367\177\305=\255W5\276\343\214\224>n\200H\276\216\221\206\276oc\306\275\334\331\203\274c\017\217>\204LB\276\350g\235>\316\315G>\377\271\216\276I\352l=\\G\035;\204\273G\2747\375\346\274T(\274\275\256&\203\274\331u\213=\257V\032\274Z\3618=\237E)>\014\366d\276\000D\202>\375l\271\275UwP\276\364r->h\321\202\275\232\211)>\257O~>^\334r=8R\241<\312\036\006=U:\201\276\273W\324=?\016\317\274\231\337\376=\372\356\226\275\025vu>\221\3236\276M\221\250\274!\236\273>\310D\243>b\363?\274\'sG\275}ez\274\316\034\004>j\374G>\216:d=\362\246%=\3309\302=\320};>t\025\232\276C\217\202>3\006Q>:)\203\276\354\023$\276E9U\275\236x\366\274,}l\275\230r\036\274\355 \250>\227\020\035\275\272\316!>\241z\030\276!\206\246=\265\322\010>\216\335\343\275r\213\256=\322J$\276\222C\024\275\033\237\335\273\372\255\033>\355\332\250\275K\024h\276\244\201U>\177<\264=\353\255^\273o5G>U[\024>u\206+>A4k>\371\377\220\276\021?\217=\032\367v\276\376E\003>u\036\362=q\024\n>C\340\021\276\030\201\362\275U\231\203\274!\004\373=\304\0309=[\243\313=\2715\263>\004=\227\275\324\377%<\362M\032>\244-w>\222\375n\275\"\236\265>\230\233\225>T^{={\035\003\276\355\2200>\262V\210=N\223\000\276\302\026\365<\322\001\255\276Fi\251\276`3H\276\265\341\275\276+\327\037>S:\262>{\347k=\016\376\240\275c\203\301\274\365\277Y\276\r\305\313\275\270j\336>\006\207\030;\205<\357=\373\023\322\275\340\271\346=\2221\376\275\251\356\377=\342\354H\276\352d\250>\322\320\347=\254\r\234\271\366\263+>\263\303c<YW\236>\2055\224>\270\326\311<\304 b\276\006\\\276>|_\224\273\245_\034<\251&\007\2742\006\002\276c\307:\276\3669\227\276\303\355,>\271<I\2765\311q\276\324L\242\276\274\316\201=\311E\004\276\343\320\256=.\202R\275\227\352)>+\2228><R\273\275\214\377\213>v!\271:\250\373_\275\312\000\037>\273\254->\017Gz\275\017\374M>*6\200>K\261\210>[\302\276\275?\366\302\275\346q\215\275f\'o>\320\276\\>\265f_>h\257\240>\025\216\222=9\367\020\275]\377f=7\243\001>\204,\312:\2026\355<\341\005\'>\221\026\005\276-\347\230\275\304l\301\275\2060*\2762\244 \276c\202\177>pF/>OC\304\275\221\212\227>\027\222Q>D\305q>\340\021\336\274\360\004%\276HtJ=\n\0368=\210@\321=Dc#>L\026J\276\036\267G\2755\351;>\274`U\276,\327}\276<\213=<\212B\024\276\336\370\312=\276\336\030\276\274\342\211\276\025\202>\275\177\005\345==2\010>\'\001]<\217F\365\275\332\370\202\276\350\332\306=\031\1777\276a\345@>\303\275\244=\244\3618\274-:\272\276Z\271!\276\246\266\037=\306<\341=C\002.\276\311\330\334=\267\344\231=\002\030\003\2762\254\203>\250\304\250>T~\310>\211\241\"<\364k\027=\373\273X>h|a\276i\030\243\275vs\001>\365\271\016\275\025A\013\276f+\207>\025[\212\275\3015\002\276/\270\371\274\212\021\326\275\253XO\275\370\265\247;\227$\226>V\357\347\275\240w\224>JG\213\275A\344G<%\346\033\276\340\275\024\276@\2526<\221\252\230>\t\335\314=\rU;>S+\256\275<\257\006<l&o=\355ZD\275P\332p\276\316\316\256\275F\021M\276@R\262>\270\365->\265\330\004\276\21433\276P1\207=\336\322\205>A%\016>\241\242\t\275\234e\007\276\353@\265\275q[@\276\3048)\276\302\323X\2764JC>\336\033\257=\377\206q\275\031\244\350=\347\312\254\276\004\214\263\275\203\010T>v`v=\354\367\222>\327g\305\274\340\360M\275\263T,\275\365\222\306>\310\321\347\274\216\344\200>\205B\214;\321u\013\275\363\036\223\275\313D8>D\307\255\275b\013\302\275\303\364a\275\004\226\226=\256J\327=?Y\264\276rO\002=\004i\217\276\361~\230=\204\274\242\276 \314\314\275\341\177\373=\002E\027=l\3172=\034C\020\276\301/\213\276^\344\244\275\022pU>\235\344\313\275\323\010\032\276D\017\270>\306j/\276Q\265+\276{\021M<\213\234a>\2155\366=\361\214\304\274$\343\235>\326\217\r>\320H\206>\301<\214\275\344(\361=\3669\321\276}x\003>\375\231\204\276\365D/< \310\373=m\355\340<\302\324Y>\254\211i>^\273>\275.w\013<N\347\242>\266\374U\276\345W\023\276\323\tY\275\254\030\274\2759\212\304=z\333\035>\270\204\303=\337\217\310\2753\363^>\367S\327=zM;=\242\310\272\275XL\222\276X:\235\276\326\250\004\276_\236\226>\317m\006;\250C\217<\003f\306\275\321\260\211\275\032\243C<\361\3752>\242^{\275\366\343 =jO\375\274)\351\217\276M\236\027>\"K\016>\307,\210\276\005Z,=\310\372\210>\370\241\266\275\337\242\201\274#yR>Ys\230\276.\000\225>\247}\373\275\232do\273\0028E\275\216\027%\276\264\353\304\275\037\364%\276\307\337\035={\265\216<P{\372\275\027A\260\273\204\375\362=\252\321\375=\031D\004\274\231\352\002\2755-\210\276B|o\275L\033B;3\276\365\275v6\224\276F\031$\276[,R>n\010k>\207\242\264\275\333=2>~W\210=\354\264\314\276\272S>\276\337Y1=\273N/\276\260:\311\276\035i\230>0\262\326\275\n\313\374\275\016\217\013\276B\375\265>E\312R\275\336C\262\276\317K\231\276O\330<>fI\265\276~>\343\275z\331\264\275!!g>\006\351\255\276\251\251R=\307d\240;\203R!\276M\007F>\224\326\271<9\234\003=\373\037\241>(b|>P^\033\2769\366\210\276:\323\361=\037F\207\275\350^\201>\346J[=Su\357\275#\025->\350\037\245\276=\004\317\276\247\372\224>\236\307}>e\377\233\274\000\362\237=\327\370\225\274\017\353\266=\037Z\177>R\376\256\275\304\003O\276\240\337)\274\267\340*>8\207\035\276\363^\274>=V4>\224\250&\276#g\266\275)s\030>\374\317<\275Z\211\333\274\277\210\004\276\256\314\265<7\332\320=E]+>0\261\264\274$<\236=\321m\006\2753R;>\201}}\276f\255\200>p\276\345\275\241\227\013\275\366H5\275y\311\235\275\354\320\"\276\210x\010=\205y\226\275\321\345\002\276\252z[\275\242\031\016\276\013^M=\252\205\355\274\211y\000\2769\214\216\274\005C7>c\222\">\237\201\267>s\364\026=\224\226\303\276q\200}\276}\355\204=\016\000,>?\001\261>YvJ\276G\337\215>\272\035b\276\321$\362\274\226\307\241\276Y5\235<0\263 \273\217\013S=\233Q\236\275\tI\215\275}\3237=,i\203=8\243\365\275h\200M>gK\010>\365\353\001\276\262\007B\275\"\233\013\271u\000\'<\236\262i>F\377\264\276\r\034\253<\242\027\005>=\3404\276~*\202>\220%\203\275(\254r\276_5\205>\246\357\210>H\240]\276\243\013\254=\275\334\017\276\353,\260=`\342!\275\013.\377\273\365~\037>)\350\353=\215s\275<8\325\251\275\032t\034\275\305\227\'>\332%\223\276\303\321h>\005\363(>\364\355\253\275\374E\312=\371\006%>\210:&\273m5\255\274\347\303\274=\375\200\327=\253\366(>w;g\276XM_>\347\352\211\275\364<\204>\307\315\201\275H\002\315=\240ZZ\276\032\230\350\274\3546\004>\016\313\311=\331\271\227\276\2122\202>l\275S\276\001\252G>;\366\031>\215z\266=\373\354\021>\3442.\276)\223\313=\177\035\375\275u\330>\275q\2057>Nm\324=\271@\230=\361\024\216>\255\022\342\274\315A\321=\364lt>\035\220\303=\333\362\262=\313\371F\276h3\314>b\2357>^\246i>S\3100\2769\277\222\275H\241U\275A<\207>ed\\>^\315\262=\270e\204>\262\033#>\331\260)>F\023\026=rc\340<\2705Z\276\337\372\325\275`\235\270=\307\253\216>\223\260@\275a\224M=\207\r5>\354G\204=\036\372\224=\230\223%>2\322\256=\252\264;\275\346\270\327<\312\300p\275\316/\220\276\372$(\275\nN\005>\213\214\030=[\t\202>\t\2557\276\355\271|\275%\354\246<\0170\254;\273!)\276\340\327\016\276A0\363\275Kq\325\274g\210,>\020\"\267\276\251qz\276\252\006\273=\334\316\364\274\344#6\276\361!\300=(\t\034<\020\367\210>\213_2<w\376\221\275\303\013J\276\212\004\210\275$\240==\354X \275\255\375L>\307\232%\276\212k->-\247\242=\006\274\252:\371I\200\276\276>B>\270\022A\274$x@>U\256\264\274\215\354F\275\371\257\000=\302:/=\367\3133>\372b\246\276\314\2707\276\347\274(>9\372?\275\223.\336<F\266!\276\220\030\310\275P=\251\275\273i\262\275\367i\356\273\363_\200\276B\0315>[\306\277<*\376\245\275\314&0>Ps\274\275\320\216/>\200\307\310;)\225s\276\367\241\022\276\375 \212=_\t\273\274k\335\243>\030\022\006>\305\016]\2747\253\224\276\206<\237=:8\013\276\365=$\276\037_T>\267\375:=\266\004\256\275s\312\233<s\312\007>@8~=Vs\240\276\373h\021>(\215J=v\224_>\017\310G\276?\262\251\275s\304\261=\373+\037=dS^\276;\274\005>\336\251B=\364rr>\206\304\226\274\264U_\276\330\350\224>\277~R\276$\313\t\275\331\013\376\274,\227\240\276l\302-\276\004G\367=4\177\231\276~\370C\274UKp>,\354\037>Nm\007\276\030\361\337\275\2251\000>\276\372\201>\340\020+>\033\366\251=\241\r}\276\353\265,\2760\260K>\025\004\223<\345\261\277>\354:.\275Bg\021\275\310\032\000>\342\366\213=q\363\227>\302\204R\275\234\022(<\241\357\212=\177\031\236\275\315\2021\276\230^\215=\037\243P\2747`\241\275\264\027*>\345\267*=;i\307<o8f\276F\264%>\\\345\325\275\022-W\275\224\300\215\274x\t+\275\203X\221\276 \236\235=Rvj\276m\263u>\235\233\021>\260\266;>\301\\\205\276\367\246\257>R\225\222=\217\374>\276\323zE\276Q\003Q\276X\014\313>D\272A\275\t\244\323\275\333\035\205>U\203\304\275\327\024\356=\354Dq\274\252\367\356\274|\027\365\275\344\255\352=\302\250\215>\227\261\035>JY\362\275\273\342\271=\207:\366==K\250\275^\307I>\313\340\306=\375PA>\242\360\033>nz\336=>kK\276\245\362\033\274\004K6=\226\356o=\305\244j>\031j\355<=\236\013\276\311!\006\2742\336\367\275^R)\276\233\217[>\217\007\226<X\\\213>f\377\255<\311s\314=\243\336\002>\263\026n\276\177\031\211=\350V\226\276d\351\022;\353d\234=\024\'5=d]\035\275FU\327\274\361\265T=\352G$\275R?\220<\234\352\235>]Yz\276[\274\264<\361\241A>\356\324\'>\202\264\327\274\210U\225\2753\244\245\275\230\377->\312\355\244\276\201\232V\276\2073\243\274\3028\372\275P\030\351\275\257\2225>\"I\375\275\215\024\322>\303\221\t\276\342\3034\276\225\206r>tf\021\276\232\014\250\275,\255\267\276h\346y\276[\351l\276\203\327\246=\262(\017\275\001Io=\361\316\264=C\347S>\300\331j\276\320|\350=\215\237\002\276~\240\375=u\215%>\315\r\014>\343\034\032\275\351o\022\276\031\305\226>I>\234\274\200\347\232>\260mG\275\003*\025>\303\3436\276\226a\325=\004n0\275\261Z\215\276\245\300\233\276\030k\204=\"\000~>m\236\346=\323\2200=\361%\242>6BI\276L\025\202\276\030\364=>\253*\260=C\215\371\275vT(\276\245f\023>so6\276mH\177>\341\217\002>\220\303\214\275\355\247{\275v4\024\276\362\226\235=Q\346\006\276\331\354\273>\235\0102\276\365\270\t>\010\n\343=\273\273\331=\341vb>\276J\226\276\2255,\275\332\312\300\275?A7>\\\037\253<8{\205\276\233\354\003\276\372\253y=\014\222\265>d\310\023\276t]\303<!\245l=\265\200\020\276\326<\362=l\013a\276\310G\222\275\001\025\311<\201}P\276Ro\213\276\nG\207\276\014\0072\2747\020\316\276n\207\037>\014\255o\274\316C\224=\275s\030\276\333\275\355=\306\367F\275\275\373\006\276^\007\207<\274\272\325\276)\206L\276$\035U\276G\322\344\274\303\205o>\220]i;\234\031\301=\365L\325=\226m@>q\322?\275u\006\267>\274\373\207\274\367\305:=k\213\224\275\323\033l\276\"c\026>>\304\372=\331C\234\275JHw=\230\366\275=jj$=\2279}>Fx#=\324\033\206\275\305,\206=\336\363\271\275\027\272\271<\244\327J\2768\346\207>\021kK\276F\262.>\000\323Z>)\231J\273x\264@=\267D*>Q\236\307=\236\306\204\276u\240J=i\241s>\264\272\204>Y\306=\276@\373\250;\2203C\275 \237S>X\177\021>\265\244\236<\361\215\241\276r\241\210\276\324d{>\200\233\033\275\261\340\\=\324p\253<\267\024\225\275\037\232\236\275\364\262\203\275\\\'(>:(\267\275 #4\275z#\217=v%>\276!\215\026\276\230\245\034\275\377\2069\275\330\200\203\276Z\245\212>S~\315\275\2377&>\026\251\006\276\227\2054\274\2055\357\275up\014>\001\002\301<\217.->P\316\254>\371\343\231\276j<\207\275\250DM>[tt>\201\245\320=\222\355\017>\247\365]>\341BZ>\177\255\266>&\300\223=N\207\371=\323!\002>\014k\271\276|\027\010\275T\315\260>\325P\030\276\347gx\275\352c\220<\034y3\276\"\252\260>n\305\020>\037\202\205>\027\240\005=\321Hf\276\360l\214=\332\335\246\275\2222\035<r1\207>3\327\311\274S\311)<z\364G>K\311\243=\243\277\231=]\242\261=HNb>*V\033=\006\2364>\034\017\225>b\273\312\273\315\303\323=W\014\273=\276\252\023\276\r\006\255\275\260M\327\275\026UE>\302]\025\275L\033\344\275T\007\007=\367\352^>C=}>\277\205\006\275\001:\232\275\304\310\252\275WN\324=\357\360n>\037\030{\275<hD>|\314\374\275I\332\205>v\354i\275\252\344\236<rJ\216=\347f0>\232%\234;ie\226=\241\324a>\237}F>\177\365\275>\240\3262\276\325n\007>7\332\026\276\224<\226<(\350\211\275@\246\001\272p\0348>O)#\276%0\243\275y\221\203\275\306R\320=\303\000\217=*\374\206=\346\342\026\276\232F\233\275O\325\310>\247\233\357;\201\355\224>\3251\r\276\362P\270>\2729\215=\006\242<>\203}\255\272\345cU>\266\365\215=\303\345\244=9\257G>\346\n\n>\303IQ=IU\256\276\240Z\013>\367%\035>7\314\255<\3076z\276 \224\211>?_\320\275|\267\230\275j\224\325=\371\250\230\275 \265\006=\252%U\275\2505\017\276i\236\355\274i\233\230>\2222\231\276\267\374C\275\361\014\263>fgJ\274\245o->\375\232&>\216\264w\275\332\252|=-E{\2752\235\257>\206\267l\276\'\362%>\332\235\365;xL\266\275\247t2=Kp}>\216\305K\276\263\216T>\013Z\020\275\033\277\370=a\025\247=\340\337\037;\256\001\030\276\276\373S\275\023\022\002=x\242$\276\257\332\016\2750j\213<\037\334^>\355F\321=\036\235\"\275\327\207$>\237\265\365\275\203\333\t=d`\371\274\330L\026>J\347C\276N\205\234\275\004\034\222\276)v\236\276\246\206\003>\331\211a\2766\327,>\242\006\327=@\263j\276\266\374@=\272V\004<\365\273b>\006\273\247>\340\247\242\2756\273\200>\372m\267=+\242\276\275\317Q\301=\027g\001>#\327\343=W\341\275>\243\315\273\276[\036\345=\372\277\177<\301\272\234=\271]+=\006\372\357\275w\017T\276\353\r\311=\334\341\343<?L\t\275\'r^\276u\240\030>\311\345\017\275j\240)>\206\245\271\276\206\354\230=\347\356\256\276\r\020\310=\232\340d\276\341\247@\276\270\306+\276\200ZV\275\177\240\306\276\211\301k=G\344N>\215\271\261:CH\315<L\316L\275)\017\234\276\\\213=;+\211d\276\3144\213>\205T\301:)\022\020>\016a\260>\325\275\233>p\203\037\275\014\371\205>L\tY\276\t\277\247\275\346h\307=r\364\265\275\225r\023\276s\223\014>\031\304>=a\315i\276v\002\003>\246O\233\276!\305\377\275\357\305\317=:,\312=n\352\361\275T\276\177\275\247\310\301=\007@t<J\030\332\275\022_r=\333\312N>\211\354 \276\021\244\327=\317y\332\275\272vP>\014\274\277=\366<\213<m\331\374\275\220\364S\276\024%\372=\342\316\206>\277\354\022\275\t\363\025>\372\252\034\276\001\205\'>\257\233\200\275T\223K\275\276;\351\273\351\3147>\3470\256\276N\306p=\361\371I\276&\033\314=\364\021N>\312\312\200>o/\230\276#\263o\276fu\033\275Y\375I\276\\\360e\276rI\020\276:wO\276\237\265\036\276<\354\322\275\2717\233=\271\266\205\276\336D\246>!<~>\244\240\027>\265+\037=J\306\n\276\031\256\000\275\036\361\250=\276\020*\276\255(\266=\241>Z>fv;>s\351b\276\303\331t>,\033\354\275\331r[\276\022A\240\276I\375\221=\n1\215\275|T\233>C\334\204\275\002\242\023=kL\301\275\032\263\321\275o\225\217\275\225/\233\275\212\366\235\276\3510P>\t\373P\276c=\255>\373\032\025\275\025\241\177=+\276\265\276\372\025\256\275_\232(\274\370\010\253=\241\311\245=\244<9>\326\212\245<n\363?=P{\203\275\016\227V\2766\220\326=$+\203>\264\241\222=\366\372x<\333\316\25696D+=\275\375\210>e,\213\275ZOx<\237e\223\275\266^\224\274(\007\251\276\323o|\276\003(\217\2766\320\236>F\231Q\276\207\016\260=\221\367(>*te>\234\'\213>\020\212\205>%\326\264\275\271w{>P\226T\276\r\334\227\275\253\030y>\351\222\321\275\032\350\225\276\200#\240\273\241\326\026>\227a\237=\207\025\237\276\r%\210>)\344\315\275\260\360:=0>\277\274\277\363\"\2766\271\305>8\004\304=\255L\254\274\375yb\276\263\000a>\361P|\276\204\214\007\276i\270D\275\325\246\237>\317\370\312=f\271\025\275\301zZ>[\273+\273\036\344\001>\314i\221\276\334\031\372=q\216\202\274\264_\305:p\376\273>\236\331R\276I@p\276e\231V\275@\232\n=\nA\207>\236o:\276\335\273\316\274\323J\036\276\233\"a>NQK>;\007\206\276\025\345V\276\373{\207=Oy\340\274\305\377\361=a\337\';\362\372\261\274\234@,\276\031\272\277\276\307\222=>1\277\"\276\231Kw>\350\307\340\275R\325\227>b\372\303\276\346\2628\273{x;<\366\2324=\251\222\213=\253\223W=\250\342\023<e\247B;S%\216\276\234y\305= \317\252\276\035 \016>jf#>_\220\256\276\354\344>>u\323\t\274p\023\333\275}o\367=\177G\023;\376{\026>\016\312\201\275q(\016>m\344:=\021|\361\275\375\003d>6l\216\2744\226\216\276R=\243=\316A\275\275\235\301\253>\260\315\225>`\330\205\2734\006t<\001\'\247\276oH;\276\030L\203>:\352z\276E\242\314>8\227\024\276\035d\010\275\2243+>~\331\243=Q/z\276S0\213>\225\366L>\tkW>\374\216\367\2758\354,\276\352\357\273\275\026\325\350=\343\r`>\265\301\206=w\301\224\275\353I\250<\377\360\227=\031\260\002=\254\227\317\275H\254\324=\305\010\353\275\270\330\261>X\216*=u\232\276=2\026\017>J\t\227>3w\344=&F\322>\313>u<\300\237\304<\300\276\032>nY\206=\371\303\207\276~\374\366=\357\033F>\244;`=u\234\023=\347\002i\275\002\236G\275\377\346l\276\211\323\004=\213\323\215>}\200\023=:S\344=\321\245\212\276\255\242\272=\037\234\215=q\020z>\224\250\206\276\010\347\317\2759\325F>\310O\t\275R2\206\276\347\006\271=\353\214->\204\272s=4)Q={j\227>r.\034>\177\306b\275\271\2734>\307w\215>y\260\201>\022;\025>-\225\300=zG\323\275\035N#>\317\203o\276\002\251\343\275\335-\216\274Jp\354=Y\177\254>\270\322/\275*R\265\276\035\374\265<\277 />\334\226\335;qT\275\275\343##\2762\250\312=Ht\311=\205\305\251=/\272\343<\\\206G>\260^N>\2115s\276\235\037\336\274\352x;\276I\275+>:=\235>M\006F\275\222p\206\276\263c\213\276\241,O>2}\\\276ZE\321<\375l\372=\221\376G\276S4 >jW\227\276\035$\241=\246\232\256>\370[\201\275\272\244\231\276cL\217=\002D\324=\332Y\217>\205\217\212=\227\\\020\276\334\361\232>-\226\016\276\217+1=P<\323=\0365\317>\372\\3\276AQe>0\254\331\275Hb\213>%\177\305=\007\236\275>%\271C>\347\001\031=\020\000\006\276\3042\334<`5I>\204\014\345\275\241\"\236\2764\334\016>K\301\321\276\216$\255\275.\270\307=\241\314\343\275\2008\203>\0301\367<\232\251\257=c\3555>0f\356=\252\r\354\274,\003\004\276\276\346\351\275\007c\202\276b{\203\272 \375\371\275|O\210\272\234<\374\275\273\210v\276A \265>\311\363\272>.\377\367\274\324\353\251\275^*v>\335\375\203=!\215R=\306}\220>pi\t>_\366\027\276r\202}=\027\251r>\'\247\240<\243/\310<\353\366\303\275\r\244\241>\221f\215>A\3638>\331Y\265\276\200\376\346\275T\362\231\276+\360\033\275\362\216\200>\200\334\337\275\020V&\275\304\002;\276\212\306\325\275qxF>\tq\010>zD\030\276G\252\002>C\\\003\276\3254\317=\307\263 \276z\215U\276\005\'-\276t\2630\276\276HU\275G\352?\276\335\211[=\t^\216\2766i\271>\356\321d=\313\206\251\276_^\273;n\322v\275\264,w>\366aF=\022\226\340\275\026\250\020=\031\241Y>\235\016\035\276\267i\273>w\356\226\276\200\344}\2767\241\326>\230U:\274{\275\242>\315V\212>\211\253\246>{\335\224=8\342\235>2\324\340\274i!/\276\247\226w\276\362\235\241\275\257\205)\275P\211\244\276Y\333H=\020\315\361;c\346\211>\267R4\276\356\005\266>\254a\334;\370\200f=\257\\\221>\242<E=\234\002\303=nF=\274\276\2713>}\025\336\275\327\210\252>\2570\276\276\334w\254\274{\376\201\276P\341>\276\375\035\201=\260*%\276\326\323\311\275N35\276\270BF\275\326\024U>\270\350\036\274=r\265\276V1\354\275q\276\307=\320\234\312=\301\001J>\002\345\354\274p\256[=Eu\246\275k\2059>\'\313\026>\332\213\377\275}\360\350\275\273\273\330\273\264\3211>ge\241:C\252\013\276\013]\022\275\377@g>\366\337\310=\026\205\207\276A\257\233=\331oE=l\'q\275\343\340\260\274V\332\335=\353\363\326=\201\007\240=K)\320=\020bi>\306\374\224>l\023$\275\r\362\216\276\341\344h\274\030\274\254=\001\3663=\326\271\227=\253\365Q\275k]T>\226\242\371\273\205\310G\276\023\262\267>\373\t\177\276Qk_\276\330\322\337=\2164\030>f=\246<\273\320\215\276+0\213=\370\312n>G\366\005>\321\247\314\275P\023+>g1\216=\330\272\356\275\252n[=\202\354p\276$\354\350\274\277\310\242=\246\336j\276<\272$\275w\263\302\276i\212\024\276\'\356\026=uel\276\275\331T>\370\204\306>\207g\271\275\262S\355\275;E\351\275\333M\t\276#e\316=\366\363\n>\217\301\340\275\344\017\231>+\035\322=\234\313U>\321&\236>\340K\'>}Sb\276\013\222\221>L\233.\276\371\227\215\275\371\270\204\276\037\r\232\276p\007\260>E\020\025>\204\275\212=\007\r\244\276R\343\356\274M\377s\276Ii\347\274\234(\230>sHZ=\276\276\206>\221\335\201=\310\006Z>\352R\n\276\202\010\026\276LX\215>\342\347\322=/\365\332=\275\3054=\272Wl\275r\232|<\252\334\261\276\222\270@\276\313#\221>\340/\261\274\331=\225\275\212*\322\275\216I\225=\021\230}<\363N\250\275\037T0\276\324\377\251\274\207\254=\275\306\000f\276\324\302N\276$\334H\275\031b\206\275\2245\321\274\222=\375\275/\312\031\275=)6>\261kJ\275\231\005%\276WT\230\275\307a\252\275\200\237Y\275\013\331\301>\003\032\206<\200\367\020\275l:h\275\337?U>\031ul\274i\017\210=\230\001\304\274\327\336[\276\243)\312>\005\375=\275<\266\002>y\224\014\276@s\263<\352=}\276gz\230>X\037^\2760\177\263\275\355\230\204=\023\342\t=D\357J\276\\2y\275T\253\312\276\254^\265<\200{\261=N\021t>\360`\257\275\314\034\256=\205\336\036>\'\367\\\275\207\322\362\2755\\\364\273\367\212X\276^\t\005>v`\255\274jI\020\276\215\r\016\276\205\245\313=Q\262\217\276\006\"/>\365\371\005>e\263\333<6_g\276\006$\273=\336!\211<U\240 >$\203\377=VS\237>\335~\370\275R\325\007\275\334W\224>\316Do\276H\374\233>?\3428>\255nU=\336\350\227\275K\315R\275\276\037\317\273\354\353\332>\365\317\363\273\374\200\241\275u\367\234=\'C\302\274\252^\276>*\007\203\276\352y\321>.\344\017\276\224o\307\274X\343\343=\205\030m\276\2330\274\276\360\035Q=\307\177\214>h\264\253>I\2503>\277\027\224>\0259\336\275\2269\026\275\025z^\276\025\342\220\2753\236;\275\014.S>\3568\244=\240\n\024\275d\031k>tX\311\275\222\301\265\276{Q\276<b\265,>\"\320Y\276\211S\326\275\331\347\236=\346\225+\275B\327\314\275\244st\276\317\347N>\220\014X\276\363d\306<,\223\030>\363\037\214>H#\020\276(\007\032\276\257\010\001>\007\250K\276\363r\003\276\215\001_>q\301\202>K\244\037\273\333\326\333\275\246\340\025>y\332\355\275\210\260\252>%\nk\276i\253\"\276\322\202\360=\254\341c\276\214\235\232\273\244F\027>\254\025\306\274\200\354x>v8\013>!_\334<\322\245\317\274\213\346\275\274Ww\244\276\004\364%>\221\200\343\274\007\035:\275/\020\244=4\341\213\276\247\023\214=\327\"r\275\324\023\004\276\326\274\001\276\032,b>sA^;\252\363\006>\345\243\375<\017\205\275\276\263\321\304={\036\306\275\340\321\300\274\226\205\023\275\240\326`>\336\254\335\275Y\265\352\275n\361\022\274\035\013\370<\210\251\256\275\212\273v\276\3228\371\274>\3323>g\225\236>\004\345(\276\207\014\226<\274\033u=\346\006\316\276\377\274q\276D\rN>\216&\024\276R\346\241>\346\256v\275BA\004=\306-\212\276\252\327\271\276~\022\221\275\345\252\251\2746\0051\274u\343\356\275\234!\204\275M\036m<\241\360\234>\315\341\314\276\320\323\264\275\323\207\230\276 