node {
  name: "dense_input"
  op: "Placeholder"
  attr {
    key: "dtype"
    value {
      type: DT_FLOAT
    }
  }
  attr {
    key: "shape"
    value {
      shape {
        dim {
          size: -1
        }
        dim {
          size: 13
        }
      }
    }
  }
}
node {
  name: "dense/kernel"
  op: "Const"
  attr {
    key: "dtype"
    value {
      type: DT_FLOAT
    }
  }
  attr {
    key: "value"
    value {
      tensor {
        dtype: DT_FLOAT
        tensor_shape {
          dim {
            size: 13
          }
          dim {
            size: 64
          }
        }
        tensor_content: "@\216\234>\234)a\275\262:\350\276\340\342\215\275\024\315l>V\352b>\207N\353\276\267\366\010?*TG\275@\206\256>\316\362)\277\362\255\317=\267\"\202\276\022k\214\276\355\252\310\274\374\230!?\340%i>!`\364\276W\2458?\027\375\255\276]=\211>\263\241\200\276\361:\001\277\231\312\201>\326x#\277\372\321\022?\233\3560\277\2173\013\277\222\226\312=\310\232\304=\245_O\275\007>\335\276\257\207\020?o\3711>Tm\303\275\277\347\233>\002\020\001>\'L\364\276\370,\376\276\323\244\371\276\241\n\021>\317I\240=\361\366$=Kj\264>\005\345\201>\202\242\"\276Ye6?\347\316\034\275/\"\302\276\356\257-\274\233\226\013?\311J\236\274\337\020\355\275\322\3261\274\334r6\277\035\256!\2761\023Y?\330$\204>\032\221\213>f\230\336\276d\331\027\277\330Y=>\240g\326>nU&>Qn\367\276\217\260\303>\266M!?\325^\324\274\3701x>\272K\300>nZM\275q2\001?\212$U?\274<\366=\2111%>\372\032\316\275\026o\206>gL\177>\321\215\270\276b\220c\277\034\200\233>h\026\'\276\213\326\022?\300\2403\276\005a\031>\336\tI;\261\035\200<\310\252\377>\334\340K\277\024\233$\277\243\366\304\275AE\360<\026\243\201>&N\211>\352\014)=\236:_<P.\'=\222KH\275n4\216>\372r5?\202\266\004>@<->h@\210\276\035\'<?\241C\275\276\340i\231\275\222\3111\276\254X\244>\177\312\320>\364\010D\276:\330E?B\200\022?z\333\301=\023pC\277c\214\343>\233\225Q?\024T\201>\004>\262\274#\270<\277\267\260\257\275\rD\346>\260\304\213\276_2\260\274n\255I\276\245\021\202>\201\222\025>\253\000\210>\025>L\276\313\366@>9(\344\273{\017\005\275\257\272\275\2768\001\225:*\224\004\2764\3029?0q\260\276\205H\026\277\363[$\277p\267\r\2774s\233\276yYn>S\207\304>\220\207!\275\n\314\t\277\330f\016?\377F\223\276\324\230\224>\351\310G\275\262ma\276\244\016\360>\303\024/?\356-\022>\265:\354\276\344\324\213\275a\361\001\277\t\272\242\276\322/I\277eF%\277\225(\326>,lG\276\262\357:=r\206\200\276\362\225\027=V\307\264\276\367\0027>&\356~\276\014\026\204\276:\215\262\276\266\227\211\276m\335-\277\246\205}=nC\360>\271\001\271\276\373dr>\204w\342=\\\345\377\274\247\360\251\275\327m\005\276\356N\230\276\350\254\206>*\374\333>ruD\276\303B\306\276|\3557>+\243\013\276:\t\001>\377\231\245\276R\032\356\276E\204\014?\034\305\222>\303[P=CJ\317>\271s\376\275w\234\037?(\024\363=\013\204\251>!\256\">\214\354P\276{m\242\276%\276\303=W-\254\276N\031\\\276\335\333L>\232v\251>x\005\026?m\324+?\212\037+\276\177\233-\277\350\322\363>\024t\030?;N\231\275\0200\306\276\331\2102?Q\0329>l1\033\277\030v\007=\262\230)?\023\210$\277\302\225\246=\320\001\347\276\016r\005?\346Q\346\276\251kf>r\213\204\273OI\t>\200\216+\275T\327U\275\036W\322=]\004\241\276\355\224\236<P\0179>\276\003\300>\247Y~>\236\323\225\276\363\226z<j\265\326<\365\324\254>\210\312\003>$\335[=+J}\273{7!\277\271\006\024?\261\326*>\234\224\220\276Wu\275\276\3231\371>_p\224\276o\272\233>\311\236\351\2763\221\267\276\251\210\215\276\'\034\317\276\360\366\352\276n)\332\275\255\377~\275 w\345\276/2\033\2760k\030>\313Y\014\277\234]\210=\321\373\375\276\241\211\013\275\341p\321\273a%\317>c\013<>\354*o\276\254}\236\274\004(\'>\000\351\034\277F\275\022>\317O\312>\354NA>\006\026\224=\242\255\003\275dY\021\276\341\\\243>\207\254\237>\n\212\024?\262\305\365>\333\356\322>\360\216\005?\355\214O<#\300t\276\266Yv>\370\377\252\274\200j\177\276\217(\347\276\315fQ\277U\007\360>\n\336\036\277F\313\370\275\017\347\365>\325\2161?!\350_>\344\013\320\276\001W\014?\004 V>4E\r?\232*H\277Gg\366>K9\373>.\323e\276{\354\006\275\215\r\301=<\323-?7G:\276\277K\022?\004ja=#\256\003\2773\256\226\276\263\375\323\275\324\323+?\363\020\321>\363\022C>\366m3?*\031\246=\301\203\007\276\244\204L\277\347}e>\304\361\302>X\022W>c]\313>\365\320\301\276\177\035\212\276t\"@\276!\213\330\275\036\347\031?\312\332R>F\203\220\275\244\255@\276L\311h>V\034\217>9;D\277\245\331\217\276\017\315\336=\216\325\227>; V?\\!\022\277-AK\276\346_o>Q)\t\2773\037\247\276:\332\"?\034Q\307>\033%`>:\016\357\276\001Q\240\276\004\035\210>\357\320>=\030\337\376>-\004\244\275U\031k>\303r\031\2776\270a=W\273\025\277s\317g\276\341\360{>\034\317\272>*\354\022?\223\203\241>\001{S?\225\274:\276Q\345\215>(?\346\276\031\217\374\276L\303*\276qa\226>=<\200\276$\363e\274 \236\364>\340\372\230\275\225\353\220\276\336\347/\277\037u\211\276x\007z\276\241c\243\275hZl\274<J\211>\235\363P\276\000L\001\277\357k\255>:\020R\277?\247\273\276\030\246\200>\261\\\260\276\317\225E?>xh\276!\333\362\2762\240\375>\211\201??(\323S>e\245/>}.\345\276#\'-?y\032\264\276\336\216S\276\026\'\326=\256/F>\263\034\226\275;\005\025\276#\022\274>\334\002\t\276\177\206\005\277\247$\023>\022\312\325>\234\341\267\275\344(b\276\300\355\027>\350|\225\275\263*\t?\273\266&\277\304\322\227\276\013\020\314\275Y\002Y>,\320\332=\200\203t\276\357\371k=f\206\354>\0047\245<\303\030\332>\033U\203>\034\251\262\275\216_\366\275\316\322s\275\266z\320=\323\325\t\277O<!\276\205\212\375\273[\347\332=W8\215\275\246\3760\276+#\036?\255\022\264=\022(%>\267\326A\277\245\020\306\276\005\357G>\212\267\236>\"\216k?Z\032)?\304\t\346<\241\337\022>\020-\333\276c\277\244=\353}E\276\311\201\001\277\010\353w<\276\220k>jH\033>\025w\362\276\310\275n\274\230y\036\277\317_\270=Xm\215\2751\340\240\276W\263\256=i\311\243>\331T \277~\360\005<\251\2479>\221\336\271>\334y`\276|:;\276\021p\254\275Z\361\013\2777\0073\276\3523M\275\013t(?)\351\233\276]\r\316\276T\272\325=2\027\236=\334\276\374>\020\\\264\276\317Mt>\002\034\007?Lu\236= \265\032\276r\354R\277_\027w?\300\021\235>g\350\260\276\350\237\235\274\374\223\215\274\204uE>Y\350\321\276\325\\\200>\333\031\000\276#0&>`\215&?T\006r=\314\3770>{\023\235>9\254A\276\377H\256>\303|\022\276\037+\370>\361\272\356\276SkU\277\321\207\353>\332F\300=G\033\265\276\242\365\244\276\n\2077>\002qb=\232]U\276\316/\">P\314\212\276zc*\276\211\300\231<c\\\350>\r\225D=\r\370\237>.\364G\277/&\210>\007\236\227\276\\!\300>?\240\034>GeI\276E\316\343>\371\027\026?\225\002\343>\177M\371>\323y\343\276\333T$?\034\241!>c\321\021?j\014<>\034\331\225\2761F\006>\370\326\223\276V<|=%\227\264\276\270\351!\277&\316\215>\226\226\322\276\237Hx<\377\274\037\276\225\037\336>\205\313\002?\355\3265\275\360\322\275=Zw[>\030\346s=]g\205\274-\322\227>k\366\021\277\177\300\252\276\352\314\027?\033\232\320\276\251\303R\276V\303\232\276b!\300\276\344\017\301\276\013\321\020\276.\273\207\276/\270\312\276k\223\230>&\006\324\274\370\024\375\276~\315\177\276\037Wy>\244\336\213>!$\244\276\253\334\257=-`-?\004^\252\275\230F\334\276U\007^\276KJ\231>|z*?\036<\250\276h\027\351=1R\"?\233\335\272>\026\250\341=\036\006\245=\204D\024?&%Z?\302\226\233\276O\330/\277<\300\216=\307Jl\2759\255,\276\341\234\005\275ML#?\355}\246\276w\241W?w(B>o\260\266=\"\002\252\275\365m2\276\353\347\205\275\266z\021\277\204\342\367\275~m\000\276\230\3720>\036\217\010\277\265\272X\276\226I\025?C`B>\340+\267\276\\\350Y=\377\177+>\302H~>\236\010[?\355\256H\277\"\204\315\276\231\257\004=\333\245\024;\256l\014\277\014C\265\276C\237\360\276\266\361\014?\204\2104>\364\270\353>{X\263\274GF\001>A\257\201=)\331,\276\343\254\'?Y?\365\275\346S0\277o\2659\277\200\243\364\276\233\236\242\276\303\3603\276\324\\\203=\351\344\373=]\255\237>N\246\354\275Y\007\317=\321\374@\275n\220\255\276\037\253\351>4\264F>?Di=\341;\022\277\334\262\325\276++<?a\220\376>D9[\275J\273\215\276,\236\272<\002\242O\276E\030\223>\240eR\276\332\0068>2t\200\276\020\037\377<\362\321\177\276\264y\356\276\203\226\004=\325P\255>\353\350<\274&\223\032\276\370\035\230\276\347H\253\275d\321\260=\000\205\035\277\016\037\001\276\314\333!\275\216\"\236\275\326\271\363\276\233\014\275=9\201\264>\261\205y=\341\226+\277y\353\366\275\035d(>-\204\250\276\225\272\001>\335\250\\<\337\\\260>2\301\267\276\010\305O\276@\265\206\275\201r\316\276\257\363\306>\261dr\276t\344)\276\223tp>\340V\225>\333\301\251>2C\351\276\242\250\253\275M]\234=\245^\265>xy\n>\030\323p>-\344T\276\357\316\211\276\357rQ\277x\331\006?\004n\n?\236\030s\277\266\366\250\276>o\247\275\267\316\235\276eD\327=\335K\235>\005\274\333\275\003-\215\276\265\205\245\276\212I\010?-\367j<\211\253\212\276\254\351n>\242t\037\277\202\367\374\275\241\223\224\276\023\363\312\275\304\336\001?\254{\010\276\233\214\237\276\267k^?\326\361\320>\233D\224>\314T\303>!|\006\277J\371\005?/\246@\277C\367\002\277\031i*?sR\313>=^\333\276HT\312\276\2425\035>[\230\316\276\315\022^=J+\314\276\266\327{>y\260(\277\272L\270\275J\355{\276\227\251$\275\234\217%\2764\027\027\276\361\005~=\352\361\263=\240\303\314>\335\333p:\025J1\277\'%,?\374\350\025\276\037\214W>s\022w\277\356\002?:\224\212\031>\203\2777\277\266\374m>T{\027\276\023\255\003\277|\365A\277\204\222K>\2568\242>\215\225\322\276\201H>>\026\300\343;;\367s\275\242i\215\276$\231W\276\317ov;\261\242\032\277f`l>\301\357\020\277\377\346\362>c\316F\276\311i\227\276\255-%\2757\316.?\205\343a\276\3428\005\277DA8>j\177\352>=\256O\275a\3308>^I\214\276\033\305\001\277\310\314\327\276\375\024 \276:\315Z\275\252\306l>:\244\033>c\366\205\275\032\237\335\274\362\207.=\261\'{\276\303\264P\276L\320\344\276\037\353n\276z\367\211\275\261a\252\276\322\301d\2760\205\325>\331D-\275\226\221G\276\200^$\276\350\276\003\277\034W\035\277g5\220\276\024[\210\276\356\005\237>\372\263\306\276a\355\377\2763p?\276\310{\256>N\357b\276O\247\002\276\223\3021>\r@\004\277\017u\243=\326\033\321\274\333\377\016?\306\315\344\276?\262S?l\213\362>\331I\344=\364I\212\276\344x\026\277\274<\">iaa>D^\317\276\n\343\010\277f\004:\277\032\274\244<;\000q<\n\274\003\277upZ\276S\351\302>fd\034?\375\036\305="
      }
    }
  }
}
node {
  name: "dense/bias"
  op: "Const"
  attr {
    key: "dtype"
    value {
      type: DT_FLOAT
    }
  }
  attr {
    key: "value"
    value {
      tensor {
        dtype: DT_FLOAT
        tensor_shape {
          dim {
            size: 64
          }
        }
        tensor_content: "b\315\320=7\252!\276\346\007\311</i]\275\267\265\243\275\202o\227=C;8\275\226\263=<n,\036>K\342\036=\022o\241\275\266\364\234=a\200\006\275@\037\220=\247\021\220=]\t\017;*\375q<\255\0247=\006~4=\274=K=\234i$=4K\020\276\216`\317\275\3003H\2756\371\'\275\311\024\200=\360\206\301;\223\203:=\327\262\206\275\013\257\367;\273eE\274\033\020\336\274\205f\361\274\207\237\233</tR=\247<x\275{W\333;y\230\304\275\000\244\207\275|\0140\275\023\341\234\275\300\010\234\274\001\221\206\274\243*\241\2743\225\214;\275\034\214\274\311Sg=\377\210\213\274\tv\310\275\021\323\350\274<>e<n\367p\274\312\242\327=Z\375\361<\027LI\274|v\233\2755pt\275\346}\263<r\325\227=r\360\032\275\374%\303=\300\301~=T\245\265<WoV="
      }
    }
  }
}
node {
  name: "dense/MatMul/ReadVariableOp"
  op: "Identity"
  input: "dense/kernel"
  attr {
    key: "T"
    value {
      type: DT_FLOAT
    }
  }
}
node {
  name: "dense/MatMul"
  op: "MatMul"
  input: "dense_input"
  input: "dense/MatMul/ReadVariableOp"
  attr {
    key: "T"
    value {
      type: DT_FLOAT
    }
  }
  attr {
    key: "transpose_a"
    value {
      b: false
    }
  }
  attr {
    key: "transpose_b"
    value {
      b: false
    }
  }
}
node {
  name: "dense/BiasAdd/ReadVariableOp"
  op: "Identity"
  input: "dense/bias"
  attr {
    key: "T"
    value {
      type: DT_FLOAT
    }
  }
}
node {
  name: "dense/BiasAdd"
  op: "BiasAdd"
  input: "dense/MatMul"
  input: "dense/BiasAdd/ReadVariableOp"
  attr {
    key: "T"
    value {
      type: DT_FLOAT
    }
  }
  attr {
    key: "data_format"
    value {
      s: "NHWC"
    }
  }
}
node {
  name: "dense/Tanh"
  op: "Tanh"
  input: "dense/BiasAdd"
  attr {
    key: "T"
    value {
      type: DT_FLOAT
    }
  }
}
node {
  name: "dense_1/kernel"
  op: "Const"
  attr {
    key: "dtype"
    value {
      type: DT_FLOAT
    }
  }
  attr {
    key: "value"
    value {
      tensor {
        dtype: DT_FLOAT
        tensor_shape {
          dim {
            size: 64
          }
          dim {
            size: 64
          }
        }
        tensor_content: "f\221\263>\362G=\276\356\204\201<v\355@>\217z\n>\200\357$\276\227\323\327=\361\013\003\276\264*E>P1\346\274o\206\256>I\230Z\275\036\274\212\275\n\024\241\276_\025\n=\222j\212=\224\371\236=\"\271\326\276.a\210\276c\3330>[K\251\276\330\226\225=\361\024\000\276b\320\307=\251)\006\276\332\033\030>#\371\000=\003\037\002\276c\036\257\275\365\307\204>\212\311\202\275\273q\273\273\371\277\306=lg\242\273\373\226\253>\306\025`>\034\213<\275*\357l>\363 \020\276@\345\222>\320\305\220>\242\177\243>\r \237=\220\216\247=\003\3143=\203\242\027\275\205\000f\275k\265\212\276\377\232\230>?\245\013\274\203\357\023\276\354\213\217=\323Z>\276\274\366\320\275.\335\005=\372c\250\2753\260\212\276\304\335\245\276\205p\t=\020\006|\276\232w4\275a@\251>{\\\261\274H\314)\273\205Y\232\276\267\001\223>>w8\275H9\253=\003\206\021>-z_=\361\3463>\006\274\025\276\002\205U\276\022\020\255\275\363\036\3339\315\300J=%:\'\276\350\357\275>c\315\223=\340\342\265\275\\\252m\276\204\275*\276?\265I\275\n\335[>M\025\274\275\261\252\341\275P\344\254>C\031\021>\300\344\263=,\355\225\276:\370\313>]\267\221=\"\005\006>\367Oh>\273\335\025\276\221n\220=\020\265\243>cU\264>\302\240V\276\034\225\254\276\241&\177>\327\r*=\256we>\353\201\204>XV\307\276\222~\004\275M\333\275\275\327\2541\275I\211\241\275\300\375:>&9\031>.;\253\276\032\220\353=\\\267\353<\326\030j=U$\016>\'c]>Y]\240>\217\253\030\275\005 Y\276\210OS>\314\327\203\276\r\335\236\276\340O\202>9\317\273>\2333\"\276&F\373<F+\217\276\367G\\= $:\276\275\344Y=\230\215\360=\021\241\271\275\305\t\334=\227K\203\276f\360+>\361\311\221>]\374*>v\216\245>\\c\201>\017\007\014=f\037\030\276\237\210\245>\276h\037\276\036\342\224\275\307*\355\275\372^\003>S\263a>\342u4>O\300p=,\372J<N\021\241;\316_\234>z-}>f}3\275\372\370X=\3737X=\270\377\037>\r\205@=\232m\351;#\037\202\275\3744\034>\330>b>x\215+\275\277\233\371\275\033\232\200\273\001\2236\275\2275\277>~\023]\276\367z\t>\310\351(>;3\332<9\2779\276\2301t;\202\255\200>\033T\212\276}\347\234=\322#a>!\005\334<\010\252\271\276\320\006\222\275\335nv>\007D\276=\025\325\021\275p\300\022>1-h\276\357S\212>/\n\325\274\375\033\356\275\265\004\345<\220<\030>\024\\>\276\233mV>3\213K\273R\177\243\275*D\225;\364\177\322=\364\211\247\275^S@>\033\367\t>\232W\272>\310\243\266=$\324\227\274\006\032\377=\032\335\377\275\362\2408=\217g\014\274\266\322[>\366\027b\275!\357\005=\235\304h>\271e\317\274\242-8>H:$\275N\310=>Fy\321\275\022\365\234>%\t@\276\236E\320<\032*K\275@\2066>J*\342<`|B=z\324\322\276\023\013\264\276s\2771\276\'$\000>M\251\'\276\202T\277\276\215Z\374<\322\242\240\274\222\2243>\230`k\276w\005a\276\242\"\272>&6E\275\'_5\276\266`\225>\n\233l\276\325\254S=aH\210>e\231.=i/Q\274\377=\257>\212\'\255=l\007D=2\017A=\3327\032\276\371\367\212<4\274j>\262.*\276fk\006>o\2445>oo\n\276\301\023\230=&o\327=\223\346X>\031r\214:\364\314\317=q\177E\275\250\313\261>\240\353.\276Q\221\t\276\266L\'>MD=\276\217\007\361\275O\003\240\275\025\337\265=\003\356\225>\300\344H\274m\000i=l\323$>\333-\222=\2332\233\276G!`\276\301\212(>`\343\365\274\237h\336\275\277\025*=\000\277\005><\202\252>\353C\242\275\240\322\264\273\240\205:>w\267\231=\0324\357\274\202\233C>\271\020$=\244P\324\274\257\324V\275\020\315M=;1\232\276\313*\222\274a\276\332\2769<->\007\326\213\276e]|>\341Z\213>\207\321\023>f\020\234\275\327B9\275aN\251\275S\361\222>\213\266\212\276f\2042>\010n\265>\222rR>\262%\257;-\207\201\275 1\212>;\273\013>\322k\223\274\270\"\030>\320t@>\036Y\371<\000We=d\276\334\276\270\026\322<f\036\027<\323B\270=\276\311\252\2764\317g>\246\221\377\275\331H\214>\270J\260>.a\330=%B^\275\341VV;\336N\215\276\356\016\207\275\215e\335=\017\000L>\201\324\361=\255ii\273\200Z\336=%iM>tJ}\275\006\202p\276\026>8\276\200p\227\276\302L\225>\311\202x=D\200Q\276{\327}\276\304\340\316>\252\207/\276\210\231|\276t\264u>i\200\r>g\255\305\275\200(5=\317\333\213\276\253\324\303=\253\246\352=\304h_\275\244\017]\275\250R\245\273Xx\274\274\017\021\314\276\023=\347=\376\211\320=\331\231\003>\376\361Q\276\335\354\203=\341\330R\276\037\231y\276\317\232\311\274\021\034G>t\034\334\275\257\252\355\275\016\024q<\256+\351;\324\213K\276m\226#<e\363\356\275\372K\315\2744\355\025=\261\221\237\275\242\374\364=\253\252\207\275U\360\027>\360\301\244>\0201|=\200\215\223\275oAe\275\036\037Y\276\304#\'\276\216\342F\276IL\230=\360M\020>N\351\343<Up\234\276\355\202W>c\004\017=\272\r\263=I8\207\2769\366j\276/X\037>\245k$>N$(>\026\264\212\275j\271\225\275\004\273\254\275\363x\217<\\\254\215\275p\206\347\275|\375\307>@\352\240>\277\240\"\276\266P\202\276Ak\357=\">M\275\213!I\275}\000\207\276\244s|>r.\344=V\023\024>\275\317\221=\330\037/=\303\276\301\276\327\266r=#fN>\013\027\034>v\332\001\276\320p\255\275\221D-\276\200\217I\276\253\366G\276\242\3634>gjD>A0g\275\375F\372\275\264Z.\276\242\310\032\276\221i1>\215\232Z>y\337C\276|\334\224>9\365)\276\3715\225\2766\360\301>\305\017\267\275\323\330\362=\217J\031\276\317i>=je\334=%I\323\276r\225\317<0\301\247\276\207\310\306>%so\276\337#\311>>\265\230=\3322p\275\370\275\347=\346\240\014>\342\330\r\276\232\343\263\276\214\376\331\274=m\022>M\314\316=\366:\271\275:]\272\275\030\216\261=\\\202\320\275\251\234\374;\277\232\225\275\314\225F\27658\367\275E\'V\276\200&\237\2768\371\374\274r~O\276#\211P\276\0044\031\276\265\341\331<v\013\267\275\002\177\232=\252\356c>\345+\336\275\223\204\000\276Z\324\255\276H@C\276C\334\375<\035A\244<.\'K>l\353\221>\214\345\226;j\016\356>\240\003k=\334\372\020\276\247\237\246\275(\317\246\276\331\2000>\301%\275\276\314o\307\273\241\337\204>\205kS\276\316\375\324>\322NB\276\207\332`>\\\245\002>\257\272\263>k<I\276\250\207\227\275\321\352t>\375\370\264;\330\336\215>+&\234:\320\362-\276~\303\267\275\220\r\'\274g\204i\276\362\234p=?9o\275+\270\325=\254Z1\276\243\336\236\274\034\201J>\025\302\227>\177\316\036\273\212V\017>\212d\346\275\334\266\r\2762\211\213\275p\351\370\275q\277\260\275\275\212P\276\332\345\036>\367\377\035=\266r\225\2760k3\276\027\311R>\003\243\267\275\302M\207\275k\241\224\276\357|_\275MD5=wv2\276}e\017>\t\256F\276\001\243\372\275\332\344R\276\316H9>\307\307\177<\317^\304\276J\020\235<x\266\231\275=\246y>Y\3453\276w\0319\276m\362\225>\301\311:=\255\242\033\276\r\271\272\274EE\245><tO\276\260\215\001\276\217x\251\276\210\300\250=\022\3062>G/\010\275\346\236\351=@\t\'\276\305\352\360=#1\034\276=_\001>;e\017\276PM)\2753d\215=\022O\272=Rl\214=\236\2313\276\250\271G>\031\003\006>\r\177\311=/o\206\275\247\336\344\275\246\327\235\273M\325\254=\343\232l\276\300\036D=\315\341\255>\333\270.=\357\362X\2737V\374\275\257\317\023=/\313\216>\235ew\274j\214N\276\227\204{\275\225\350w=g\035\027>c\337\220\274\035\360\314\275\357\263\241\276\316\271\310\275\005\232\r\2766\275\203>\337\023;\275\225wm>4\315\226\2752\351F>;\207\300=\212Xo\276\014\013\242\276V7C>#\222_=\332+Q\276J\010\244=\303|>>\355\006\t=8\214\237\275\274\245y=\327\343\275<\354\364\321>A.|=YC\177\275\267\234\271\276\340S\336=^\225\307;\246[)=-/\236>\254$\362\275x\376<>\010\351><vq\326\276\255\367\273>\030\264<>\205<\033\275\255k\256=y\245\234\275\204q\263>\242N\205=)\220.=\264\003<>\307\300\032=K\235\033>\212Y\003\276L\260x\276~f\220\275\302p\301\275\2454\024\276\233J\377=\371\256D=\314\341\206\276QN8>\0273!=\320\034H;\273)\307=MGF<\371`\244\274\326\005\301\275\226\252K\275F\027\225\276\365a\010\276\346><\276 \221\277<\214O\206\276|Q\016>\200\017\021<\341\344\253>`\256)>&\334\346=x\241K\276%\334\214\275y\r\023\276\255~^\275\345\254\347\275r\356\260=\366\327\247>\027\221\225<\313lJ\276\271G\311=\026\340\014\276\320}.>D\325\247>\256C\241\275V\220\361\274F\310\252=\232<S>dT\030>\256\376\221\275.z\025\275\207B\225\275[\300\202>:\251\240=\026pd>\034o.\275\303\207\200\2751\256\331>\374\361\302>\273&\215=N\207&>R\376\005\275\264\272\267\275\367\357V\275.\355\214\274\332z\337\275\324\356H\276\312*J\276]\325O=a\013\241\275}\214)\275\225\016\315\276\377\nx>\'\257\363\275Q\373M\276A\022\246\275\177\304\302\276\'\036\275\275`\360\272=\262\306}>\2129\201=\'\272c<r\2513>\360!\340\274,\364q\275\365\032\000=\270\272z=\020\262\364=\275\013a\276\246\352A=\253\340\013\275l\372\276\274s?h=\312\3369\276b\267&>\004\372\313\274\266{\242\276 \261\234>\327\266\007>\261x_\275\204\353@>Of\323\275\020\377\230\274t\r\207\273\177=\250\276\352\357\263\276\344\207\376<S\265\201\276YK\035\275Qs\321\275K\274/>\320J\024=\017\250F>\024\002\232=\013g\\\276\304\340D>5\372`>g$\203\275C\275\250;\344\204\002\276\000\022\231\275\330\2337=\240\206p>\026\370[<\010\\\366;w\034\316\274y\257->S\014\013>`\226\336<\307\027\263=\254\303\202>\2208\235>\377\216\235\276\377\325/>\203@D\276\260H\272\275\303\365\210;\321\241\205\274\227\310\177=A\324\177<\360@K>\304\353\366\274\323\002m>\266Q\215>\020r\217>9\354T\274\222\244|\274\"\257G> \")\2706\231\213\276\201|\251\276)\277?\276\263\237V>\277\304\026>k\235#>\366\347\n=\271\335f\275\265\236\322\276(\200\244:5)}=9`\027=\353E\365\275?\310\333>\375[\226> \332\326\275\020\363\n\276qM\206\276\021I$>\244\016\203\276\327T\177=\2707\010\276\333\215\022\275\007)\246<\377\374W\274\006\023\243\275\225\354\325\275\350@\037>\217L\223>k\262\\\276o\330}=\310X\321=Y\315\322\275\247\366\254\2760\260\260=\t\224$\276\306\205\036\276\246\032C<X\336W>,\323L>{\021\035=m\215\027\276\\x\205>6\177q=\t\276\206>c\236\025>\271\277-\276?\334\004>\2659\346=\\N\r>D*\242\275\337\307\326=\025\301\235\276\314\254\002<uM\275>\r1\322>cp\242\276\000A;<\030\254\225=\030\264\033>\266\354*>\177\010T\276MB\033\276\264Q\254\276\025\347\330\275\212\010\345\275\024\035j\275\343\216\024>T}\035=\370\342\006>\333n\270=*\323<\276\n\361\354\275\336O\321\274\327\201\005>v\236\020<$\213\033=\240*l;\020\254\237=\321-\302>\261\346A\276p%\275\276\307NS>\230|>>\006A\014>1Y\257=\345\224m>\205\355Z\276\004\005$>\355\027\200>/E\212<\202\234\302<\243\023\371=\030v\006\276\030\"\271=I\017\333\275\364\372W\274\033\231/=5L\247>\251\325\'\2762\261\230\276(\340\004<8\035\235\275O\256\263>O\024\033\2768H\257\276E\303\017\276\376\204!\276\275\343t=\255\324\352\274{.(\276i\241\023>G\374\301>\377f\214>u\005|>uk\346\275\330*\000\276>?4\275k\205B=4\265C\276U\305)\276\306\036\252=\207G\216>-K\231>\302\3365>\221\201\213=\227j\335>\227\251*>\304u\037>i\256\202\276\303w\022>\216\207.\275\213<E>\361\360\253=\207\220\234\276e\235\244\275\337\t\332\274\010v\212\275\264k\366;\306\277U\276G\"k\276\343\355\343\273P\253h>:8m\274\355g\231\275\"\020\313\275F\240y>\001f\">\275Z\306=b\370 \275\030\334\346\275\357\235I>\364U3>\305q\245=\345-\007\276\326\377e\274\337\3016>\347V\274=@7\231\276uT#>Q\376E\276\314\253l\2755r\337\273H\240M\274~\201\007\275\302\017\247=\2712\243=0#\266\276\237\355\251\276\235\346\025>\2737a>;;\203=\nB\024\276\365\033\345=\224\306\227\275\306?\331=l>\212>;p;>\312r\235=\325\273\320:O\\(\276\t_h>&\341t\276\312\364\317\272I\330-=\020e\331;\227\274\222>\340\021\207\2766\2004<\310\3736\276i:\216\274.\323_\2764[\264\273\\\202\276>\r\216C\276z\246}\274@\002\347\275\210\262\334=|\253\"=\000\371\201\276\262\025[>\250@@\275$\002\274=P\301\\\276\251?\203;\230\206j;O\344\335\275\326 G\276q\377\033>>H\242=.\354\206>\032\343\207\276\246\027\220:V\n\207>\212v\257=\360\017\253<$\346\273\275\005d\224\276\237tE\276x\206\355\275\370\026V>\343xo>\275\3749\276\327\310A>U\2311\276\t\\\013>\260\252+=\341R\272\274\266\376\036>6\370W;\t43=\352l\346\275\322C\331\276\030\265\005\276w\223\267\275u\275\247\272\024\213\r=eI\016>\013&\204\275/\212{\276\263\233\262>U\026G>@\272Q\276;\335\205>t \235\275\325{\227<\375\335X\276UjQ\276~sh\274\212\017\211\276>\327]\276\241?\377=f\024\223\276\321x\216=<\374\000>\246\303\036>\202\245\233=\206\263\311\275\363\246e<`w\n\275qY4\274z\277M\273\334\305I\275\346\322\034>-\372\250\275vC\024\276O5\034\276~\202\214\275\274\037\347\275\222\211\256>N\226t=\367\312\241\275x:\224\275\225}P\276\310#S\276\206N\243\275\220)j>7\200)=P\016\260\274?\317\001\276\304\305\025\276\026z.>\321\322)>\000d\310\276\312\266\246\275\nb\240\275U\353\001\276E\251\025\276\3114\207=\261*O\275\r&>\274G\004\350<\351\247\344\275\352\261\240=P|\020>\260p5\276\351\r\330<1x\210\275\337ag\276\303\260\023\275\r\006\254:\3700\256\276i1`\276m\320[=E\244\247\275\0138\210\276\246\376\021\276:>q>\252x\216\276\230\312~>Y\014\237\276\003\233l>:\204/\276\013_\202=\275\030\315=\004\370\256\275\266\311\034>W\016\212\276;\311\021\276\322\306\000\276f\244O\276\225\304\367=\263z1\276&\036\213\275H\372.\276W5\332\273\213\021\217\275Z0\004\276\355\201\272\273 \272t=\031>\021\276\237,\004>\262\232\220\276\017\027~>D\225l\276]\302\302>\352\220\022>\375\207\032>j\313\224=\225\177?\276\323rL>\310\223h>\210\230\322\275~R->y\236\232>XXu\276d\351\217>)30\276m2\236\275\014\022\236\276\255B\351\275\257@\207\272~\356z>A\"\212\276N[p>\235\373\224>L\r\250\274/7\365<\332\022h=\240\374v=\206\260\205\276\346\215\017>\350N\n>\271\364\301>Yr\376\275\364\254\241\274\322\232\014\275\342\027\013\276\034,Q\275\027\004\021\275\214\252\226>(\372\000\276\253\334\251=*\367\002>\273U\211=\211\325-\275{\002R\276xL\232\276\250\272\235\275$y\035\276\205\336\275\275;\232}>\277\211\014=\014\001\303\274,\242\005>)y\346=\275\314j\276\332\340\323\274\375\331G\275>\223\314\275u\374\262\274\"\376\201\276\277d\364\275\3134\217>\355\037\027>f\372 \276\274\000$>\353Y\314;\361|\253\276\307m8\276\256\275c>\361H\237<\351\230\017\274\025\266Z>\352\211\353=\307\205\003\2757\241\000\276\276f\">\231P\033=R\030\277>\274hj>\n\347\247\276MDL\276\356\356\303=\0333:\276\010\343\205<\220\031\312=\361]>\275\214\226%\276\372_\304\276\236g\223=\245\241\200\276X\001\016>\25185\276\261fq\276hc\340\275\007\324\304<\312\003\024>\331\263\235\276\353s\257\276n\037\301<\203h\215=3\271\303\275J/->\010\341:>\275\356+>\204a\257\275\202\301\021>\240D#\274\241\377M>\202\257\206\276\361\002\252>$\"7\276\271\017\301\274n>e=\210\271&>|\365\227\275\035\236\267=\324\371\242>\252\324\005\276!\320\225\276\033\tc\2760H\267=g\235\212=\255\253\233\276X\2131>\301\266/\275/\315\216>\024\241\206;\005\000\202\276\rD\022\274Ge\374=\322T\343\275v\357\n<\341O\215>\017}\253>q\317\217\275:i\021\2746\315M\276N\243S=b\266\340;)\350k>\007\220\014>\032M9>\344\265\251>\232=\007\276\330R\224<\252\335\331>\271.X=\211\235\004=\262?\252\276*\202\301;\273\354\004>\r\222\212\274A\205\302>M\331\247>#\n\006>\0234\214>\t\301\326\275\270\306\036>\t\237\020>\023\361\212<\367\237\024=\314\231\335\275l\326\013=\312\333\224>\241H\202;\370\306\017>HY\214\276\374\235j<\317\320\334\275=\342\301\275\205\243I>\343\311\275\275b)\242\276\257\202\315\275}\200\245=\260S\210=F\366\205>u\027\025\276\372Mk>+B\375=\255\004\000\276NJ\275=\0057W\276\314\250\362\275X\026t\275\306\351\245=\312\3446>\305&\207>\266z\027\275\267@\240<l[P>\371\275\033\276U\035\226>\335\243\240\274~u\224\276\336Bj\275\235\020\250>\227\260\030\2744I\361\275[\350\314\275E\024\371<\2410Y\274n\247\211\275B\375@\275\337 g\276\322\227[\276\376\261\311\273\376yO\276\256\246#;RM\367=\221\257\272>\247\313\257=\273\\\232\276\345\320\037\276\266I\204\276Q\201\357\275q\307\236\276\340\344g<\271L\216>\242\234?\275\004*\205>\362\022\037>\313\024\002>SC\254\273\270c\324\275\337<\251\274\260\345\2349=s\032>3Yu\275~%l\276\020m\230=c\2232\276\242\307Q\276\373\213\371<\246q.>p\257\316<M\2522\276\243(\034\276&\307\315\274\256\374\301=\023h\034>FR\326=\272<\020>\312M\247=\360\252\337\275\r\240\271\275\224\016\007\276qL\217=\331\032G\276\010\320v=\032T\261\276\343\004\352=5:\004\276\364\206B\275B\0218>\013~\003=\327\327M;\204&\032\2754\273\201=\000Z\230>(&\231>E0o>\365\334\211>6\016Y>\204Z\022\276\220\236D\2754\370\366=\274\334]=wF\242>\325\334\003><\325o\276Dm\272\276Qc\327=>\237\262=\220T{\275@\007\344\2756\351\250=l\251\374=\374Xc\276\234L\203>\030\376\246\275\327\030\315=j\203\350\2759>\253\276;M\326\272J\205\266\2764\0042<gv\005\276 Q\367=\274!\n\276\212\323\375<\327\233\037\276#]\341=\330\304\347\275\3613\265>\355\320\213>c\244]\276dd\307\275\003c\305\275q\235P>\314g\205>\032q.\2748\220\202\275A\013.>Qm1\276\240\021\243<\246\240j\276D\343F\276\333\353\236\276N\225a\273!Y\207\276QNl=F\354^\276(\272[>\032 \331=HH\003\276mY\326\273\221\240\264\275Z\324\266\275V<G\270xm/>B>\262\276\211\004\207\276j\354\360\2756\305\201\276+\363\r>5\036\t\275\374\204\205\273\025\037\315\274\256\026\221>!\244\233\275K}\033>\214\256>\276\351\314\222>v\017\207>\375\031\247\274\330\256\244>h\310F\276\362)P\276o\027\217<(f\020\275\244\373\247>\26622>\233\'d>w\233\275>\266\363N\275\2262n>\r\000\201\275\207\021\014>\030q:<vj\265<\256e\026\276\363\236\271\276\242\017_=\303B2>\213<\007\276\311F>\276\036s=\276\034\343\014>3\367\243=\354U\320\275Ll\217\276x\307\230>\337\020e>H\034p>\334\017\313;_\330\274=\030\363\343\272\203u#\276\345!\347\275X4\227\276\002t\263\275C\010V>67\232\275\275m\340=A2\372=\250\265\225\276\003F\">JX\n\276a\217\310\275\247Ie\276\276\223\211>+*\237\275a@<>\230\213\300\275\315f\252=\035hq\275\322w\366=-\227\221>\232\273 \275\371|\206\276\021\024\201=\336\206\312\275\201\032\022>?\216\327\275\326\216x\273\341{\336\275~9\305\2754\374W>\334\022\002>cX\323==\233\007>J\346\371\275\366!\031\276\211jA>\361\342;=c\216\272=\026p\253>q\004\250=\275,\202\275\0012O\275o\n\035>%[\207\276\220\260\325=\206\302\004\276\264\361R>\320\333l\274cZ[>\340\035A>\215\272\311=G\243*\276\370G\205=\004]\335=\205R\264\276y\225\306\271]u\313\276\241\220\303=\317~\005>-\304W\275`\0001\276@\207i\275\222\327\223\274\006\305Y>\253\310\325=\037L;\275>\307\245\274\361\213\027\276\212\2059>Y\244\262\275(~k\275\306\301\025\2760\251\t\276]:\265=\314\271\017\274\237\353\332\276\327\301\264\276\375\017\263<\350\204d>\377\342\276\274\352\376\372\275|b\232>\345\315D\276\001\nL<\034F\206\276\310\t\243>j\016\273\276\344C\300\275\013j\216\275T\257Z\276(/\013\276\270Y\276=+\230z\276\277\307\222>\241\233I\276\250\2207=\214\215\032\275\tq:\276\257|\214\276\363\247\014>pP\357=\357\000Q>1\276\220==\255M<\301a\370\273\013\246\264=hFR>?\010\223>\201\243\017=$)\t>\024\2050\276j\314X>\253-\321\275\256\035(>u\263\214\275m\310&\276\210\2320\276E\377\035\276\372\260\341\275\202\225,>-\215:<\005\226\223>\344\270b=\210I\224\276\324\035\233>v[#\276\352C\031\276\236s\262\276\304h\303>\207\327\301=H\374p\276\000\214l=Z\344?;\006bD\276_U\265\275\274\340\033\276z\217S=:\323z=<\010\326<\261\223\264=[\002\220=~\2329\276\372\331c\276\340\201\022>c\321f\274\367\001\202;R\367\263>\006\251\254<<F\211:,\355\236\276\245\302\004\276=J\212>\353\300\354\275=^\211>\273\337\031>\204K\026\276\341\202+\276\017v/\276\0027W\274QR/;\302\376<\275\346\260D>\035b\264=fM\313\275*\002\005>\037H\206>\274\345\n=\245y\231\276O\251\211>\277\244S>\343I\006\276\233P\230\276@\032\276\274\334T=\275\270\330\026\276\205\261N\276]\216\232>\226\222\231=c\335\231;\376C\225\276\375\306~>\2460\252\276\215\201\037\276\\\302\260=\361\024k\275 \332\257\275\311dJ\276\204z>>\262\034Z\274\377B\326=\350\016\026\275o\007\000\276Yh\256\276\222\363:<\244\253\203\275\035\252\231>\376\354\242<Y\237i\276t+\240\276\266\256\"9\320\014\307>\354\207;>\177\035\224>\205\220\017> g\235=\300q\206=\204\r1=\252\340\341\274\030y\016\276\352\232\235>]\240/\273\344\200J=\231\277(\276\022\304\265=K\357G\276\245\3605>0u\262>5\244:><\240w\276\003\177\020;#^\360\275\323r\251\276\365\335\267>d\322X=fbA\276\275\327\240=G`\217\276uKb=\320R\007<\333)\235>\212fv\2760Jl\276\314\006\200\274C4\314\275Nu\207=n[\320=6\222\031=\337Q_\276u\210\216>!\342k=\346i\200\276\033S^>\014\306U\273\357\336\216\275g|\201=\341\371U\276\307G\033>b\024\324\273\031\377\362=|\037v>;h\240>\370\360N\276\3116\004\275E\327\234\276\331\016\222=\2314\010>\337\267\230>\331\001\203\276\0264\343={\255\241\275\007\366j\276\327\361\036\276\270\371\242=n5#\275\333\005\265\274N\371\202>\303\233\001>\367{\232=\002\364\355\274\013\342d\2750\216\210\276\366l\006\276v@ \275O\200\027\276_\317\232\275\370\227^\276\331\273\225=\002\344d\2763\200\233=\363\330^=f\317\217=\007Y\210\275\213*\231>\256\312\235<\325\023\003>9B\177=\263\001&=\312\215[>}u\232=\016k\004\276/F\030\275\023\353\203>\236CH\276M6S\276\2673\301<\267\"\304=\202l\237\275\257>*\276\315\201V\275\tH\327\275QT\013\276\255\225A>\225\376l\275\"\367\261=\'\036\004\276\026\263\035>\252aB>\274\305\216>\340I\206\276t\311 \275\0230\222>Q\244\026\276\000\240\020\276\356F2\276K\326\206=\261\016\227\273\246>`\275\240\356\243>6d\013>\313XF\2764\354t>JTt\276\017w\201=\340Wd<4\252\322=\300~\027=\310\r\257>\256\371\373=\327?\254=\264\222\211=\346*\374\275\203t\236=P\356=\276\034x\001\276\331&\276>\002\0014=\0059\214\275\204;(\276\234\002$:y\\\326=^\032==^\217P<\235ud\276\233\377\033\276\340\214\t\276\026\t\303\275\t\r\236\275<`\2658\377 z>\020\270&\276\265\004\016\2760e\250\275\004U\226\2752\226^\273\257z-\276\320[\021\276\224\2369>\2743v>\315c\022\276\000\225<=\225\211\034>\332\314\300\276\331:G\276\357\274\216>\331#\257<\233\004\'\276\013\354:>\332\263P\276`=\007\274\341\327\364<\324\034\366\275\313\n\336=\010\364\210>\374\317\035>`\272\001=\350\035\\>Q\036\223\276\t\'\036\276lyo>H\316\272\274\366\274F=(U\200=\341[&\274\365f\205>#C\314>X\266\334=\032\206\226>\205\372\241\275\306W\265>\351Y \276L\213%=\311\267}\276i(O>\216Nd\276Zk \2769^\302=5\213\022\276\034\341\301\2729\277\235\274\024z\222<B\246\020\276\375\226\203>\030I\007=i\'\263>r\225\002=\"c2>\302\361\377;E\237:\276X\026\243\275\375\340\254>\365;d\276\235\347\373=\370b\250\275\233\307\022=\274\224i>Y/\247\275\311\207v\276\252\353q\275\264\242\231>7\304\212>\332\261\200>\321s\375\275\342\320L;\327\032\014\276\204\310\336=\372\376\237\276\000\254$\274uw\361=\357\223E>\212\203\201=\353A\271<\247Q.>\020\314\306<=\036)=\202\365i>\205\234\204\275\233k\310=g\252_=\355\356q\276|\027=>_LN\276z\t%\275\214\330\030\276\206]\334\2742\365\267\275\202-\272\276\006\2441<\341 \256=L\025}>\320+$>\n\310\n\276vtG\276W\010n>B\316\033>\354\276\253\276\234\366\356\275\025G-\276\215\336i>\250e!=.\373\235=\362\255<=\004\351\203<\372}\216\2763Ee=\322\350\025\276>\021>>\360F\027;\226\347\357<\000\242l;\340\335@>\313\305\007=gh\253=\014\257\010\2769vH\275\242:p\275\266x/>\306iZ\276\177\256L\276\250 \213>\004\307\206>\226\212-\276\225w\\>\257\204!\276G\246[>o#e>\2140[\276\342p\n>\004\310\261;\341\025H=\263\367\211>\271Sc>\346\204L<\370?d\276\375\216\036>+\037:\276pQ\377=\350\321_=\2156\r>\335\376\360\275\350\346\210\275$\276H=\2427\270\276>#\234\274K?\352>\036\275&\2760\025\203=\337ST>\023\033\207\275\226\202P\276\033P\312=\030\330\302>\034\200_>\334\003\354>s\241\265\275\033\303\275\275\266\302\254\275\264a-\276Q)\301=\327\222\273\275\344O*>W]\224=\223\215\225\275\200C\275\274.\360Y\274b\2314>\332\347\242\276n\233&\276W\004\'\276$3\365\275+\326\364=\216\033\240>\366\235\036\276\222\320\353\275#\234\242\2741\340\245>\267I\016\276\"\305\260=\241.\001\274\033@\222<\257\373\275\275\221H\372=\247\004\304>\335\347\370\275\027\250\230\276\223\237)\275\034\235\271\275N\363\177>\347\236\345\275$6\271>B\314\255=\355!+>\231\273\020\276\303P\271\275\365\351C\276\r\264*\275\014?!\275nJ\345\275\010YR\276>1J>6\311,\276\257\310*\275\336\025\n>\256\020\231=$\376\344>\022z\244\275\2660B=\357K\305\273\357)\265\276N(W>\033\320\003=\365\265o>\335~\'\275\023\314\265\276=\310}>^\310\356<\215U:\276\023.\227>\235D\215\276\226I\354\273:w\007=\311(6<\321\235\300\275\350]\326=w\025\372\275Z\2558>v@\347=\217\372\246>\016U\217=\225\020Y\276\340\310K\275\356\362\214\276\271\370d>%*\273\273\303\202 \275Xm\032\275G\227;\276\363\237\275\276\223}\345\275cI\275\273\250\276\007\276\243\226\034\276X\234\237\275\271.j>\236)\t>\264CJ\276n\232\r\275\236\272\025\274\232\353\203=\324\\G>\241\241\311\274\007\334W\275\302\010\016>\246\310\215\276\206v\243\276i\004C\275\325\t\341<3\353\315\275}eO\274\224X\252=^\025\243\276\356\345\232>\001\227M>\225\262T=\272\323.\276\212\007.=n^\033<\222\362\217\275?\324\036\276p\304q=Y\327\020>\301\231\205\275\232\275\006>\t\276t>\225V\234<\025\331\213>\255\335\237\274\007\331\216=\241\263\206\276n\355U\276\347K\225>,\031G\276\330\226\251\273\014hB>k\013u\276d$\240\274\310\330\306>\220\0219>N\240\311\276\212\254\017\276\315\270\253\276\013\222\344\276P\312\240>h\271O>\374\346\034>\006\351\271\275\210\'C\275\004[\020>\223\354\333>]\0212\275\203\311\364\275[d\252\276\336\207\365=+\266\324>jv`\276\024\261\323=V\030\032=\002I\266\276\211\000\351=\204\231M\274\212\322f\271F\233\005>\346 \325\276\253\2555=M\236\020>\337\317\255\275F$\313=\240\337\005\275\007j\333<I\354\214>\000I\222\276\363\353\246\275#\326\211>o\'\006\276\242{s\275w\'\274\276S\343\226>UC)\276\301\257\372\275i\330\230\276\367\352\212=\263\037_\276\201\"T>#\223T\276\327\360\244>,BY\275\327\324\352=;\234c=en\206\275\315\304\272\275\370o\266\2751\"-\2751\267B>\364\002h\276p\317\r>?\264\251=9\013\025> \246\335\276N\033\221\276v\222\211\276 \266\007\276Nb\211\276\202h\201\276X\342E>\271b\300\276\367\325\220=b(\211\276;\326|>\375\351)\276\343\265~>\016\027.>1\351\010\275\'\377\000\276\374\332\207>C\310\264\275RP\333\275\367\303\263>i\376k=\363\373\345\275sDn\275\233\313\352\274\324\224\346=q\207\013<\002\277s\276\204T\364=\242\030\000>3\034r\276<-\251\276\022\272\377=|\r\250>S\212\001\275+\206W\276\257HB>U\022Y\275\346\273\235\2753A,>d\261\342=\316p\223><\245\335\275\216y\321=\277\3446\276G\177\202=\302\241\236\276zh\245>V\3129\276\212\217\303=6FG\273v\372\275\2768K\216\276\374[\326=\016\3240\276S\331\303>t\335\323=\205hL\276{\203\005\275;\264\374=,J\r>k\364\320\274\016\352\006\276v^\224\275\263\266\201\275!\206\214>\001\321\325;\361\204\270=8\214~<\350\253\315\275\2554.\273\300\006^=g\250\313\275(Xv\276\'\324#>\203\327\006=\275\251\006=Q\227X\276d\276m\275\025F\252\276)`\025\275z\361\225>k,\315<!\351<\275\257\224>\276\277\360\204\274\217@\214=^\257H\276\3405\226\275\312M\334=\214/\265<\275\317\204\273hJ\324\274%\253\324\275\204\203\315\275\256\033\206>\024\210f\276k\241\236=\315\311f>\337\360^>\205\206 \276\364\263\244>\211\252\251\276\341D\211=\251\252\003\275g\004A\275}v<>\206\342N\276\t_\270=\001\314v\276\364\267]>s\352e\276R\032I=\314\375B=\240\365j<\253Ip\274,9\341=\306\314t>E\265\230\2755\010:>\370UW>\352\223\271\275\335\3271\276|>\311>f\317\r\276\007\237\">\235\263\262<\211\244s>.\211\250>-\377\021>7\362\325\2768\253\343\275\250\241K=\317UR<\275-\223>\241\203\210\275Rl\210\276M\016\t>-i2>\264\240/<Y\367\022\276\217\251\216\276\222\217\370=\256E\212\276\330\252\277\275\036\227\\\275\022\324\005;\360[\036>\023B\250\2754\266f\275\n\344\037>|\036T\275\022\377\311\275\246\277\260\274\356\221S\276i\026\216\272\262\032\206><\005\034>\354\362\354\275$z\375\275\251\202Y\275\303\250\270=\024\261\242\275\215\271\355=\000\033\267>\034\257\200\276\320\366\256\276\240R\246\275\3437\n\276\017\244\246=\345\373 \275A\255H\276\361\337\212>`\315\007\276\034W\334=\317c\221<\274\316\261<\031\233\355;\354\023\027>\277\204B\276\212$0=G\031?\275L\255\276\276Z\344X\276,\365z>\245\020\316\275\322k\305=\214\237\212\275\215\004\022\275Xw\224>\342\021n\276+)\306=p\235\005\276Uf\210=\223\031\317\275\272\301\'\276d\3660\276\220\027$\276\274\225\004>2y\211=\377\210L\276\005iI\276*\034v=\266\2370\276\3044\270\275a\006\002=\203S\016=!\246\331=\000\014\024<\357\t\221>6&\031>B\337\305>h\233\025>\027\323\203=\323>!=\r\316\337\274\216u\234\276\262\031H\273\246\254\342=\342\311\245\273\343\360n=\235\351\266=\273\221\262<\303\0322=\307\\\200\274U\031\374=Kl\006>\025\254\'>\306v\223\276B\2239<\300\036l=\375?\370\275K\366+\276\032\251r>\364\226?>>\363\200\275vIo\275C\'\004>\037`\236\276\2442\352\2740\'\t>v\177z\275\004\342\235\274bx\334>\331\223\232\276H\265\177\276\01435\275i\242M\276\330\371\316\274QQ`>\\\231/=CCm\275\024\010\234>\276\010 \276\023\231\300\274i\316\204\275uRG=\231\310.=\325W\324\274]\032\202>\372\002\016\276;1;>\321\356\003\276\200\234\363\275\332\005z>\324j\220\273/\367\234\275\225\243\277\276/\030\210>\224\203F>-\355\017>\371PU=\034\223\035\275\236\231\014\276\234\021.\275\032\323\373=\354|\203\276\032\030\302=\303\347\247=Yk\007\276\3063\235>@y\016=a`N\276\322\342\210\275%\363\200<\306\323\273=\353O=>\231\304\037>\226\207\006>.\236\303>AA9>\205>\311>`\000\210<`p\337\271E\221r=\301f\363=\346\257|>~\017\300=D\262N<\326\203<\275\316-\277\276\245O\004\276\rQ\325=\330#n\275E\371 <*\266#\275\313\n\267=T\007!>,]\023\276Fl\366\274\327\270I>Zbb\275n\200\257\276b\025\366\275\224@\210\272G\031N\276\271\333\371\275~\253\200\274m\016\202\276\254\017I\274\177g\016\276D\2204\276\003\256\357\275\203\237\224>\006+\351=\366\007\026\276A\310_\275+Q\323\275\016\365\270\276\343\204\227\276\247\333\375=_\200\323\275.\277\201<\303W$<&g_={r\243\275\024\177k>r\013\260=\211\214r\276v=\341<T\216\341=y\345)\276\036\325\363\274Bj6\276\255\370\027\276\376\013\036=\234\312\265=\241X\373\274\2112\224=\010\205\361\275\272(\022>4\003\216>\334\026\025<\376\210\215\275\212~\267=\313\204\361=W\3677\276K\271\367;w\216\357\275\2474\250<i\303/\276\231\264\262=BN>\275\007\273\322=\374\013\220>_\316\023\275\253\354\022\275\264B\211>?\230\354=\253\353\034=>\001D\275\010z,>r\317\336\275\022\327\220>\306\376\214>T\251&>\300\327M=\002I\324\275\251H%<\205\214B=\250\3144>\031I\214\276H\236&\274f\222w=\215^\244=3\203\204=\323)\020\276\323\327\013\276\201_\267\274\310V\333\275\203\264\027>M\321\324>\267\331v\276\373\215\010=x#\300\274\021\231,>\214\221\266<\251\031\247\275&\000b\276\034\232\003\276C\021M=\207\340\267=z\227\032=\250\261\235>\276e\r>\241\351\364\274\215\017\346=\331\347\206>;E\324\2763c6>\001\211\225>c,\233=\337\025\316\275\365\347\360=\247^\211<\210\324\353=\257\254\031>#\025 \274\272n\325\275\017\223_<\007\347\000>2\331x>o\364\305\276\215\345\276>Ny\233\275\205\007\'>\341!(<\007\227\004\276\275X\t\276\0031\345\275\004\362\242\275\327\2323>p{S\276\361e\030\276qk\377\275\037\216u>\214\265\374\274\356>\361=\236[@>\374c\363\274R\013\266\275\334\002j\276\234\032\367=~\260>=\200\214E>\331oY\276\325\204\200>}\305\374=\355ow=\354\246\246=h\242\334=\237\267\207\275\321\267*>\206\354^>\'\007\002=\037!o\273\314\367\027<\r\026\272=#e\341\276\340RR\276\355q\r>\006z\241\276,^\310=\360\227l>\304\363\000>u\354\010=\214\264l\276b\2205>?\034\273\273=L\013>\204A\215>udw\275JI\315>\345!\035\276p\203#>>\324\260\272\367AV;N:\007=\026\215\"\276\032\230u\276\2279\275=${x>P\276K\276\203\227!>\036\324\206\276\013\"\233\275\017i]>V_U\275\372\025\205<\213\253\001\274@\327\024\275\325\376L=N}\230\276\337\371\007\275h\342|\276W\230\034\274\315\2408<\235\224\222>\255D\332>( \262<x\235L=\\@\024\276\006\025/\276\216\266G=xB\230=\037\364\251\2762\250^\276\021t\273\2758\214H>\n{\354=\307\324\245\275\023x\243\274\214T\215\276)\t\034=\007\021\300\274\353\237\335=\325\230\243\275A\370\356\275\027\2442\276!$\232\276\277#\001>\033&\226\276\365\240z\276\225\212\265\275zK\341=\232\334\201>#\301\202>\220\260\302\276Ji\356=\207U\276=^\367\223\275c\'w=/\341k<\227O1\276\231p\020\276\255%5\276\204s\357\276\260\275\211>\232,E<\246T4\276\026\203\032\276M\317\235\276\315\314\306<U\014\001\276\275\270\210<\344d\257\275\200\037\213>\273\3538\276!\232\226\274/-\027\276\364\0238\274x|\347=K\326\217<&\014\004\274\016L\240=Y\3678\276!\245\322=^U\245>f6x\276\004L\316\275\306I\363=\021\3470>\227]R>\373\000^=k\256\370=\266z\020\275\312\254\377=OA\277<\251ff>D\034c\275\256\210\372\275\334\303\333<\3752\010>\354\374\306\274\026\245\274\276\027T\205=f\351\000>\205\267\035=\256R\234\274\305\356\306<\214|]\276\223\350\303<\244\270c>\3614\316\2759\215\241\276r\027\302\275\352E\230\276\202\242@\276k\2405>\363H\235\275\356\344s>\003\362\233\275\032\246Q\276\025`;>D\262\241=\313\277<\276\225\315\313\276\021\252\025\2758,a\276\303q/\276\260\023\304><I\215>\253\325d=K\002\235\276\227\266\262>5`\345=\235\2243=F\337\t\276\332\361\253\274\247\223\231\276NI\276\275=\006\264>\226\207v\2752\257\004>hE\235\273\350\357Y=\373\364\272\276\356\240 \275\357\002\'\2766\330\322=\242\363/>,\231@>>uJ\276\245\314\360\274\332\344\010>\\\315\224>Oj!>\230\306J>`\232\375\275\256\204\247>\231H@\276\227\207\030\276f\305\224\276\301\277\250>,w\221>\236A\n\276!\016\267<P=\r>\207,%=\210$>>\001\230o>?\030\017>\035\364\267;\323\310i\275\242\3422>f\357e\276E\010\004>\274\351w=\375Lc>\2412\013\276\343\313O>\032\001\031\272c\3637\274\263\374\\<\342\017\226>\330\036\304\276\340\362\253==n\215>5k\016\276&\251\363\274\003\317\001>\321\301t\276\n\215\023>\320\240.\276K\023U\276$.\304=!2N\276\2504\217\276\033\236\275\275\310Y\340=\034\362\333<>Q\033>\373\375\301=\251\016.>\251\212i>\303\372\241=\301\374\223\274\335\334\'\276\225\234\027\276\217`\003=E\242\010\2761\225e\276\244,\307\275c\221O=\365\273\206\274a\231\016>0bR\274\363\237\360=>\3461>\003\262I>7Q\000<)\312\350=\274\346\217\275\305\333\202>\231h(\276\316\303C>\311\200\200\276\254\014h>\247w\220\276U\356D>>\217\240=\203^\023\276C\212B\2759h\233>\340\036\304=(C\331=\030\341\227\276\002\354\035>\321\377s>\\\226\320<\336\252`\273\026\234\332\274\343\276\205\275\207\027\250\275\205\242\243=\355!Y\276Y\305\032>\021\362\222\275v\245\027\276\240O\364\275\356\250\204\2758\272\220\275\007\355h<tY>\275\230\205\251\276\221\0200>\334\270K>\311\371M\276Rx\203\276jm\231\275\223gb\276\240\t\353\275I^!\275\214G[\276u\r+\275\263\204\201\276\216\212\245>V\216\372=\305\357u\276\341E\274>\006\347\313\275\016H\215\274 \325\363\275b\333\'\276\263\001c;\244\222\254=jN \274\227\350\020\274\316J\222>\346\363\375\275\024\273?\276k)\241\275\343n\267=\257Z(>P\333.=c\010\203=\027\206\256;\350\363\250>x\004\016>\336}8>\363\237\362<\300:,>\267\253\006\276&\356-;L\006\230\276\220\3461=\206\034\243\275r\2607\276\272\255\240\276\230-\321> \355?>(\224S>W%\025>bII\276\000{l=\226,\230=\314\371?\276\002\317\003\276qk,\274\231X\241>\202\010P=\257\301\005\275T\330`\275|\360\200\276\242A\264=\315\235\347;|.(>\230+\214=\271b\211>\334W6\276\007\377\323=\332\253\201>\036\314\033\275\220\375\255;l\343R\276tX\317;{\020e\275\005\211\365\275\234\201\200\2763\177s>LC\311<;@\316\274\2654d\275\210\235T\276\223\254I>\355\302,>\263-\215>\317\020\371=gx\377=\207(\212\2758\333\026=\264z\022>\023T\312\275\207y=>\364\t(>\302\001w\276Y\210\225>\341\245\370=-GT>\2322S\275\202\372\330\275l\252,\276\323\306^<c\266C=\314\010\344\274\371Ep>\321{L=G\315@>Lb\227<\256\200\242>!\\\374\275\337y\225\276K\266\204\275\\\333\342\276\366w\240=\013\t\005>\024{\367\275\306\315\026\274\002\302\232>\342jM<\205\2560=\246m\236\276\202\217z>\305\231O=\277\216\236=\260\'\250=\350\230\010\276\204z\275\275\276=\034>\030\361\237;\271g!;,\220G>\336\302\310\275\235X\241\276\264\361\001\276\316\321\211=\212X\240=\362\367\253>6N\237=MN\033\276\005\345\255>\340Z\316=g\"\225\276\217\257\204>\363\211\206=\235d\250\276\023\202:<GG\277>\274,[\276828>S\353&=\246\030\303=\373\210!>\002\2356\276!f\231>\371e\"\276\000oU>\362F\017>\301\035\245\275|\263\311;\365+\212=\327\224\245\275\241\267\201=\326\016\206\276\351\006\216\276\335:#\276\342r\261\275:\303w=\313\306*\276\335J\033;Q\320C>\3338\205>\021\022\210\2756<\272>\026\340\213;+\270R>\3537A\276\311\247\243;?\tR>\367\240\243=\021]\036\276\027\312\235\276+$\371\275QrK\276\017\303\001>y5\240\275!\354\212\276\205\3422>\262-\316<\316c\264\276.\026\242\276-\215\312\276\200\334G>\2459+\276\364\361\223>\252\270=>\032\027\371\275~,\367\275g$F\276\265Kg>\002\000|>\253\374\232\276\\\331\277\274\266\305\010\276k\222\025<H\307|\275\361\331\323\275\345\333\260\276\355\231h>z\327\227\276\307\320\225>\270\021\201=W\300\204\276\353\223y=\004\340\270=\342\2170=5\220\212\276\230\275E=\251\216\263\273k\003\033\275\370\0254><\373c\276\350\221\361<\323o->\007,\032>\276\204\335<]?\366=\227u&\275\020\230o>\344\275\265>s\355\314=R\n\r>\344{\352=?m!\276\213\236%\276\177$\206<\374\035\244>\357\225\356\275B\240\337\276\320)\024>\213\362\267=\201z)\275\267\224\352=\350\335\310\275\344\006\037\276\375Q/\276\214/#</\312\013<u\3230>\254[v>\021\230\221=#\352M\276*\3623=K\013!=0\033\227\275\035\204\030<\203\203:>\273&\216\275\006L)=\267w*>6\373\256=\n^\212\276\346u\021>\356\302\337<\214\204\303>\001\007[=\244\314m\275\201uI<\324\233\306\275%F\225\276B\367\305\275\2272\031\276 \375\000\2751\332k\276S\206\326=\177/\367\275\265D\321\275O\3619>\362\212\223>$j\253\276\3612\214>K\317\316\275\020\t\301\275H\n%>4\213\217>B\216[\275!\303\020=\347\321\246>\004\365\007>l\026\333=\014\356\211\275r{q>*\177\032>\203\260S>\336(\t>?\315\027>gI\204=\272\264\241\276\035\252\025\276\331\001\003>\023\235\304>b A>\013p\035\276v\320\210=FC\025>;\245w\276tY5\276\205*\373=T\200o>\331R\265\276\331\272\031>\224\n<>\330w\343=o\202\035\276\226v\330<\022\343\342=S^A>\301s|\275\222\270p\276\377\3343>\322\332u=\033\217`>\221\243\256\275\205/\225\274\314\325\004>KVw\276L\010I<\321Wz\276\253\025\200\276\276\327\026\276d\253e>\353\255[>\223A\217\275\010\370\317\272\\\261\253\276\375j\260=Uv\212\276\226\005\276\275\207F\230\276\214\240\020\276w.\033\276\333\256\272=\321\277\021\276\377\354\365\275\r\230k>\247\216\271<\223\255\201>\231`\211\276f\016\313\275lD\r\275\277)\331=\305\234\262=r}3>\274\002\312\275\274\300)\276\t\273\373=~\242F>\215\204\241>\2635\360>\333\225\236\276/\017\350\275\352\022\334\275cp\205=\373\241\r>\0220{\276\230\355\213>S\234\024=\246\221\257=\250\314\224\275\317\235\021>7f\214>\236-\004>\221C\013>\n\373|\274\261b\263\275>k\357\275\305\304~\275*VK\275u.\006\275\333\213\234<\254\302A:!\315\307=\017Q\345\275q\342\352\272\021{\252\274\240\255\261\276\214\010\024\276C1(>\0352\016>qo\377\275\221\264\241\276^\327\311\273Tko>\316s\241\275\355\370b\275\\\200\266\275\346Z\177>\214\272m=c9$>sB\252\275SW\231\276\331KO\2761j~\276#\267\033\276\371\303Q>CS\256=?\2734\276A\366\223>\301\313Z;g7\277>d\206^\275\267\001J\276(\300\266\276\274\3705=:\316\366\275\r`\021>m\234\313\274\232\357\234<_F\371\275\0349C>\245\326\333=\221\245\204=\\\227\237\276\363\036O>\262O,\276\033\254r=\241\203\273\276It\226=\235:\036\275\271{J>\'\362\312=(\235\372=\232c\033\276O_\214\276\356*X\276\232#\344<\230D\034\27491 >\311\0056<\272\024\262\274\340L#\276q\240\350\275\024\357\262\275\000\233\204\2767\302\207\275p\212\337\275X\356U\276PQ\242>d\363-\276\323\026i=\004\tI>\266\346\240\273\364Y0\276\215\036\244>\302\332\336=f\003\375<\250v\347\275G\266\355\275\266\354\022=\225\327\272\276$`E>\032\034\n=\225\307\353=\032%\'\275\300\267\215\276\331CA<`j\325>)\210\307\276x\300\341<\261\017\277\275E`m\275\211\343\224;\0027J=\227q\202\276\036\236\200>;\263\374\275\247\274-\276\013\020\301>PiT>\273\215\177>\370K\262\276\000\333c>\3722A\275\010:\202\276^kV>gT.\276\244%\244\275\350\026\251\273$\024\276=\323\300)>\342\261\303=,\n\365=eQ0\276\005l\245\276\2211I>\024]M\276\371h\237\275\tM\313=aK<>\211@e>6\022K=\'\363f\276\"\200\207\276f\034\024=\223s\350\275y\305\006\274g:\243>\303\330\242\275V\240[>q\244)\276\336*\324\273\247Z\020\276\242\355\026=\037uV>FFT>\334`\375=\301\207Z\276\325L\003\275\335\233(>\345%\270=\371\230\326\275B&\037\275\026J\231=\031L*\275XZ\321\275\2657\026> \027\231\276\246o\325\275<0\337\276\303u\205>f3\260\276\204[o\275G\224=\274wL\371\275\\:\225>\301]\331\275\\P\317>$\205\207>\276\305X\276\3653[>\315\303\230>5\t5\276\265\373\255=\272\010>\276\322\365%>\224V\252\275D\331\007=k\263\361\275\324\213\250>\007\314\033>\321;/\276\301\274\232=\301\336\330\276\000\276U\276\002\357I\275\014if>Y\326\354=\r\242\200\276\252\017+>\372\347\002>j\035 >\000\310m\276\245\021i\276\030NC;\322\205\306=\001\305\000>%\323\346\275:1\255\276y\270\263=@\240\223\276,cd\276g~\202\276&\323\001=0\023\003\275\363\201X>YP\017>U\220\227\276\351\277\t>l\253\206\275z#\242=\351\370{\276>\206\235\275-&\177\275\342\214\307>Zl\312\276\204i\033<\353\357\005=\337\200\211\276\254\271w\275\371.\204\2749\022\275>\177\205\307\275]W\000\276\214\202\023=\211L~\275F\274\217=v\372\304>KZc\276\231}W>f\215\214>\000n}>\311<\252>\210(\364=\245(\223\276\372N\212>\322\017A<\236T\'\276\333\306\214\273\001\260\005=\245\':>\r\315\253=J\225\223>\277\223\352\275\322\r\'\275\022\'$\275#?A\276\356<\222\276\367\316C=O\354\216>n\330d=\360\222\240>\313\212\333\276\016kg\276\223\307\201\275n\3437\276\227\307\222=(\215\375<\\\214\376\275\217\215\222>\365\345\202\274\300\265\n>\2339\331>\333\372W>_\305%>\265\215_>\016\267\332\275\3130\221>NT\206>~\242\206=\\}\225>\367 z=\316X\377\275\365X\250>\344\320\302=\372\341\036\276\030\242Z>\211!\014\275\323\006X\274\327\351\031\275\214\373\r\276\260,\271<\377\227)\276iZ*=\271\270\221\275\t\316i\2766W4=\246\"S>\371\255\331<\'\242\241\276E\207\020>\264\335\260>F\311\344=\027\341\237=oP\227\276v\366\310\276\215]\260=\022\246q>\206\237\210\276P\016\260\275B\361\234=\236\245r>\275!:\276c\340\240\275V\264\037>\315\225%=q#\377=\217\370(>\265\034\'\274\006\236\246\275X\021\321=\334\202\274\276\036\376\007>\323n\267>Q\204\351\275$\347\270\275\343\257\233\276\370\027)\276Y\2765\276ls\267>f\266\264\275\221\336\211\274\017n\353=\252\331\256\275f\225\"\2759O3>\177S\027=>v\276>\340D(>\265\206d\276\200Ai>y\353\204>~\007\262=\336&\213>qIb=}V\035>p\357\324\274\300\221 \275\036\337C\2740\353,;\037\343n\276\'f\204\276\347o\200>~\330\355<7\216\004>\351\257\230\275\331\216\201\276\t\246#<.\343\270=\356\256p\276\037\341\347\274\350\252f>a\231\213>8`\331\273f\371\270;\214\234\267=z\363\265=\3137y>l\275\266\276\275\377{\276@X\331=1\255k\276\222\321\027\276\364=\023>B&v>7W\227\275+2\\=*\033E;\201\345\231=\"0\256\275*\r\036>\377G3>|t\216=/\031E>\351\320\002\276\r\254\332\275\324\014\000\275\005!Q\275\r\334f\2767{_\276\274\267|>\263`\025>(\222\206\276\250\342,>S:\336\275\223\275\324=\002\202\000>(\n\033\275fC\222\273T\026\220=n\314?>\354\"\017=\363\200\277\274\n\364\346=X\361 \276\334\334j\276\364>\207\276m\302_\276C\215h=\225W\216\276yf\202>V\000\004=\346\013\264\273\371\251\254<FW\307\275\014\005I\274\302\264Q\276\303e$\276\023\034\207>\307|B>k\340(=\231\266\345=\202\331\212\276\033S\263<\222Q\207\276\336\251\270\276\257\250\030>\314\010\037>{\364\265>ZP\201\275\202;S\2757_\273\276}+\023>c\203\330>\221]L>\304\330X\274\271\365\302\275O\2065>\001\2206<>\321\014\276f\337\260\274\373\001|=\213\261\316=\233\351\016\276\033m\236\275\232B\265>\373\354:\276UT\234\276\221\013t\276X\026\013>\031\236J\276Qxo\276.O\033>AtL<\034\010g=\247sf>\272\316->F\317\354\275W\007#\276\274\303\241\276\260\355\241\2739l%>=tP\276\006\300\225\276`9\031>/y\236=Y\376T>1\035\235\274\250{\255=\322\242\375=\023D\026>$\013_>\313\367(>k\2350=}\034F>\327\336A=b\321\n<x\305\275\275\251\227\256\274\336\231\321\275\241\301A\276\372\244\356\274\201\363#\276\344\343\256\276\351\0130>X\303\022>\246\214\232<\377\342g=\371\367\034>\217d >\315Ff\274\320\211\354\275\252)_>\333\221/>k^\032\276\266\246\323=\375\244\301>\321\334\264=\000nD<\267i\263<\375 \010\276</`>!\020A\273X\252\220\276\271\032\256>\037\205\'=\255\210\365;\247\240s=\020\230g=@\302<=[D\177>\264\021\203\274=\346F=\024\031r\276\210`:\276\357\251R=\266V\265\276x\302\324\2758\346\324\276\242\371h\275\242\276\031\276F\022\254\275\341\344.>B*_>\262\342k>\356\t\277;\227u\310=G<\302\275\327\030\240\276\000u\277=o\324n=9\204v\276\000\014^\276h\302^\276j\365K>4N\006>\203\t\260\276e\354b\275\003\262\370\275\217\201\301=\316\241e\276\031F\032\276;\221\200\275\304!.\275g\351\373;j\034^>r\355E>}G\235=R\215\017\2764p\376\275\034\017q\274-\275\220>a\206\315>\036\232\260\276\334s\017>\365\032a>\316\204\013> 4\255<\317\267A\276\210a\201\276\357\342\257=cT[>b\014\371=\357\001\023\276DW\236\276\333\201<\276\225g\243\275\324m\214\276\362\371c>\263\351\';\352\321\242=\205R\222\275\027\200\365\275iy\177<6\263\372<n\225\204>\336]\270\275an\246\276\237\221u\275] \345\275,m\217>\350T^=\352\017N\2764\354\233=\311\254\320;\260\310\335\275\224\236\002\276\340\236\214\276\237\014\236\275A\266\240=G\375\205\276~\226o>v\251\255\276\325pK\276\322a\007>\2460[>\353\271_=\031#N\276\215\234o=\2511\031>\343\270\030>\321\341F>\331*=\275\355C\233\2752\r\206>\363?\036>\002s\263\276\353k\316;\251i\227\275ug\321=\301f\'\274\371E:\276ER\341=\204\375\246\272D\365\255\276\360\3506\275\305B\201>\305\236\324=A\002\203>\365\371N>\356:c>\250\261\211=\277\023=\275\355*\271;4\325B<\003\265\254>\021q\177>\t\273\205=\357,\227\272\312=\211\275KPd\274\337\245\236>K\247I>|xa\276V%\252:#u\201>\335\010\247\275\364\274\227>\300\240\341=z\006\347<\344\\\232\276F\"\343<$r\020>\270y%\276\305+\264\275\242\252\000\276\035\335|>\371\357\343=*\031\306\276\030\375A>\245\312?==\027\021>\033\242\221>v\256=>\201V\316=z\273\235>\nU\312<!F\346=r\3746>\251\3613=\266\224\275\276\035\202\261=\230\3376\276\304\371\323<j!e\275\305\274\023\276\034\204R>\215\364\310=c\336\231>&\353P\2769\207\333\275\016E\205>\372$\n>\321M\311<\226BZ\276\254\377\232=\024`\341=&$\024>\340\024\337\275\230\030T\276\351\007\226:~\202\212\276\331\351\323<\350]\000\276*\327\373=l\020\205\275\240\242r<%sI>Lo\211=:\222=\2761l\237\275\004E\326\275\022W-\275&F%\276\313=\361=\'\225\320\274 t\227\275D\232\210>\033\257\245>\203\301;\276\310\200\215;f\215\232=\376\034<\273\373t)>\332s\300\275O\207\246\276\376p\333=\361\355\361=\231\316\211\276mP0>u\242\210\274\320/j=\302\007\244>ZpG>#\211\033\275\306\n\370\275\033f\r\275,I\312\276\033\335s\276\347\226\301\275Z\225\037>\341\377\247\276\206h\324=x\027\270\274=9\035>[gV>\276&\222\275\205E\351=\223\235\232\275}\276/\2765$\005>J\243\332;\311\267\365\275\3529\224\276\277\302\022\275>\2554=\301\346\034>\032\243G\275\374\213\226>\005\341\216\276\321n\344=\270\276\322<\240\224\352=\344Qf\276\333\n\021\276l\001\320=M\013\212>\'\037&\272\325\350\265<a\354\277>\036iW\274\3370\253<\0366\257>\'S\256=\261\222\300\275\322\355\264<s$B>\203\303-\276\222O\210\276\346\356\205<\310\364R=%\363\373\275\t\205k>\204\3256>\366;E=V\032\240\275\270\244\223\271\035\375:\276\361\031\024=\312?\206>EU\021=@\243\313\276\364q\237>\021\026\235=\024\n\327=\246\212\033>\371\365\254>\312\273\231>\365\006P>\320\032Z\275\241\200\241>n\241O>\353aL=f\377,=y\253*>0T\202>\030Cb\275\3775\201\276\035\317\303\276T\027\350\275\306\267r\276\371\207\362\275%\374t=l\242\017\276\273-X\276C1\177>\'\014z<\324\031\203\276\031@\274>\303f\205\276\234\330\030=\242\310\001<\033\363\274\276-\360\255>OF\\>\023b\250\275\307\206,=\210\272\261>\276] \274\013\361\034\275\250Y\207=\266d\262\275\225\254a<\303:z>\346g\203\275\235Y\261\276\236\211\207\276 \005\334<_\245E\275Ql\213\275b\274\222>\270\265h=\222\212=>>\344\261\276\201\010\314\276<25\276\306Y%\276_\233\376\275\234\254\245\276"
      }
    }
  }
}
node {
  name: "dense_1/bias"
  op: "Const"
  attr {
    key: "dtype"
    value {
      type: DT_FLOAT
    }
  }
  attr {
    key: "value"
    value {
      tensor {
        dtype: DT_FLOAT
        tensor_shape {
          dim {
            size: 64
          }
        }
        tensor_content: "J\245E=f\035\000\275V\370\r\275Ek1\275a\203\207\275w\314\037\273\264XE\275\203\231k\274\331\245*\274W\033W<99A=t\035\327\274\215\317\376;\007/\351\274\203\264\013<\334j\006\275K\354\177=\235K\224\275\341u\204\275H+\255\274\207B\210:\010n,<k\346\203\274\355\306b\274f\243\261\274\357s4<\322u\367\272\255\002\235\274\201D\027\275)\303\215\275S\362\033=\274\327\020;F~C:D\376)\275Y`\205<\351\217\"<\017D\216<\325\3250<;\313&\275\304\003\341<:+X=\326\301A=f>\370;\243\336\225;\351\"\330\274LY\264\274\242\321\023;\026%\270\274\333\311`\274\231\374(<_\360\222\271\252\3400\275\352s\026\272+\264\027\275\247\250m\2750\016\304<I\211C=\326\201\204\274\222\320\203;\304x\215\274\360\315\302<\271\006\212<\246\240\222=\351\223\353\274"
      }
    }
  }
}
node {
  name: "dense_1/MatMul/ReadVariableOp"
  op: "Identity"
  input: "dense_1/kernel"
  attr {
    key: "T"
    value {
      type: DT_FLOAT
    }
  }
}
node {
  name: "dense_1/MatMul"
  op: "MatMul"
  input: "dense/Tanh"
  input: "dense_1/MatMul/ReadVariableOp"
  attr {
    key: "T"
    value {
      type: DT_FLOAT
    }
  }
  attr {
    key: "transpose_a"
    value {
      b: false
    }
  }
  attr {
    key: "transpose_b"
    value {
      b: false
    }
  }
}
node {
  name: "dense_1/BiasAdd/ReadVariableOp"
  op: "Identity"
  input: "dense_1/bias"
  attr {
    key: "T"
    value {
      type: DT_FLOAT
    }
  }
}
node {
  name: "dense_1/BiasAdd"
  op: "BiasAdd"
  input: "dense_1/MatMul"
  input: "dense_1/BiasAdd/ReadVariableOp"
  attr {
    key: "T"
    value {
      type: DT_FLOAT
    }
  }
  attr {
    key: "data_format"
    value {
      s: "NHWC"
    }
  }
}
node {
  name: "dense_1/Relu"
  op: "Relu"
  input: "dense_1/BiasAdd"
  attr {
    key: "T"
    value {
      type: DT_FLOAT
    }
  }
}
node {
  name: "dense_2/kernel"
  op: "Const"
  attr {
    key: "dtype"
    value {
      type: DT_FLOAT
    }
  }
  attr {
    key: "value"
    value {
      tensor {
        dtype: DT_FLOAT
        tensor_shape {
          dim {
            size: 64
          }
          dim {
            size: 64
          }
        }
        tensor_content: "v?\031>\356\342C\276.\017l\275\303C\276=\253\377f>\343Q\020>\261u\242\276\256g\264\275\350\033\253>\332d\016\276\356\031\261>\272\243\231\275\3145\233\274d\014O=\025A\251=\324\345\201>\024\366\217\276\254\304L<\021ze>\350\220\226>s\305\227\2750H\310\274\331`Z>F\352\036=e\256\006\2752\301\202>\243\355B>V\277\323\275\365K\203>\331\264\356\275\234b{\276o\010\360=\346\3037\275b\347\231\275|\353\320\275\365?\266\275\307\217q\275\336\221\035>\005\232R\276\3677\263>\341m\034<\205\r\313>\307\367)<\301\022\000\276\201F\225\275\325p\217>\034\222P\276\360M\020\276\333=%\275\2406\032=\300\253|=)\003\\\275\203\017\214\274\323\300p\2761\350*\276%\324\001=\014(\304\275@x\255=r\261\307\275;\367\035>\200z\'=\327)P\275\353\222%>\305y\002> \325\262>\206\277\273>\010\213\257=\0319!\2760\312\024\276\006\331y\276\371\226_9W\203g=\256\014\345=o\254u\276\325\352f\2755\364Z\275\231\215\252>s.\207\274\253/\230\276\365r\267=\301Oq>;\344\202=\206]7>\234dQ\2762Q\271>\266#\033>!\326^>\344\232\256\275\266\232\2708\206$V=f\010\017\275h\034M>\227\360r<\335\375\271\275\356\207h=\371Y\217>\274\271\r>4\241\317=\306\031\246>n\252\200=\325\357\177>\014\217\213\274\235\237\017>\356\315W\2767\262N=u\333\371\274\331\177*>\250*[=\333/F>\370\237\200>\244%\372\274,\330\010\276c\\[\275\013\232\253\275\027\204\216>K;\222\274*\315\225\276+\350\246>\323\301A\275C\315\244=\327\334\203<\001L\210\274\206\177w\275\273\273Z>\240R\224\276\367\252)\276{\014\242>\200\304E<\234\262F;\005T\330\275u_\255\274\336\201\265\274\241(\232\276m\013\000>\343\266\344\275\342\371\270\276\013<h>f\0004\276\366b\255=\242@\004>N\365u>\225\252\220\275\212\201\253<\223\225\t\276\247\244\032\276\301w\350\275\241i%\274n;b\275\215*\302\276ar\371<EkQ\276\311q6>\243Rk<\247\203Y>\371\326\254\276H\002\024<U#=\276.\214\370=\272\276\250>\3432\254<4\263\032<\020\027\302\275<k\336=F`\r>\360\345V\276\010\326\251=\313\n\201=\242\367\031\272r\264\363=\037-\243\274\032\033#\276\304\032\220<-\376]=\333^\222=\321.\025\274O\217\251>1\005\254\275\361<\357\274\243\212\224>\230\302\335\275lm\333=Q\267\321\274\343*\311\275\226\333\250\275\230\316\363\275\206\230\254\275\235\310\301=3\372\221\274\177\352S\273\226#4>2J\320>\367\232;\274eT\004=\375q!\276:\310o\276O\006\331\276\321HK\276\002\231\345=\214\304\251\275\320\261\005\276s\275\354;0\235\333;\177\316q>e)\374<\314\243\234=a\264\222\276\260D)\276\274\232\271\276-B\360\275f\304\306>\363,->\002\303\202\275\224\322\205\276\256\014\020>&\030v>:&\212\275\234\372g>(+\020>\254\262\202\275Sp\377\275\240\270?\274);\204>\310I\305=[t\253=\324\tX\276\213\336\261\276\224\276\t>\347\r\322=\355\307T>\341\346\233>\351\255\211>\354\020X>\327\265\234=.\234\312=\375j\272>-\367\366\273\264K4\276u\322\236>A\364\333\276\374d\333<=m\323=J\322\335=O\351}\276\243\205@\276\355k9=\350v\003\276j/8\275Mz\031>\223t\242>\353u\033\276_\037\272=\261/p\274+e\324<\274F\313\275<\014\026<G{,\276\253\"m>pU\336\274J\347`\275\232\327\235=c\207m\276D\266\270\275vh\271\276\222\274\250\2748\323\227\275TpF\276+\321~>\357\030\264=\320\\\206\276\34674\275\302c\010=F\022\000>\221>\177\276p\315F\276H\"\273\276u\307)>^\203}\276\262\005\224=\366\350\204<\220\002\352=\352\205\253\276r\253\357\275\230v\003\276\312Y\003\275g\035\r><\337\301=}\372\032\276\322\010\204=\300C\255\276\343\027\224\276M1\371\275\206\223\254;P0\024>\001\262\312=\002\360L\274-%\256\275\270\r\036>_\340\272>,7\314=iu\025\275\204\247\301\276i\261k>h\315\374\275~\253\355:\271\210_\276\250\243l\2766\363\225>\227J\246\275m>&\276\276z\214\276\364z$\276\365\004\355\275WS\304<\203Tq\275/\260#=@\022\034=\357s\267\275\337.\264\275\244u\306>\263\007\006\276\276\307\234=z\257\341<\353\367\235=0=\036>\002\325\346\276\217\033\\\273$&J>\016\004\030>y\346%\276\344\3300\276D\311\327=\204\316N\276r\272\305\275r|\275\275\253CJ\275\021\244\202\276\235\236\364=k\266J=\033\347\017\276l9\354=h\370\310=Nv\005>\2462\200\276\301\022\356=X\223\215>\r\232r>\223K->T\201\350\275\022:[>\361&\032=~\347%>\216\013*>#\376\227>\272H\376=&\311\000>G\234x\276O\000x\275\n\357\353\276\232\t\242>\023\230\254>\234\303\021>\333\006\210;J\024{\276f\223\253>\033\246\341\273\230\033T=\201\341\217=\255\304a\276j\215m>\365\217\022=\264f\237<\263b\240;\032\375\257=\037\023\351\275_t\362\275=\276\251\276\225\346\204\275a@\243=\347\\\203>o\314\251==V|<\020\001\251\276\0330\035\275$6D<Tv\303\276\003\033\005>\277z\276\276y\035\033<I\343c>\365\363|\274\036\342:\275.\345w\2754\r\210\276\357\204\000>m\374i\276\322\016\023\274\0301\252>\200+`\275\210\346A\276\014A)\275\340\251\304\276\363j\341\275\225Y!\276L\376\t>-Y\250=%\336\024\276\346\235\321\275\206G\313\275:I\237\276\215M\177>\"\226;=\2708\304\276-\265+<i\324\005>\332\243H>\310\227<\276d\256\200=\003\207\245\276\326\324\246\276\223]{>\224\003\274>\334\317\210=\373\315\032\276\256\034V\276\237\357\224=\301c\224>\342\020t<\306)\301=\263I\014>+\373S\2767\2220>\017Z\274<6\2258=Jc!=Y\241\223<D\"\321=!K\222>\202\203\223\276\213\302W>*b[>\272\007B>\215\3535>\rbG\276\364Q\215=\010|\233\275\027\035\252>\220w\210\276\273\215\265\275=\013!>\\\013\363\274\224\334]>\\\026n>\364\252\302>m\003\233\275\373\340\023=l\310\336\273%\355\000=\357s\222=:U_>C\365\267=\032\356\263\275r/\026\276\320\014\242\275\212\350~\276u~q=\240g\212=\3417\333\275\273L\301=\343g\344\275\030\320p=\016@\320=p\002\002\276\032\347&>\231d\231\276\035\300\021\276\211\273R\274\212\"\300\274\315Y:\276\t\231\307=\242m\206>\n\363[=\272\004e\274\267\343>\276s\244\275\276\201\371\202\276]@\332\276\367\226\364=v\266\357=t\232\031>Xe.>p\233\205\275\343\346\226>-b\364\274\316O\212\276\340\307\230\274\371\335%>Q\250\273=U\202\341>^\371 =x\276\'\276#\001\010>\227\324\217\276\245a\006\276m\"\024\276\344\031g>\225\265)\276\367\267\343\275\367\367\201=f\357\210=eiB\276\277\242\300\275\3565\007\276$\310\007\2760T\000\276\254\307\214>O\303\030>\252\220F>\035l\213>\272V&>^\314\013=\356D\235\276\332\253}\276\352\344\314=\254\'d=G\337\333\274\243i\t=\325O!>\n\325\311>\341\301\251\275\354\352\354\275\201\264\263\274\363Q\227\275\362\342\353\276\343v1<\272;\321<{\254\256=\360\276\004\275\241\350\010>T\314\211>\347.Y\275\203\tl\275\340XR=>Jw>\3215^=\257\244\226>GU\310\274T\336\251>\363\327\205\276qT\002\276t/W\274\277\260\312>\252)\302=\267\221\342;\030\003\371\275%\242E\274\004\3340>H\243\233\276\317\234\253\275\220\223\246;\240 \206>p\331\366\275T\234\003\276`\253,=\001\320\016=\206&\327=Q#-\275O\220%\275\216\t\264<\r\360\317<,w\244=\335\006\225\276\t\324\312\275\216>\374\275t\206W=\365\027\217>4\314\242\275\215\257\033\276\263\024\010>\232\323P>\255\270\243\276\331L\r\276T\000\370\275\305\267\300=e1!\276E\210%\276\221\223\367=\200\274\005>o\036\350\274|\\+=\357W+\275\267\221\360=\312\017\023>z_w>\360\257I=3L\032\275\355\341\220=\223 \272=\025\340K>\014\257H\275R\260\201=\223\354\313<_K\214\276A\203\372\275\265F\243=\214\223\244\276R\025\016>s9\245<uy\305=V\364#\273\301o\330\273V\302\203>\252\231l<\262\002~\276J\220O>\\\211\353\275\025E\202>\010\355\376=_\033\342<\247\242\362\274C\226[>\336\247O<\324a^>H\257\t>S\325m\275\023\270\202\276Z\235\263\275\341&.>a\270v\274lA\023>\314m\"\276\310|\200\276P:\360=fc\232\275\"\025*\276<\027\013;]\266|\276\264\024\t\276\257P\306\275pW\216>[\272H\276\260\034\343\275\002^V>\213Q<>\n\243\351<\274\267\312=\316th>/\304m\275y\006\"\276\017\220P=\017^`>C\263I\274\363@\036>\245\372=\274\013\225\235>\242A~=\034g/>\325\013\255=\235&\336\275\002G\356\275s\362T\276L\0026\276\245i;\274\277 \361=\204\000\220=\254\345~\275}:\236\274W`\253=7\2362=\270\377\265\276\337\036\207;\021\350\255\275\374RA>oV\022\276\212\256\240\276\305:u\276\351<4>1\343\332<\301\007\310=\305t\324=\013\t@>\336\302\035\276\220b\364<\235\340\235>\347\217\275\275E\035\232\276\261\003\213\273\330\212\010=\211\235\255\275\311}B>^\265#\276\263\2734\275\307\321*>\266\267\246>\'\023\250\274R\034t=9u\210=+=\032\276#\006\362=\254\377\007=\026r\306\275\325\237r>\r\252$>\006v4\274{ \322<\346\320S\275\375j\221\274\0001\016\276\225\024\021>A\t\223>\016\257\021\276\235\334\324\275\211\370@>\230\213[\275a\270\026>\371\344\026\276\005O\320\275\210\2368>a\031\325=\230\313\240>\255p\010>\237<H\276&93\271\026,\370<\304\325\372\274Y\375v\276noa\276\325\000k\27661~>\230\265\341=\0068\013\275s\220E\276\037&\204=\177I\240\275\007B\262>\250\027\252>C\260\271\275*\010\224=\027\316 >B\031\246\276Z\376e=\331(\232\275\305S\317;\217\003\271\276Zj.>\216\361\251=\000\275\274=\350\0257>(\202\333=\337\020|>\261\344\263\275zcT\276i\316r\275\005p\245\275\365\004\031>\236\003d\276\352~\370\274CJ\000=\343,\303\276\323\035\200=\312\355\014;\237\245\345=\001$x=\000\037\034>\026\316\244>%\244\234>_8\242>-k\352=*6`>\006\356\276>\030G2>Ju\227\276E\027(>\2340!>I\365\322\276\300\353\215=\036\260 \276d\201\353\274\363\345\204>W\316\275>y\334\373;\307dX\276\223{\022>\016w\271<\257~#>\340e$>\320\232\223\274\223\332\003>\3532\345\275\306d\215=\332\224\204>Q\205\215>N\366\'=\320\'-=\304\247t\275FEL>\022,K\275\252\333\344\275 2K>J\270\324\275\354\332\017\276QI%\276W\252V>\033Mt\276\'(\306<gJ\275\275[\301P\2761\271\224=\355\221\024>\006\2166\276>\364\343=\230l\227>2\342\253<\254\251\263=\007\215\214>\252\230\206=\2445\345=\250\356L>[x\036>\262\376Y>Mh!\276\311R\321<\341<m\2763q\276=>\364Q=\264\267\204>\304\236\014\276\222\336E\276\306\322\027>\013\237%>\242o\027\276\022e\263\275Z:~>j)\233\276\020\314\222\276I\031\235=\250\252\004\276*\ni\271B\306j\276\222t\275\276\235\"\016>_\371\204\275\277\243\007\275u\333\035\276\361\204\t>\347\227\256=T\372e\273\004\377\364\274\345&\274>\232\357\205\275\025A\177<P\0015>`\367\340:a\204\017=\332\201\212>?\375\031\276H\352\264=)G\301<\021A\355\275\306\253\010>\364\256\314>\375\260\031\276\362m\262<\302\r,\276\240N\355=\273n\265=\216\305;>\243P\223;S\3477>\331t\005\275\270\276\206\274H)n=s\202\212;*d\007\276\004ux=\007\206\252=\337\230\227>\377)\250\276\002\002\022>\202\331/>\274v\035>vl+=\270\226\236<\247B\220\275W\021\024\274V_\021>\2543e\275\357v\214\273\372\221l>\307\277O;\000\212\213>v\245\017>\332\241S=\003\303Q\276\2112S>p\343y>HkZ>+\241\216>m\214\353<\271\206\235=\2203\024>%\333O\276Yh\001\275\3420\014\276\261\372g\2768\020:\276B\337l>p\372\203\276Jp\330\275\"\331\203\276\217}\270\276C(\221=1\334/\274\240\360\275\275\303\005\326=U\245\253<Rl\224\276?\221\377=F\212\362\275cZ\202\276\243\341\365=\355\300/\276$B\272\275$3\341\2759\367\037\276iUn>\"\273\336=\363R\233\274\326l\363=\256\2243\276r@\032>\365\262\324=]\037\340\275c\377*>\020\254\226>\037,5\276k\350+\276\376\335b>T\271<\276[\255d>\350\341\354=\300\245\346\275\361To=\327\215!\276j6\201\273\351\222G=/=\247\275\237J\330<\022r\341\275\014\330:\276W\363Y>Q&\260=\035\203\r\276\203I\366=~\356\024\2765\3120\276\332\031\277>\251\3058>\255\2545\276?\226`\275\252\360\256=\217\306\001\276\313\020\n\276\352\367\005>#9\240>\230\032\002=5\031\231>ITt\276g\2517=\207,6>\005JZ\276\020\244@\275\240\314\217\276\334\274\310>\304\205J\274s)3\276|1\270=\336\262i>H\312\232\275\202\005\010>\000\3156=\026JA\276m\335\320\275\036\324\252\270a\352\274<\317\225[\275\211\312\270\276H[\214=\312\355&\276\210\263\217\276\206\242=\276^\036\213\276\320\365\274\275k\256\305\275t\252\214\276\n_F\275.X\014\276V\372\025>\303\2016>\257\237\215=\371!\332=\263\254P\275\330e\354=\252\264\255>\252\026u>\034\375]=\006\377\033\276Q\207\305<\007E\035\276>Kg\276V[B\275\360\316\304\2750[x>\354\031\211>4g\257\275\364\346\271\275\364\347\031>\227t\310=t\005\001>\264\303\337\275\234\312\317\275V\252\203\276\002?%\275RfV>s\356g=K\320\323\275\346\030\">\231\320\242>\335\231\357=C\013\020><V\373\275\352\235Y\276\003\025}\276\303\371\276=\253\223\002>\2742H\276L]y\274\210\036\213<\327\266\224\274}\t\023=\216\232#\276\272L\217>3\266\242\276i9w\276\237c\001\276\300\343\205\275\225r\224\276\004\177\241\275\247\377\330=;\032=>\202t\000>\\\021\017=t\266\023>;)\244\275\364\2607\276\321\240$\276\372\267\241>xjG>\3705\310\274\013N#>\273\006z=\235\023\202;\302/\320<\274\356b=.\310\255=\r3j>:M\313>\250\272+\276\214\200\253\275\261\332q=b\254\234>C\201\231\274\177C\033\276\304G$\274K0\210=\325Gn\276\332M\274\276-\344\223\276\224y\212=\210\234\237=\025\223\221>H\202\307\275\311X\003<2\346x>\201j\276\276\322\255X>\247T\307=\313a\276\276Z\024G>\204\274\206=\221h5>\217H=\276[\032/\275\200\317\200\271k\360\257\276\244y\222\276\3328\007\276<&R>\351f@\275f\344[=?\341\365\273\364[\352=\033\037\240=\342\371\263\276F\342\300<v\373\220>\004RA>n>l\276\200\211\214\276\255FG<gKZ\276R\340\024>\027e\221\276\360\'\'>\\-6> \242-<\024\200\231>W\201\\\276\311\036\035\276\006A\036>\364\241\372<\215\254^>w-g>\327\234/\276\260\277\337\275D\n\231=\021#\240\276_\354\247\275\023\023\243\275\244\352\377\2755\270 \276\026\3431\276Z\344\326\274\007\217\026>\026\362)>(\034\375\275!\274Y\276\230cu=Pkf>\375z/\276\305\035\234>\311\234F>t\266\277=\341\036T\276\027\360\203\275\t\177\336=\212kf\276{\245\300=D\323\030\276\035\361\272>\r\n\277>E\356K\276\272\246|=\3434z\272>/\246\275R\037^>`O\002\275\321\233\374=l\036\212\276f\272\216\276\'Y\302\276\341%\203\275B\326e>\212[\320\275\177;L=#?\022>;G<\276\327\002-\276\234\347\222=N\340\330<$\263a<lJ\267>(\201\243;O\220I\275\037\266\341\275x\025\240\275g\357\025\276L\025\360=\nV\364=\374d\275\276\337Y\250>\207\364\340;\t\325/\2767\373r>\2009t\272s\213\031\275)(\235\275|\367O>\265k)>\315\302\365=o6\242\275\356\005f>\261\357#\276K_5\274\210\007]\276}\376\001\275\035\212\002>\270\334\341\274\376\250\313\275\350IZ>\002\231\212\275\321\037 \276\347\025\250>8k/=\333,\215>\324\177<=_\347o>\221\024\377\276\205t\311=\262\266\312\275+\034\243\276\2602h=q\353\003=\323\232\253\276\325\330\000\276\200\020\026>\004rY>\373)b\276\370\344q\276\314\223\200>|\254<\276$\263\345\275Qf\211>\323\0378>\212\0055\274\333_a\276\235J$>U\237I\276v\336:>\2277_>\260\3044\276\332\243\225\276\236fp\276\206N\204\275\241Y\217\272<8\007=$=*=\336\215\350\274\203\225j>\357\342H\275\3024\213>\363\313\356\275\022R!>\220\302\003>\372\331M\276t\246\023\276Z\355\272=o\233V=>\270\203=\314P\032\276>\265x>_\366\254\276\t\3119>\375;\351\275\325\203\035\273X\2161>\030%\205<\367\306\324\276]\203\365\274\322\312+\276\203\206\025>\341_\256\276\363\320\001>K\017\004\276V\366\300<\002\247\'\2764\030\254<\304\223\034\275\312D\225>\336\357\341=\017\013&\276h\365f=\030!-\275\325\035_\275_\237\240>\342\321F>\255\314\211\275\207\346U>p5W\276\010(p=\304\373\207\276xX\032\276\340^\265=Y@~\276!\345\"\276%Uw>4s\373\275VW(>z\343\262\274<\260F>\226f~>c(\222=\362\361a\2767\376:=\272\332c\275\313\344\337\275\003\332n<0\266\262\276\302dC>I\002\233\273\345\005\270=\t\375->7\323^>\341\034~\276\251I\">\037v0>\ni\034\275eG\203\276\027\371\327=(w\247>G\033)\27636a>\232R\374\275T\217\250=\224\362(\276\205\016/\276u\250<=\332\3552\276\r\225r<\232;\203\276\014\010%\276_\213\025>\235\217S>Wb\250>\210\365\251\276\311\010\010>\030\261\230\276\"\360\222:\227\210\272\276\315c\230\275D\007\303\275\245!\312\275\331:\245=\236e\253>l\227\217;\371*\t<pq\361\275`\266\304=,_\255<\231\241\314\274\206e\342\275\300\2266\276U\354\262\272\202u\200=E\273\362\274\244\262\353\275\2541\007\276\277\032W>\351\204c\273\3249\211\275\326\306T\276]\221\002=\232\342t>M\345D\275&\251\t\276\243\2375\276\256\366\036>\362\375\340=K\343V\275\362\241\357=f\375\211\276\014[\243=t\335{\276x\324\267>\366(\203\275\246P\223\275\315\224R\2743\203>\276g}T>\243\347\375=6+\214\275l4\360\275\325^\033<\312|Q>W@Y=E?4>\277\230\n=\334x\264>\031\016\016>\321q:=/J\\\276c\374Q\275\364\333S\275\022\264=\276\347\365J=\225=\214\276*\270\036\275\000X\201\276\247X[=\246\177\201;\240\255\'\276\037\366\026>!\246\n\275O:\354\274M\263\021>h~7>t\360\210>!w\320\273\334}\001\275\'\003\024>\300\325j>\016\317\333\275\204\350\313\2759G\226>\255\264\216\275Ch\321=\014\024!>\2672\242>\007\035\340\275\240\316\345\275\333\264\237\275h\242\337\275\312\030\347=\3421\177\276\"\220>\276\361\342\242\2767\027C\276E\353m\276\314\265\364=\242\376\215<\"\211C>\006\021i\275m\234\031\276\tof>|\352\266\276c\301\244>\220y\332>\212*T\276\007\2606\276 \001\004\273|\027{\275\006\310\251>\255\222\273=J#V>\366s|\276\353\264\345=\234\350\035=\201]z=1\342\022>\363\\.\276C\214D\276\026N\216\276c\373\335\2758\213\240\275X\026\221=?\304\020>\314\212\'\276\217\316\262=\373\032\262>\212\200<\276\274\253\330<\274<(\276(`d\276\334\320u>B\326\367=\236~\254>\351W\017\275\375\307\240;\314z\r\275%\263\310=\266\235\265=Q\327\320\275P\t^<\203I\271=\321s\3379\010?\224>V\277C>\372Z,\276\327Z\200>M\341F>\260\243\177\275\014`\277\275\332\327\262<\216\204o>\372\304K>)T\377\275r\037/>\274\032\373\275\326\201\004\2764\013x>\334\223E\275,9~\274\341\254x>n\354\226\274\236\002\322>$\204\220=}\306!>\231\263\346\275YUD\276\000A\316\275#!}\275s\3433\275\331\323 \276y\325\351=\360\352\333\274+\254\337;\224\244\272\276\212\021|=\203\r\004\276Fuo\276.\306\300;\222&G> 2 \275\321\356\221\275CC\233>\235\261;>Q\244\213\275\230\342\032\276C`\225=\022\333\310=j\023\204\275\003\236\323\276\"\3747=\215dz>\240q\002\276\276?\270=\247\317G\276\323G:==\305\230>\250=\206\276\215\367\027>bs\274\276\302\220\224=\032\243\273\2752\3613\276\220iU\275\236ys\275\370z\334\276\004\324\000>EE\367\275\350\005\255;8<\220=\202u\201=\207\275\253>\177\322\000=q\273@>!\203\234\276c!M\276a\353#=\236\236B\276tO\336\275$n\311\276\363\261[>\345(\006\276A\262\217\276]\0279>\365\303y>%2\227\275Q\034A>\014\302\235<J\243\311\272h8d>\233\323$>+\034\224>\272bF>\236,\034=\356\3631>\361YB=T\263\260>\232\217\316\276o\306\360=h\342\027\275\377\026A>\305\003\357\275j\314\260\275\020\222i\276\224\"~>}\204\036>}r\256\276\277\344\225>\200\274\236\275v\323\365=\2412,\275q\235\226>\362\\:>\216  >\033<\021\276\377[\345=a\tp\276\243\341N>\227S)\276\210\000\243>(\322->I\2439\276E\036x\275K\374B;\225\005\251>\247\316%>M=B\275\300\232\005>G\342\003>\004\321@=\316|\301=\200\243\262>\352g\356=\270\005b>\362>\035=\371\365\177=\265IK=5\177\334\275\\\030\226>#\341\303\275\r@f>\\\254\342;\356\234\373\274\321\371\226\276=7\344=\257 \221\276\255\371\227\275\006\177\021\276f\026%>\231!`>\274\230\242\276\326;\214>\321\351\342\273\315\376\225=\3036.\276.T\255\276T\302K\276\273\'\227=`\333\033>~\022\215\275\314R-=3d\234=\376v\230\275\344\212\">\202\303\031\276\034d\307<m}\255>\370\021\206\2766~\343\275P\016\237\275\202\031o>0b\240\276\221Z\361=\264A%\275\212\031s>\025l\236>-\\\233=\365\321\210>P%\313\2752:/\276s}\260=\3646\321=\243\276\016\275\265\202\301>#\0073>P\266\307>1\300\227<\234\340\224=\222\201\275\2754,\334=\005\373_\276o#\007\276\302\350\321=\016:\265<rpy\276\221\356\231<V\204\241\274\264\367E=\342\377Q=R\376\033=\325\234W\275}\245\302\276BX\237=\226\324w>\016\251\200\276\304\260\217\276\206u\356=\340\317=\276\026\312S>\276F+>X\317\235<y\252\225\275\325\337~\276\260U\242\276\336\353\233\275\000\372r\275D/\252\276\'1\366<\374@\260\274\330:\341\275-\244\006\276\210\300\275>n\323!\276\260S[\276k\027\261=\361\355\001>\204\365\244=Zl\022=gGH>\276\214\222\275\203\177\021>\022\324^>=\302#\276r\377\016\2762\235\250<E\214\352<\217\345x\276\t\235\362\274\241p\354=\242C3\276\243\000\267\275\376k\014\276P\334\214\276\360\020\265\275\231\233D\275\364\363\276\275T\346\255\276\242\035\016\275\246\236\006\276PV\022=\237\227\330>\213\320#\276\223m)>\274\343\225>\316\264\215>tR\275>\365\324d>\344\240l=kc!\273\n\356h\276R\354\314>\3674\014\276.0\232=@l\374=\341\237h=\323\215l\276K\261\310\275U\033\021>\310\255=\276\034q\271\274Q;\203\276<\025\235\276\2631\376\274K\257\203>\016y\335\275\001\264\263>\325\347!\274\213o\306=\000\235:>\223H\245=\267\244\256=\326n\'\276\370\021\363=j_\276=,\243E\276\006<\204\274\276\242P\274\305\357\004\276\335\354\t>\344\002\252\274N\351\337=\311\177\300>\300\374\006=R\312\010\276`\352T>F\217\017\276>~E\276_\326\230>2:\203=\307\322!\276\003\312\311\275\213r_>\366\305\007>L\244 >\"w >,\351\010>\323\312\337\275LPq\276\\F\364\275\355(\305=\033\300\242=F\224\233\2752\207\276=\302\rt\276p\371\230\276S\324\'\276\322N\301\276A\235_>\226LM>&\221\024=\022-\321>i\231\210=\247>\263=\345\003O\276\326\036\306\275%\352}\276\023\260\265>\271\"e\276XC~<\261\360\177\276Gu\234\275\031<2\276\344\203!>7~\373\275\322\270\310<(\237x\275\037\3411>`\262\355=\331Z\004>\353fx\276S\374\033\276\260+\260\276^\014G\276Z\351\212=\366\204\242>\200\353\243\276 It>\0349:\274+\252M\275m\177T\276]\001\023>\031mc\276\310\016P\274\367\3032>\212\254\300\273\242:\257<;Y\255>\320\310\206\275\272\305\354\275\207z\023\276Vd\207>E\324)\276\366\313\267\2755\321\360\275\364H\203\276\273\'\252\275\023\210$>\242\325U\276\277:\222=\350\312!\276\026\267\351\275p>Z>g\355=<\363~\215\273\231\256)\276\311\324\026\276\302f\247<~\316J\274q[\314>\313\255\031>\221\006#\275H\253\212\275\205c\330=\326\363\364\274U\273i\276\245\253\362\2753\305q>\025\245i>\354+@\276\251=u=]\026\257=\201W\263\276\2711:=\2177y>\205\340M\276\357\204\000\276\270\177A\275\017O\255=tr\351:\3204p\276B\356\021\276P\001\376=`I\220\275\n\250\232=\021\231e>2\336\363\275\305\237\000>m\237\211\275\010\rp\275\t\022\320>\313\275\014\276\321\ng>\371\330d\276\\\024\212\275%M\033\275t\207\t>Q\307A\276U\241\243>\232\326\264\275\203\270\216\276$\036\226\274\276\320,>\332\'\302\275e\030\307=\2260\245=|\023\274\27526\220\276r&U\276eu\037>,\363\264>\004\227\010>B\324/>\212\013*\276KH\260>\020?K\276\367+D\276rK.>z\272\370\275\273T\267\275\021w\224\275\230f\216\274\237\034\325\275\3262<<\367\360\353\275+\246\305=\347\336\213\276)?\031\275{\021\n\276\255\016\263<\023\273\004>f\266i\2768\262^>X\302\271>\001#\330\2752t|\275\202\240\315\276\247^\232\273j\251\364=%,\373=\201\204\334\274I\345$>\350\203\272\276\225\213\367=\265\226\307\276\373\023\022>\257BY\273\306OQ\276+R\370=g\2101\276\n\311w\275~\005O\273\030\231\202>\365\252A=\320\n:>\232=\\\276\301\311\001\276\221OI<\364\010\245>Y\017\202\276;M\264\275\2423\021\276<\277\n=\002\212\221>\210\332\020\276\252\260o=o\356\306>\313\236\022>\033x\377\275?Yg\274\\\207\376\275q\254f>\353Aa>5\207l\276\274<\377\275\311/J\276\325a$\274\310\266\305\274X\242\230\275?\021\036>N\024\374=\363\200\031=\'\332R\275X\2750\276\3779\036\276n\030\232=\000\030q<\2678+=48\252=\017\177\233\275IW\200>Y\036\373<\241$\004\2746m\231=C\006\266>i\272c\275ypo>\247A\006\276\266\021\035>\204Q\327\276;\312F\275\351)a\276M\023\033>!\362\202>\345$\346==\016\t\276\260\242\207\275}M\304\276z\263\217=:^\253=\"n\007>\010\356\363\275N\267,>\030\022&\276\321\262z<llC\275\235\240\024\276Y\246s==)\020>Ds \276\031\026c=Ett\276\377z\216>7\364\n>\240c\336\276\002\311{>\377\314\204\276\372\376n>R\331\313\276\363\330\306\275W5Z>\350S\254=e\316\251=\222\017\355=\247\306\225\276\304@\340<OJy>\244[F>\035/\007\276\313\303\206\276P\330e<\225*\376=6$,>N#\315\275\000\215@>\333H\242>R\236\263\276_\370q\275d\343\257<\304~\007>rb\210\275\031+\316>\232\241z\275\301\033\376\275\\\036\034\276\275\361v\274*;\225\274\346O\202\276Z\034\323\275\257R\215\276\364\007c=\371r\020\276\310\316\215\275\274#g=4\266\235>4\006\021>A\233\320=\255\016p>{<\277\275\314.\020>\"\\\255\276\276o*\276\275\344\034>Y\325-\2762\216y\275\205\353\304\273@\\\222>[\251\003=f\004\253>.@\250\274\007lG\276v\267\014\275\024!\001\276\350\265P>\006\037\242>\302e\016>\306b\246=\320\256\220\276V\010=>\277(\276\275\223\327 >eX\245\276~\214\200>\330 \205\276\312M\t\276\301\332\027\276Z #>j\335\302\276\244r\203\2753\303\333<\226L\217>\231\327\270=\346\322\321\276Y\321\201=\276\257\211>B\024\t>\345U\370\275;\020\211\275;\021\366\275\272\224\370\275\374=A\275\322s\204\276j%_\276,\302\000>x\264\025=O\014\006<\310\021\320=\245H1=\275I1>\355h\331>\364\035\253=:\321\216=\224\233O>\366\300\345=\361$+\276\307\016\317>\377\275\364=\333\317\252=n\020b\275\345x\340\275\254O\233\274\021\257s\275{n\210\275*m\251=\315\371\000>\223\337\306=\223C\370\275w:\272=;\033?\276\2073o\276\350\254\210=\001H\\<\032\343\214\276\236\320\263<\327\340\253=fuM\274Q\266\303=\322\252X>\027\375G>\201\360q\276(9\010>}:\236\273\027{\363\275\303\274\034>\346\320\326>\206s\227>\367^\271\276\302A\253>.<\314>\376\227\233\275W\005\033>/\211\240\276 \233\333=\005\014B\276SOO=\301\266\320\275-\263 >\315y\301=+[\301=\227\276\215=\003k\252\275\312\001\246\274\311\230\2339A\316\215=15\234>\207\333\213>\003\214\356=Gf\227\276\321P\204>|\244\003\275\017\220\265\275\376\030\234:[\256L<P\001*\276N\271\034>_`\217\275C\317D\275\322\251M\276[\334\313\275\277\317\367\275\271K\231<\\p\260\275\310U\240>\366\307*\276|\006\251\275!\316\021>\342\262q>h\327\261=\223\005*\276e1\307>\377Z\211>@\014\033\276%:\245>4\354(>F\312}=^\244\274\276xI\210\276\342\313\004>\010\215\214\276-\345\260=\322\347]>\370\366\335\275Kg\256=\270\211Z>G\347a\275\321\255\354=\367V\274>\215\336+>\367\340\341\275(\252;=\255\310\240:L\260\370=62\324=G\220\006\276j\351\250\276\257X\327\276]\005\211>34\004\276\005j\007>Kbq\273[\005o\274o\361\212>!j\024\276;\216\202<\274\264\217\2769\336a>\0017\223>\201>\245\275\310\331\363\272\342\013\214=iP\326\275T\230\214>\207\026f>\347f\016\274\344\300\352=\032\261\353=)\201\326=\254\302\273=\215\276\"<\233\234\321>8\224\314\275L\265\021>\236\006\221=\326s\232=\345\375$\275C\356\200=[\201\305\276\215\220\362=r7x\275\342;\221\273\016u\343\275k\302\211=\264\r\334=T\332v>\326\254\313<\260\351\007\276\257\034\243\276p\361\342=\233\016\333\275k\006\227\274\205j\254\276\023<.\275H\252\222=\247\367\026>m#\030>\016\242\362\275*\002U\275\t\257\236\275\020\243\254<\022\216\332=\211\026\347=\311\352Z\276\376<Q\276\301\313s\275\217\302\226\276KG\233>\366dV\273\363\307V\274cr]>i\037\364=\371\343\357=G\232^>\332\247\031\276\323!\030\276/\367\036=\027\341\246=\243\212\n<\246\275y\275L<\267\274\2427#\275\252\300N\276}\023\204\275\335j\352\275Th\224>l-L\275\204\024\263=K!\022>$\217\207=`\036l>\371^\037\276\021bM\276M\226&>\216\305,>&\233\256=Ym\200\274\3712\313<\252(\221\276\024A\312\276\263\221\254\274-h\314\275\336\267\226\276\022\377m\276\253\031\217\274\357\244#>{Fh\276\023PQ<\022$\017>\220\033\245>R\347\213\276\023\300\">\274/\236\276/I\205\276w\022\232\2764bh\276\302c\030\276\342bd\276W\236\356=\004\002=>\033\332\002>\006oU\276I\200/=fx\013\276\335}\005\276\216\032\223\276\265\363\277\275~I\265\276\302\227|\275\271\230\010>\322\266l\276c\256\234\276J\276\006>H*\016\276\376\245\327\275\321%\202=\325e\204=R\377\301>|*\022=\373\250\254\276\010\005{>\021\305\365\275\204\207\'>MK\347; \233\024\276\343y\013\276\371H\205=\314\304\002\276B\301\313=\236_\n=\253\001\356=\2772>>\"\025\225\276ml]>\252\272\203\276\250\313\305\276P\325\215\276\267\326E\276m\242\251\276\311w\240>\246\301i<s\310\210\275!i<>\3243\243\275\2747\252\274\245Y\244\276%\032\177\275ltb\276\031\266\315<\013\022\252\276\336\237\361\275z\213>\276\307\002L=\227\314\303\276\214h\304\275\014\236\034>\231:\034>\355\255<>2\270\020\276\326\267,\276\213\332\274\274,\257;\276z\030M>\233\306\'>\317\332\217=\206\2573>\255\270B>p>\035\276\211\321\204\276\206\201\242>z\251\233\276\265\345\321=\334\345N=3\344T>\022/\237\2768cL\276\n\370\036\274\325\014\255=;\332h\275\035YL>F=\333\275\310|\031>\316\035\257\275\373F\326=\036\032\367=|\235\310\275&&\3049r`\332\2752O\237=\217]\212;Cv\275>\360\271\345\275.\254\005\274\223-\257\275s\004\025\275\006\030\262\276\217\030H>\277\214}>^\322\254\275i\2620\276j\205\"\276\217\274\'>\235\242[\273Q\372\240>\341\221e>\352\2635>\267\326\201\275n\305\177>\3661\207\276a\237\213=F\240\245\2750\257O=\204\353C\276\n\245p<\337\2366>\321\371f>\204\3469\275=}\256<i\177\226\276\251\217,=M\307.>\377d;>\216O&>r\020\023\2758\336H\275\014&\215\276Z \'\276\343\3239\276Y\023x\276\360v\205\276\263{i>\303<\017=\3025W\275\347A\030>\260\241h<\204\022-=r\337\244\275\321\250\267>X\245\324=Fe\243>\206\024\354\273\226\270\252>zN\000>%2Q\275p\025H>\260\230\020=I\301M\276n\037\\>vb\003>\212\217\022=N\304\217>\260\322%\275\'\2501>Vo\026>[\031\335:\301P\236>\010=\210=\347\333D=\347\002X\276\202z\036\274$\0351=\330\307\327=<\230\r\276;7\211=\003\031\274=\252\002\325\275\035\201\247\274B\251\202>\010\312Y<\241\333V=2\327\274\274A=\032>]\306~=\241\225Q\276\270\352\013\275\026c\241\276/\266\316\276\032w>\2752\013\334<\tx\032:!b\225<\003Za\276\207\344\021>\304\215\253=\245\245\330=\356\033<\276B\344\322\276\372\221\317\276#\376Y\276\363\263,>x\370\256\276\021p0>L,\311\276\321d!\276\320fj\275\224\027G=a\230W=\034}I=\361\004#>\250+\212\276,S[\275\266\221\001\276\375\3461=14\177\276\372\332\035>+\222T>\007\201C\272`W\013>g\2025>\272t\336>lG\010>\200m\310\275X/\275\276q\021@\274\212\363\016\276\323\333\302\275\215\313\005\276\231\202A\276\273\203\004=\"\223\237>\353\270\215\276i#X<w\235\223\274\366&\005\276r\374\334>M\310\367\275\342\303\270>\017\373\351=%\345\304=\344G\373=<cN=\177F%\275\244N*\276\3235\372\275\027\262\330\275r\024\304=\375q5\276\223\304\370=\364\032\217\2756\032\227>u^ \276q\304\256>h\377\322;\344\257T>[\235\222>\333\006P\275\337\261\">\201$\014>\2664\\>\026\373\217\276\311Fw\275\347wf\276\003\320\211\275\242\217\200\274\030;==5\273!>EG\377=\227\220\210>gm\032>\235jf\275\tu\310\274R\226\336\275\212\205\302<\306\373\276\275b\323>\276\372O\200\276\211`\221\276;\002\037>\"5l\275\035g=>6\373>\276\316\020\177>\326\2613\274\271p=>\324\216\267\276\241xw>\205Vb\276\234#Y\276Tn_>\007\'s\275\367\376\031=\214\326G\275\214\010\333\275E#\317=|\326\212\276\003\277\242= \200\235\275~\307\374;\316\256\343=\312\202P>C(\275=\262\277\252>h\361\002\276:s\002>\200G\250>\274+\017\275\0333\235<@\271Z>\007Zx=\234\025\341=9\3728\276O\262\273>\250o\325\276K\225h>\243>\034>\031\344y\2754B\324=\251\370\256\276\241\374c\276Ql\221=\222p\241>v\007\335\274Op\030\274$\257\203>\036\264\271=\256\311\346\275c\036T>:\332\252=H;2>|/\235\275K\3612>\334\361\n>x\212\206\276\230\346\235\275_\250D\275\226\025\372\276\014\312\211\276\331\376=\276(\007\203>[\353d>\344P\263\276\304\251\270\2762d4\276a\350\334\274X\215C=\343\242)\276\323e\001>\264o{\273\247\314x\274x\036\241\276\246h\034>\265\000\207\276\036\334@>VHN>\250v\341\275\267CC>\323!\222\276vC\214=\372<\201>\225\330\270\275\310\314\275>m\340\323=t\232`=\377\306\246\276S\260\301>\004s\243\276l\351\310\276\003[M<\007\\\n>\227\214>>B\005\305\275\304y\000\275\273\243\224\276\036|\335\275\200\033b\276\357\365\307>\266\214*=B\347\022=\205\362\246\274\237\373=>-F\270\276\206Y\233\276\313\031`>)r\234\275LIA>\001\212)>\2246\202=\243\302\201<\250\245\230\276\216\3306>\251\257\275=\234\333\217\276\205\237E<\t\312\234=PW\343<\360\203f\276\313\201Y\276u\342l\276qX\336=\202z\223>\222\241\026=\336\241\237=\262\2642<Wj\312\275(\360\232;\335p\234>g\304\036>\252\'$\274\300\264I\276|/\337;\373U\330\275\271\237\003\276\262\371\372=,y<\274\017\020\026\276N\261\303\27430X=\n\247+\276\374\223\204=\t\2032\275\017\2654\275\225\337.\275\274\317\374\2750\273\253\275\377(\320<\322\255+\276D(\305\274\273G\250\275\254P\271\275`\252O\276\336\313U>\246\343\232\276|]\225\276\2069\261=\223\'\312>Q\303\275\273\234\230\317<\3508\005\273@3\017>\263\331h>\355\3134\276q\2306\276\274rZ\275\325\263,\276[\246Z\276\202\252\203\275h\225\243\275O\240M\276\237- =\003J8>\032\332\014\274\254y\226\275\212\262\n\275A\016\017\273(w\204=\027\354\023\276\202\264\316\275\345\352)<uq%>\225\225M\276\332m\037>\335\t\024>j\246\223>g\010X\276\341\265\036\276\224$u>\302-\t\276`&\351=\316V\264\275F\261q=FJ\017\276\235\335p\276\275yX\275#\320\225=$\215V\275\303\"\214>\345I\217=S\371X\276L\245\265\274\305\246O=\320\333\331=\346[z>\206\320>>x\252\315\274\323\005\202\276\024\323\320<\245p\305\275`\343p<\310\r\377\275\205r\217>\323e\233>\000\355\027\276|N\225>\317\344&>\027\267w\275\362\227i>\030a\215>\274\020E\276\263%\006\274\372?\277<\202\366\236\275\366\207\347<\360)\351=\216l\326\275==\234=\304\271\272=V\257#\276l=\024\276\030\302b<\024h\247\276\215\237\227=3X\000\276b\311\223>\306I\260<\367g}\274J\257F>\006\310\021>\313E\237\276\244XQ\276\rp\023>\025j\245<\232\373=\276\210\321\270>\256\211\337=\364\335o\276\226\022\002\276\342\215n=\337\026F>a\267\033=$r\331=\310\344\270>\017\301\256\275A\003\031>$\215/\275\211<\014=\306:\223>Q`\035>-x\276\276xHJ\276\355P\246>[\2520\276\223\341\004>.\345L>\341<\r\275\206\260\332=\326\304^\276\215v\030\276\r\334\325\276\334\262X<K\335V\275_Fn=\275\024\234\276\322\0074=\371m\256=\014kp\276\036\355\270\275_\252/\276$e\334\275\217\022\210\275\240\013\004>1\233~>\2058{=\256d\222\275l\305\004>\342\202\206\275v\354\355\273\320W\242>\323\346\234\276o\377\253\275I_`\276\316\365\027\276%\323\244>\240wN\275\354\241\030>\300\222\016=\004r\301>l27>\016T\216>\213\337\242=1\240l>4\3648>\234\327\022>\033\344q=Y66>\254\203\224\276b^A\276IV\226\276\305\022?=\355AA=9\372\212\276\251\326\033\274\205\363\313\276\017(\026<N9\202<0\276\366=\010\363\257\273\2636\340=\354j\352\275\332y\321:<\253\350\273P\010\227=u\345.>\355\266V\276\026\222\253=\336n\310\275\tr\210=-L\200\276\004*\253>^\267\215>[\036\027>\026\364,>\032\226H>r\220$\275\224\244\177>a1D\276\003\264\200>3\037/\276\023oL\276\355A\300=\330g\232\272\177H\265>\244\276\271\275\242\221*\276\236\375\204>\315\327\377=\377\214D\276\327\017\276>^\262Z\275\'\317\017>\2007\356<4\221H=2c6\275\r\231\300\275\273\032o>\035K\271<)\036\365=\247S~=^\267\366=\002\005\227\276I\002\020>\261\373J\276\352\013k\276\321\224}\275\272\353\235\276\016_\252\276\354\264\370\275\222\224y\276\352\225\200\275\305c\005\275M\252\311\275ws\231\275:\244\322=U)\031\276\231a\240\276\251\020l\276\314\231\253>\3123l\276C\200^\276\274v\257>\350\356\320\275\021\341W\275G\024\240\276jD\301=\240`]>\2271\367\273\311p\251=\016\'\254=_\031\233\276\361HD;\3375E\276\377\023*\276E9\210=\370\210\221<vF\273>p\332\232>\234\'>=\312\333Q\276\216\373\226\276\302\207\223=\n\264\026>\352\256\372\275\210\227~>\017Pm\275\363\001z><\362I\276G\017)>\365Bx>\255\274C>\006J:>\213\242\261=\213\264\021>X\004P>)\224m>F\262T>;\365\215\276\277\337\274\276\264? >\355\217\357\274Y\335*></}\2764\275R\276\017\371\356\275TXS\2755\334\032>\027\257\001>\016A\005\275WN\031\276i\007}=\324\322\255\276H\201u<\361]\214\276\300\034\257\275\357\352\212\275\256-#\276\272q\036>\032\237\232\276Jg\335=\325*\312<r\263\310\275\304\3043=\274b\256\275e\000T\276Uk\275=\335a^>}Z\251\276\226\223\203<\366\021\260>\203\014\211=\177\235\355\274K\262\200\275\3569\035>\3639\037\276\363\307\201>\017Va=`\021c=3\375\n\276\327\353\355\275\005\261\333\275\327\266\241=\215\251w\276\250\255.=q\306\342\275oaz<[h\256>l\374\356\274f\026\356=\001\261z>j>c>\306\226\217\276\354\030\203=\372\024\265=\207\376t\276/\332\305\276\036\n\227\276t\212\263>qo\336\275K\3138>^\325\214>\254\302\271=1\370\247\275\032\340\362<\267\340\031\275#_9>\256L\355\274\222\036\002\276f\230\277\276W\215\237>\360\211_\276\010\242;\275\316\347\237\276\346\303\372\274\311p\326>\366\372C>\250\031\265=!\316\004\276e]=\276 \t\\\276\312\2442>\021?\366\275\312\370[\276 \352|< vR\276\324\333\330=\3633\221\276\031<\243=c\005\267>\207H\316=\013\373\t\276\317B0=b\313\206=!\301\227\276\250\200\256\275\234\240\203=\317#\276\276\304\003N>\036\233\030>\235\345/<U\321Y>TjZ\276\232\374\026\276\201_\305<\017>\336<R\326\037=\220\020\002\276\021\025\222\275\216_\214\276\335$\231>@\004\253\275\371\321\273\276\206\312\214\276m\217\256=\250\3314;u\214;\276k\217\300\274\301S\376=\026\352\026>\367\212~>oj\223>\020j\004\276\277\201\210\275eC\201>\312\363\263\276\267A\005>\010\310\034=\246\353(\275\265\227I\276\303\273\024\275{\210\266\275\236h\311\276\024P.>T\024\355;ix\314\275\224T5\275WN\277\275\322\020\216\276j\243\350=\307d0=\031&\263\274\250\312\310\275q\307\225=h\250\222>p\356\254=\363W\031\275?&\321\275\233a\261\275\3736\251<JZ\024>78\324\275UI+\276[S\r\276`!\303\275\372\276\240>\177 \030\276\006\213\025\276\352\033\272\2752\206\361\275\253\033\003>\2358j>4\235\271<`\366\303\275\336rH\276\323\214\331=\202\243\321= \323\245>\365Y\303<\302\224!>s.T>\217f@\276\224\240\t\276\360q\032\276\\\243f\276n)o\275\237\334\314\275\235\\\266=\213\207A\276\345\310\235\2755\310\2059\244\270\264>\013\217R>8/\265>\255\323\342=\240\217H>\302\013p\276yU\r;\3161\266;\313\246\230=\021X\212\276tG\336\274\241\223,>6\205\333\275\035\237\214>g\021\364<\236\226\214\276\373|<>\016\001\203\275\314\305j\275^\243\221>\267\246\254>\356j\345\275\325|\007\276\320\203\242>\037O\257\273\353{_>&\247p\274U\201\030>Y\212[=\367\252\230>\222!\214=~\336}\275\312W&>A\356t\276\3751\246\276s\230\242\275\372\357\325\2746Y\234\275l\362}\2766O\013\275\212D>>\336\010@\276\373?\360\275\233\022S\274\263h\231>g\031f\275&\r\307\2766{\322\275\322\354J\2763\211\240;8\221j=Bm\024\276\016\231\325\276\203\236\033\275V\367\241=Qfg>\371I\216=\230\3346=\206&\352\275V*\260<\301\362\204\276\353\203\305=\344\316\021\276\020:\225>}\3406\276\214\007\003>\331\240\021>\024\027\221>\3618Q\276\230$\256\276l\375\'>\241T\215>\316\2263=?\305\212=\016s9>\300\317\377=\236\352k>z\335\255\276\272]\361\275F\374r\276!\311\254\274Id\270=\222\304\201\275T\247\030\275\345?\207=[\343*=tn\357=\206\037\006>\007u\343=\037\263;>?\037\244<c\254n\276\222\032f\276\257\245\200>\257\305q=\346\002\302=Z\nC>\350\272\235>\2740\301\273(uG>:|\247\276^\035\240>}C\334\275\022\021\257\275I\034\217>\374-\002\276\r\177\342\274\316>/>\265\322\001\276uSr>Q\341!>)\242b\276^_\'>\364\2755>\3124\232\276\372xS\276 {G\276/\307\274\275\232\315p\276\206\315\032>m$\026=\232\277\022<\"+N>\226\246\246\276P\364\211=_\356\374\274$y\235>\351\327\004=\212\375p\275G\245E=\036\225}=\276\263\212\276\025\037\242<\217be\276\247\034\222\275{\252\302=\310\243\3448a\235\272=\300\370\316=g\267\244>\216H\237>\231\206q>\377\323a>\022\227P\276o\372\200>U\202\240\275\220H\315=h\272l\276\262\335\251\275C\243\332=HWr\276\347\314\352<\0364\002\276\202~\224\276\016\211#\274f\022t\274\006E\361<\336\372\212\2756\tC>\014\254\301>48\262=r\010\001\275\315\205\r\275\037\233\250<}\351a>\272\201\035>pH;\276k^\203=Cn\023\276\363x$\276\305\203\270<\347if=i\312U\276\243a\310\275\213\202\220\276\024}\367\274*\335\326\275tS]\276\010\005\346\275y\023]>Dw\244\274\211 \255=\274\032^>\331\335\251\275J\345\032>\214&\302=\306\2709\276\023\035\r\276\247\206*>\200\321K>O%\243\275\017\321k>\252\016\n\275\207\205b=\265\010%\276\201\234\006>\272K\317\274\332E\203\276\200\220Y\276\014\323l=\315\202\256>\270+\366\274\304\357\243\275J\302#\276t\316\027\276\260\334M\276.\221\225\275J\315\204>:H\027\276-\032\200\275&\315\257=\320\\\203;\262O+>0\345\316<\302\265K\276g\263\306\275A\216\014=\372\354\257<\334\017;\275\007\223\317\274\341\177\312=\325\266\020=\230\346\304\273\320\253\225<)\324\221\276\014\347$=\025i\001\275\313\241G;\232\035\023>\324\215^=<\216\272>Xt\031>\000\255\227>\034\305\233>\026K\214\275\275\327\250>\204:\021>|\310\272>\230!\331=\311,\000>\310\025\252=\220\371a>\3511\254\273\253A!\276qg~=3w\215\275\004k\233>\335t\027=7\325a>eW\252>\236\266J=h\2041\276\255\374g\276\331\205\003\276\203\370\262\276\3019\234><\026\216\275OE\212>\021\2358>\275\002\353\275\337\315\306\274:\322\356\275\215Q\261=g\262\212>\017\002\256<\220G\356=\224\336\247\275=\177\237>|<\300=\345\240\016>\302\005\203\275zzC\275\235\007\013<\274\230\246\276\210\252\215\275\016\231n> \261Z=\020\014\006\276\273=,\276\3555c>\363\203\206>\375\244\204\275\223\217\266<\256\307>>?\212\037\276\221%.\276l#\236=\002\232\202>o:\226=\233\016\247>\262\324\000>\306,\320<W\037\232\276\300\301%>\031\331\264=$\220\014\276\223~\204\276\303Q\266=\206<\256>)\275\221\276\267\016\014>-\254\017\275\357\332,>?\210v>\306{\344=\344\032\002\275E|\301\274\351\"\235>;\325B>\303\265{\274X\r\313\275j\225\205\275\2743\342\275\0036\243\275\201\212\027\2761|p>\214\376-=\014\222\266\276\213\307\240\276\016\026\312\274\311y\301=\217\350\222=\177\n2=\t\313\035>\3224\231\274]\377\005\276R\207t\276m>\223>&\027\037\276(P\237=8p\026>\010\234\254=x\276\341=C\372\274>r\013\264>\3432d\276At\226\2763k\210>\'\222\306\275\341E\214>\257S8\276\262\211\372\274\364$\004>\270\264b=vw\232<\026:\036=\205\376d\276P_I\274\026\264\300<\372\330\213\275\002\2063>J\323P>R;\035\276\222e\325=\237\203\355=\324\\\300\275+P6=\341\222 >\272f\324\275mc\240>\024\003\020\275\236\014\"\276L\335]\275\000\330\305\276\035\247\244>\350\203W\276\276\222@><\307#\2754\227]>7\341\023>\363?\n\276\225,2\276\360\237?>\345?p\276\264r^\274\344\354q\273\202\017\262\275\311fS>\035\224\326\274\211\377h=/1\264\276\2427Y=$\366\305\275\310-v>A%\013\276\270\210\003;j\\\260=\004\251P><\2559=\2771\013>\300S\200>\235\031\373=\\\257\267\276]5u>\017 