node {
  name: "normalization_input"
  op: "Placeholder"
  attr {
    key: "dtype"
    value {
      type: DT_FLOAT
    }
  }
  attr {
    key: "shape"
    value {
      shape {
        dim {
          size: -1
        }
        dim {
          size: 13
        }
      }
    }
  }
}
node {
  name: "normalization/sub/y"
  op: "Const"
  attr {
    key: "dtype"
    value {
      type: DT_FLOAT
    }
  }
  attr {
    key: "value"
    value {
      tensor {
        dtype: DT_FLOAT
        tensor_shape {
          dim {
            size: 13
          }
        }
        tensor_content: "/\340~@\004[\241?I\023\354>\333(\007DJ-\205Bl.RC\253\344\032@\211\223\304?/\350l?\370\301*@(\217\343=CZ\001D\014\234\032@"
      }
    }
  }
}
node {
  name: "normalization/sub"
  op: "Sub"
  input: "normalization_input"
  input: "normalization/sub/y"
  attr {
    key: "T"
    value {
      type: DT_FLOAT
    }
  }
}
node {
  name: "normalization/truediv/y"
  op: "Const"
  attr {
    key: "dtype"
    value {
      type: DT_FLOAT
    }
  }
  attr {
    key: "value"
    value {
      tensor {
        dtype: DT_FLOAT
        tensor_shape {
          dim {
            size: 13
          }
        }
        tensor_content: "Dg\257?\205\214\220?\205\3470?j\226\214Ck\3671B\017=\327B|\276z?4X\210?2\342\321=\003k\204?\363D\206?;\205\363C5\352!?"
      }
    }
  }
}
node {
  name: "normalization/truediv"
  op: "RealDiv"
  input: "normalization/sub"
  input: "normalization/truediv/y"
  attr {
    key: "T"
    value {
      type: DT_FLOAT
    }
  }
}
node {
  name: "dense/kernel"
  op: "Const"
  attr {
    key: "dtype"
    value {
      type: DT_FLOAT
    }
  }
  attr {
    key: "value"
    value {
      tensor {
        dtype: DT_FLOAT
        tensor_shape {
          dim {
            size: 13
          }
          dim {
            size: 64
          }
        }
        tensor_content: "\201\177\007?\337\335\221=\325\304\267\276\231\227M\277\327\373\005?\305F\235\277\316\206\211\277\277\261\322>^E\251>\261\335\325=\0140\215\276\212Al\276\376\355\350\276\371\010-?%\341\324\275\027\306\242\275z\242\325>\032\312\317>f\260Z\276\370\216\247=\253\221\006\277GrX?)\244\210\275\n|\344\276\275[\316>\330\273\313\2750+\003>a\212+>\267\233\204>i3\022=N\225w\277?\347\030\277\262\r\024?=\377:\277\214\211\225>\206\310c\277\353\212\350\275{7\253\276.J\t>A\212g\276[\241\344>:\3121\276.\275\222\277\372\342\254>_\230\331=u\226Y>\270O^>\221\375\006?\302\310O\277\373\311R?.`\r\2763&h\276\256z\374>\0033\354\276\017\366F\277A\304S?^\3078\277j\034\324\276w\021\361\276b\037J\276\3533\'\274\324\273\n\276J\032-?\023\034*>\231\020\320\276\307\004\253=\0220\344=\370\300;?I_\240\276\345 \021\2764\035\351>\305h!\274\342=\360\275\3500\203?\236H\211=`\244\334=\333!\217=V\033\210\276\335\377\260\276\235\027\005?\342rg\276)DQ>\254\0040\277\353\217=>\273\253.\277o\207\203\2760\027@=\021L\250\276\272\027\227\276\317\251\216\276\030\250\221>VI[\277\020\303+?[\356w>]\027\327>\3744\266\276_\344L\275\352\210\232<\234\2134=mz\336\275\271\300\272>\262;\024\277\313i\231=\275\203\207>w\364\007?\342CO\275h\222\330=\225\272\300\2751\212j\277\017)\006=\353\031\236>S\';\276\264\375\004?\026\263\321\276\023\375\256\276\036W2\276\257g&=G\212\021?\\~@>\314\023\233\276I\324\307=\214\224\326>i7<\277p@\232>\275\314\263>\326U\342>\000\t\256\275\224K\203\274\261\251m>\216\021\314\276\351\2466\275G\302\001\277\232\327[\273\037\262\334=\366I\t?\210r\271\274i\215\243\274Ns\262\273\236\250)>\230\306\322<\370s\214=\273\254\034\276\226P0\276\333\217\026\276\246\250\347\276u\225L\277=S\016\276\207\010\003\277\263\346\306>\\\216\325>\311\007\366=\3475\202>\240=\\;\230\021\020\276br\226=\203\n\316>\302\345\002\277$9\275\273\005\333\363\273\265\267\372>\032h\t=[@<\276\304\261\262<z\022\210\276D%\204>.o\024\277\365`\205>%\303\200\277\244\017\266\276\001\325\353\274F\232\346=\221\270O\277\254\003\024?kC\356<\017\300\206\2768&\327>T>=\277,\314$>\021\261\266>>\006\037<\347\251\037\276\367\020q\277\255\256\036=\322D6>-\372\272\275O\255Q>\010\356[>\236\255\3359\177\336\364\276\013\227\317=\227\004f>\323\315)>1\351\034?cT\336>\005\344\355>?\247\037\277\017\276\266>\271e\221>G2/>N\330\023?\371:\n?\317\216\024?+\253\236\277#\251\227\277!#\261>F\277\007?x\025c\277\356\262\327=b\334{>k#\365\275~2\304;\213\027a\277\207\245\230\276\340\322\030?i\267\225\277\210\007F?\213m/?6\257\306>p\235C\277(\215\200\277\274\353P\277*\002\332\277\246w\036>\232\255\230\277\035\324\257>\217~a>\353\342\363>\375Bx>+w\275\277,\211\255=z\225\241\277\212\312\275\276\366\327\n?\227\201\201\2773\0226>\255\300O?\363\357G?H\317\356>\371\234\340\277_\007\207?\340jD>z\002\204=\210\306>\276\200L\'\277\016)\031>\332Y\000?\311\000\037=\225^\021?r\3164\276\204]\010>f\004\004\277\250\230*\275I\017j\275\027w \277\245+p?\213\244\257\277[b\033\277Z\204\267\274\377\253!?xhM>lF6\276\311\363@>\016\263k\276\223\031\341<uS\200\276\301@\371\274\2642\246\275r\302\326\275\376L\201=U\301O?#g6\276t\200\214\276{\264d\277*7K\276s\351\210<&=/\276\305\207\n>\002M\001\277\367O\035\275\267\357*?\366\360\031\277M\022e?b\367\276\274\034\323\210\275\352\254\332\274\"\365S\275\370\251b?\335=&>\277\215\367<Y,H\276m)6\273\332\310\306>\315\363\030>s\177\r>\220^\032<\023\366V=\310\321\263;s\315\031\276iC\377\276\371v\212\276\366\257\031>d\257\277;\317d\347\272\331\367D>S\310/\276\351l.?V\263\234\276\256\302\310\276\366\220\352>\020\244\206\276aT\203\275\\B\033?\271\006\331\2765\035\274=\334@\373;\036,K<\370*_>\302~\211\274\344-~>n\202J\275yl\374\275\024\210\356<.\200*>\031W\322>\r\261\320\276\223\265\207>\257\177x=\360\272 \276\271\315)\276}\323\230>\307\006\222>\375w\r>\213\000\023=/\316\024\276\206\361D>Q\030\227\275\004\222\217<A}&>j\213\262=\212Mb\276X\022\214>\036\202\222>\223*w>\213\317t\276l\320\213\275\300\010\201>j\204\244>\007a\226>\242\377\3369\242\267~\274]X\035?\351u\366\275E\"\353\274\202E\016\276\302\017\216\275\t\242\207\275\341,I\276\"\\!\276\231\314\234=\217b\033>\0043\031<P-\275\276_b->Rv&=\345GA\276r\256\330\275n\343\221>\020<\254\274\266\266#\2755\271(?\001\312\214>,\324i=\266\026j\277\303\376S\276\235\345p>\351\320\272\273g?\317<*\"\r\277A\007Z>\351\030\262\276\274\327\253>I\372\304>{`\232\276IO\244>X\217 >$)\307=\250\221\274>R\246\332\276\354\020m=\250\332\217\275m\330\266\275(\241\314\2744*S>t\010\003\277R\001\276\275,LA\275s\3506>\315*#\275\223\271j>\033CY\276V\304\254\276\340\262\206=$\026b\275i\230\250>)\263\253>$KS\276yB\317=1G\260>\370%\332=Cs\353=+\n\233\276\203\344\260\275eE\323>\327\020y=\321\240H>qj\221\276\252\'\034\276\017\374Z\276=A\203<$\243\362;6#\211>\334!\222>\333\341\245=\262?l>%\374\'>\377\357\253\276\000\222\020>\336`\352>\246GW\276\340\251\025=\247n\257=\360\216\227>\033v\225>\216\233\002?\206}\246>\215\360V>\270\354\255<\377\310\026\276N\r\027>\213\364\322\276\305B\302\276\357F\252>h\346i>\210\272\014\276}\035%=\310K\373\2746o\266<\274u\300=\265\277\016\276\260\243H\276\212\327k\276#C0?A\353X\276f)\226=p\024\340\276\346\347\204\275D\214!>I\335\344<\323\367\273>\215F\020>{\312\251\276vi/\276$\272\315<\001\\\357\276=#\247\275\200~\035\275\276=\265\275\357]\263\276\270z\237\276\036\300\372\276\304#\261=_\003M\276\005\374\207\276\364\304\227\276\256Hx?\375Q\245>\031\204*=\3520\362\275\022Up\275\375O\016<\345A\301\275\302e,\277\336\277\024\275K*\323\275\001O\207\276\343\235\371>\006b\246=\205\345\324\276W`!>\252\307\024?)\375>>\023!\365\2761\022\210\276BN\'\275L\320\247\276\210\261\n\276\322b\217\275\2718(>K\307]\276cF\377\276\201\347\232=\211\235\251<h\361A\276\207\266\267\276c=w\276F\2301?\340\316\214=\342)\037?\033d\333\275\231\236\324\276\024n#\275\034\236\267\274@\336\037\276\245\023\200\276\014\204\237\276\303W!\277\216\303[<\250cE\277\300\367\004\277\232\257C>j\347\274?\032\354\203\275$\227\261\276f9\013\276\3360\232\275S\272C\276&\023]\277\232y\n\277\'\263-\276ze\262\276ir;\277\244\"\005\277\261\322z\277\376\371\034?\\4.\275h\240j>-\231\242>\313\350=\276lXM<2\235\r\276_j\201\276M|\t\275\230&\205\276\200V\361\275\270Y\237?\226\023\001\277c\t*<(\267\321\276\255\377\216>`\305\025?\3326U?\277\240\017\277\321K\352\276\245\340K\276m/\350\276\262\224\035\276\315z\245\276d\n\263;O\001\344\276\231\253o=\252\177\361\276\261\326M\277P\240 \277\000\313\007\277\211\0270?\341c*\276\373\017\306\276\277\245G>C\002\221\276\234<\024?q\\\006\276\227j\370>\336\250\202\2769R\216?M{\336=R[,\276\200_\327=22\314<(\'\014\276\246A\241>#\272\026\277\227hf>\263\331\362\275r^\367:\300u\371\275x\353-?\362&!\276\302\013E\274Z(\215>\277lk:\"\304\223=\000\362:\277\202\350\245\276\214\346P\2766X#?!\206\177>\245j\353=\345\330\243>\346\026\267\274\351Q{>\304\374\361\275XtO\277u\255\n\276\270<l>l\257\262=\375\300\253=a\212#\277B\267\271\276\221\314!>k\350\333>\363\3664=\324\255\"?\250n\035\2767D\346>\363\201\251;2\362>>\025P\345>U\023u=\233\\-\276Xh&>\222\327\260>\216\345\234=\3213$>\233\337\210\275\215,m=s\240\032\277f\026$; \234\331>\251\320R\273\275\352\350\276\2124\221\275\267w\215\276\266\325D>L\333C\276\2636{>\222\256V\274k\273\250\276?\023\232>\nd\274\273\344\233\326\274\371\001w\275\206\312r\276\340\322o?\022m\010>_\341\312\275\252Sh>\331\221\261\276\010\030\245\274E\031\021\276\374|=>]\202\256;\273\204\376<n\234\242=\336Ep>\274\221\232\276\222\305\261>\314C\217=\316N\032=k\203\306\276\031Y\201\276q\014\322>\2742\365=O3T<Dp\010\277(\231\n\277\220n\300\274\017~\002>lo\207=R\347/=\202\030\267\273\222\326O\277\002\267\326>w\252\366\274\375\250\320>-\277\374\273\242\"\335\276\230%\272\275\375\305\031\276;\013\017\275\202 Z>\2309\230\275\244p\031>\250S\325\275\373&e\277\243\277\326>\311\004\217\274\301\376T\275OZ\002\277\350\025\">\330\003.\277\254\010\207<\367\372\203\276\333\360\353=\266\250\246\276&\000)>\276\241\031\277!\241)>\003\316\022>4\207\327\274\315\310\375\273\346uq>\317\352W<\300\013\206\2767\214_\275\203b}\276nK\224\277\351z\261\276\321\237\240>\260\315s>\264\267\'\277\352\270\235\277\316\231\263\2772p\227\275\361\023\341>R\216\261\275L\351\014?\312B\232\277v@\003\276n\200\032\276tz@\276_\377I\277\274\247\252\276U\177f\277d\361\223\276\214m=\276\344\001\'\276P\016\212>\177@\235>\243+\257\276uK\302>\364\314]>2\317\007>\002\374\352\276!89?\234\3642\276\003V3\277\230>\244\276\034\2757\277\267=\255\2773Y\214\276\221\315\036?\032\252\177<\210B\306>\004\2038\276\253l\321\276\311`\032?\317\r\260>\2276\232\276\201\214\345\276\370\220\221\277\334\032\375\274\033\014^\277\243Fj>K0\001?[\3517\277\314\036\277\276d\263\215\2775\2659>z\312\241>\371\263\027\277\241\353I?\241F\023?\324m\n?bz\333>\301\325\260\277\207\217\216?\305\2362\277\247T\215==\305b;\246\303\261\275F<N\276\300b\006\275\314%n\276\205\300F\275~F\277\276\256\030\370<\374\235\355>zM4=\304\211=>\340B\r=\203\372\305=\320\344\373\275\014~m\275\276QR\276,\303\205\273\204c/\276\377e\372\276\373\250J<c%\254\276\234\211<>\263\272\241=\243\272\241\275\\\232\r=\203o\220\276\270\'\"=-\255\260\274\004f\023>\255\t\267=\250\0245=\217J\271>\306\324k\275\250<w\276\304\332\306<\367\275\024=Y8 \276\276\223/\275Q\251\270<\226l/>fZ\200\275\346\230\250=d\271\274\276\360\307\242\276\346\250\301\275\224\205~<\272!\337=/\361\032\276\274&\035\276\243n\340=\236.\337\276S\346\346\275\353\265\244\276\000\363>=\n\nq\2761\237\222\276k\002\330\276\005p\313>\247\036\245=\323|,>HVQ\276[5\365\275\241\212\206\275w\010\023>"
      }
    }
  }
}
node {
  name: "dense/MatMul/ReadVariableOp"
  op: "Identity"
  input: "dense/kernel"
  attr {
    key: "T"
    value {
      type: DT_FLOAT
    }
  }
}
node {
  name: "dense/MatMul"
  op: "MatMul"
  input: "normalization/truediv"
  input: "dense/MatMul/ReadVariableOp"
  attr {
    key: "T"
    value {
      type: DT_FLOAT
    }
  }
  attr {
    key: "transpose_a"
    value {
      b: false
    }
  }
  attr {
    key: "transpose_b"
    value {
      b: false
    }
  }
}
node {
  name: "dense/Relu"
  op: "Relu"
  input: "dense/MatMul"
  attr {
    key: "T"
    value {
      type: DT_FLOAT
    }
  }
}
node {
  name: "batch_normalization/gamma"
  op: "Const"
  attr {
    key: "dtype"
    value {
      type: DT_FLOAT
    }
  }
  attr {
    key: "value"
    value {
      tensor {
        dtype: DT_FLOAT
        tensor_shape {
          dim {
            size: 64
          }
        }
        tensor_content: "n\374x?\t\222\205?l[\201?\333\243\201?\350\265W?\237\227\203?\035#r?i\336\237?m\206w?\221$k?\303\036R?\352\352\222?f\235\212?\304\363\215?\237P\200?\214;o?W\360W?u\004\210?\250\002f?_\030i?\367\013\203?lI[?\236f\220?\367V~?\347by?\260>r?;tp??\007S?6\274o?\232\310\223?y\270`?\201\246a?\t\036\223?F\375i?wt\301?T\306m?/\032h?s\n-?\244\036\204?Pxn?\273\200D?e\no?\212\375\200?h\212\177?\350\215u?\205\346\241?k{\213?\237\270\221?xM\215?c\261u?\263Xw?v\205}?}\022R?\027\236Z?VU\220?\345\035s?_\256[?\2047y?>MZ?\336\202s?\361\000X?\351\253\210?\306q\226?\035\232\212?"
      }
    }
  }
}
node {
  name: "batch_normalization/beta"
  op: "Const"
  attr {
    key: "dtype"
    value {
      type: DT_FLOAT
    }
  }
  attr {
    key: "value"
    value {
      tensor {
        dtype: DT_FLOAT
        tensor_shape {
          dim {
            size: 64
          }
        }
        tensor_content: "\356!\021\276<L\322;\341!\231\274I\330\255\275\'\237H\274\323R}\276\243G\322\275\257:?\276\rOn>\031\247j\274\006\223\234\276`\347\244=\374\322\304\275\344\327\023<Q4\215\275j!\230=\022}\242\275j\036\203\275\t\003I\276\273\353\371\275\275e$<\313\305\272<$\315S\274\010\270\212\274\373\267(\275\305%\020>\352\002\211=Co\212=\317\375\301=~ &>\312\023\242\275zv\264<\206\277\374=GS\375\275\262-k\276QD[\276\202\227\256=\267\035s>\006\253\215\274\037\344\237\275L\\\233<s\310\275<\354N\277\276@\3147>@.\355=\223\t\317<C$#\276\222\016k>ZNU\276\356)s\276\340\210\313\274\013\355!\276\315\225\027>c[\235=A\276\200\276\222\027m=Pn\222\276\370\321\225=\352\371\250\274\274\222\034=\036\211\216=\310\\C>xL:>\236\263N\276"
      }
    }
  }
}
node {
  name: "batch_normalization/moving_mean"
  op: "Const"
  attr {
    key: "dtype"
    value {
      type: DT_FLOAT
    }
  }
  attr {
    key: "value"
    value {
      tensor {
        dtype: DT_FLOAT
        tensor_shape {
          dim {
            size: 64
          }
        }
        tensor_content: "[\177\307>\333\340\351>\360\214\014?5\026\'?\'\300\343>\247\265??\372\225d?\322\347\253>9:,?O\210,?\033\223\023?u\010\330>_N\000?\351\220\357>}\251\020?\246I\016?\230\016\020?\272=\275>\277\3703?\002B\010?\336M\024?An\017?\360\242\321>G4\003?M\262\363>\222\003\'?\241\224\t?GY\363>\374\210\006?\221\326\032?d\033;?\014Gi?\304\320\n?\206\376=?\256\315\235>9e\013?\3762\r?\247\372\364>\r\032\023?\177\301\006?D)\335>b\205\014? u\346>\025\334,?dW\006?\002\244\206>z\323(?\256\013\371>>\026\314>\363\307W?PU\345>\262}\001?\275\245\017?h\377\373>\2363\237>\337\017\026?\r_\327>\003\027\026?\367,\253>;\370\315>\346\304\036?@\311\030?\273\271\301>\360\241\371>"
      }
    }
  }
}
node {
  name: "batch_normalization/moving_variance"
  op: "Const"
  attr {
    key: "dtype"
    value {
      type: DT_FLOAT
    }
  }
  attr {
    key: "value"
    value {
      tensor {
        dtype: DT_FLOAT
        tensor_shape {
          dim {
            size: 64
          }
        }
        tensor_content: "\254\265\275>\205c\211>\313\030C?\336ae?V\002\373>*\321\222?0\\\241?\355\341\021>\272\324\021?\004\227\260?q\014\005?\232\307\212>\0146\227>\251\2743?\361\330L?\310\022\032?\340i\365>HGm>W\026u?2\220\n?r+f??\0273?Nzi>\203\201P?\r\217\005?xF\230?\332\376%?.6\367>\205\255\010?\214\345\037?o\240\272?\230{\251?\343{\224>\271\373|?\372?\265=\261k\036?\033\363\023?\032\370\006?\204\275\025?1\272\004?\312\023\333>\320\206\377>\347\223\371>\223\363\205?\357\312\036?c\244\222=\331D*?...?\342\206\273>\013e\375?4\235\353>X\250\010?O\017\372>$\301\341>\313\\~>\330\236N?\204\323\323>\207\352r?\332\031\204>\177\365\320>\233\036\014?{d\202?E\021\332>\020?\236>"
      }
    }
  }
}
node {
  name: "batch_normalization/batchnorm/ReadVariableOp"
  op: "Identity"
  input: "batch_normalization/moving_variance"
  attr {
    key: "T"
    value {
      type: DT_FLOAT
    }
  }
}
node {
  name: "batch_normalization/batchnorm/add/y"
  op: "Const"
  attr {
    key: "dtype"
    value {
      type: DT_FLOAT
    }
  }
  attr {
    key: "value"
    value {
      tensor {
        dtype: DT_FLOAT
        tensor_shape {
        }
        float_val: 0.0010000000474974513
      }
    }
  }
}
node {
  name: "batch_normalization/batchnorm/add"
  op: "AddV2"
  input: "batch_normalization/batchnorm/ReadVariableOp"
  input: "batch_normalization/batchnorm/add/y"
  attr {
    key: "T"
    value {
      type: DT_FLOAT
    }
  }
}
node {
  name: "batch_normalization/batchnorm/Rsqrt"
  op: "Rsqrt"
  input: "batch_normalization/batchnorm/add"
  attr {
    key: "T"
    value {
      type: DT_FLOAT
    }
  }
}
node {
  name: "batch_normalization/batchnorm/mul/ReadVariableOp"
  op: "Identity"
  input: "batch_normalization/gamma"
  attr {
    key: "T"
    value {
      type: DT_FLOAT
    }
  }
}
node {
  name: "batch_normalization/batchnorm/mul"
  op: "Mul"
  input: "batch_normalization/batchnorm/Rsqrt"
  input: "batch_normalization/batchnorm/mul/ReadVariableOp"
  attr {
    key: "T"
    value {
      type: DT_FLOAT
    }
  }
}
node {
  name: "batch_normalization/batchnorm/mul_1"
  op: "Mul"
  input: "dense/Relu"
  input: "batch_normalization/batchnorm/mul"
  attr {
    key: "T"
    value {
      type: DT_FLOAT
    }
  }
}
node {
  name: "batch_normalization/batchnorm/ReadVariableOp_1"
  op: "Identity"
  input: "batch_normalization/moving_mean"
  attr {
    key: "T"
    value {
      type: DT_FLOAT
    }
  }
}
node {
  name: "batch_normalization/batchnorm/mul_2"
  op: "Mul"
  input: "batch_normalization/batchnorm/ReadVariableOp_1"
  input: "batch_normalization/batchnorm/mul"
  attr {
    key: "T"
    value {
      type: DT_FLOAT
    }
  }
}
node {
  name: "batch_normalization/batchnorm/ReadVariableOp_2"
  op: "Identity"
  input: "batch_normalization/beta"
  attr {
    key: "T"
    value {
      type: DT_FLOAT
    }
  }
}
node {
  name: "batch_normalization/batchnorm/sub"
  op: "Sub"
  input: "batch_normalization/batchnorm/ReadVariableOp_2"
  input: "batch_normalization/batchnorm/mul_2"
  attr {
    key: "T"
    value {
      type: DT_FLOAT
    }
  }
}
node {
  name: "batch_normalization/batchnorm/add_1"
  op: "AddV2"
  input: "batch_normalization/batchnorm/mul_1"
  input: "batch_normalization/batchnorm/sub"
  attr {
    key: "T"
    value {
      type: DT_FLOAT
    }
  }
}
node {
  name: "dense_1/kernel"
  op: "Const"
  attr {
    key: "dtype"
    value {
      type: DT_FLOAT
    }
  }
  attr {
    key: "value"
    value {
      tensor {
        dtype: DT_FLOAT
        tensor_shape {
          dim {
            size: 64
          }
          dim {
            size: 64
          }
        }
        tensor_content: "\335wT>M_\000=\310\003\352\275\247N\252\276s\211\206\276-\317r\276\310j\356=%\350\345\276\177\274\266\274+\217\315<(\353\007\276\3540T>\020\301\352\274f3\203=\336\007\013\276\353A\006\276\227S\237\276\3717z\276\021\330\332=:}$>[]\224=\221\356\237=\212O\006\276<\001\233\2751\337S\276\211\023\245\275\001\235\232>\\\025\205=\000\305\271=\327\265\250>f\256F\276\027\252\032\276\0055i\276wS\306\276\324\247/=\2100\263=\332\0059\275k\270\242\275\205\251\032>\233\363\212\276\376\352\355\275Y\032\211\276\300|\333=\321\247p=\243\001g>b\332T>\337\233\334\275\326}\343\275C\202\217\276\014\234m\276r)V>[\340\272\276\242\317\205\276\343\t\014=\303;Q\276\364\007c\276\377\215\310\275\333x\032\276[!;>\246\327\266\276\227\336#\276N\"\226\276)\366\234=\3319+=fgu=/W\357\274C1\024>\260\264\000\275jk\214\272\374B\215\275\014\004\207\274\t5\232\276\177\316\365\275\3708\235\276s\220\032>\321\337\234>\206\340\343\275)n9>\333\3711>\235\326\275=\246\331\317=\373\222O\276\344\206\031>\027\211\316=\020\307\226<\202=\340>\341\032\252\276\215\216\304\274\237\366\243\276\343\247X\275\227\371\211>7Y\\\276\3300t=\t\346\031>\264\0357\276\220*\206\275_\025,\276-\362\274\275\333\200\251\276Y\230\213>\244\007\240\275U\330\232>\232\263\'=\2364\316>M@z>1\335\304:\337r\370<\272\265r;\300\002\206>\351\376\013\276&\345*<l3\220>\321W\316>\375\035\271\276\357\2505>\253\035\340>\215\371\327\275n4v>r\202\265\276\201\317\037\276\314\350X=\201s-\276o\242\340\274\222\226!>:oy;\374T\200\275SI\002\275\3356\370\275L\344\314=\366\262\226\276\002\312\347\276w\323\230>\t\3618=\\j\333\275\'\362y=\003i#\276\315\251\340=\013\001\247\273\002\315\276<\252\353\254\275Ww\202<\274\347\362\274\231\227\210<:\227\307\274\2100\245\275\020p>\276\3226\217=\341\240w=\367\314\216=\337\'\024>\017\244;\276v\207\363\274\237\361\257\276\206\352\013\275\206\320\261>\027!#=;H\210>\235\rZ\276\024.\000\276lE\313\273\232\316\255\276\001\017\240\276\260\211\325\276\020\224\233\2763#\224<4\235h=?y\032>\033\354*>\215\374\354;\347EU\276a\345\251\275\372\243d=;\304\033>\272-\253\276\031\354\036>\344\026)=c)\267\2752ZE\276\223\210\033\276\255J\n\276w{x\276J\300\362\275\247D\211\276/8v\276\3054\361=+\007c\276\246\351\371\273a\244\366\275\347O\243\275]\030D\276Z\253\242=!\242\273\276\353&\027\275\217\251\304>\216m\233\276\327\233G>\325_O=DuR\276\236$\010>\005R:\274]\016\207>*\375P\276\346g\024\275\241&]\275\202\274\372=7\275\035>\233F~\276\247\203R\275\177\224\004=\376 \177\275\232^\225>\310\004\222\276\307\000\211\276p\362\301=\030\347A\276\027\276\233\274X\021\007=n\354O\276e\013\004<\357\007\233\275\025\256\212\275hq\266\276\340\263\337=\314eA>E^\212>\'\316\033>\222\277\r\276\264\013\244\2748\\~\275\356\241C\275\366\370H\275\215:\017>\264\200N\275f7=>\221\353)\275~\007\247>\252Y0\275Xs\221\275D\242\360\275\262\244\013>xMy>\277\256k>\324\347\233>\2550T\2763\265\017<Y\023\022\276b\254&>\273b\226\275\361\305\335>\253\317:<\271.N\275`v$=\213\351C<|f\334\274\272\276\010\276\026\004\225\274\036\253\021>p\353\007\275\200\260\253<\333\356\243=\271\005\256\276\236\372\013;\013\\\337=3\016\240\274B\362\362\276=\220j\275\217\341\314=\262\313\026=\237\251V\276\201\272~\276\224\233\200>\034\357\332\275\361\347T\275\177\360\256\275\376]\205\276\261z\017\276\3313]>Nej\276\344C\t=u\221P>\327nH\276\370\\/\276\216R~>\234h&\274s9\205\276\356o_>^\302R;\321\351\220\275]\257o\276\340\341\213\274\335\0072=\025T\361\275\315\220l>i\373i=\365h&\276\266\235E=\245\232\250\276\231\350\021\276K\323\t>\\\366\220\276E\243@=x\261\201=7\374v\276\010\027\004=\256\027\\\275\241\352\256\275\363\026\020\275\347\366*>@\255g\276H\177\267\275\250\243^\276\361\027\304\276\236\007=\275\204\206\276;\026\227\t>\310\371W\276pH\303\275&\210\313=qy~\275-*\363\275N\306\204>\334\023\262=\352\315\r\276d\3609>\362Ra>\304\217s\276W\017\250==%-\275@N\020\276D\203\214\275w\273\375=\350X/\275\206\\\332\275\216\223\226\276\354k\034\276\332\3451>\034\221<\276\026q\326\275\336\331j\275\214\377\211\276>\325\207\275\003 \267=\345e\004\275t\226\212\275\203\3568\276\226\264Z\276(\340\332\275\354\317\275\275\006\303\'\276\236$o<\355v\307\275\020\206\330<\203\003\261\274(m\006\275\276\n\343\274\022W0>\362\264\013=\326n\223>E2A=\306\342s\275\212\204\034=C\363\315\274\256\214\036>\021\252\221=\254\2669>\274\020\217\276\215g\273\272\204\003U>\n\325\004>\225\233.\276$y\214>\200 \250=n?->)\235\214\276w\364\177=d)B\274\202[\013\275\253\232\311\274\317\213V>\230\r\250\274\0329\265\276\214\\\r\276\351\226,>h\345\234\276?6\227<S5D=\351e\204\275\324[e>\265g\302>r\302\232\276:`\203\276\273r\216\2751\277\227>\223>Z\276\362\326\366=p=\326\275\036\266Q\276\223\0049>\363 \271=\355\333\342=\240\366L\276\022\256$\276N\rt>f\207\200\2760\331\244\275\251\017\364=\277\333f\276k(\005>\000\242\205=\316\3015\275\0306\017>\337\304\000\276\310TS>i\245\267=\277\222\343\276\265\345q\276\273\372<=\352\361_=\026a\372\275&y\257=\324\317\214>\3744\032>2UY=\0079\217>\017%\237=~\262\375=\014n\027=\351\366I>\364Z\005>8FI<\211\231\242\275\003\345\313\275\357+X>Pmo\275\201\277\231>\206\0108<\236p\310\274\241fN>\034\230\337\275\351\316\276=\354K\027>\377\275\244\276W\242A\275\360\241\272\275-\375a\276\321\203F\276\2219\246>\253 \344\275!\223\326\275\244\007\026>[\375\211>\340|<\276\005\236\260\276K\r\254\276T\336\337\275\235a\t\2765H\215\273\273i\004>)\263\257\276\367\201\216>\260;%=\355\357\361=\2433\232>C\2767>\372\332>;\222|}\276\23594>%7\215>Q\035E>@\021\n>N\nn\275R\027\322> \3006\275\237/\376=`\tT>k\267\225<UH\334\275{\222\226>[E\005\2762\022\257\276Iv\375\274\214\366\272=G8\006\276\032eI\276\242\210&=\327\263\213\275\222\345\231\275\312+K>p\034\273>\365\300\212\276\333\267\265\276\242\226\327\275*!Q\275\371&\240>^\261\274>\336\036\371=\r\377m\276`\265:\276w\276\211\275\255\315\320=gqD\276}\221y>\353d\252\276\331.\237\276\236\261\272\276\024i\020\276\336H#\276\205U\303\276\367\200U\276\200\365\337\274\354\346q\275\3433o\276\222o\245\275\025\246\334\275\221I\253>/K\204\276w;\335=\210\247\300=\227>\322>d|\325\275\314\232\270\275?K\231>\226\371\323\274\331\005\215>j\347T\276:\221$\275k\224&>G\263T\276Ww\220=\'$\342\275SO!\273\226)\220\275HX\231=\345\244\322\275a\260\024\274\306\354\325<\355\312\254>\324b\214>\\\344\005=\2415\260=U\365\307\275\3009\274=D\373\337\274g\242F>VcW>\346\212>\276\343a>>\205\256\207\276\327\210\331=\253\375\206\276+[\223\276S\262\005>\364|\216\276\032\216U>\034\032Z\276\244;\025\276\334\337\236\276\225\031p>k0\201=\345\233\230\276\2678\217=\201\213\303\275m\307\216\276\3126K>UY\266\274);\035>DE\024>\356\271\243=^g\340\275\214n\016>\353\216g\276\261\002\244\275e\336\250=Q\246\323>\334;\274<2\317\265\274\004\230\227\276\243|/\276\263o\340\274iry<uT\224\275?\247\210>?5\364>Poi>\231Y\271\275\240\333\357=\304,\210\276\023\332^\276l\025\006\277\223[\232=\301\371\314\276u}\007\275\223\360\276\276\322\344\366=\376\357T\276\007\"\222\275)\212$=\265E\312=\032/\237\276\303#h\2765\300.=O\341\314\276\177\037I=}\244&<\014\272\021\276Uk\327\276=a\236\275:\217\013>:\353\3559\2136Y>\303\0160\275\"\263\207\2753F\351\275\265\021[=|\363\322\2759:\315\275\263\022\014\276\266\360\331>4x%:W$:\276\336\304\221=\347\263\336\275\275\004\354\275\023\337\205\276\307\301\362=\330\030\356=\377\224e\276j&P\276j~\266\276=|\316\276\373\361\022\276mq\033\275b\3103>\264\212\306\275\023!\346=\016\323O>\305\010\356<\253t\003<\232\003\205=c\257\233>\276\273\231>\203\223\004?$\000\224=\354\367\267=4\026P>oC\253=\240&^\276\213\013%\275\\\326\">\355\204\266=\315{\241>c\211\352\275z\243)>\023X\317>\\\221\206=\337}\020\275\332\355\262>\235\352\016\275\347\0304\276+{\261=\262&0\276Y\323W=\260\350\241\276\375-\246<\252\317k\276\303\253P\2763\036\372\275\026\225\200\276\207%\340=\027\277[\274M\366+>\344B\310>s\337,\275\352\326\325=%w\302\275\224zV\276@{\325\273#\254\212\275\202H\217>\232\200\311\274\310\020\256;\'\342[\2758]\t>\024\306\253=I` >\316\311\033=\375\336\252\275\340\203\321>P\352\251>u\367$>p\277\231\275\310\017v=(\263\031\275s\203\001\276\337\'\n>\245\177\'\276Tj_>\331\221\224=\312\020\211\275\221{\224=\242\022\300\275R\363\210\275xi\311<X\326\230\276\025\000}>\354\212]>|G\362\275\302F\362=h\367\020<\005\343=\276\347\034\360\275\241\022X>1\352\027>4\345u\275\024\306\361=\334M\253=\375l7>\010;_=g\376\237\276\304\001p\274\267\014\367=9\254\235=f\317y>\353q\272\276?\002\031\276\335\037\317\275)\210L<\036\253\016\275\212QM\276\010\357\212\275,K\220\276\200\025\243\275/\244\340=\320\202a\276\317\342\200>\344[\177>\320\340\022>\325\376\323>iXD>\256\013\257=\377N\366>1\362\347;\213\367\320>q\237\020\276\245\205\215\276\371H\377\275a\302\321<1\027|>\227\353q\275I\026\220\276>\316|\276g\272\316\275\337\271\234\274![\271>\377\022\207\275\017F\277=\033\205\257>[6\336\275\326)\232>\300gy>\000\2269>q=\226\275\226h\314\275\274\035`>\365\316\220>j\326\372\273\356c\235=\010\357^=3\307\003\275J+Y=t;.\275<\232;>\034\220H>\337:\321=\366\271H\275\240r\263\273\336\334Z=\3558\035\276^[\004\276T\305&=\036\325$\275o\n\031\276\372\243\331=(\204\216>5\274\211\276\360)\373\275k\327\262>\324p|>\372\266\242=\013\211Z>\265\234\242\276\237H\000=0\370\036\275R\247\332\274\276\226\325<\362\322\300\275}S\205<\247\r\203>\307\356\373\276\032@~>\310\211\335\275V\320v\276GJb<\321\263?>-{\206=5\377T=&\367\234\276\264\323\032\274\320B\356<\357CT\276\327\216g>\006b\331>\277^{>\346o\347=\372]\000>\203g\272>\322\033\261>\027v\017\276\370\252=>\tcM>\275\251\306\274\037kd>\234\\\222\275\200\310Q>\274\250\036\276\020m\272\276\223\266\007>\356\357g\276\363\036J\276)\253I\275\333$j=\315\210O=\231h\245\276\377<\244\276p\017\344=\020\247\351\273\321Bg\276\345\255\340\275\036\242n=e\ts\276G\356\262<\023\370!\276\357\350I\276`\321\361\275\225\240\014\276\322.\375=\373}\233\276Ld@=\202\231\267\275\215\276\203\276\3168\211=\3749\351\275\373\002\272>?g&\276Z\315\225\276\3726\221>\367\264_\274D\344z\276\217\371\033>ty\337>b\306e\275\235\036\251\274\210\332\241\276\223k\250\276\\\263\004\276\336\343\031\276\354e-\276\337\017\220>{)\341\274\224!\210>\246\211(>\310y\363=/\'\217\275\3277G\276\310w\354=\335\325\334<\241\255\032>\313\217\261=\377\307\205\276\364\370\001\273-\352/\2761f\240\276\371\"?=j\371f>\231\247\215\276s\272\343;\332\325\266\276\346\024\247=\275\n\251\274\002\275\240\276h\250O>\206\213\013\276\333\207V\276\351\332\241\276\311\207l=\331v\r\276\001Y#>\004w\265=\367\204\302\276\026\263m=\010\213\367=$\343S\276<\264\251\276\273\332b\276\302\373\267\275,m\341\276\2554\010\274$\005X\275]\276\206>mEA=K\342\303\275F\277V\275)\371\301=!\226\245\2755&\313\275U\032a<\024`\236\275\337z\010>\336\013\232\276H\330\022\276Jc\236\276\231\267\226\276\032<\014>\376\305\254\276y\032\262\275\351\254\207\274\325^\227=\014~q\276\253.\234=pB0>&N\206\276\217\245\212>\030d2>\301Q\211>\202\344\n>\360B+=\201\013\201\275QU\370\275\033@z>\311\230R>]l\017>\3467\347\275\276QM=\311\301\006=\262\246\304=\272\3423\276\377\372%\276\371\372\335\275\314\315F>\243\3207<,\006\212\275\306\237S\276\177\302!=\347J\336\274)X[>\204\032\271=<\036{>\311\\/\276\204\341q=~\244H\275\000j\363=r\2751<\264@V\275\210\277\373=\250\3636\275\347L\366\275\244x\320\276\354x:\276d+\235\275.\231\226\276\030\244K\276\370Pt\276\250\242\020>X\273\303\276K\321\325\275)\212\263\275\n\277\342=\204M\303<S\336\202\275\351\373\007\276_\2465\276\031\376\244\275\"\3447\276\237\307\214;\275i\013\277\343,\325<\363\237\245\275\2538}=\t\022\032>^\365\223\274j6F\271\3062\211\274F\312\206\276P(X=\362\227\t\277\320\341\250=m\363K\276`\352?>\363IE>\273\221\214=_\320\341=Hs\002\277m\022C=\221\273\014>\001\265\034\275(h\016<}\236+>\216\325\337=\211}\311=\372h\206\275{I\010>LH\036>\014~\023>I\332[=3\327{\276\360\'\005>\350q\344=k\305\007\276\361q|> 2\t\276\215\034\264\276N0k\276\3369\332>p\033\022\276\364v\021>\371pr\276&\212\215=\200\325\013\275\r0\307=\002\246`\276\253\2064\276N\370\215\276,\353\360\272\230_\230\276\007\261F>\311n\215>\364\034\033\276\001\203 <=\324\017>Br\331=\350\177\216\273\'6\317\276\242,\205>\375NU>\3731\243>U\323\014\276\034 \344\275\324\242\005<|\265\235\276It\203\275\213\264\264=\236\201\222\275\355\265\304;#|a>5y\227\275\320\033R=\332\304\355\276\253\021\352=\301}\301\276(fZ\276\033\035\220\276\003\"\243>\233\256\020\276<\3226>~e\320=\214mR\275I\204\255\275i$q\275e\305j\275\324\367G\275\334\374d>\202\250\024\276xw+\274`\334\002\276\2226.\275Q\003\237>\t\021\314\275\246\244~\275Hk\332\276\033Mx\276\272\223\370=\374c\323\275k\013\026>>\220\373\275\023l0\276\231S\033\276\240\245\373\275\'\034\021\276\263\341.\276R\342\244=8\002\031=\336\2713=\366\035\226\276H\006j\276\245\204\231\276\270nT\276L\3169=#T\226\276\315c\323>\311\215;\276\354;\003\275$\247\271={j\223\276\246$\010;\361\306,>yY\265\276I+\027\276S\027\327=\331c\276=\334\031n>\265W;\275H\261c\276p\276g\276\361\312I\275\256F\246=\254_\325\274w%\357<\247I(:o\222R\276\222E\364=\267\255\262=\"a#>\037\016\246\276\251\354T>\260\357\r\275\246\315\002>\275\034\204>\227)\210=\365\032\236\275\030\270\352\2765\033\r>\325iN=\002\243O=\223;\220\276j\223%=\362C\362\273\230&r<q\227G\276G\rv=\032 X\276\372:\207\275\373\334\330\274k\305\224\276MA\270\276Y\332\255\275/\211\247\276\374XZ=o\345M\276\373k:\276\306E\316\276F\273\341=E\260\234\276\255\002J>Pe\237\275\276\"\004\275\335?\203>\263\231\376\275\331\370\221\276\317n\212\276`<n\276\324\207g\275 6\024\275\333x\264\275\254Q\214\275,\203B>\323L\202\276\271\201U<p\374\344=g>e>,\341\240\276\252it=\264g&\276\251\360;\276\355\320\216>\260\254\305\276\013d\347<\222\233?=\004\347\331<\376T\317\275\240\224\352=\373\354\020>|`\242=\n\330w\274B\321m>\341\037\224\276B\\@\275(P\375\273\201yB>*V\227\275flw>\231-G>\315\006\252>5\005\205\274@i\207\276};\032>\';\342\274\227eF>\025\242r\276}\323F>\nyQ:\231\226\025\275\275\013D\275\326\310\\\274J\033C\275w\033\007\276\334\260v<X\305\210\276\275\360k>\\\317\006>Y\370\212>uw\226=H+\316\275\301\242m>\336\013\216\274\363\031\267>\267E\251\276-v\211=%pd>\202\325\342\275\377~\355=\266\217\234\275oVJ\274\236\370\004\276\361j\362\275\377\003\373=/%\217\276\253\224\201>\266N\013\276\201\340@\275$x\320\274_t;\275\324\353*\275\251\t\010>p8\270\275\373]^>\273#E\276\214\202\216\274\2079\205\275M\014\000\276\2214\231\276\257\023O\275\212\022X\276\026\016\213\276\314-\321\275\027\351\n\275\016\244w>\307\007\025\275\213w\243>H\347\031\276 W\306=\255\037\301\276\340\317\271=\302\223\322<:\200\253\275\241\014m\275\3533\026=\004\365\201\275\223\006\376\275/\342\217>\270\027\265>\'\261D\275\017[:\275{\353\351\274z.v>\037\233O<o/\013>\303\031\265\275MZ\343\275\353^\212>\367\352\317<N\272<=Hsc\276T\345\212=0\376\364\274\355F\262>\256\252\256\276\201\013\"\275$+0\276\303\264s\274*\311\037\276\264\254\364\275G N=\242:\226\276\277\305\212\276|\004\330=>\241\222\276\320\356\357\276\347\340v\276\'\000\362=\376\222\264\275\302\306\207>\254b\264\276I\356R\275\346\212\271\275:\265_\276\260\266\217\274\222\0068>QU\341;_\323\316=D\311\233\276\006\203\232\275s\355\014>+\251\021\277\335\271O\276\231\220n\276+\254\255\276\177\354\250\275\362:\245\275P\201\r>\320\266\226\274\275\2734=\223\377\212\275\301\254N>G\342\321\275t\037\215\2754_c>a\255\211=\332g\313=dk\306<\002\220\243\2747\220\225;\224j\274\276\367\030;>\037\300\274\273\005\304l>\246\355\316\276\274\'\271\275\3053\013\276\204\ta=\344\r\003\276\275\233z>\010\344R\275YI\"=]\266\341=\207\227\251=4\276\232\274\016\346\007>k\316@\276\242\233Z>\230\026\240\275\266.\316\275\205\351\210\276nBE\276,V\222\276\263\2136\276\021\361\351\274\026\273\202>\026g\216=\340\3537<\263,O\276I\016\221>\007G\270\275\257p\304\275\224\214U<q\225\036>\331\363\323=\225\021A\276M\0062\276\025\232d\2761\226\275=l\276\325=\265\310s\276\235\224f\276J\\\250\275i\036\013?V\360r\275\307\263\327=\246\255\024>n\345u>\202L\"\273O\374\371>\246\030\313<\251\213\223\276\035\314R\276{\000\234\276\342\265\306\2765\320\224<H\345{\275\254\254\033>T\323\226=\036)\374\275\253\002m\276\340\300\301<\3647\020\276\013.\026=o\217M\276\361J\246=\247S\334\276\n9M=\t\036\241=@|k<\304\034W\276\203\360z\275\375\362\301\276?\025{\276\314\016h=Yl\032\276\375\375\233>\035c-\276W\234M=\312}^\276\316\325\003\276\323^\201\275\207\223S\276.\017\221\276\245\225\244</\305X\276\301\255^=2S\215>\037\272\331>L\323\235\276\353\265\\>_\r\254<\267\362\364=\213{\344=X\302\014\276\246\236G>\213\'\355=8\242x;\307\242\200\276\255\354\037>=Y\360>li\373\275\034[/>\271G\341>\361<\336=\"9\371\272\030l\214\276\034\177Z\2762\351\267\275\230\300G<\354\332 \276\330\243I>T\020Q>U\335e\276\227\326\221\276\355VO\276c8\255\276\005g+>\252\017\337>\237\177U<\352\367\313>\204-\334\275bF\016>\247\301\325>4O\257=GU\250\272\222\263f\276>\207\236=\0249\217=\272\316\272=<\342\352=m\206\356\274\365h\215\276b\365t\276\331$0>\3557r\275~\224\276=\032\355\274=\355\204\335=SC=>~A\342\276\337\257\351=>xU=\211(0>N@c>\032\370\352\275 1\234\275@b\262>]\001\251;\335\304\243=\200[b\276\244\330O\275n\362\004>\334\020i={\247\361=\321{L>#K\213\275#\2671>)\373\257\276R\344+\275\265r\023>s\264\353\275\214\026q>m\362\341<+u\232\275\273\204~\275~\352+\275}\265&\276\\-.\276\212<\347=~+L>Bv\276\273\214\014m\273\321\374\024==\210p=%\302\266\275\0253R\276\3776U>\202?p>\312|\212\275\353\017\206=K\010\324\276\035\230\241\275\346%\000\276\253D\247\2769\206\210\2751\323\337<k\255T\276v\t\316=\315z\244\276I9\337;N?\026\276\251\210\272\275t\203\221\276p\362~>\223\026\037>\014b\027>\356A\206\276\203*\002>/\271\236>\346\035\244\276x\235I>\020\322\013\276r\2406\276\261\rO\276\223\217\223\276\240\304\313\276\305t\217\276A\0100\276\305\"r<\311G\'\276_\222j\276\232\266\t>\314\324\212=z\030\202=E\246\224\276\315\035\341\276\373\276\205>\037\201\247=\233\223\232\275\357\260\303\275b\346\271=\222\276M\276\317\225\253\275\330\024\202=\337\201\272\274+\327\263\275e\225\030\276X\247!\276>\325\271\275\346\354\'>\252@\020\275\336\3061\276\330\226\277\275b\236\212>\302/\207>\205\002\340\274F\221\t\276\255\205\226>\'\202\205\274\034`\256=7\\c>u\216\215>\274\303\274\275Q\0353>]\225\367\275\310S\321<\301\334\356=B\202L\2758\266Z=\363\245\205>*\205\264\275\311E\202\276RYm\276\037\275<\275\264\224\004\275\036)h\276!\001\233\275\316\223f\275j\023\205\276R_o<|+\334=\206*\010>\325\005\r>\345\207\275\276\324\2738>\315J\330<D\235\t\2767\013\023>\036=\307\276\310\025;\276\353C\001\276\216\267\222\276$\350\030\276/:\032\276\354\037@\276\n\023#\276\r\027\325\275\024\3226\275\r{\252=\031\226{\276\027\301X\275\030\370\'\275)?^\275v\037\211\274\330<O\276\357\266\316\275\002\016\230\276\205\267Z=\346Y\257>\2025\202\275\265\365D\275\215\212\336\276P=\346=gt}\275\260\2626\2766\210\017\275\257\365\306<\272\0036>0\007\264=\330\257\265>\365\031E\275\323A\030>\340\201h\276U\347J\276i\276\331<$\243&\275S\254\343<\031F\021\276\335\306\222\276{\253\035\276\023\002-\276\343\201n\276\315d\211\276\030B\026>\374\224\356\275\200\317\r>\365Z\"\276\027O[>X\2409>h\035\261\276\375\306\333\275\317\274\036>\243\267\374=^\205U\276\325\201\356\275yM\246\276\244<^>\347\3377\276-\000\367\275G@\251\276\013\2137\276\212*\377=\275H%\276\0136\353\275)\206\007=\202\231\006<%/k=(K\222\275J\177\240\276\225U^\275ldW=\333\250j\276\262q\255\276\224\220\355=o\233\350\276\274[%>\2224\350\275\034\342,>\2464c\274\210\034\312=1\300N>\346i\252>Bk\022\276+\273/\274\032\235\n>8rb>^\340\031=qd\247\276~\214\270>\234\311\342;\350f\205=X\216\221\276*R\252\276\263\353\302\274m\357\033\27603\244\276\211\3017\276\373\r3>\320\2029\275/<|=\222\356\027\276\372\033i\276\0070^>\217\246W>\356\334\244>\324\016 >\023\203b>O\031x\276\310k{=x\263\026\276\324\2769>\255\340\303\275\354cQ\275\240\363\312=$\247\001\275\2279\035\276\006@\335\276`\306L\276\3005}\276T\0131>\022\254\326\275\223Mt=@\210\223\276\330\335f\276\002|7\275\000k~\276@\314!>b\343\023>\030\0048=\320\014\203>\212\232\332\275b^\025\276\2549,>c\340d=\022\256v\272y\274{>\"\322\320<B\027,>4\027\336\275\025-\365=\264`,\276\272\356T>3\036%\275\207\264\034\276\021\005\346=\214\334\222\275\266\325Y<\231\260\241\276~\274\266\273\277\r\023>O]c=K\216\313=\022\360O>K\322^\275\344MM\273\363MX\276\322\234\016=\366mO\276\237\236 >\374*\222\276\370x\271\276I)A=\224J\325\275\206su\274\351\220\003\2761\271|\276\023\002\326=\377\002\267\275\312\255\375=\177Ob>lq\032\276.\276\252\275/\036b=\005\274\311\275\266K\216>\364\177\247\276?\021\032\274\236\236\020=\250\214\244><2\211>^M\242=IL\023\274\323\370\026\276\020\006Q>V\243\375=\254\205a=\036I\334=\271\367\327\275N\265\240={\037\000\276+\021\235<P\216\277>\373[\233>eG\272\274\257&\023>U\271\252<1\375Y\275\017\311\'>\257?=>\020\023%:\210\204\013>\\\002\220>\347q\260\276?\354=>\363\345\240<\227~\217\275f\262G>G\232\304\273i\343\035>\261\032,\275I`s=\251 \330\275\361\210x\276c\022\205>~!\253\276\234\273\036=\t\225\225=#\371\310<\341\226\257=}\263\000\274\300\334\222\275\267T->\267B\207=\023\372x\276\206\n\254\275\222\205\327=\270\254\351=\362T^\276\010\330Z\276\301^K\275m\371\204=\316\n\221>#=\345=\214\207\315<\024\243\212\275}\203\217>\211\030\216>\360\373T>\277\240\342=\000\2670\276$\\\206\275\302&\245\275V\2275>\301Un>\252\324\212\275\371\256D\276I\365\236=i\273\245>\363\1771>\024\364\271=\353y\201\276\263\230(>9\320\372=\370x\336\275\231\270\013\276\202\354[\27519\216>h\3757>a\302\026>\212N\204=\221\314\265=\311\227\206=A\232\266\276fg\212=(n\333;$\242\222>\'\014\023\277XF\n>\362\3573>\356fF>\260C\023\276\375\324u>&EE>\215X\247<\233\343\002=\032\211\363\276I\260\201>x\240\317<|@\214\276\311T\214\276\241\255>>\306\375}=\230\030\346=o\277S\276\207\246\267\275t\"X\275\027\370:=\271@\263\275}\353\342=\352}V>\224\027\205\274\341#\010>\354\250\241\275@\226\203\276\206\230\031\275\332\022\003?\222x\211\274\206\033k>\312\210\245=\356\217\207\273bH0\273\017w\027>\340^o>&\277!\276=\014\010\2776$\"\276\177\036\361<U\304\276>\251\023\342\275\031\362<\276\340\316\265\276M*^> \035\257=\037\342J\275\320\247D>\036\006\250\274\202IM>\321\027\245\276\002\004\025>\036\374>>\364>\222\275\337\277\355=\266\003G\276<6-\276\364\024\201>\357\355\310\274\341h\347=\321\213\200=e\346\324<\352\206\266=D]\365\275\270\033\214>\204gb>\020.\201=%&E\275~\242i\276e\364\372=\023g\310\274(w\234>q\007\231>Nh\207\276\266\2138\276J\347q\273\"\374U>\\\'\310=*X>\2769U\217\274h\036\007>\257\033\242\276\336\223M>l\354\000\276\036\345\007>QC\267\276\224\201\007\276k\253\t<\3312\262=\276\376\032\275\333\237\226=u\n\234\276\212/u\276\223s\253=7\254\202\276\240\225\254\276\"!\300>\274\017\222;\313Xa>\327s\212>\3146.=v\226\257\275@\013,\276\363\235 >\374\320\036\276y-\017>h\246&\276\262:j\276d\302\335=h<\303\275D\r\301\274\364Q\267\275V\241\357\274\364\256\n\276\317F\340\274\233\005m\276*i\316\275\374\r:>\346\366\022\276\217\327(\276t\034\201\276\322\000;\274\r#\310\275e\245}>1\332\325\276\372\321\210\275\021K\007\276\312k\354\275\263Km=7$[>\233\204\022=U(\300\276\\C\361=\356\241\337=U`\014\276\n\345C=\00335>\032\205\251>\n\232R\276\003x\307=\003\001j=S\321\346=\305\331[\275\203\2675>\226\313\321\273\221\010f<\276|\352=\364\212\025;\215\030\221>\201~\244\275\020\000\314<\270*\315\275n\374\201\276\376oo\273\016\232`=U\242\261\276\031\200{>\301\235\r\276\013\n\321=\2769\317\276\264\302\201\276\232\344C>T\333c>\000\0001>\222\327\210=\023\224J>\342{\242\276\315\344I\273\352\310\223\275]\357\022<\260\242y\276\2647\206\2745\017\025=\324&\364<\004\262\343\275,\310m\275\031G\244\275nHg=\033\352$>\177\3608\276Gu \276I\267\014=3\275\033\275\222\202s\276).r\275\226Q+\274\251i\256<\027\340\022>\261Z/\2753G\014=\346\032]\276\303*\177>\033\310\233\276\212|\007\2758\222S\274#\222\265>\200\005\326\275\221#\215\276\267Z\330>\354N\322\276?\376\244>\372\316]=i\2523\276t\346\033>i\325\026\276v\266\272=\373\024\354\275Z\246->\245\327\222>\234\202\232=\263\000\017>u\002(\276\245\0314>G*\264=mj)>\326T\211>\2471\217=\370{\030\276\211=T\276\314\366\300\275\331\222)\2765!\317<n*\027>J\217\027>\303\274\033\276\263\362\267<|\265\000\276I\200`\276\306&\022>\216\002\020\276V\375\213>\224\021\207\276s\340-\276<y\200\276\245\214\037=\007\350\211=\030\357H=\240\232\352\275A\262\334\274\267\335\270\275g\034\333=t\370\246\274\344CG>\027(\034\276\224\"\302\275\257\031\250\276\350\215:\275\024\241\234\276\210E\321\274\267-\030\276Q.\224>u\005O\275\230D\221>\313\301\300><\346*>\213\302W=\301\204A=d\000\007>\352\316\247\276\2751K\276Ga\315\276\272p\001>&\030\014\2774\261D>Tx\273\274o\221a\276\354\350\224\275\232B==4\217%>y\323\203\276\301Id\276\026\310\225>\376\232b\276F\220\323\275\275\264\236>\260\315\264\276\303\237\342=\270\'\244\275\244\247\212\275\366;\273\275\272\002)\276\202N\374=\356\342\021\276\335\022t\276\\&(\276\267i8\276m^\262\275\316\246\313=\232\222\250=\311-\321\273\006\200\324=\000\031\245>\304\277\227>\310\220I\275\244-\322<\325\313\271\275k\216B>\226\262\202;W\347\226=\351\353\373\274\365\002\020>4P\222>\033\304\303\275BD,>)\250\236\274J\313\277=\376\343(>V\322\350\275~\005\306\275\'#6;\275\014\221=\220\322q>\361P\003=YG\332\274\002\035Z\275nf\216>C\344\001=\310\277\310\274\034}q\2763\320\025=<Cu>P\335_\276\340\354i\276\020\214\307\275A\n\307\276\311\201\210\276\342W&\276\222\212\231\276\231\350\337=\232\324\204\276\362\243q=\373\237v>\356<\004?\301\345\007<\003`\332\275\261\350\005?\003\007\251=\"`\330=\022\177\326>Z2\351\275\367:\337=\2679\004=\024~\277\275\010\313\202\2768\374\336\275\223\202\202\276\n\245:>\313j\305\275w\232\253;U\016u\276\324[\360\275\0004\326\275W\300\374;\3524A\276\002\361\232=\373`e\275\333\333\346>\356\342C?\214q\360\275\0173\027>\377\334\352\274\033\\\264=\213\372\177\274\206\030\013?:\254\021>1\340z>\002\276\017\276\274(\002\276\242\300\273>i\272\244\276\372\253\225>\222\365\251\2767\376?\276\331\364\257\276\222\337P\276\355e\016\274\224\000E\2763\020o\276\205\035\t\275\r\020\364\273\217\031\022=\301\341!>m\215t>c\022\367\275\254S\016>\033\317\352<\272 \002<\220\373\024\276\217||\275\027.#>\260Y\213\276\2660r<\204\221\226<\005\311\227\276\342@G\275\215\2142=< G>\232+\226<\335\327N\276\002\347\322=\237\240A\276v\211\227\276K\356\332>.\252\005\275\365\001a;\177W\016\276O\355\232\274\300X\002\272\304l\n>\312)\264>\226\275(\276%S\334\275^\201\204>\351\363\037\276ua8>-M+=W\313\004>4~\010\276\332 s\275m\212\253>\036\037\274=\257\":>\"\251\372\275\022O\000>\272\323\242>:z\227=!,s<M`\034=o\3705>\013n\031>Z\302\237\276\211{\366>\003\367\325=\307a\010<\332\237\206\275!2\273\275=\007z\275.kg\276\265\350\202\275m>Q=t:\033\276\276\362\367\275\016;\r\276\234V\007>\2031I\274\022\341~\275\326\\\001=\327^K\2744H\261\274\213Z\013\275\374\326\025>\0006\213\275w\374\330=\206$U>4\252\375\275t\247\302\275&\320\350=\213\353H>X}->\0228P\275\211gX\275\003\322\254\275+P\t>\204\331Q\276\366\242\246\276e\001\305\276\316\014\230\275D\255M>.zE>\213\003\033>m3o>,\245\t=\236\310K>\376f\201\275XI\304\2768O}>\310R\302=\333\033\240=\013\214A=\\8\017\275\362S\255\276\214\023\215\274\302Hy\276T97>\223_\215\276\222\273\343\275\346K >\310\363\205=\'\302\003\276\266\255A\276W\201\277\276B\014\223\276\367\022Y=\034\007\306=\035\341-\274;\355\233\275\261\216\342\2768\022\355=\007\233p\276\251\234\377=\321\211\271\2740\346\240\275\262S\321=<\353\235=\274\252\247<V B=+\325\300<\303\362\316\275\326\256\227\275\330\264#\276\330|\251>\312\235\220>\203\253\362=(\262\230>\244\354B>\350\225`\275\233dG>a\302\252\275\375\364A\273\265\252\006\276\010/}>\365\033\310=\205rD>\022L\n>\201V\266=\n\366\243=18\333=?\223&\275\275=\361<\210j\315\275m\367j\276\3235\022>\236\003\322=\227\004\014<\351\205\224>\177\262\037\276\375\036~>\245\370O\275\345\221\370<c\373\272=;\310#=\327\r\222\274\214\252->.\235\256=\367{1>\342Y\027>\226\356\202\276%).\276\244\373Z=\257\3154\274({\235\276\306\323t>\331\243\311\2755\242\007>\342\310\237=\016\200~=\032\007\021=9\250$\275\262\263\205\275\177\035\017\274\374\023b\275\\w~;\313\305\367=A\342\235\275~\r\272>i\241\245=\347\2407=\306\232\216=\253\241\324\274\246G\250:\221\212\341\274\340\356M\276\2464X>\240\264`\276\217\321f\275\325\362\\\275\304\211\345\275s*\332<\023g\330>H\032&>@\306 >|\216U\276\376\346u>D\333\363\275\211\241\256\274T@w;B\256\256>\227\305\277\276=\"\353\275n\t|\275\034I><\'\021\212\276)\303-\276\331x\014=\335\256G\276=\361\027>q\212\203\276\333\264\245\275&\2314>d\020\024=\360:o<\364W\232\274\342\273q\2769\007\320=\346\016|=*\235\204>}HO>p\254\256;:\224M\275\322\276\000>l\306\006\276Lo\371\275\310]9\275\3565\212=D\243}>$\341\273<U\371\007>\355ji\275\036Gf\275]\314\256\276h;p\2760\316 >S\032\207>\032\202M\276<\340P\276\254\270Y=\250\363\271\276m\006\002=\375e1>\036\022\266=h=M=\230\327\232\276\264oF\274\253\365\253>l\240\242\275\330\024i:e\227A>\254\323\371\275\03730=\023\300\010=5L\013>T\375\250\275\033\217\205=\236U\214<\223\026\274\276Z\361\315\274\215\222\342\276*\264\233>\230\371\324\275\265n\204>\353;C\274\212U-\276k\345\247<\255n\003\272.\242\035\276\206\311\244>\032\217)>\201\352\225>\377T\227\275\325\242\337\275n\210\024\276\035OB\276\254l\356\275\317`\301=\007-\231\276\024R\377=\354\322\030\275\305\334a\275\221\326H<*\204p\276.\224\324=j\272\337\276m\214\254<\352\001\033\276\310\304\204=\247+^>C\276\232\275\016HV;\017W\340\276\247/2>\366\367\315=2P\374\2757\302\336\275\035%C\273-[x>V]>>\254\002:\276=\020\252>#\361&=\310\204\035>HW9\276\370\241\266\275\256\307\302\275v]%\276_A\326\274\362\307\205>U\363\024>-\325\320\274\033\375\315\276V\364\265>g\375K\276\021\300\023=>*{\276\347\027\204\274SY\375=\026\230\323=\005l\201\276o=\351=\364+A\2762\021\t>\303\375\374=G\234\250\274C\231m\276\322\370q=N\267:>\320\2562\276\2279\t>\033P/>\221\023\330<\266\205\247\276zkS\276\256\004l<\256\330\246<g\200\032\276a\370\203\276\021\241l>c\273\227\2761\304\353=\246\335\030><\354\366=Q<\311=v)d>\377\201\010>\304\235e\274\277Qe=\375\265\237\275iG\255\274M\025Z\276f\021\240=\210I\\>M\004|\276\003\357\247<\327r\277=\037\265\357=\341\027\323=7\235\016>a~\265\274_\207P\276gz\033=\344\0357\276\223m;\276\200\301\306\276\0356.\276\"\3114\276\257\\H\275\365\235\366=p\'\213>\366<h\276P\371N\276{<\205>\2312B=A}\243<\314)D>\227\312\003<7\374d\276\365\356\373=\240\270\236>\212\3677\276s|\217=\3729R\276u~\270=\305c|\275R\270.=\201XR>\302\222\t>\233\220\237\275\177\233~\276~\004 >\236\310\262\274\230z\225\275\340iO\275\027\366V>\253\3161\275\'\345\303<pn\253\276\204\276\271\276\366Y9\276t\3648\276\340\326\333\276\200\236\253<\342\202B=\265\177I\276w\001B\275\262\327q\274!\035\005\273\202oS>r-\305>Wy\212\275\r)\260>\021\370\221\275\035\265n\275\334\216\035\274\031\215A\276\2075o>\205\246z\276\261~\237\275\350\n\014>\307P\025\274\241]\n>\307\351\257\276\317.\323\276v\021\225;U\377\216>W\256\031\275O+\202>@\273\310<\246v\330<0`\264>\265\307\210\2763\0328\276fz\274\275\345\277\275<8\301=>\316\005\026>:$\233>\321\334\017\273\021,*\275\324=x<\230<\n>\334\355G>\362;m\276\343\377D\276\371\372q>\031\3353>q\213?\276\353~K\273\200^\212\274b\244\036>\313#\243\276\317\247p\276\272\355\263\276\021\303K=\272t\221>g\256\355\274o\331\000=<\322\r\276\255~L;\n\234\005\276\374\254\236\275T\377<<\003\372 =k\362%\276]\206\253\276\375\231\217;\304\277.\276\364\354\313=\002\204\260\275\345\027A>xO\334\275\001\";\276k\312\235>\200\'\255\275N\257\267\275\317\217\n\276\353\374v\275\274\342u\276\365\t\251\275,\331J\276\000a\230=;c:\276M\274*>\362\177\362<\002X\221=t\r\253=&{4\276\314~\316\2758Z\244>\324\240\263>x\002\251\275\276\033n>\374F\253\275u\347r\274\215\037\231\276Wl\212=\301\024\004>c\253\024=\023Q\212\276\317\213\335>\2476\257=\251\270\014\276~\377\202=\325\335\277>\265SP\276\276\254n>\307\023>\276\251a\211\275\220\342\016>\201\346\005\276\004X\313=m\\\265<n\031u\276\302-\226=\356A\347=i\221J\275\010\230\252=\355\025W=V\322\"\276\272,\036>\303\316o=\252D\275\275\006\204Y\276\230\263\325>=K]=\342&\232>\373q\272=9\032x\276\233\261\243\275\006\330@<\345M\024\276\307\227?>\255,e>u\265\247\275\371\205+>yO\276\276\207\300\306\276Y\345\325\276\320\337\212\276\240=\367<bI\177\275i\030\263\276\213D\302>\007m\246\275\225t\257<\033\023P\276n^C\276\002D\342\275\213\317\r>\242y\300=\241\004o\275\022\253\214\2737\274:\274\364z\267\275D\360\343\275\304\314>\276\336\200\313=\003\334\002\275\373H\314= \031\215\276\004\273\212\276\332\022n\276Tyg\276\213\2762>\277/\204\276\205 D\276f\325\236\275\233k\017=\242\032\352\275\247\304a\275\226\261\r\276\376>w\275\233`q=\376N\226<\242h\235\276\201\260[>;,m<\200\033\225\273\244O\370\275\312\036\312\276\177\020\255=\333\272\327=\\\310#\276\027\326\"\274\350\035\227=\304A\002\276\333\312\210\276,\344\023\275\350\376\025=\210i\310=\'/?=5\237\234\275\361?\017\2756\344\200\276\251\\6\275\3126\304=W\217\'>\0074\362=Y7l>un\264\275\200\345Y>\263\010\252\276%\335\225\276A\2338\276(T\250\275\317r\227>\331\272\177>\250\2278\276\343\2309=\261\2062>\027\347\216\276>\330\262=\233k\336=\3130\024>\020\333{<t\r\325\2756\020h>\215;\001?\316@\323\276\337\251\217>\316\312!>/&F\276\246\335\303\275s\222F\275_Oj\276\\\214\033>\202\nO\276ETc\275\002\217\321\276;r \276\3152\271\275\203\306\007>\023\237\276\2763\003@>\'\273\345\2753hv=SD\266=\r*m\276LW\\\276\325\337e\275\nsR\276q\021\222\274!\2274>\363\335\205\275\246\237\270=\263\341a=\263\352f\276+gs>\341\341\306>lB\210\276\006\031\214\2768f\001?\001\324\204>\014\307!=\272\363)>j\200\225\276 0\243=\223oZ\276KS\255\276\302I~=\352\027t>\371\370C\276\271\324\212>\351\247\221\276\227\231\222\275\366\356h\276\025\214\373\276sfd>\212\205\200=\341\300\010\276v\373\270\274\357\217{>\323\347\354>+Z\377>\373\367\251=\252UT>\370\262\237>\365\274\036>x\2007>L\353\312>\003\355s\276vJ\010\273(\320\302\276\302\301\032\276\314\202\307>\307c\244\276pl\250=\227\331\222\276\207\207\253\276\302-8\276\240y\210\276\365\245=9\230\304\373\276\360?\205\276\3642\017><\0315>M\020\323\276\027\333\347=\202>\251>\366y\220\276\265D\034>\020B6>\032p\372\272(\340\230<\343\375\327=s\204\007\276\203\247\347\275S\250\246\274\331U\261\276A\275\333>d\372\365<\232\313K\274\257s\322=\212\230<>\306\237\035<4\360<\276&I\273\276\240^>\276\013\005\345=\266ct\276q\346\340<<\340\227=\261\214\202\276\272\026\232\275\236\"2\275\311\243\301\276b\215r\276+e\265\275\362.%>\027\243Z\275D\225D>\261c\375\274Ia\036>\246\274:>b\230\027\276\215\341\300=\327\037(\276\031,.=\302\225,=\267\212\205>zS`>m\230\252\275\253B\204\276\017\345u\275U}\255>%\357%>\201\022j>K\255\217\2752\034\004\276\200\212K=\322\351P\276\237M*\276\014?\272\275\364\323\237>\333\267\013>\027\016\006>\261\332U<9O\"\276\371\0346\276#Rp=\345\314K\276\200?\356\275\357\346\246=\217{\333\274\037\216\362\274\321\027\303= r\321\276\310>\003>\347\207B\276d\346\372\275\326\035Z\275+\2476\275\017h$=r\326\002\274\211\366\273\276\r\301\372<\000}\213=\256\302\212\275#\352\231\276`@z=\020\2075=\005\n\231>\177\324<>X\306\277\276\351\350\225<\312*g\273S-\035>\274\371S>\363(\252>!\000\010>HP\026>\245n\254\276\254\245=\274\300&\342\276\323\376\004\276\325\244\033=\261e\216>\317\210}<\003k)\276\335\017Y=\342+\024>\212\317\'\275)&Y\276\032aC=\007\260\004>\201\324\204=)\001\236\2755\337\r>\252Fl=SI\355\275q\201\327\276\016\214\236=\345`$\274;w\335\275\224\3162\275\246\222\351\276\\Ql\276pK\001;79\233\276w]\205;\274\254\302\276#g\330\276\327<\250\275\002\375\271=\275\207\001\275\261\255T>\310\031z>T\374\010\276NDF>I\314\232>\236;\230<\217\212\214\276\200\317.\2761\032\344=\243P\002\276\3259\251\276\262\200g\276-\317P=\213\311\315=@X\211\276y\352\261=e\322\022\276\177\320\210\2751A\353\274\333\304\214\275=\206\217=\300El\276\315Ec\276\360\222\016\276\234\007\202\276\0225\224\275\343\021Y\276\227\005\030\276\003\350\232>{=u\276\236\303J\275\010;\375\2754\301\361\275kp\201>\244\377\022\276N\203e>ud\203>\353\306\222>q\210\265>KH\002\276\214\375\275\275\205VA\276\202Z%=k\357i>\nQA>Q\016\331\276\027\005\'\276\376\016\001\276\010\336\273=v|v\275\237\265\365>\326\177d>\273\204\233\276\301C\241\276k\335\031=K\246\267>\221\330\177\275)\333\351\274\275S\325=\303\220\257=\337\301\332\275\334}\246\276\\\243A\275f\366\206\276f\321b\276S\267\315=\362\316\374<\254\222\224>\204\"\266\276\357\216\303<\247DL<\031\212\201\276\354\213@\276\366\253\313\275\246}\326\274}IL\276\225\245I> \277\266=\321\201\263\276h\200G\276\202\025[\276\363\023\345<\3778*\275Z\247\023\275<\010\307\275\266\343E>\t,O\276&Z&>\003\033\266\276\036\'\311\276\253\201<>\216\022\220>\261\343\316=\027$\022\276\020\\\266\275\210\037\314\274\021\325y<X\020\244\275=\023I=\2567<\274H\355i\276e\242\">\362\0262<Z\231\250\274\264\t\205\276Z\222\261\275GM\201>pR\233\276\"|\021<@\310\363\275-\217\206\276j\250\001>H\243\364<\313MV\275\327\014\t\274\'\371g\276\346\272=\276\315Q\237\276d\243\363\275\373<\375\275Z%,\276A\376\205\276\267e(>\212\233Z\276@o\232\276q\223\006\276\326\300>\276V/\025=\311\366\200=\216\375\336=\257\344\311\276;\315\223<2^8\276nS%\275Q\nb\276\256\232\263=\310\226Y\274U=<=2y\037>\344\226\203:\240*x>\256+\000>\245[V\276\3036\014>%\266\333=\303\330\201\276\0322\\=\262K\205\276p\251\221>\324\346\177=\240&\260\276\016\336\312\276i\335\237\276\221\252\210\276\003)Z\274\272\303>\275\251\245\215>U\375\236\276\326\346\017\276\253\332\016\275\021i>=\013@.\275\233\364\000\276\007\024\211>\371&\026>\002\272\026\275:\323\341>V\320\234=\241\301:==\340\261<\'\343\377=\277\317\362\274\366)\354=\204v\231\274\353\352 >{^\344=5\024\307=#\0266>U\3276>W\271%>\001\3548\274\025\275\027>2\262l\276e0\\\276\226\001\321\275\355v\334\275\210\360\201>\263|-\2763M\366\273?\342\272\276\362\242P\275#\024\006\276\021S\n\276\0221\262\275\230g\213=\263\nj={\010\034>R\026\307\274\206z\377\2756^G\276\251\033\336\275\322\3339=\213\275\250>\375+\340\275\026+\211>l\206\213>\307\033\230\274{\037\262\275$\275\000>\222\240\n\276gD\320=\0237M\276\275_?=ma\275<x\223i\276\347\201\307\275s0\221\276/@P\276\273\027\337\276\362{\025>\'2\237\275\233\250h>\267\255\222\276E\315\340\275\360\205D\276\205\357\241<\017\001\316\276\276\262@>\366L\251>\276o->\271\017\322>\366\224_\275A0\220=\213\335\272\276{h\300>\210V\021>w\310\034\2761\346\242\276\373\203\035>\201\246\221<e\270->\266\272\250\276\035\3629\276{$\217>H\260)=\242\272\226\276\2626\\\276i3\201\276\367\241\213=P\312\265\274\013\360\222>\301h2\275\rJ\276<\314o\330\276\234\311:>v\257e=\367eE\276\372\203\014>\036\243\221=\355\247\265:V\177\220\275[e@\274\316\000%\276\342f#=\272\3346\276\212J\241>*\273\355=\2260n>m>\351\275ig\030\274\3321\263=y\241&=\237\374+>bX6=\256B\037>\262\"#>\274\023\276=f\312\235\274\201\0323\276b\006a>\037\016\276\274>\376\202>=\223\305=!\3574\276\223\'s\276\001G\267;\266\342\233=\007\213\360\274.v\315\275\252\257M>j4\231>\340\026Z\276P\264\023\275\022\230G\276OZ\202\276\250\216\347=\256\340\204>\223\336\225\275\270D~\276H\261\034\275\235\206(\276e^\246=\363+\215=(\373$\276\275\264\221=\353\330\\=\">X=\345\222\277\275Z4\233=\353\276\227>\244Xx;\256YU\275\021V$\276Z\342\206>I\022R=\rm\020>\350\2125>C\212\246<\225\352%\276.\374\306\275\263\240\001?3v%\273)x\311=F\367\310>U\310\233>\361u)\276\361\3020>\247\300*\274\203\036\023;;\310{=R\'\020>\361\213\003=?\365\255;\367\005c\275P\367n>\r;7<\204\t\241\275\273\321:\276\350wO>\205\301\226<t\240\t\276\374\035\236=9\355R\275\252\3363\273\354tX\276\204\230\231=Wi\000>u\247\256\275\304<J>\235\323\302=\254\021\017\276\337o\370:\255\013\321\276v\245\367\275\023\327\356\274\"W\217\276N\205\222<.X\001\276\265x\016=\363/\232\274^i\346=\356\006\034\276\006hQ\276mhi>\235\223\361=\n,\r>\222<\241\275\225\004_=\tU\221>\004[-\276\326\345/>\325(\016=\250&\347=\243\227\035> v =6$\264=\033G\217>\326\276X=\202\343\252>4\343\">5\233o\276j\321\232\275\335\251\021>\307\367\023\276\273\223\223>\332\244\337=\030\340\325\276\266;\023\276\351=\333=C\336\201\276\2768\376\275\347\320\327\275Q/\234>o\272)\276\252C\333\275\361\001v\276\332W\264\276\3054\255=\332s\370\275\221\231\026\276\207\206\225\276}\301\263\274\246\261\001=\320\010X\276\266L\255\275r\243K=\317\337c<\226z\203\276\316\221u=$\020\234\276\2064\371\275\271\234\020\274\304\331V>\311\312\200\276~\222\270\275\025S\021\276\271^b\275\232\037\202>H]6\276\213\267S>\024\0345>|\352\367=\203 s>\243<3=h0\336\275\221\350\315\275\340q\255\275d\215\032>\350o\305>\230Y,\276c\3104\276P\251\345\275p2\221>|\214W>\020\025\201>\374\000\250\275\251\003\346=\245\332\261\276\375\247/\275\027i\242\274\326\302\233\276\362\315\274\276(\361\n\276V\213\013=\331\'\021\276\347:d\276p\2466>c\035\270\274\261\034\216\275W+%\276&H\201>\005f\\\276r\376W\276\001\233\257\276S\222\373\275X\273\020\276S\336\234\275\363n\246\275\036V\250=\013\353\264=\350\3478>#\3246=k\245\247<\266\303\233>g\001\276=\014\031\213\276\321\n%\274\351\325d>\321aY>qM$>\310e\324\276\212\262\332=\263\267\204=\260\3031>=8\332<\251#\360>\361l\310\275\247\252\356=oT\036\276J\325F\276}\202\202\276\237\014\016=ec\005\274:\336\217=)\347;=\026\336\n>[]\306\275\270\020\037>\322\275G>\266 H\276\226\347\361<\245V\262\276\334\246+>\024\344*=$\276\375<$I\020\276\030g[\276?\364\022\276\026t\354=\3335l>\321\030v\273^:v=Dm\344\275\036\3054\2766\240\246=\262|~\2763\330\211=1\231\332\2754\210\372\273u\240\371\275R\006\213\276\027\334M\2769\271\262>\231 \030\274\021\222\350<\304\327\234<\234\346\341>!B~<\274&[>-\001\274\275\366\346]>.\204\023=\3162\025>uqm\2742\246k\275\006\t\261\275sL\035\276\371W\341\275\033\030\335\275\246\377\021=\217\246\264\275\275\021\355\276\202\353r\276\030K\026>\'\272\323<O\245\324<\216\306\313\275\360Q\240\2766\014\251\275\345\232D>\256#\205>\265\362\263\276T\352n\275\306nU>\205\023\014\276\267\267\212\276zL\253\276\317\3600<\250\260\020\276Lw\374=b\324\207\2757f\316\274Lc\327\275\266\031Z\275A\365\205=\353\314(<\351\r\300>\004\332\355\275+\301\231\276\210+\343=7\037\260\273K\263A\276\034#\221>\002\317\336=\255\365\300<\r\266\237\276\221\334W>\254\031\300<N\366\013>\360\251\232\275\301\362/=\3210\021\274Gh\271\275\356\322\223\276\0134x<\315\300\212\275^\001\024\276q\226\352=f;\321\275\342x\206\276fQ\000;\006\250\312=\320o\000>\320\266\003=\304\312\213\275\373e\312>\366#\212\276\252F\314\275z\322\236\276\262\350\302>\360\027<\276\371\016\003\276\357Y;>\3226\005\275\252\376\324\275\023\024\222\276\243z\216>\245\262,\275\337d\210>\343\376\326\275\000XJ>\207\nY>\356-H=6\251\301>9\247*\275\262\364\031\276K\023%\276\213H\005=\346V\300>\333\302\025\275T\3520>\370\371Q\276\'\267\r\275\301\343\226\275|(m\274\251\212e\275)\246\241\275|\373\230>\214\003\241\276Y\251\276=\203N\013\276\236\247\r>C\241+=l\245\361\274\2723D\276\226\201\240\275\200\"-=\272\316\322\274\241\372\240=\245\254-\276\240\240\302=M\237\307=\213\370`\276\264ws=5/\210\276\203p\032>97\347=j\324\203=\240\335\202\276x\003\305>n\227n=\350\240\211>tD\221;W\307\033>\313\244\243>}\211\036\276n\nz=\274\231\036\275)\273]>3%z\275\344\216\362\275\226)\016\277\225\030I>X\373\003=\237\301\350\276\226SP\276\366!\207\275%sR<\377(/=\333-\313;\257\320\325\275Z;\237>\267\241\024>#\274\363=\220>\222<\2244\261>\322+\340\275\347i\317\275<2\234>\257\335\303\2747\326v\274\205\014J<Z\371&\276@\031\240\275N\261g\276\374!>\276\021\177\203><\375h<\344\346\364\274\327T\210\275\371^V\276\234\250J>\212\342\275\275^\315Y>w\246\021>;\247\332\275\342a\200\276\026\305\321\274>mP>\242\030\370\275\237\333\r>\266!\014\276|\361\313\275\223\354\275\276\247,\251\275B\311\320\275\301\203\026>\325#\313=p}S>Z\354\251= \206U>C&\260\276\000\314\020\2750E\353\274v\334\236:\221Co<\3247&\276\377\r\351;\361I\277=\366\307f>s\375\340\275\333\305\251>\2463_>\035C5>h\017\240\276U6\265\275(\203\217\276\373\200)=\031\001\332\275\222/\217\276\224\243\253=\312\020\357<\362\320\227\275\362#\317\275\177\307n=d8\017\276\222\312c>\211M\n=;qg>N8\376\275\332\325\001>S\024\342\275ZC<=R\365^\276\276\364\013>\250\207\260=&\177\266>\336\356&>GH\375>\215\267\353=\240\233\032>}u\334\275\001\001\023\276\313d\017>\024\254\302\275{6~>\267x-\276\371\230\250\275Ix\335\276\276B\322=\226\242.\276\275\001\302\274\021HC>^\022@=*jC>\2700j<c\334!\276 E\353\275\360\371\331=+u\232\273w\272*\276\315\252\253=\024\t\232\275}V\201>\n\253\257=7q\035>\225\271\327\274\214\204\211>\311\027y\275\203\302\371\274\n\234y\274|@5>\000d/>A\255\275\276\305\355\\\276W\005.\276\031Q\216\275\354\347\375\276\025!\027>Snr\275*#\254=\357\237S<J\005\256=\345D\023>.\t\204\275\376\220\013\276\346\266\213=\275;\216<\205\366\302=F\\\232=6\264\320\275W\350\236>n\333\026\276G\206#\275u\237\016\276!\333\276>\227\237\274\275\354L\203> \017\017>\002\026\332=\305\360\030\277d:\335\275\325^S=\035\222\261=6\277\322\275pyC=\211z\216\275}\027+>\333%\215>\204w\252\276[[\210>\265\327a>\000\017\330>#\273\346=h\301->\322\nk>\222\252]>\320\236g\276\346U\021\276\205\362\311<\253l\216\275i\235%>\217\233\323\276\272\251u\276c\350)>u4E<\306\236\324=Q5;\276\302\303_\275\354eW\27676c\275\265\030v\276S\017\262\275\t\336\240\274\273.\241=\303\210a\276A\262\243\276Q=\206=\253}\250>\355V\266>rB\325\275/\207\364>\",\252\276\315\365a\276op~\276\313r\360<\3077\345\276\302\034\375\276\210\036\006;c\317\224=C\267\355\275\251\024\314=`%\222>\304l\334\276\337\346\222>\224\000\236\275N\336\354=T\372\263\275y\346L\275\214\235>=7\305\211\276G\032O<\020\006D\274\213\031\n=\317\370K>\021\351=\2767\215\254\274\212\017b\276\263=!\276\242\363\"\276\275\031\373\276\225\010\253\276\310\276\212\275\317\032\212>\243;\337\276s\003\216\276\246>\230\276p\253|\276\254\2027\276;a\233\275\214kN\276\003U\225\273J\314\271<\332\020\216\275\353\177\331\275=\016\'\276\245\3058=\22768>\220\346e\276\033v\n\275pu\211\276j\203\353\274\027\266\260\275\260\324\371=\371\310\005\276e\334\321\273\231\214\335\274S\217\2029\232l\206>/\243R\275yF\375\275>U\321\276\177\260\223>\210{\234\276F\205\327\275\207\274\006\276ih\302\275\000\"\026>\377W4\276+\350\001\276\3461g<\313J\276=\3456\357\275\321[\243\276\255\375R\275\352?\246\275\336\304\252>\332\303c>\024\241\016\276\236\245\351=\256\037\010\2768\302-\275&\271\205>#\023\266=x\330\017=\305\207i>;5y\276\345\243Q\275,d\362\275\272\325`\276Z\021#>\024\344\373=\351uX\275\244\2742>t\216W\276\343I\237>\034`\202\273nK\n\274\306\006\014=\364M\343\275\276/\243<\256\345v>0\023Y\275(V:>\332\247\377=S\276\261\276\006\305\t\276{QD\276\263\034\222\276\351\254\026>\224\315\304\276<I\315<\000\013\201\276y\357\205\276\276\313\207\274h\'\250\276\373\242\343\2763\275\261=H\343\233\275+\335\001=4\355\271=Le\321>8\242?\276\321\325\277=\335,\257>\246k\034\276\024a\310=\374\300\323\275\212\367\231>\231\253\002\276\251\200\330>\331\347?\276\234i\360=\260\304\024\276fO\016\276\205\375\230\275o\271\333>\330+d\2769_\n>\371=-\276\314\370\026\276\221$\346;\2032e;\356e\202\276G(8=X\221\000>\276[\347\2753\310\206\2759Yb<\034>\206\276\274f2\275\0228\313>\377\200\341=\334\356\242>\207t\330\275A]\002\276l\306\364>\233\304f>>P\260>\033\326\226<\006E\207\275~\265\360<\360\266J\275\031\275f>\345<\201\275\3177\265\276\200\004p\275D\357\263>6\326\027\2751\007K>\250\343>\276\212\304j>\0163\217>\362\314\021\276#I\010=\t_Z=\243Q\205=\003\274\212>=\206\\\276\306v\n>\265eX>\323Q\340\275\301x\316>\255:C\273"
      }
    }
  }
}
node {
  name: "dense_1/MatMul/ReadVariableOp"
  op: "Identity"
  input: "dense_1/kernel"
  attr {
    key: "T"
    value {
      type: DT_FLOAT
    }
  }
}
node {
  name: "dense_1/MatMul"
  op: "MatMul"
  input: "batch_normalization/batchnorm/add_1"
  input: "dense_1/MatMul/ReadVariableOp"
  attr {
    key: "T"
    value {
      type: DT_FLOAT
    }
  }
  attr {
    key: "transpose_a"
    value {
      b: false
    }
  }
  attr {
    key: "transpose_b"
    value {
      b: false
    }
  }
}
node {
  name: "dense_1/Relu"
  op: "Relu"
  input: "dense_1/MatMul"
  attr {
    key: "T"
    value {
      type: DT_FLOAT
    }
  }
}
node {
  name: "batch_normalization_1/gamma"
  op: "Const"
  attr {
    key: "dtype"
    value {
      type: DT_FLOAT
    }
  }
  attr {
    key: "value"
    value {
      tensor {
        dtype: DT_FLOAT
        tensor_shape {
          dim {
            size: 64
          }
        }
        tensor_content: "-\210{?\342\001i?8q\202?\221\203\215?\262\rv?\261\316\177?E\327m??\354\214?PCv?\355,\214?9\256\177?Y`q?P\272f?}\306F?O\027\200?J/\202?\267\246\214?\314\213\212?+\333\203?=\276t?\304\235\201?\337\231w?\364a\214?\257#\204?\320Z\207?\1778m?\220\356|?\340\236S?B\227\203?\250d\203?\023U~?\030\036u?\346#\203?rQs?\032\027u?g\334u?\235\372y?=\370\210?\2641\200?\274\336\205?cZ\217?x\000\220?\366\r\212?{hi?\320\246\207?\376\202m?\205g\213?p\233u?\326\255\201?\'i\201?k\374\205?\021\034f?\254\303\206?4\362\201?>*\200?2\020e?\374v\200?\020\241\177?L\204\217?g\004j?QEp?\335<\177?&>u?\006N\203?"
      }
    }
  }
}
node {
  name: "batch_normalization_1/beta"
  op: "Const"
  attr {
    key: "dtype"
    value {
      type: DT_FLOAT
    }
  }
  attr {
    key: "value"
    value {
      tensor {
        dtype: DT_FLOAT
        tensor_shape {
          dim {
            size: 64
          }
        }
        tensor_content: "\271F!\276\252\035Q>\303?\014\275\363\365\224<\0336\206\275\301OO\274O\224Q=\035&->\203\"\211\274\256?\022>\020\201\205\2742\230:=\031\311\220\2757\212\\>~<\374<t}\216=\347\036\257>\374l\017=\373\2566>&\204\277<.V\242\275\255g\212\274D\347\213=\207X\026\275\347- =?\351\360=\247\332\263=e\343\223\275\372\031\017\276\0306\2009\t\2011>\313\001t>\032\326j\275L\004\246>&\230C>\020\376j\275\000Q,>\222qi<\262$\201=%\346\225=d\005B=\334\223\216=\202V\004>\275\227\207=&\217\027\275}\2347=\272 \372;.=\252;\311\034\266\275\337->>z\314\350\274(?\265=\254!\234>\n)\206\275\323\021_>\316A\037>\251@\226=\237\017:>d\252*=]\031\016>5\254\205>\214h<>\263\342\311\275\352\264\243="
      }
    }
  }
}
node {
  name: "batch_normalization_1/moving_mean"
  op: "Const"
  attr {
    key: "dtype"
    value {
      type: DT_FLOAT
    }
  }
  attr {
    key: "value"
    value {
      tensor {
        dtype: DT_FLOAT
        tensor_shape {
          dim {
            size: 64
          }
        }
        tensor_content: "\030\235m?9,\317?\177\266\377?\220J\200?\372y\205?]\304\355?\201J\354?\013!\002@\376\240\206?\020\270\024@\326\377\217?3\336\354?A\036\215?\2628\212?\272i\320?\275\347\237?@@\274?\316,\306?Y\023\250?\301\251\372?LU\330?\365R\233?r\002\005@y1\312?W?\333?\205\201\361?\265\025\275?e\337\265?Q\223Q?\212o\336?\363\254\346?J(\321?\225/\355?%\003\330?\023\231\001@Kv\204?\025?\235?\351\363\206?\350\321\261?\265\216\277?\337\267\275?~\333\335?b\027\212?\020\030\257?\365\023\242?\'h\362?4\321\276?\304V}?\207\215\217?\027\032\340?\374Y\200?\006\210\210?8\340\302?\036\203\001@\023\341\345?\211\333\261?\035#\240?\025\251\341?I\027\217?\305\017\263?~W\356?\003\025\000@\244\337^?\370&\356?"
      }
    }
  }
}
node {
  name: "batch_normalization_1/moving_variance"
  op: "Const"
  attr {
    key: "dtype"
    value {
      type: DT_FLOAT
    }
  }
  attr {
    key: "value"
    value {
      tensor {
        dtype: DT_FLOAT
        tensor_shape {
          dim {
            size: 64
          }
        }
        tensor_content: "\233il@\3544\361@u\317\302@\214\357k@U\257u@\251n\277@\365\317\306@\234\273\341@\364\366M@p\371\373@\363,z@o!\263@rgM@\306\326\\@V\021\217@4\371}@\3574\241@.\231\\@!i\211@\332\262\303@\365\024\332@G\342\236@\353$\276@\336\263\221@_\361\204@5\021\200@\230\355\301@4\345\253@\335\2142@\304*\271@q\205\255@\334+\347@!\273\355@\305/\323@\375L\244@%\340q@\001\224z@\273N\177@\022\022\346@&-\305@\321\237\255@C\361\320@@w\211@b\001\322@\265C\252@\202y\241@\250q\227@\242\340}@\241\371\250@\255\203\262@\223(\226@9\3277@\226)\204@L2\310@\r\254\262@\343\373d@\232\364b@\310\315\237@\214D\230@\257\377S@W\241\315@\246\025\205@\026\247\\@\363d\273@"
      }
    }
  }
}
node {
  name: "batch_normalization_1/batchnorm/ReadVariableOp"
  op: "Identity"
  input: "batch_normalization_1/moving_variance"
  attr {
    key: "T"
    value {
      type: DT_FLOAT
    }
  }
}
node {
  name: "batch_normalization_1/batchnorm/add/y"
  op: "Const"
  attr {
    key: "dtype"
    value {
      type: DT_FLOAT
    }
  }
  attr {
    key: "value"
    value {
      tensor {
        dtype: DT_FLOAT
        tensor_shape {
        }
        float_val: 0.0010000000474974513
      }
    }
  }
}
node {
  name: "batch_normalization_1/batchnorm/add"
  op: "AddV2"
  input: "batch_normalization_1/batchnorm/ReadVariableOp"
  input: "batch_normalization_1/batchnorm/add/y"
  attr {
    key: "T"
    value {
      type: DT_FLOAT
    }
  }
}
node {
  name: "batch_normalization_1/batchnorm/Rsqrt"
  op: "Rsqrt"
  input: "batch_normalization_1/batchnorm/add"
  attr {
    key: "T"
    value {
      type: DT_FLOAT
    }
  }
}
node {
  name: "batch_normalization_1/batchnorm/mul/ReadVariableOp"
  op: "Identity"
  input: "batch_normalization_1/gamma"
  attr {
    key: "T"
    value {
      type: DT_FLOAT
    }
  }
}
node {
  name: "batch_normalization_1/batchnorm/mul"
  op: "Mul"
  input: "batch_normalization_1/batchnorm/Rsqrt"
  input: "batch_normalization_1/batchnorm/mul/ReadVariableOp"
  attr {
    key: "T"
    value {
      type: DT_FLOAT
    }
  }
}
node {
  name: "batch_normalization_1/batchnorm/mul_1"
  op: "Mul"
  input: "dense_1/Relu"
  input: "batch_normalization_1/batchnorm/mul"
  attr {
    key: "T"
    value {
      type: DT_FLOAT
    }
  }
}
node {
  name: "batch_normalization_1/batchnorm/ReadVariableOp_1"
  op: "Identity"
  input: "batch_normalization_1/moving_mean"
  attr {
    key: "T"
    value {
      type: DT_FLOAT
    }
  }
}
node {
  name: "batch_normalization_1/batchnorm/mul_2"
  op: "Mul"
  input: "batch_normalization_1/batchnorm/ReadVariableOp_1"
  input: "batch_normalization_1/batchnorm/mul"
  attr {
    key: "T"
    value {
      type: DT_FLOAT
    }
  }
}
node {
  name: "batch_normalization_1/batchnorm/ReadVariableOp_2"
  op: "Identity"
  input: "batch_normalization_1/beta"
  attr {
    key: "T"
    value {
      type: DT_FLOAT
    }
  }
}
node {
  name: "batch_normalization_1/batchnorm/sub"
  op: "Sub"
  input: "batch_normalization_1/batchnorm/ReadVariableOp_2"
  input: "batch_normalization_1/batchnorm/mul_2"
  attr {
    key: "T"
    value {
      type: DT_FLOAT
    }
  }
}
node {
  name: "batch_normalization_1/batchnorm/add_1"
  op: "AddV2"
  input: "batch_normalization_1/batchnorm/mul_1"
  input: "batch_normalization_1/batchnorm/sub"
  attr {
    key: "T"
    value {
      type: DT_FLOAT
    }
  }
}
node {
  name: "dense_2/kernel"
  op: "Const"
  attr {
    key: "dtype"
    value {
      type: DT_FLOAT
    }
  }
  attr {
    key: "value"
    value {
      tensor {
        dtype: DT_FLOAT
        tensor_shape {
          dim {
            size: 64
          }
          dim {
            size: 64
          }
        }
        tensor_content: "\275\225\213\275\032\237\226\276\t\212\277;\036\007\200\276\003\205\177\275]\252Y\276\232\227\252=\\\245\210\275^\200P\274-\220\204\275\302\260\240=\0340\010>K\370\312>,\020\204\276\203\377-\274\213\246x\276\003\206\251\274aV;\276I\216\206>$\336v\275-l\246<\326q\n\275\007\014\037\276[x\356\275\353\255/=\213\031[\276+.\177=\243/\277\276\355\344\000\273\025FX>\257\013M\275\000.\270={\363\217\276\001\352\211>\016B\277<PB\005>t<\022=B\200\354=[\016H\276\221\240\241\275\036,\275>\263\214\035\276\312\003\203\276\014\322\220\275\252t\033>9L\264\276\224>\t\276\275x\236>\353[\253>vX\330\273\225\224\343=R\r\313<{\206\376\275\276\250\320\275\202\245p>\017\016\320\275\276*\016=s\265\034=3d\013\276\306\315?>\241\037M\276\207#\257\276\227\233.>\306v\315\275\263.\357=\341\013\013>\013\307\354\275\247\274\224>p|\033\2769;\000\276Z9\\>{f\034>u\374\376=\266;]\275\304\324\211\276\346\037\221>\312\254\033\276W\266N>B=\257\276\\Zu\275\034A\326\275@\273\002>\325\226i>NH\034\276\242\246)\276\263=\320<\202T\013=B3\246=f\333\210>\367Y\035\276\025\233\236>U:\016=S\235\367\274mm\222=\226\323~=\250\306\201>\240\331\211\276\220\215\361=\314[\363\276Yc\375;\234F\367\275\255F\353\275\237Z\220>\360\030\242<(j\271=\221aj>\215\330\262\275\237_\\\276\203\200\013\274\37723>\322\027\006=\177\237`>\0168\2639\2228V>[h\022>w\306\223>x0\321<\344G\373=\031\302\375<\361\020\016>(\2547>\354\\\331<\351\277\200=+7\211>\0202\344=\332\235\004\276\267\215\311\274\373\034\257=:\344N\276\336\034\033\275\231\201\373=\335\335I\276\252q\033\276\260\350\215\276\004\022\010;d\352\351\275\202[\325\276\2714\336\274\264\207\257>\325\217V\276:/\377<\014z\022\275\005,D=\000\237\n=\010I#>Q4\216>\316\376C\276\357\027\227=?s\242=x\034\362=\n\356\313<\007\307\307=*,?=\265\267\367=\207\266f\276\323\374\270\276\007\323Z\276\260h\305=4J\007>HQY\276\035\000Y>\255T\001>#\021\033=p\205(\276Eh\232>\354\274i>\302`\271\275uf\343\275\277\020<\276\230\232\037\276Aa\233<\267p\265\275\200\366\254\276*Y\231\2756\216\013\276}\352p\276#\303\"\275\325|\016\276\371\257\265\276\026\231\367\276\277\365\002>*\337\320>he\220\276S\315,\274\327\204(=\000\026,\276\211x\224\276\003\325\240\276\274\372\037\276\022?`>Rd\336\2762[\344\275\214B\333\275\341\254\330\276my/\276\371^i>\372\214\301\276\321\330\315\276\014\321{\276\301g\004\276\0062\266>\272GX=`\327\205\275\0172l>ixs=|\356*\27672G\275W{2\276-\240E={\300\332\274Z\247\201:\336*\225=\317\035\005>\310j\n\276l\200V\276AG\032\276\221\354)>\345b\260\275\367L\t=\273\266\341\275\211\204\341=\347\024C>N\321W=\3141\227=\n\357\373\275^s\024\275\277\265!\275\\A\037=\0352\005\277\002W\225<\016\201\255>\302\336N\276\020k\234>\346\020G=\255\324\305\275\350#\260=O\224\r\275a|\215\276\271\216\027\276;\020\241=\213\031\373=\237\350\221=\020\035O>\262\316\246>\032P\020\276\002\241\210\276\244\023\215\275b\014\304=\372\331\216\275\200\252\334\275#\355\230\275>G[\275\324\224\017\276,\325\332\275\244\006A>\376C<\276\n\364\217\276?\243\222\276N\340\321<\261\0300\276\370\330\003>\256\341\221=\222\304&>\037?u>\266\347\247>Y\346\304=\361\017\006\275\006%\375=\300]\316=P>\345\27590\010\2750\374\361\276\000\021x\275\353\210\260\274\007\363\225>J(\021\276=\226\210\276\237i\206\276A\215\207=\300#\370;&#r>BR\261\276\256(<>`Y\205>\313^:>\246T\253<\0175;\276\"\366\275\275^\000\220\275\207U\263\274\377#\213<V+\027><\314e\275\304<\034<x\364n=\371\312\272\276\334$>>\036|\336=\245\235\200\275\241\2765>\037\3759\275\246\227\003\2758\013\002\274\224\241\221=M\327\237>\245\332T\2761\333\257\276\026\204\272>|h+;8\037\017\277\262\255\234\275\261\0361>\313\3253>\226\'\014=\335\306\031\276\021:^>_\272T>\262\277.\276Z\031\241>_5-\276\234o\013\276p\251\002>\017\222\276<x+\220\274\303#\360>\246-\265>]u\256\275^\355\255;\003\214\255\276\254\032S\276Ja-\276\250\234\354\275/\025\230\276bp]=/4`>\004){\276y\327\352\276\331\230`=\373\300v\275\376\037\221\275\310\317f\276\247\263\022>\206\340\253\276$\273\206\276\n\014 \276\253\031\313\274\3734\246\275\210\335\303>w~\363\274\211\016\334<\025L\201\275\247\312\250\275(\033\237\276\014\241\276\275\271\3701=\260{\277\276B\265B\276\317\022%>,\341\277\273rI\214;gr\234;HF;\274\346-\021\276\322D\005>\343\214q\276\242\003\221=p\377\335\274\020N\375=\270X\310\275,\203\221\275\276\267\244=\262\202 >\007Fm>`E[\276\364\345\222\276\2125S\275\221\353!\276\001e\033\276\235L\342>\007\277\303\275q\332\247>\216\322\237\273R\331\377<\276{l>\037:z\276&\232*=\321\351!=\336w\277\276P1\204>\0241w>\330q\251=\035\356\327\275\375{\263\275\277O\035>\025\2659=\\\326D>\272\250\035\275\376\261l\276\3202\033\274\177.\300=\233\275k\276bI\376=\255\027G\274|\215|\275n\2549\276A\214\221>\000ym>\212\312\347\275\266\352\"\276U\240\216>\352v\250\276\356|Q>\323\226K\276\305t\003\276\324\021?<\277\004\222\2769F\347\275,\314\031=\336\253\367=\271<\302\276\234\303\n>np\336\276\362\216u\275\215\033W\276\n\313x\274HZ\354\274\226T\331\274G\373\326=49F\276x:\226\274i\357\233\275H\306\330\276\303i_\276\364n\020\276\372\\\026=\214\206\257\275(\351\006>\276\215\213>u\252h\276\201\216/>\006\314Q=fa\374;\027\345\315\275A<\022\274\004\347.\276\340\235j>\221y\216\276\226\264\"=^u\261=\027\301\202\276@\212\310>\276\222g: \017\314<s\221<\275\310G,\276t\350]\276\\\361\177\276\223\032n\276\235\020!\2768\267\005\276\244\214\n\276j\230D>\020\002@=\0055\301\276\231\373&=\210\227(>\345\363\200>)\367T\276\030^\216\276Z\007\367=IZ\341\276\2317\231<G=\035\276\376[F\276\221\266E>\373E\235=n\275\202\276r\010\326\275\nCW\276\006CM\275\372rD\276\027uO\276\373J\233\276*\276o\276\211h\266\274\341h\236\276\3673\241\276+\251\210\276\227\234\345=s\023\000>\303fW>\357,\220\274)g\345\276\336il>\022Z\364=F\313\300\275\327\350\233\276\2376I\276|\356\314\275qz\377\276\004\215\321<\2330\225>\203%\003\276>\351{\276\204\004\226:\321\314A\276g(\226>\033\331\267>\363\344\037>8\3268>\177\245*\275\377J\236<Js\326=B\266\314\275_\020-=\253\262_\275\"\r\222\275\341\"\254\276\326\346\230>|\027\005\276_\373!>\355\021<\276\375B[=\234Z\325<$\262\315=c*\263\275Z\007\374\275\377\242.\276j\017\323\275\307\005\010>;\244\221>\326\357\327\275\353\363Q;\367\031W\275\2175<\276\273\200\221\276\370\234\">#\371\264\276\016Vv>\010\245\305=[5\211=\331\241C>\256\375\232\276\211\003[>\350-\220\274.\362\234>\303\346O\276~\322\373\275\004H\006\276u?\264=e\226\304>\\\032\227\276\376X\017\276\243\220v>\211\336\017\275\377\316\007>\227z\304\275\205X\227\276U\216d>\212\023o=\336\311\303<1\223G\275\307 \322<$\021\013>\325;\242\276M\302\014\275j9\033>\242\211\005>\303%\217>\315W\366<\267w\274\275\370\212\033>&\331\005>\021\321\026=\014\271S>\260\263\001>/\320\344\275\333\222<>q\200C>\213\254\200=V\305\210>\246\r\177=I\022\006\276%\275\356\275y\"?\276~W\243=}\344\213=w\200X=\263lg\276X\3355=]\r\213>\\h\371=?\302\307\276\223K\373<t\365\n\275\365\365\263\275\324Y!>_\002\326>\206\216P\2766\360\332=D\013\252=Z\344\030\276\035)\025\275\261P\270=\307\231\320\276\304~\201\276\023\000\214\276p\220\377\275Wf\324=4\324>\274\275\342\222\272\347\321\256\276S\375\355>w\264\323\274\276\t\377\275\246\3418<p\304P\273\370}\205\275\304\001\005>\354\272\272\274\234\365t\276\266!\220>\351\\\026\275\337\231H\276\351\032\223\276\024\263~\276\371\376\361<\2032;\276\3717\274=q\332\357=\360\225\376\274|\205`=k\201@\276Q`\247\2766\355\007>\204A\363<\"\257\030>m\003F\275/\267\274\275\017S\030=\217\202\314=\232=\275\276\026\352\364\275\022\345X\276!\305\202=U\n\324\275\356&\036\275\212D\317=\356_E>\225\270P>\227M\212\276X\345\t\276\010t\270\274\224\336\322\276x\027\301\276% \367\274\250(\r>\314`\254\276i\301\202\274\200\211\006\276\277\t\222>\315\034\201\276U\205\241\276?\313Z\275=n\343\275*\303)\276\032\3425\276\301\201$\276,8d\275,j<\276Y\t\256\2752\312\213>\240Gy\276Y\217\241>\335\214}\275mo\217>I\324->\000\235\253\274\213HN>l_\211\274$.\257\274\346Z\022\276\014\031\006\277s\323\301<\355B\240>\261C\335\276d/b>\270dZ\276\003+y>\274u\305= \260\206=\214\260\341\275\2145m\276\335\023`\276\231\276\273>[\357b\276>\'6=\217D\253\276\231\320\035\274Q\304[\275\316\'\027\276\214\0206\276w\316\035>\273\223\002\276\027\344\275\2766O1>\250U\215\275\215\314\270\274|h\274\275\267\177\265\274P_\275<\310\021\346\276\006\227\337=\233\256\365=\230\031\030=\353\250\237\273.Km>5T@\276\342\247\376\274\335\242\267=\253\331\215=\251\263\261=\035\253\274\275\231\305.\275\271\006M=\230\262\333<\272*1>ld\261>\273\013\324<?z\210>3\022\361\275FXW\271\226\0017\276;a\353\275\360?\314=\212\2472\275:\242>=l\026D>nU?>u\331\035\276\001\022l\273gI&=\323\007\005\277\306i\261=U\221\262\276g\347\233\276+\031\314<\253\264)\276L\033\306\276G\252i\276q\365K\276G\304\377\273\305k\213\275k\263,>N\272\025\276\346\254\260\275\374\020\304;\016\331#>\207\314\345\274\373:r>$\257\301=\255\257&=D\\\245=E\0135\276\030\227\n\275Q4%>\366CV\276\324\263\222\276\345\3502\275\236Ny\276MY\241=\363\375\234\275\3379\212<\177\301\277=\234`\">\245>\213>s\363\214>\347\350C\275\251I\'\275\363\030\320\276\246\267^>\361\371\332\275M\217T\276\362\0069\276\346\tf\274b\254\311;`\371\216>\005\246\025>X\334\205\276\013\031r\276 ;t<\2026\245\276\340\3329>X]\204\276#\233:\274Sj\250\276}x\'>\247\327\365=\031\330\027\276\247\331\306>=6\213\2752\322{\276\236V\034\276\241\301\272\276\364K\307\276\212\023\013\272.\305\017\274yA\034>\"\245\324>^\255\232>\226\021I\276H\372\230\275\221g\010\275\n\300\"\276\352\340\204\274\231\264W=\334\347\n\276\3672\214\276\022\366\233=\n\202\025<\325\264\212\276}\227\221\275\325\245~>|N\023\276\254\000\353=R\t^\276\241\226.>\344vl=\'\'a=\267\004\205=a<a>\312\317\230\276R\255#>\214\243v=\327A5>\372]^=\301\267t\275\305\344\002>\n\3026>\303\024\363<b,\377\275\010\354\'>\003)N\276\032\306\032>\303\246\305=\247\231\225\274*\352!\276\032\251\037\275J\254\036>=\305\r\276h\367\017\276\272\013\333\275?\207t\276~!V>b\235\345\275\0208\236\276\352\nl=\2633^\276\013\270\374==\247#\275\220\230$>o\343\001>\310z\025;\222})>\355\360\177;\214z\330=\006U\254\276\\\314\256=C\2427;g\371\005\275D\323\266\275\021\237d=\314<\014>\021o5=ZYV>\'\356Q>;E=\275\254[0=Y\242\244>%|\343\275\013\240U;\355{E\276Xe\212>\220\375\212==\325\265\275\347\371!\276P\262\250>w:\271\2733ZV>/\253\032\276y\340\335=\260\371\272>\267p\241>\255\360w>KS\316<\\\237\360\274q\261z\276\323|%>\331wW\273\033\3470\275E<E>?b\230=\357W\003\275*\'I\276c\177\233\276n\322\023>\344z\335=;\244\255\275k\262!\276\220?T\276p\241J=j.\210>\217W\'>i%\223\276\320\245\315\275\r(\205<\241\373d\275\250\3348=Xvb>A\334\324\274\302\237\375\275Xp\r;#\206\216\276E\355k\276\305\205@\276=\363\212\276\1777V>L\230E\274gi?\275\2763\032\276\020\305\251>\215<\236<lf\224=\205\220\322=\241\361\033\276\341J\276>\256\231Z\276\006\n\321=c\370H>\245u\362\276\037\014^\276m\326)\276\207\230\205\276\347$;\276(Gc\276\225\224\205>:\266\242=\313\327*\2769\257@\274\262!\017=G\371\205\276\267\007\023\2763\351\272\275\367\375\026\276\303\006\302\276`}\266\276\0204\321=@@^>\223\316N\276%\237\277\275\214[\005\276\326R\n=_\253X\275l\037\216\276U\353\355\275\336R<\2766\262\205<\300\214m<\250k\013=,\207\264>\343\262%\276r_\230>\261\355\036>\206s\220\276g\\\261\275\302q}>Kps>2p\313=\371\210\331\275<\353\003>h\252z>E\332\034\275\210\272\310=\034\365t\276W\310\360\275\306\005\252\275\337\3709\2767k\204\276\354R\307=$\302\020\276g\025\260>\205_\203\276\357\3744>h\0041>\212i\343\2754\251\212=\232N\302=\200\024^<\200x\224=,\t\243=N\346\250>X\352\300\276\244W\210\276\361L\211\2769\342G>\327\226\373\275J\263\326\276 \314b>\251\352\337=\205\200\316>\314K\234\276\221\300w\274\034[\033=\256E\247=\342i\320\275N>\237>\360=\301\275\351|\005>\351\240\222\275\267\035{>\253\263\245\276\237{\014\2757\241\260=>\032\210\276\006[G>\206o,\274\325\006\345\274\225\214i<\024y\010=\336\241/>\227\255$>,\317~=\333{I<\227\322\255<\341\363n\276>\014\220=a\036\364<\000\242\304=\204V\215=E\032\377\275yk\210\276\244\221x>\322\202\272>\"BK\276\325\217 =\027\007\204>\227\024\207\276\365\367\277;\013\2633>\263\2755\276\202&\241>\032\036N=&\000\240=\332\272U>\350Y4\276\300\315\243>\215)\235\276f\235\016\275\212\351X\276\227\245\025>\325\352\263\275 _U\275\316\013\373=\010\255\245\276<.h= k\242>A\nm\275\"\206i=<\215p>7p!=\355z\244>\272\307-\276x\260\236\276\274\323\223\275\360\310\004>\2335\020>\357\323`=5(4\276\313\324\020\276\034\226\305=\253\024\277>\360\002\365=\306h\375\275eq\024>`\344s>\265\342\275\275J9\216=\212>\241<\205\213T\276+\253\336\275?\374I<\"+\244<\266\237\023>\274\370\034>\356\343.<\021\244\232\275\036\\\023>;_C\276\302\014n\276\371\304\224\275\361\301\030\276\022k\340=*F\243\275r\300\224\276(KS\274\303M\343>\0063\233=\260R:\276\253$\301\276\301W,>\314\226\200\276\205Q\003\276{=\'\276>\207\365\275\342\027\220\276|\351\'>\361?\013\276\017\261\214>\021gS\276]\222{<u%X\275iW\277\276D*y\276\260\201\252\276\335H\332\275\375\236^\275\366;\304\275\263\361\234\276\023\017\263\276\362\2228\276\001\367\245=x\220t>\267,->]3L>\267\363\003>y\202C\276\205\345f\276\t\365\001>\026|\177\2758\374\360\273\027ly\2753b\277\275\311TO\276\223\372\350\276\207\034E\276\301V2\275S\006\301>]\334/>\031\353\267>$\202?\276\276\003\211\276\341\264\203>\003\350\030\274#<\343\275\351Z\214\276\2249!<j\367J\276\037\362\230\276\264\005\245=\312F\"<\320\342\013=\351\310\205>pv\020=\363\251Q>\352{\201<h\316n\276\"\256\373=\273\360\'\275w\214c>80\243\276\315u\261\274\324\367z>=\336\002>\034\314\020\276\311\247(>\225|\310=\255\030\343\275\340\2552>\204-\342\275\337\207p\276\301\315\255<\023\036!\276\230\267-\275\350\315$\276\237y\027\276\223\342O>\004\317D=\"\001\227>\303\256\200=Cv2>\0358\254=\037\343\267=p\226==\342\325\350\275\337\307\255\276\235!>\276\370\026\032\275\331\301\306\276\214N\313\276w\367\311=zJu\273\000\277\274>3^\025>\221\362g>\254D)\275F\342\325\275\350~\307<\177\221\235>\252r\345=\234\025\212>X\206\004\277\236\341\303=\302\020f\276\221n\337=}o\261=\372S\375\276\300b\235\275B\007\335<\304\033~\276i\242\377\276\245\311j\275\332\330J>jA\224<\363\242\264\275\254\274\004\275\321Cq\276&\354\213>\234r\202=+;W\275h\244\250\276\260\241\312=\231\340\334;u#H\274;v\263\275\'\313\r=i\006\311=\344\363\200\273i\255\342\275\330\r]>\376\300\331>\270\2619\276\206}\036\2756\236\030\276V\332\213\276c\022\354\276o\t\322\275V\313\202>kv\343\274\367`n>7v\261\276\010\247O>\002\341{\2768\235\016=\013\326m>\275\242\'\276U\037e>W\315\270\276ve \276kEP=i,\017\276\254\037\231\276\032\260\230<]\200\227\276\001\035\021\276\240\243\233=\036\277O\276\267$\333\274\032<T\2762U\004>\217jZ\276\000\361\344\275 2\327=Wc\034\276(3\252\274\302\243\216\276\255\317\374\275\276\302\232\275m\224\210=\374\r\215\276\353I3\276M`H\276\027\023\210>_\324\343\274\224Qg\276$\274\321=\356\366\212\276\337\227\371\276Q\345\373\275|\365\300=\212\210\374=6O\260\275]\261i\275Cx\257>\370!+\276\345\306\013>_m!=\365\201/<\372Hw\2766\344n\276m\365\032\276\251\205.>\206<}=\027\225\351\275\004\222\002>\203;\'\276\243:\245\274\352\\\273\276\256\237\177\276a\213W\276\315\271\240\276{\035]>\362E$>\261E\027>\275\320X\276.(\264=\003\"\004>\201u\200\276\371\237\237\275?+\265\276\017\214\217>,\311\246\276c\325\006\276\225\\\313=\331+M\276\360\301\372\274\365\3170\276Q\025\270\276$\322s\276Iv\"\276f\036\202\273\037+R\276\313\016\224\275D\356\007\276\312\311k=\347\302\026\276D\'(>\262t\277<,#\244=\336\310\261\276\336w2\276\343P@\276\'\353\026>\226\212L\275\2069\327\275\307!]\276\250\321\216\276\246\235\027\276\257\267\214\276\2518a=P;%\273a\342\361\275\224\376p\274\231\246\"\275i\374\312>~0T\276\200\230\321=\314\363S>\034\226\333\274[*7>\311\033\240\275J\276!>\244Us\274\177^#\276rG\257>;\2300\274\365\207\023>\332\243[\276\010\335\025\276\004X\030>\2775\313\275\263go=\344,\024<bq\'>\214(R\275\0202\233>\342\333R\276\240Y\201=\031\023~=\355i\270\275\247k\244>\270\362\262\275]\214\241>\221k(=\212\354\212>y#\362=\343\317\n<\323%\002\276\035\3163\276\235\267\311>\352C&\276\247D\232\276\031\025\312>\323\326,\276b`\226>4N\300=\311\356(=%\341\016\276A\224\345\275Y*\364\275o\223\255>\033[\035\275\333yI>^\232\014\276\332\231\327=\214g\234\276\254z\270\275\264)\340=l\363I\276\2252\353=\357d\257>\245\312\275=q\301\243\272\306\213\363\275\032\210\317>\323\326\313=\351F\224\276\231\007\245;6\264G\276\272 2\276\003\245\235\276\355\306\361\2744YG=>\035o>,\227\327\275\200\210\316\276\202)Q\274(\370^\275\222\362\340\276DB\204\276q\204\252\274\3761?\276\313;\246\275\235\254\230\2759\374\006\276\273}\303\276\036\001\025>\347\223\216\276\272u\010\276}\262\311\276n\343\177=L\353\236\276\3450\200\276UE\227\276\350?\200\274\307\354&>s\366&\276\2322\261\2763\267\200\276\364\204\332<\032\373E\276\207\001$>{\325\331\275\330\351K<r\021\261\274_\327X\275\003\353\343<\006F\342\274k\251}\276ijk\274\257\025\264\276L*\350=\311\272\016\274\235\212\006\276\346C\'\275\276\310@\276e\374s=\207\313u>\270\251\310=\345\255\203>\220\364;\275\030H\211\276\300b=>\204f\234\276\224\000\242\275\371\245\324=\225N\302;\251p\373\275\234q3\275\316\377\211\276JQ\362<?\316V\276\257\020\202=\256\246\036\275\020\037`=\223N\237\276\257\275F\276i8\t\274\031D\021=\210\342\226\275\355\025\225\276\245\226z>W|\036>K\354>>\215\223\210\274{\317\205=\253x=>El\"\276\t9\253;\005\n\201\276LK\274\275\030\307\243\276y\214H\276\376ZT>6\1775\276\033\314\335>\341@\235\276h\365\223>\014\325\342\276\031\304\010>6\317\017\276\226\354\177\276f L>\265\346\236=1\275\203\276\351W\330<?\3354\276\206\212\201\276\034(\255\275\233\032\022\276\020M<>W2\222\276\020Zm>\013T9=\"\375\013\276B;\006\276\006\006/>\216_\254\276?S\254\276\316\3650\276\277\234o>\210\263s\276\200\365T\276(\250\240=R\225\024\273\230\220\230\276kN\255\276u\220\225=\364\333\241>c\'(>k?D\276Fo\316>\254]\255>\216s\215==\376\264\276D\241o<b\326\236\276\010\242\017\276\257&\371\274e\245 \276<\037\r=z\317(\275\207K\354\274eS\215\276\241\367\001>\204|\221\276*)\362\273\035T\361\275;\201a>\016.f>\332\013}>\263\035\262\276L\0011\276\204\371G\275-\226\244>\"c\t\2766\005\325=x\351\240=2\005\237\274\337\241O=\312\020\020=Z\221\n>\024\260\377\275F\341\232>\230pv<\217\362\331\276\037\337\000\2765a\227\275\"yY<\270{\n>\2000\204=\377\203\240\276\031L\306=\275H\330\275)\004\317\276\235\007x=\231\360\376\276LL\340\275C\273m=h\273\256=\"\tK>EM\032\276\016\342\336\274<\270\306=q?\'\276\353;\262;\231C]>\233\322\253\275\214\035\244>\226d\375;|\300E>?s\036\275\261\242\013>\024\251\266=\267O\000<\001\252E=\025\3023>\023\023\362=\tT\227\276K\026\206\2762\311\267\276\301\330@\276N.\177\275\331\321\274\275<A\365=t!\273\2742\247\010\275\177\025\363\275\325\275\001=y\204`\275\255\223\004\276\267Q,\276\244q\204\273f\016\340\273\004=\014>\373y\244\276c\306\276=\307\233N>\222\223D>=\177@\275\300\257\241\276K\014\260\273Ds\231>\266\237t>\244<U\276\360\355|=\335\351}\276A\356o>\244v$>\202z\001\276\352il\275{\346\206\276;\3427>\372LZ>?\206\254>6!\305\276Y\244\341=i\276m=\257k\245=\313\204\010\277H\216P\275\'%\254=\022\244\260\275:\347(=!\307\301=f\236\320\275\"\222\202=r\354\004\276\325c(\276\000\213\200>B\2452>\032*\271\275\036\033(\276\244\367\014\276\241\323D>\364A\341\276\201\002\025=?\250F\276t\214\216\276\022\324\217<\333.\332=a\245\225\2755\032~\276{\"\216=IP!>\215[M\276\320\356\014\275\207\275\215\275\265\2418\2767X\220=Z\344\372\275L\374\345\275\250\253\274\276\022GZ\275\260\236\245=\226\337\205\275\211\361\301<\'\346B>\343x2>R\230\265\275(<P=\003Pf\276\240\327\202\276?\310\300\275b\035\346\276\306\n\r>FO\337\276\250\224\003>\316\310\305<\332\330\224<[e\354;K\031\335\274\024\316\267>\357\317=\276\270\306\236\273\241\r\306<\212;\260\275\266\200B>\036\261\300\276b\211\254\275\304s\275\276\020\252\276\276\033L\036\275\347\332\302\2754\177\252=\322\265 \276\314\263\034\275^\312g\275m\004\214>\212\347\372\275W\204\025>T\263\337\275\330{\252>\270E\316<\303\320\266\276\315\261N\276k\"\217<\177\002\006\275\3167\247\276B\257\227\276(\244\307\275\347\351\250\276\020\307p\276\035\214\210=Z\201g\276\003q\272\276\034\227X\276\2443b\276>\014n\276\232\231\234\276\330\024\003>\344}\235\276(\n\201\275\252\267\026>p_\341=\243\357\211>\241\317\022>\256[\211\276V\235\007>7[]=Y\236\257>k\214i=\272\272\027\276\361\226\203\276\341u\350=)\350\014\276\266&\356=\"\n\241<\215\260\226\275\023\313\247>Y\204B\276\260w.\276\345>\267\275\301?\346\274~\213\226\275=\215\316=\002Z|\276~\352\206\275U5\234=\310\006*\276\200Z\247\274\013\333\r>\342\177\260\276\326K\346=\331\203i\276$Rs\276\302\255\321\275\314\013\276\275\335s\003>\271\275\003\276\306\020.>dN0>\250\315\356\275b7]\276i\035\261>\"\005%\276D\025\333=\341\211\014\276\020Lj\276\352\273\246\276\036\324\004\276\311\3538\276K\346\303\275\271\346#>@\257\035\276\311\277\210<\257^\215\275\016l0\276f\"\305\275\2368\272=\010a\001>D\263o\276\332\203\227=n\335\021\275`y;>\270\312\305>\366\336~\276\000m\300\276\207\362p\275\371#\375<F\354\225<\330P\367={QX\2762\235\224\275\274\031 \276[\\\211\275\034\021\265\276\272\3454>\324\373\330\276\212\240\207\276\350F!<\270\250T>\256$\203\274\256<\002<u?G\276\013\030\035\274\236\016\236\275\0020\222\276\016F\230>_H\377\275\204\246n\275\357\371\334\275\003}\341\275\365\304\004>\243\023A>f\223\222\275\372\317r\276\021\321\247\275\t\002u\275\367:j\276\201\252\215<Z3E>\030@\">\254\001#\276\211\\D\275\373.\216\276\036\212\254\276\331\336D>\207+P>-\342\026>vK\211\273\204U\"=v\t0\276\267\214\243\275\202k\262\276\020\215\245>\'\3262\276\272\366\307<ME\335=\016\272\034\276\000N/\276\374L\021\276u\377\017\276\031j\257\276\220{\312\275C\235\256=\2549~>ig\037>-\260\234>\317g\273>\'\375\206\275\356t\370=\331#\247<\276\207\332=\260m\206\276\217X\200=o\216\322=f\303_=\000\211\272\276n`\341<C\204\241>\333Y\001\277_\241K>js\221\276\031s\265\275\215\224\273\276\\k\002\276\210\241g>^>8\2768\021d>7\227e\276\013\0023>\3210s>W\337\203>\246\202\303;\220\352`\276\003\'\305\274\227\317D\275\223W\232\276\256ob\276\373e/\275\310V\245\276\217\335:\275\242%\003\276\215\nE>\362\200A\276$\375z>\3672\326\276\365gI\276V\301\t\276\023`\024\276$A\"\276KIf\276\007\335v\276\265 \240<I}9\276o{\"\276\232Yc\276-\254\254=K\027\337\275&\277\370\275\360\376\200>q\306+=\241\221d\275\341o8>\007\'*>\266\021\306<%\177_>\225\3160\276\217G\026\274}\364Z\276O\000P<\021te\275\274\351\372\275\312\001\216>\256\261\350<\266\033\225\276\013\376\302\276\227\031\314=\351\030R\276\026\363\313\276p\262m\276\246H#\276\222\266\270\276\025s\311\275\200&\003=\343\'\341\274\002\357\266=H\227\001>\315\330\302\276\240\274\335<)\271M\276\261\2577>2VE\2764\313\260\276=\355$\276;++=\300\243->\207\362\003\277\303/\010>f\252\335=M\233\211=~\362\004>\375\316\364\274M\321\240>\332\017s=\303\353d>\260&\014<\377Y\035\274\363\240&\276=\252\316\274\345\247\232>/\024\207\276ZWS\275`\005\000\275\276\251d\275\214m\224=\372 \201>+\361\277\276(\267\"\276x\330\010>\306\023\033\275&\211\275\275k=\333\274\364\300\232>kO\212>\212\247L\273+\273\003=\215\037\033> \362?\274\036\006\250\275\270\264\355=9\315\244>\341>\300\27503Q>SM\237\275\261Q9>\'\323;=)\2072>\277e\224<\026\027\240\276\264\000\255\275\241\301\016>\233\023\255\275+R\252>\206\362\302\276,\276>\274\216?\030\276\346\253\371\276\223$z>\'6\223\276\276?\263>\365*T>\241\311=>84\221>s\026\265\276]\264\026>@\\\210\275\244\242(>\246B>\276\016F\277\274\021\333\000<E\226\037\276O@\024<\004\021*\276\313I\">h\220Z>\320\303S\276\202J\217>[\313\032<j\270\247\275\027PZ\275{\021\200\275\035@n>\316T\240\275\335\344\251>\321\200\235>G;e\275\372$\273=\373Z\335=\260\245L\275\243\361\">U\202\242\274\246\340\344\274\345\005\215>H\334\225>\2723\034<\224x\375\275\222\210>=\220\364\201\275\022\215\216>\307\247L=\013AT\275#\'\335=\243\000\251=\t\373\004\276\r\346\213\276\247\3532=\260\351\006\276\352\251\377=\200\007\205\276\025\220\355\275\247\222\263\275\356\231\251\275\341\220>\276\034\001<\275\275o\365>B\342k\273O\375\005;\327\375\347\272\250\374\033=\332\301\201\276\006R\274=U\001\032>K\215\211\276\242Hn>\376\251\257=3i:=\206%\333\276\034G\202\274\2553\002\276\305~h\276)\247\350\275\343\303\004<z\222\214\276C\325n\276\232l]\276\247\006\010=:\004\350\2759\260R\276c\035\207>P\0256=\327\360\216>\355\030\223\276\360\307\303=\360\250:\275hY\236\276\240A\343\276\303\225P<\024\241:\274\205\301\026>\243\313+>\1771[=nZ\033\275\345s\303\276\223\306\020\276\314\240\226\275\314\027\244>\320\005\231>t\366\300>\3124\236>\306\253\330\276F\323Y>\350\375\217>43~=YA\036=^\334\373>-\255\375\274}S4>\264?k>\352\205=>P\353\245>U\257\230\275\013y\210\276\207_\325\274\313\025\222=\035\025\020=\206\224\210=\315a#\276\272N\265\276w\364\346=\320k.=\252\245\246\275\325B\244\276\270\313\361\275.p$\276qT\220\276\342t\364>+>\036\276\217Z\377\275\320-\336<\333\310*\276\304\017\264={\326\365\274\267!$>\222z\021>\270\1777>W(\262\275\310\216\327\275\316u$\275\302(\t>\265*\277=\343y)\276\263\330\036=\262$\024?\317\340\221>\203|\032\276\301\206t>\'\342w>\005!~>T\031\033>\025\235\000>\240V\205\276<b\253>aF\'=E\305\010>\'o\034\275\254\371\262\275\353\262\237\276<\300q>\211 \013\276\303\246\322=zOC>\315\016\223>~\331\305\275\321\271\027\275Y\017\342=5:\227\275\216\256\005?D\366\212>JF\037>\265\347\301\275\013\330->\200\357\255\276BCA\276\320Fv\276\326\263]\276\230\210w>\030G\255=\373\213\235\276\203k\025\276\367\257\213=\337)\021=1z\250\275\031\274\326=]\276&;NY\306=\033\204\241\275\352\332\246>\235\375`>\252\362z>!\335\275\274\017\375\016\275\031O\204<\221mV>V\217\234\275\002\247!\275_\203\333\273\013\346\212\275 \033\004\276\333\334W\276!r\251>P\0330\276\n0\225=\005n\330\276*7\177=\353g\367\275\361\t\340<\245\033\212\276\364j\210>7\351Y>\271b \276PW#\275\266R\376\275;\234\275\275\241_x\274\335\245j\276~J\373<\355Q\240\276Fe\211=\304\017\010>8#\000\277M1z\276=\371\233\275\357P\242\275\003\032\010<\211\210!>8\034\000=/{\300=C\211$>\220v\221>\274*b\276^\322\350\275\364j\250\276.\226\231>\331N\001\276\355\3352\276\226D|=\013\252`\276x\004\313=GU(>\330\254#<\001\307\243=\227\257v>\235\021\254\276\002\376\252\276\270F\302\275|}\006<>\214\244\276\250R4>\215\014\255=4\347D>\334\251\372\275b<p\276q\346\326\276CZ\350<0V\242;\275\032R\274\023\335\331\275\325\314\"\275\356\373\350=\352\252w<\3314\307\275s4\304\276\305\'\330=1\327\355\274\023\256>>T\237\033\276J\310\210=\022Z\342<3\310\210\275\264\036\267\275\266R\016\273\\A\334\274{\2523\276I\242\263=D\237\334\275Y[K\274\324\375\263>\306\033\252\275\"v8>:\330\n<\021\351\021>F\344<\275\246N\226\276\2170\266<\201\3269>k\3752\275\327i!>\305\330\315\276 \246\321;q\007\005\276\022l{\276\370\232\022>\252\240 \276-I;\275lw\024\276!\025\344<Wd\205>\361\000\000<\354\325(\275.\030\224=5\007q<\331\271/\276\034\014\013\275\342a\273\276\016\005\250\275\316\360\350=aaw>\214\304k>\346\335\234\276\324po\276\301\214\330\273D\310\221>\341\327?>\01066\275\214\334\252=\343\334Y\276\217D\240\276\334\325\351=\352\337\370\275\036\260\331>\274b\341<|\002\256>\3658\342<\373s;\276\r\375\356\275M\351\267:\344\275\206\275\223 \207\276\\\360\222>\033CO\276\372\027J\275&\272\252>\376W\027\276\357N\254>YZ\006>\215\365]\276\002\023+>\362\000\025=F\225B=\257N=>Y#\222\275\357\231\000>\202\026t\272\000T\305>\203T\024>\034?d\276W\363\340\275r]\214\276z\016\207\276\333\262\256>\276\227\356=\225\324\021\276?\344\372<\257\361\345\275}{t\275\312m\242\276CX\242>\202\2531\276\245\226\217\274\375DG\276\304\232\">Bs\217<\355r:<m\030 