node {
  name: "normalization_input"
  op: "Placeholder"
  attr {
    key: "dtype"
    value {
      type: DT_FLOAT
    }
  }
  attr {
    key: "shape"
    value {
      shape {
        dim {
          size: -1
        }
        dim {
          size: 13
        }
      }
    }
  }
}
node {
  name: "normalization/sub/y"
  op: "Const"
  attr {
    key: "dtype"
    value {
      type: DT_FLOAT
    }
  }
  attr {
    key: "value"
    value {
      tensor {
        dtype: DT_FLOAT
        tensor_shape {
          dim {
            size: 13
          }
        }
        tensor_content: "\304(x@\3518\225? \234\342>\034n\010D@\361\242B 5SC\233\252\024@Q@\267?\341qp?\351\021%@\363h\">\034\244\371CK\256\034@"
      }
    }
  }
}
node {
  name: "normalization/sub"
  op: "Sub"
  input: "normalization_input"
  input: "normalization/sub/y"
  attr {
    key: "T"
    value {
      type: DT_FLOAT
    }
  }
}
node {
  name: "normalization/truediv/y"
  op: "Const"
  attr {
    key: "dtype"
    value {
      type: DT_FLOAT
    }
  }
  attr {
    key: "value"
    value {
      tensor {
        dtype: DT_FLOAT
        tensor_shape {
          dim {
            size: 13
          }
        }
        tensor_content: "Ok\251?\256\324\206?\327\270)?\347p\217C/Z|B@\347\324B\261\210|?\204\032\203?~\262\272=\303\352\201?ge\207?\254i\362Cb\355\032?"
      }
    }
  }
}
node {
  name: "normalization/truediv"
  op: "RealDiv"
  input: "normalization/sub"
  input: "normalization/truediv/y"
  attr {
    key: "T"
    value {
      type: DT_FLOAT
    }
  }
}
node {
  name: "dense/kernel"
  op: "Const"
  attr {
    key: "dtype"
    value {
      type: DT_FLOAT
    }
  }
  attr {
    key: "value"
    value {
      tensor {
        dtype: DT_FLOAT
        tensor_shape {
          dim {
            size: 13
          }
          dim {
            size: 64
          }
        }
        tensor_content: "\336\251\366\276\002\225\313\276\342!\244\276\307\017\233>\306\006\360=R\326\360>&\005!>\211sK>Vtq>\214\222\272\276\005\357\357>\226f\035\277^^[>\022 \244\276=\252-\275\202\007\020?k\367\364>\034\215\225=\216\353\013\2773AP>\237]\242>\317\203\003?\320E\220\276E\211\000\277_\377\017\277\222\013\305=\315G\034>yk\036?\350\305\275\276H\271\212>\267\262)\276|\2028\2770s?\275RF^\275\214S\364\276\375]\035>\265\305\262\275=I\227>l\266e\274\000\231\302>\254Y >\343~S\277\331\376\364\276uF\337\275b\267?\276\304\024\226\275,}\330\276Q\214Y=\001\n)\276\\\224K>\2434\003?\024\340\221=\365\302\244\276\332t\023=TiE?\254\352\t>z\324\030?\215\031\326\276N\277D?\310B\232<Z\323\324=\211\002\243\276>\261\250\275V^\020?\355\304\325\275&&\247\276\332\314\357=\357\024>?*\234\217\276\022u`?\207%:\277\314nN>\316\334;=Dz\232\276|\243;?AW\213\275)\207\306<\023\322(\276\374\230\332>gzK?\233\203\221=~\026X>\024\371\\\276\331\000:\277\004M\336\276]e8\277\023\002\224\276\225\223\003\277)^$\276\016\263 \277\213\370\322=\027\275\232>G?\307\276\263\013)?\016\226\261\2752\354P\277\2703\273>\226-\241>Y+\355;\373\265\"\276\206\365\311>05\231\275\316\323\243\276\312\027\314=\250-/=\270U\014>X\313\375\276\025\032\034\277<\037I\276\377e\317\276e\t\223\276\265\212\211>9\005\016\276\020\0349?tY\025\277\273\232<>\357\376\035?\234\345>\277S\345h>P\025\262>\257\344X>\344C\026?\010+\376\275\204\021$\277l\337\025=x\232\304\276D\2427=R\035\000>\271:\020?f\007%\275\337\323\214\276\367\302\371>\331\345W>5\0105?\300%#>\353\0203?&\036\020\276m\305!\277\253\203n\276(v\026\277\037\237\010\276}\267\023\276VD\323\276nM\'?\232\013\374>h\272m><\321d\276\020\243\322>\332u\265>\035\3203\277\262\246\237>\004_\030?\024e\001\277\325\276\210>\211\353D>\242\225P>\tQ\311\275\263\223\275=\r\nT?mr\013\277@\201\203\276\246\375\357\275\314J\231>m\035\370=\354\013\352\276\346j\244=\004,\261=YS\001?\032w7\277X\307\333>\207w\030?\017O\013>_\356\262>4\346\212\276\251\214I?\332{M<\0274\240>:o\357\27617\007?\276\211{\276J\326\331\276R\226\260\276\"^t>\010h \277\242\364\362\276~\322\271=\365\360\225\276\024\316\372\276\217\215\020\276\371 \025<S\215\\\275\336\275\267\275\243\264(?\203\361\203>\346P\372\276\262\350\225>\214\232J\277%\363\267\276|sO=\267\033\001??\2038\275\235\244\346>9\2420?\301\233\265>\026W\253=1\177\255>\260\251:\2763!\206=\277\266\021\277\345\270\027\277vp2?\022\370U>\032%\020\277\353\024\231\276T \316\276\360\005\253=P7\315\276\300#\202>\033-\314<`\267\267>\333\225[>\t\336z>\244\270\372\276ik\027\276\222\303\241=\233\231\311=D\232\261\276\264\353:?\200\250\377>\013\316\352\2751\224\351=5\242\211=^\360N?\236|,?\037=Z\276\200\0141\276\266\017\254>\306\257\232\276:\267E?\203\350\013>1\373\247>\337s\004\277\202\027U\276\t\333\341>^\020\310>\361=T<\372\217\246>E\240k=\030\224A?\016\372.>\204x1\277(\310\t\277\000z\006?\354+r<\346\203\327\275\256\3637\276\331u\335\276\330h\r?ig!=~\317\024\277\\\311\231>\005.\366\274d\014%\277\223\333\232<!-\020>J\377D\277\352W\313>\244\n\204\276\215:4\277in\001\277\246Q5?5\3348>\247\r\257\275\325\024\302\275\002\313\027?a[\353>\262 \"=\000Hp\276V\372\021?\372\343s>\367\354\320>\032\372\307\2742\254 ?k\365\240\276\365\013\r\277\226\211\033?\240\353\226>P\204\342\276\312\344i>c\336\361>r\210(?00\237\276\231\317\032>\370b\036\277\177i\347\274\324\322\337>\331\017\254\276\222p\263>\010\002\014\277\375$B\277Y\232\023?Z\007\376>\375\334\275>\351\271\037\275\026\242Q\276]\000\002?\2407\335\276\305\334\020>1W\272\276\367R\261>1\353\205>\316wA\275\257AZ>\362\315~\276\323\206\252\276\223\315\004?{\334\303\275\320\306B>\323\214\336\276\'\367 ?YY%\276$\335K\276\315>\337>\006\256\321>fE/\277s\026\315>OH\211>\020B\350\275\356}\272>\277x\362>A{,>w\214\356\276.\351]\276\007\0326?\211\373\371>R\n\250\276\025|N\275\364t\253\2760e\272>\\\027\213>\267\377\211>\226i\253\276\270\030\255\276\315K\374>&\327\"?\360J7\275e\023\354\276AK\016\277\t\363\010\277\003\232\211<{\3537\276,\n\332\276O\225K\277\034A\240>\2047%>vN+\276\337n$\276\350(O?\262}\311\274\3067\005\277~\001\230\276\035\026\307\276&\215\273\275C\357H>MC/;yN\021?J\345(\275\257w\037?\360MB\277\014\335\274<\221\014\017\2765\267\017?\'C.>\224J\353=\016\003\326>\355\377\301\276\315\372(\275v\232\006?\235SW>\341#\314>\010\362\244\276L\214\317\276\271@\n>Q\n:?~\027\336\275\236\302\212\276&l\266\276\023\016\031?\003\376\263\276\310[\306>f\312\022>\016\2200\277/\300$?\352\372\217\276:\302>\277X\341\001?<\252T?H\236\270>\350kb\276C\007\271\275\215F\n?\357\211\272\275\273\327\277\274\306R8\277\3076\003?\243\305(> aR=\264\251\320\276l\346\274>\226\213\327\275\0223\236\276[\\\227>?\206\207\276\226,T\276\212\277\020\276\014\3348\275\231\214\005>\252\274u>\323\024#\277\242\344\210>_\313|\275\314^\227>\376\263\202\276h:\267<\371\002S>2h\213>x\023t>`\177\277\276\035\014\034?\357\013\032\276\316\334)\276\024\262\204\275\222z\025=z\3036?\267\312\002\277\323\223\205>[\315\220=\366\n;\276\360<x\276Q\321\310\276\327\232\203\276\315\316\023\275q\364\"?\362\202\221\276\2171\005\2760B\356>\025\223\362\276\016\353\">\213\003\266\275\266\245=>}\343\234\276\007\203\020>.\206e=\325\317|\276\265\026\010?\323@\265\275\240I\017?\236O\340={f\340\276b\"\334\275p90\277;\353\"\277\246\351e?\215\377<\276O\374 \276)pa?\360\272\001?\343Z\250\274\336\304\202>\275\000J\277\371\000\327\276\n\025.>\007\342u\275|\346R\276w\232\262\276Lc\330=\2615\240\276\371\271\366\275\375\214E=\016\237\354\276\341\273\236\276\010\315\330\276\220\001\367\275\225\232\326>\302\270\215\276\3633\004?A\351?\276^\347\025\277x\240\020\276\320\301a\276\r\3475?\t\360\244=\274\300\322>\030\034\234>\324\316\204\274;\324A\276\"[\274=\2231\272>\026\036\006\277|\235\243\275(D[?]\270\316<\211\236V\277\346\341\233<T\t\366\275\234h\276\276\362\227\007\276T\207/>\244\'8\277\002\234\345>\340\3755\276\370\031&\277\240\017\303>\237\362\005\275Vm>>\221\222\t>\355s->\300\353\336>\257u\340>\343\240\310=\231\2252\277\346\036\224\276\324\370\261\2760\374\363\270\036\271\'>\006\270\'\277\333/\'>\343\344q=\306{3>\000[\224>\216\274C>\201\002O\275uBN?\371\212 >\330C\252\276\210wJ>mcQ\276\246\3348\276\300\n\313>\"\236\363\276S2\010\276\336\350\n?\334\275\363=\362\200\r?\036\243\204\276D\255\335<7\262\022\277R\265\377\276\237\316M?\013\\v=\336c\271>\375\324\031\277\264#\371\275\002\214 \277L>H\277\377\255<>\373g\361>\201D1?\313\276\001\277-\235\036?0bI?\020\366C\276\006,\310=\302G\014\277\200|z>\274\275!>7\r\032?bj\250>\361\242\027>\374\223\337\275\262\241\'\277\325\300\030?J\214\003?f\003\">w\245\253\274L`\362=/,\006\277 \336\003?\216\017\312\276\275\004\031\277\002\315\007>\207\246+?R\341\205\276L\221\220\275\267}\277>\027\326\033\277\271T\333\276/l\010\277\312\252\023>\346\347\335\275\024\357\321\2751\201+?\337gY?)\307\221>L:\314\276\3134\324>Eau=Y\313\354\276!\356\243>H\256\307\276\244\350]\276_w\243\276\177\006:\275Y\024\004>\\Y\030\2764\347\337<\034\323\313\276u*\220=\2604\332=\315R\022\277\033\033\035?\243\274\344\274Z\257\030\276\233F&>\370\324\374;\211A\037\277\034eC\276u\321\035\277\027\016K\275\355r\021\276\347Z\247\276\0160\302>\360c->4\235\212>\327-\235=\327f\217\276\244\031\000?~o\217\276z`\003\276\3161\277<OO\n\276\317-y\276\017Io=\221\n\325>\001W\'>\327\007\250=\361\271O\2777\247\275>\342f\001<\302\354\010=I\376J>9\216\030>\032\252j\276p\241\">\375E\276>k}\025>\374g\272\276\r\002\344\276\332\257\000\277\266\n\000?\313\006W?|\0316=\242\375\026\276\222C\017\276\376\345C>\222\273\222;wKf\275>\n\232\276\343o\034\276\320\264\206\276\010F@>p\227\344\276\006\334\361=\205\222B>d)\231>bY\257\276\013\364<>b\226\324>p\255C?K\270\250\275p\355m\276\264\263\302\276\np\255>\323\002Y\277\355\365<\277\301BX=\356\013;>\3254]\277qy\372=\005\343\027\275\3749\236\276\372p\275\276\203\246\213\275:\314\035?.x\335>\035\032\231\276\351\375C>\177\323\360\276\017\266\342>4\3442?\365\271\231>i\3331\277)cy\276\211uD>\240\323\274>F\251\014\276Y\343\013?O\002r\275K\363\016\277\311\323\r\277\203@\027<\252\3439>\325T\317\275\246\252\035\276<V->\253\364F\277\341\307\301\275=5\357\276\203\020\037\276\3454\034\277\227\034g\276h!)?\241\303p\276\201J\246\276B\323O>0\314\033?\345\200\273>M\346\365\275\307Bn=\207(:\2773\341\344\276\277z\265>1\371\017?\322\372g\276\252\3107>\226G\261\276\313\025\270>?\324\005\277\362\342K\276}\302\306>3\220\\=AB\022\277\333gY\277[S\025\277\215r\315\274\322_;:I\233\316=\2275\372>\037\222\202\276\345\274\213>\260\221t\276\351\2231?\267 \257>\251\023M?GtE\276\027;\321\274\005\035\013?\362S\216\276\346\276W\275\205B\311>\220J\013\2772\3654\276\"\255/\277fv]\276\206\020\334\274D[x\276+m\306=\264o4\277\017\275[?\260\247\212\276\2470\226>\323\260m>P\337\203\275j\000\202\276\365\214\020\277.\276\004\277\007N\020;K)\277\276^9\272\274Y\336\264>\337~\336\276D\006\021\277\367\332\253>Ep \277\373\010\024? \304\321\276(z\350\275c\376\016\276\346L\314>\267\334\312=O~\035\276l\222\252\274\300\206\260>n&\205>\010\275\227\275(\021\017\276\261\216@\276\254\2276>\271\036\016\277w\270,\277\234\352\001?\336\301\021>\\\244\317>^\025\000\277\367\206=>NX\207>2\304\023\276\320\252#\277\262l\341>\315\373O\276%\0209?\341\024a\276\t\n\325=@\200N\276r2\321=a\217\244\275@\266\016\277\276\317\303=O\264\265=IU\304>\257\271\t\277\375|\274\276\354\327\337>\332|v=\035!\241>\007bV\277\271\266\225>s\200\370\276\230v\221\276\376\013{\276X$\316\275T\\\032\275>\260\253>Y\317\223\276p\206\313>\272\252\374=n\026\374\275\022\236\366>V\3564\277X\034\337<g\362\n\277\277<\003?"
      }
    }
  }
}
node {
  name: "dense/MatMul/ReadVariableOp"
  op: "Identity"
  input: "dense/kernel"
  attr {
    key: "T"
    value {
      type: DT_FLOAT
    }
  }
}
node {
  name: "dense/MatMul"
  op: "MatMul"
  input: "normalization/truediv"
  input: "dense/MatMul/ReadVariableOp"
  attr {
    key: "T"
    value {
      type: DT_FLOAT
    }
  }
  attr {
    key: "transpose_a"
    value {
      b: false
    }
  }
  attr {
    key: "transpose_b"
    value {
      b: false
    }
  }
}
node {
  name: "dense/Relu"
  op: "Relu"
  input: "dense/MatMul"
  attr {
    key: "T"
    value {
      type: DT_FLOAT
    }
  }
}
node {
  name: "batch_normalization/gamma"
  op: "Const"
  attr {
    key: "dtype"
    value {
      type: DT_FLOAT
    }
  }
  attr {
    key: "value"
    value {
      tensor {
        dtype: DT_FLOAT
        tensor_shape {
          dim {
            size: 64
          }
        }
        tensor_content: "\013\255~?\005{{?\000`\200?\314\r\203?B\341\200?\251P}?\300\016\200?\344\373\177?C\201y?\347\025~?\211J\201?\000e|?\271#\177?\356\273z?\004\306\201?\231w~?6\245\201?]\315\205?s\275y?\341\247\202?bpy?~\245x?e\022\202?\270E{?\220\t\202?\037\205\203?\324\253~?\323\354\201?\262\372|?H\013\200?\177\217~?\007\345{?!\360x?Uq}?~u\204?\260\311~?\021\203\203?\007\337\203?\302\344\203?G2z?6h\206?\251+t?m\032x?{Vq?!\242\200?\250\312\200?@\360}?\203\306\202?\037K{?+\210x?\211 ~?}\243\204?l\237\203?(T\205?\347)\200?@L}?\230i\177?\016o~?\357\303x?/?\201?F\n}?L\034|?{\277\201?\373\302\203?"
      }
    }
  }
}
node {
  name: "batch_normalization/beta"
  op: "Const"
  attr {
    key: "dtype"
    value {
      type: DT_FLOAT
    }
  }
  attr {
    key: "value"
    value {
      tensor {
        dtype: DT_FLOAT
        tensor_shape {
          dim {
            size: 64
          }
        }
        tensor_content: "\263z\343<\357f4\274F\227\000\273=\221\305\273\247d\274;\226\241\212;\226n\3319\'G3<\360\364\310:A\027#\274\364\275-\274\320\340\243<\371Uq<W&\262<2\267\227<^u\374:\331p\215<\337\347\300\271\302\211\2239\2732\210\274\322\327Q<\024\277\234;\331\034R\274\245|9\274\\\270\377:v\246\226\273\375\365\230;\'\306\006:`d\221;e2P\274fv@<\271\t\240<\037\017O<\006o\253<\257Qv\274x.\312\273O\306\365\273\330|5\274\2312\360;L\314\241;N\0276\273\350\255\234<\236^\000<\031\331~;zK\365\273\302\337\302;&O\302<\236b\351;\001\350i\273\337\335\305\274z\037\351<\252\210\004<\245\273\2059M#\267;\023\022$\274x\330\025\2740WH\274\211E\034< \202c<\345::<\t\354\217\274\2274\355\273\210\004N<*\005\370<"
      }
    }
  }
}
node {
  name: "batch_normalization/moving_mean"
  op: "Const"
  attr {
    key: "dtype"
    value {
      type: DT_FLOAT
    }
  }
  attr {
    key: "value"
    value {
      tensor {
        dtype: DT_FLOAT
        tensor_shape {
          dim {
            size: 64
          }
        }
        tensor_content: "\310\332\227>\021\027\256>\263\256\264>\321G\302>c4\264>\361\016\346>\235\005\251>f\211\307>\027\226\307>/\332\345>X\000\345>a\227\206>Y\370\260>\022^\257>yP\257>\252G\262>\274l\300>\276J\312>-\360\257>\251\320\226>\000\363\267>[\276\377>3\273\201>:c\307>\335\203\303>\245\204\220>\324\357z>\334\000\237>qy\367>\017%\242>\3221\230>\324\221\002?\007\330\205>\310\207\302>\224\025\335>\355\322\255>\302z\230>\337o\370>\037ta>&\274\314>\222]\211>\262`\270>\036\361\314>f\316\253>}\200\237>&\264\235>\\%\243>7\315\257>6\322\255>\010L\304>\365\356\216>\307\231\252>\330\254\220>\330\301\270>\320\247\367>\331\352\204>\320\345\247>AW\203>\257\302\311>\254]\346>\316c\366>Zi\201>#Io>\204w\252>"
      }
    }
  }
}
node {
  name: "batch_normalization/moving_variance"
  op: "Const"
  attr {
    key: "dtype"
    value {
      type: DT_FLOAT
    }
  }
  attr {
    key: "value"
    value {
      tensor {
        dtype: DT_FLOAT
        tensor_shape {
          dim {
            size: 64
          }
        }
        tensor_content: "\222\202)?\274K4?/,6?\203Mj?\325@\'?\312\310\257?I\3665?]\332\216?\244\354w?S\356s?M\360\214?\027\003\033?\226\331_?\273ri?~1\\?\026\017\214?\215?q?b\245\210?\236\034\206?\342\3252?\337\030[?\372\031\203?\364d\027?-\231R?\n\312W?\035\244-?(\302\021?P[7?z{u? y=?\373\376(?\235\370}?\256\260\014?\315\217h?\024o\200?z\211`?d@\021?\210\230\257?-\377\021?\254\322\214?;@$?\214\303R?\337\216\204?\362\2711?\262\0216?\002\355D?\232\251A?g\371W?\256\225!?G6c?6\336\036?@#Z?d\206&?FY$?o|\255?\342e\t?\374tU?H\216)?I\232y?\005\227r?\\\241{?\033\017!?\204\245\013?%\030j?"
      }
    }
  }
}
node {
  name: "batch_normalization/batchnorm/ReadVariableOp"
  op: "Identity"
  input: "batch_normalization/moving_variance"
  attr {
    key: "T"
    value {
      type: DT_FLOAT
    }
  }
}
node {
  name: "batch_normalization/batchnorm/add/y"
  op: "Const"
  attr {
    key: "dtype"
    value {
      type: DT_FLOAT
    }
  }
  attr {
    key: "value"
    value {
      tensor {
        dtype: DT_FLOAT
        tensor_shape {
        }
        float_val: 0.0010000000474974513
      }
    }
  }
}
node {
  name: "batch_normalization/batchnorm/add"
  op: "AddV2"
  input: "batch_normalization/batchnorm/ReadVariableOp"
  input: "batch_normalization/batchnorm/add/y"
  attr {
    key: "T"
    value {
      type: DT_FLOAT
    }
  }
}
node {
  name: "batch_normalization/batchnorm/Rsqrt"
  op: "Rsqrt"
  input: "batch_normalization/batchnorm/add"
  attr {
    key: "T"
    value {
      type: DT_FLOAT
    }
  }
}
node {
  name: "batch_normalization/batchnorm/mul/ReadVariableOp"
  op: "Identity"
  input: "batch_normalization/gamma"
  attr {
    key: "T"
    value {
      type: DT_FLOAT
    }
  }
}
node {
  name: "batch_normalization/batchnorm/mul"
  op: "Mul"
  input: "batch_normalization/batchnorm/Rsqrt"
  input: "batch_normalization/batchnorm/mul/ReadVariableOp"
  attr {
    key: "T"
    value {
      type: DT_FLOAT
    }
  }
}
node {
  name: "batch_normalization/batchnorm/mul_1"
  op: "Mul"
  input: "dense/Relu"
  input: "batch_normalization/batchnorm/mul"
  attr {
    key: "T"
    value {
      type: DT_FLOAT
    }
  }
}
node {
  name: "batch_normalization/batchnorm/ReadVariableOp_1"
  op: "Identity"
  input: "batch_normalization/moving_mean"
  attr {
    key: "T"
    value {
      type: DT_FLOAT
    }
  }
}
node {
  name: "batch_normalization/batchnorm/mul_2"
  op: "Mul"
  input: "batch_normalization/batchnorm/ReadVariableOp_1"
  input: "batch_normalization/batchnorm/mul"
  attr {
    key: "T"
    value {
      type: DT_FLOAT
    }
  }
}
node {
  name: "batch_normalization/batchnorm/ReadVariableOp_2"
  op: "Identity"
  input: "batch_normalization/beta"
  attr {
    key: "T"
    value {
      type: DT_FLOAT
    }
  }
}
node {
  name: "batch_normalization/batchnorm/sub"
  op: "Sub"
  input: "batch_normalization/batchnorm/ReadVariableOp_2"
  input: "batch_normalization/batchnorm/mul_2"
  attr {
    key: "T"
    value {
      type: DT_FLOAT
    }
  }
}
node {
  name: "batch_normalization/batchnorm/add_1"
  op: "AddV2"
  input: "batch_normalization/batchnorm/mul_1"
  input: "batch_normalization/batchnorm/sub"
  attr {
    key: "T"
    value {
      type: DT_FLOAT
    }
  }
}
node {
  name: "dense_1/kernel"
  op: "Const"
  attr {
    key: "dtype"
    value {
      type: DT_FLOAT
    }
  }
  attr {
    key: "value"
    value {
      tensor {
        dtype: DT_FLOAT
        tensor_shape {
          dim {
            size: 64
          }
          dim {
            size: 64
          }
        }
        tensor_content: "J\220x\276\031A<>{(\377\275\244]I\275+\344\004>u\340\263=\257\221\324\274\034\205N\275\256\331\323\275\232\342\322\276\343\017I>\007w\034>\251\265>>\036\376\222=]u\243\275\224H\000=\211\233\034\276\217G\205\276\212\311\017\276\254\'\217\276\256\"\036\276Ah\264\273Pdo>\376\363==CGT>\371\206T\275\330\350y>,41\276\226E\204\275\214\177s\275\203\305\002\276\025G\323\273>TE\273\363\337\342\275\325\337O\276\025\353z>\361\232\305=\313\034\260>\277,3>\030\004\257\276z<\021>\3223;>8?\231\275\247l=>8\335\034\276\265\247O\275\275\344\301=`J\250\274c[\260\276I\367\231\276\276\026\267\276\177L\222>\237]a=\215\335\021\276H\2100=Hv\257>e\330\243\274\014\3754>\375v\263\275\005E\177\276\304\002\270<\227\252E\275\010\022/\275\352l\304\275\275\373\267\275\212Y\021\275\2372\360=$C\364\275v\277f>k\217\016\276?\207\264=Y\236\237\276\224\236\207\275\276\224J\276\206~^>u\204\365=\013h\355=\333\340@\276U\010\343\275\201,\324=^\236N\276\277\3066\276]_\331=\030m[=\257T\344\275\366\032\267\275?Z|>i\363\243=^\351\203\276\322\347\016>\021\241\236><Q\216\274\240\325R>2\266Y=\321\005h>u\2206=\345\2022\274\340.=>3\006#>l\321\205=\333\016x\276\333\315Y>RY\216\276H\263\246\276\336P\244>{\222\005\276\256#2\276>\350\344\275\302C<\273\233%\300\275\261m\272=\206\213\305\276\002\356\223\275\023\214b>J\225\236>/\350!>I?\020=\223b\260\275]67\275\314,#=,r\272>}t(\276\212@q>\304\264s\276P.D\276+\324t\276\231\'=\276\325\364U=6\235\202><\366T\2761~j\275\001\362\300<x\330a>\366XR>\374B\263\276t\010`>\351\241W>\270Y\344=\345\277Q>\241\331-\276\226;!\276\214!(=#\221\230\275>;E>\221J\262=\222\260\376=\022\0164\276@ko<\361 S\275u6~\2768z\004\276/\245\002>\231v\310\2759\366\030\276\344nh=:\201S>.\273!\274\362\261W\275ot\220\275\305\363\226\276\365^\210\276\207\001 \276\337Z\020>\304/*=h\344\243>L\000g\276y\361\335\275\246B\350<\375\350\000=I\2365=8\317\207;i\3711>\355\031\027>\204\224?\276F_\257<\323\376\t\276\273\340\313=H\010{\276-\227\242=\035\032\263<\274\256Q\274V&\230<)\274v>\341X\r\276#\300\001>O\256\013>\204\331\356=eg\030>\010\316\272=\023\264\360\274\n,\277\274\016\320>=\204\273\222\276\331\2231>\257\353\310\275\223\232\361\274\317\302\247=5O\201\276\213Y3>\024\3143<i\377\014\276D\335\213=n\214T=\303\205\243<e\251\371=\325\220m>D\376\326=\351\230\334\275\336ru\2767@\276\275\232\267\267>Y\236\237=0\316\334\275\311\352Z>l\025\036>\276\313O=\264=\204\272\376\300\210>\177\035\346\275R\300\220\275O\021\320=\225\332K\276?\264\205>\344\370w=0g4\2764\n\207\276\254\334L;\2138\204\275\334\304\343=\323\265\022\276\034\364\310\275j\231\217>e\325\241=\261\312\214\275\350G\351=\316ai\275\273\346\201>\372S\275=\233\331\312=P\374)>\273>%>\373\240\304>\350p\027\276\270\347\001>\\\207O>\362\301\027\275\307\021\n\276\234[0\276\251\322\240\275\245y\325=\n\314\231>\306\005\360\274\233\313\332>\266\270\023\274[\177Q\275D&\270\274\234\212\202=t\275\007>\254+\033<\320\304\017>2\262\367\274<\351 =\205Y\026>P\243\274<3\255\014>\"\005D\276\376\003_>\374A\246\276\203Nv\275\250D]\276\216\376\237\276\2146\231>\307\204\221\276\000\276\275\275\210%\017>\243\027\272>h{5\276\270\017\036>\2733i=\223\222\264>\303\013\262\276\336\376\177=+e\307=m\262?\2762\2472\276\305\353\005<\010\3010\276\272\020\001\275\335\303\252\273\260W\252\276r\307b>\363\350\342\275d\236\221>u\022i>j\242M\276\237\361G\276\237\272\376\273\017i3\275~\246\024\275g\262\232\274v\347(\276\306\020\321<\373S;\275\244\255\271>\222\300\226\276>nZ\276\302\341\235\276\n\257]\276\301\375\263>\263+\266=d\177?>\254%\201\275=\'\032>\214\323#\276\034!\277>\002\306\241\275\264\214]>|\203\206>d\310\305\275\264]Z\276\263G\204\274\261]Z\276\243\311\316\275\352\255\207\276c\006\302\276\026\010\227\276\337\303\273\275\212\327\025>2\'\022>\230\325\273\276\230\371\226>l\016\n\276\"3)=1\372\035\276\026\346\222=\256Z\260>\315P>\276@Jg\276\251\207\n>\264\3745\276 \014\313<\006_\002;3\260\363\275\263\003\216\275\371\327\204>7\r\216<Y\321Z\276\220\037/= *\345=\252lw\275\023\374,\275e\302\010>\'\317\273=u\273\263>\013S\025\276\363\243\320\273kI\'>\000\273e=\017,r>^\301\363=[%,\274\360\017F\276r\266\314=\003\353W=A\372\231\275>Rw>\365\020%=\033\372\210=d\255\020\2766\322K>n\t\342\275\217\307E>\227\224\r>8l\005\276\203\325\252=8ii>\315\325\031>\253\220\027\274\321\271\376\275\022?\220=\301b\254=\010*\215=XI\362\274w\2207<T\3724=m\230a\275\207\375;\272(l/>\370\033\362\275\257\2109=M\r\273=T\327\335\275\033\260\t>\345\247\241=\366\375\032\275oU\213\273\320h\210>\210@#\276\363#\207\276#\027)\275\350\216\265>\265\230\300\274\331$\302=\023\302\224>\365\013i>\266F\304\274\335\372~\276\311\214\024=?wz>v!\367=S\312\302>\350\tn=\306\002\374<\036\2540>Y\264\205>\241\361\027\276\027o\200\274:)\213=%\235\025=\252`b=&\210I=\255#\371\275p\\\033>\031/\244>\r&\036\276X\254\216\276him>\371\020\315=\205C\026\276O\362>\275\177.\327=an\341=[\373s>%\251\367<s>\024>A\246\251>\304\034\265:4\344\211\276\226p:>\314\305%>\364\320\260\275\216\336\367<\271q\265\274p\265\002\276\305\3329=u\347t\275\315I\304\275\351k\232>v\016\322>\260{n>\352/\037\275\0162\267=\270T\211=\257\306<>\334\260\350\275\017\205\375:V\311\017=\365\002x>\n\262\307\275>\361\033>\232\370\304\275{M6>M\003\230\276\212:\030>\335\274\007=\237\263\233\275\313\201R>\266\234\262>9o\021\276\243\352\242\275\021\032\273\275\363\021\022>\355KS\276BV\356\275\316\201\356\275\217\262)=\335\323\255\2752\261o>\030\'\214>\376\340\031\275\271C\365\275\320\302\213\276\205\177\366\275M\n8=\025\217\017>7\206\225>\376)\227=\346\314\225>\230i\022>@2[\275\346\276\300\275m\016\322=K\001c>\365\250\252=\370\034\213\276|Ee<\326g\233\276z\322\263\276;\010\312<\3377\004>\215B\207=\251\331\217\275\031\303f>\010Oq>\307\323\022\276L\364\233>\232\221\243\276,t\342\273\316\345\207\276\335\250\251\275\263\204\201=\223\205\013\276\\\010%\275p\n\323=\204T\256\274\261t >\006g)>\221|d\276,!V\276\326\260_>\310& \276\211F1>r5\021>\202\337\222=sT\272\274\337^N>\372\212\226\273\314\346\225>\n\001\246\275\330\344\256\274O\373\224\275v\250\022>U-\232\276\006\337\305<<QK=[f\277=0\374\222>\213\376W\276\350\201b=\330g\213\276N\214\275>V(6=\2601E=3\357\336<\031\200\275>6+i\275 \364\004=\004ic>c\227\353\274*W\036>\\\204\035\274\337?T>p?_>f\250\301<\351%\320\275\374\013f>H\035\204\275=\177\036>\236`x\274-\237\204>a\261\242\274p\357\231\274\364\000\223\276\372<\206\275+\216\343\274\271o\377<\007U\004\274\344(3=3\352\320\2735\342\002=\013\372O\276\222\\\377\275\305W\225=\275\301\371\274\306_\201>\216\260\007>A\303\255\276oGk>\332\240\337\275\336\303\034=\211\225\246>\205\312\232=H\330\001>\333\020\003>\253\253\223=\304\355k\275\033\332\260\276\37443\276\335c\263\276\006\003\027>\260\177\237\275Gv\354:HZ\t\276y=\210\275\260\226\240<*\033\274=\227z8>\032\356\014>b\262\304\274!\316v\276V\266\022=\016oP>Y\205:>\326\306\255>B\014\362=\371\270\311\276a\022L\276\324\014\271\275BUH\276\373\010\230\276\314\201\214\275\376\213\343=\207t\237\276\333\325\020>f\361\350=a\252h<k4\241\276\325\213\206\2769R/\276!\222\267\276x\230\013\276\226#i\276h\nF\276\243n\304\275\013\255\371\273\010\005.<\255\217\245\2757\311\233>\016+\004>Y\273#>\354\362\022>u\nd\275\"\022^\276=\0207>r\262j;\267\303\230>\202VL>\262z2\276\376\370\261>^<\032>r\263\305\275\034\276L=S+\267>\360\242\025\276\352\374\027\2766\350M\275\253-\036>\263\201\201\276\360\336I>:5M>/\266\356<\272 \247>\'.k\275\331\0366=\211\0331<\234\325.>\204\210\201>\215*B\276tt\361=\311a2>\221\312\307\276r\257\246\276\035t\304=\363A\235>O\344/>\357\253\307>57\352\274\360n\212\276\317\250W>\225\355\254\275\002\031\002\276\237\356\367\275[p\221\276(\262\266>a K=\340\260\360=j\246\231\276#|\230\275\372\005\236>\222\326d=F9\020\2766!\367=\304&\352=\3432\021=m\320\032>\204\"\237>l\236\313\275\003\255\207\276\206o#<\367\251\035\276\0348\311\275\257F\302=B\244\200\275[\205@>\345z_=\373$\035=M\314K>\220s\036\275\201M\374=L\262c\276\270\240\220>\013\362\035\275$#\026>\3078\250=\300j:\276f\200\025>+~\001\276\263g2\275\035\341\003=\357\276\270\275\250\365\220\276\361\025G\275\344P\034\276\031\232\033>\026);=\202\207_\275\263.\225=SJ\207\275\0319\220>\177\256$>K\234\014\275E\271\n\276\033W\323\273S\242\337;\221\367r>\207\030\223=\\8\202=<$\324=\345\341\020<\211\337\304=I\265\020>3\3120\276\200\362\256<\376\t\305\276\301D?>?&\201\276\221o\221>\"\324\243\275\2348\344=t\n&>\374\361i\276w\267\256\275mX{\276\275\371\353\275\345\267g\276y0\330=\3240\213\276!!D<M\331\352\275o\2242\276\245\022\243>\371q|\276\n_\013=\010[\370\275\262\256\r>K\'w<*|\206\275.#\211>+\351\247>S\036\177>-b\335\274bO\000\276i\346\234\274r\242\214\276\212\332\260\276\315\361\000\276\253\216\230\275\\\220(\274\357\262\020\276\337\257@>\310x\030\276\342\\\214>\202\370\240\275\264\314I\276R8\033\276J\232M\275f7\r=\r\262\026\276\235\360\343\275FIW;\353\2427\274\253\206\346\275\022\216\035;\334A\313=\245.d\276}\tX\276\313\271S\274fb\236>\200_\022=s\200\226=\212w\3609\317W\330<\220\302\353=\376\366\313>E\245\220\275\261\224\311\275\342[z\275\346\355\237=RC\236=\335\351X\276\354\"\037\276s\210)>O\263n\274z\344\004\276j\354\275\275\220;B\276\342T(>9\001\314\275\214{\234\2757$V\276}\362t\273\321\341o\275\226\260=\276)\177\230=\206+\013\275Y\n\265>L\257\206>o\253\200>\000t\363=My\033=\000t\\=\230\345\273\275\303w\234\273\311\270\217\276\274\t\037>\000\200\230\274!kP>\237R\340:\027H\014=\215\352\254>Q\253L\276\277\307%=R\277\"\276\256\020n>P\325T\276\322\327\216;\213\217\261\275\373\243!>I\270\270\276~\374\263\276\301\3002=@\227\363\275\211\360\253\275\244\307\237=]\251v>\027\262\360\274\217\345\243=o\010\374=ZL\265\275\t(\207=PWx\275\263\003\026\276\355\321\r\275\221\271j\2763\177\\\275\010\224s\276`I\343\275\n\3119\276\253\237)\276X\327\341<\262=:\276l\275\213\275\036\343\022>3\nK\276\212\376\253\276\002\310\333=n,=\276\335\216\230>\303%2=B\221\220\276\306\226\310>$\200\200=/\317\366=\343o}\276\276\311(\276\306\314\303>\212\024\217<\356\001,>90\263\276\007j\316=\005\033\366=\203\023V=\225\337*=\036\253\004\275\013\331\265\275\360\023-\276\306\322+\276\210\263\217<D\2617=/\311\220\274\356\241\234\276\231\205\\\276\243x6\276\327\341\225\275\026\214}\276\r\366\211\2767s\035\276_\307\376=\220\370W=x\310\002>\025\373L\276\017kl\275\2501\r\276\341\377|>\243P\022\276\\\177\320>PB\343\274\242\373\234<$:$>\252\023\235\276X\306\252<\273kM>V\321\227\276\201\215\346\275\326\020\270\276\364\254\031>\356@E\275K\327@\276;\221\023\276\236\360\\\2764\353\232>\336\304\222\274\240\026\010\275i\215;=Rb\303\275\225\370\240\275\237\247h>\277\020\271\276\235b\301=\335\022)=]%\234\276\244\n\026\276\376\022\242\275\'\n\320\275\2526b<\246\216(>\247&\353=XA\371<\273\245\311\276F\242\206>\276C\327\274\005\205\251\276\t N\276\315g\363\275\337\177\'\276\270;\001>\216\354*>\345\272\342\274\237 \017=u\'\272>\320\255\252\275\357\274\362=\024\253*>\266v\215>(&\255=\237\302\256>ei\237\276p\221\272==\375\252=\244\216g>\341\025\025>#\354\225\275k5N\276\221\020%\276~P8>\010^ \276\341\342<>\000\312\202>\330\354\304\276\005f\365<\236P;>\2534m\275%\3425>\'&\237>C+\355=\004\265R>\227/\246=\002\276,>\021f\353\274\343\216\200>\210(?=\273\202\375=X\360%\276\376U\220=\376\310>>\212\262+\276\2011>>\345\245\270=\336\021\261\2751\332\204>\3457\177>\226J1>\373\232\235>\0248\031=\340\0224\276\211\272\201>b\262\t\276\255\365\351=\013p\371<a\006\206\276u\306j=\371\037\346:&\032\221<\213\245\210>\032BK>\360G\305=/\355\354=\237j\240:5\370\016=\252\344\313=>\n\215\275\353\232p=\204\357\242<\001a1>\340\216\214\275)H\265<\007p\321\276\222^\312\276\255\312C\275}\003\256>\267\251T\276\326\306\010=%\374\344\275\200\013\003>?\265\300\275\301mQ=\356\241\222>\375\203%\275\337N\332=\231}\371\275|\302\210>\365\323z\276o#\327\275\312>\267\275\314\032N=\211\236\227\274_6\332=<\314\021>Or\316\274\2178\224\274F\214\006>\206\3443\275\222\226\035\275\244\306\035>7@\306=G\3631\273<\343\216>\021\311Q>u\355a=\361\023o=\206f$\274\372,(\276\'\275L>\330/x=?\261s>\201\221\215\276\240\215p\276_\300\322\275\260\214*=r~\307>VdF>ep\215>LQ\273\275\2450B=\214\000\253\276\316\3423\276\"i\004\275\244j\223\276\014\203E\276\332\256@\275\370f\347=\263H<>\215\000?\276\202\211\373\275\334G^\276gv\317\275\276\247B>\336\221J>i\000\226\274[\302\221=\377\'\003=\312\314\022\276\242me=\231\305i>\203A&\276\363\037\310=\316\306\021=\267\273\237\276\343\250@>\266\304:\276\000\251\230\275=._\276/9m\275\214a\276\276R\332\200>\303\r\357\275\017r\232=yD\342\275\226\'\234=\353b=\276\242\211<>\210\0164>5$\207\273;\335\370\275\265\"\240= \371\000>\361\2556>\357E\224=\300\323Y>9\013\220\276m\242e\275\264\301F=r&/=\332\000\212\276:\254\310\2756MK>\206F1>\005Tf\276K\310\020\276\016G\266=y\230\326=\226\222\273\276d\372,\275\334\225\277>\364X\005>\020>q\276\313\361\233=\254\300\\>`\356\233>\2108\232>;\r\230\276\354\257\365; \237\316=\275g\r\275\260\204\341=\237p\030>\017\323\003\276\331\346\227\276\251\250`\275\303\340 =s\336\237=\"\314F>\255\370q\276t\255T>\220\314C>\000\000\002\276:\274v\276\347pS\273\262\222)\276\215B\010\276\366_\327\275{\334\245\275\217\316%\276\206S\016>)iO\274\274\246l>\304\370\301>\276\017\002=\026\016\034=@8Q8\261\244B=g\022P\276\237\3203\276\021\376(>\017\037\312\273m}\255<-q\020>\310\243\277=\303\212\231\275 R\276>7?\325=\3135\250>\276\236n=\271\326\201\274\037,\253\275j\254\347=Wg\035\275&;\217\276\221\324\300\275@B\342=\226\376\375=D\366\230;\001{T>\216\034k\275\2441\032\276\261\000\211\274\237\3453\276\261\022-\275\034\235n>\227/\245\276\204\375\006>\200#\235=\257D\021=\024u\203\274h=0\275\355\247A=EM&\276\372\341q>u\333/\2769\023X>\247\325\223\276s/\016\273n=F\276\rM\202\276\300U\363=\362v\275\275\313Q,=%\024\255=\343\275m=n\253;>x\035s\276\254\3727=\203s\371<\2671\247\275\355b\256\276E$&\276\224I\226\276\266\225\036>H\366\030>x\031\357=\203i!\276\177\000\245\275S\305\235\276t\216\020\2764\231#;j\257\241=\255\221\211>\255x\222>\352=\356\275\331\240\252\275\272pB\275\254\014+=\r\270>\276V\037T>\255\260\252<*\035\311=Me\272=-\3746<\366pv=\311\342i>\362!\376\274\357\021S>\301%\020=A\327\020<\334[|>\354\367\310=\314\373\307\2758\341\263>b.\224\276\233\213\375\275\036\362\370=\363G3\276\322\372\203\2762\352!>N-\244\276\327\323G\276\374\324\264=\256\311Y>LeP>\303\300+\275GN\241\275\310\336#\275\2510\264\275\326\204f\276o\233\207<9<\215>\265\241L>M\003\376\274\243;y\2767\225\316\274\355j\215=\\\256\033=\032\215P=\365\031d\276\013\016>=c\200\032>cH\016>w\273\200\27611X>^\205$\274\327\240\245\275~\335\222\276j\225\021\276\363\034\211>\257~\314\275;\267\216\276\243O\221\276\374\271#>\2118\304\276\352\345\303\275H,)\276}\353\016=d\245\345\275\234\212\275>.\200V>\227\334[\276\331fv\274pH(=\213\210j\2762\005j>\003s\346=\016\365\215\276fC\"\275\327U\204>c\033\333=\r\3244\276\227\212\260\275{\026\220\276D\330\006\275@\317\307\274\341\204d>\237\"\371\275d\261\375=\365\351k>\006\201\200=\264\252`>\027\216\355\274\306N\215=\213\3739>\320\027~>\353\202S>\255\333\224\276\022\"\030\276^m\303\2756\202\203\275(\316\272\275\021\246\006\275Y\350\r\275\240|\204=$ \245\2754\017\226>\241\3025>A\231\244>0\033\314=v\030H\276-J\253>\034\331\210\275U\246\262>\240\327X>\354\031\275\276\235,\266\2759h\303=\217\234{=\336\232\207=\352U\355\275L\374\315\276l=\233>h#/\276\337\306\212;Q\353\352;tr\r\276A\322\265=\314\256\270\275u\211\360=\332\304\363\274\257\300=\274\376\246g\275\362\014p\275\376a\355\275\231\240\001=\025\245x\2756I\260>){!\276s\274\323=\256\005\036>H1~\276\023\237\317\274(-\037=\317\250\376\275\271\344g\276-\032\232\275g:\000>\265\270R\276O\"(>\322\006\212\274\010J\350\273\257\333g\273\321x\305\274^M0\276.\305?\276z\275\271\276\342$>>T\014\212\276,\034\244\275\254\021,\274Po$\275\344/Y\276\036\020\233>\010V\200\276$\333\257>\\\266\004\276=\376\376=\206N\235\276%Z\007\276nN\323=h\014\265\275\255\362\242\275\323\023i\276\003\310\211\276\340\300g>\021\035\274=\023~\017\275\005\224\240>r\247\204>\026\270\247=\275N\274>\000\370\214>(^\236\2764*\007>\254\207*\276if\260;#r\237\2767\314\221\273P\226~=9>\004\276\247\004J\275&{l>\265D+>;|\273>&\230\267;\016`\322\275i\205i>{\301\305>\265$\253=\350\303\241=\263R\002>\013\351\013\276\017\035\277\275\305\350I>\366L\031\276\236P!\276\305\363\212>H\305l>\261\245\257\275\rz\203\276/\203\244>\236\202\272\276M\241\005\276\231(\311=w\235U>\334\352\365=\220X\327\274\\\254\302=\271\233N=\261=a\275g!\317<\000\242H\276-\2107\276\000\300@\276\314+\t>\304 \013\274s\201\310\275\21498>-\312\014\276\000\036\207\275\224\354\376;\343@\005\275?\221\024>X+\342\274\201\372\027\275\"\"1>(H\002>3\363\010\276\205L\t>\304\245\276=\201\321\271>\013\303\211\275(\215\220=\026\226\224=\314\327v\276\022\373\035>\032\246\271\274\262\021@=!K\222\276\323F\212>zX*\276\357\377&>\000\305\201=\255\205l\276\220\374\216\276\375\020\247\276\304\361\026>M\265\214>0z\227\276\275?\366\275T\037\230\276\255\307!>\270\266i<\200\300\211\276\035&\000\275EI-\276Z\240&\274\371|\350\275@\374/\276\242xR\275\2063\032\276H\247n>g\3645=h\031\222;p\220\014>\030\250\335=t\250g\274\225\331S\276\222A\221>\201\272\324\275\306\303V>\223\333\216\274`\272\363\275S\016\316=\307\265\307>\361\325\202=\275o\311\276\340\274=\276\025\330Z>Z\236K\276?\210b\276\364\240\365=\031\222\327=;\233\327\275q\375n>qY\377=\'\'r\276l\003\353\275\366\243\032>\340\001\250=\031\342\316\276\3476\216<\230\335#\276\342\253\367\275{\207\236\276\273t\213\276\030\202A>\274\256d>\363\202\204=A\355|\275r\377\014>\342\264\n>\266\010U\276\021\234\231>\324&$>\274\277$\275\213\224c>Zu|\275\231\003\037\276\360\2007>\273\353\'>Q\320\204\275\002M\324>\315E\000\274\'L\202\276\234=m\274|\232\204\275d\265(>\231\332f>\203G\241\276\227\220\212\275\236\034i\276\2415g\275\320K\241<\332W\203>d\236`>u\302\321=\373;\210>\021% \275j\005\033<\335\024\210=Y\025\n=\013\213\305\275 [\220>\224uv\276\225\232\231\275h\034\007\275*\331\202\274\t\264\266\276U\262\253\275\242\246\311\275$\246 >\377P\033;\276\355E\276\325g\322\275w\252\033\2745M\277=\177\024\215= 2\n>\3148\250\275:L\007>^\275\327\274\225\337\375=\220\325y=\323\007\214\275o\020\325\275A\202\243>\004^\235\275g\241\243\274\214I$>\002\262m=\375\032\250\275\300>\002=\025\2366>0\000\221\275\374\327\275=\226\261\">\375\247e\274\257\356\311\275A\3437\2766f1>\300\301]\275k\3775<\317\014\244>,H\334\275\330Y\213<\2445:>\033\207\302<k3I>\317\353\013=J\345\203\276\323#\317=#$\'\275\0024\010>2\000\004>\t\247\r>\376(D\276\031\237R\275\201\3442\276<%r>\0345\231>\271\252*\276w.\223\275f\004\354<\177\207\220=[q\273\2757\006\354=\257G$\276\177\303\372=\330N\265\275\271\300\226\275\346\331E\276\036;\224=^F\\\275\370\213\007\276}\303G=\333\"q>\234\016\210>o\037\243>\260\212\334>\020y\004>(\255\251=\017\251m\2769\262\233>H\225\213=2n\032>\250\021\260>\353 \232\276\301 i\275\355\021\035\276\221v\240=\202i\374\275(\350\240\276\337\300)<`\327\221\275\371\033\022\276\207\322N>\225~\236=_-\221\274\0237\266>\315\025\006\276\266\275X=\302\364\233\275\201q\221>N=W\276\032\2110\276\315\376\220\276\1777\206>\204\005\037>\376\3649>$\034a\275\303\010\327\275\234\362=\275\r\352\030>^T\335<\254.\204\272\360\032{=v\034\223\275z\006\210\274^e\230\276!\367\332<\251\017P\2767\355\332<C\266\201\276\306\275\315\276:\2719\274L:)=]C\356\275)\366o\276I9@\2761\3749\275\243\213\n>mK\214\276\216\261\370=\316\200\215>\354x\021>\306\240F\276\3074\260>\rQ\234=Ur\233\275r\354\030>\225\376\224<\271\322\254=\311\372\003>\313\345\214\276\354m,=*\212?\276#b\212=d\250\247=\321\330\203\276c\023\225\276s\253Q=*X\177\276\3575\265\276\224\275\343=\367\275\274=-M=>0\276\272>/6X=0\002\301>\250\214\324=\311\006\221>F\005\014>\030\230W=go\252>4\260\263\275\021O}\276\302e{=\026[w\276\243\206<\275\360\346\303\276As\266=\177I\214=\321\211\277=\271\271\005>\022B_>X\227\251<\251\003\321\275d\020\013>\214o\214>`\211\362\274q\271\003\276\216\266\325=<cF\276\007\\\244\276m\267\005>\n\335\372\275+\303\221>\030T\372=\027\300\225>\023\325\263=\361k\327\275\032\215A=\207J\303>\356\340\027\275W\246L>\231\001\024=\277O^=m\277d<\022i(>:\346n\276`A\314\272\022D\270>SH-\276,\017\277\274\341<\201\276\260\032\021>\030\3269>TG\\\276\322\333\251>\243\006\270\275G\353r\276\030\355\240\274<`@\276\004\010\375\275\320Y~:\370\316};\247v@\276\255\263,\276\261B\223\275\021.\377\275\207\365\210=\017\001\272>\343\205\253\275\2631}>\361\277&<9\271\243>\271U\010\276\210`O>\n\275\252;\240\273\027>\236\243w\276)\235-\276\3533~\276\211\273\206>\035\311\222\274\362-\300\273\306\322=>Y\333O=\312\032\201=\344R\207\275\322J@=\233\311\005=\037\375\013\275\232\255\322>\004\'\362<\371\343\224=C\355%\276\366\336?\274kU7>\266\214\267>n\005\002>Q\354\220\276E\272\254=Lg\216\276!\213\246>\365\326\333=[\"\272\274\300\240\217\273\031\000\305=\375*[>d\331J=\275\346#\276<\026\257\276\200t\000=\223+)\276E\003i\274i\212&>S\376\312=b\366\270>\304K(>W\245v=m\254w>\235\320\214>\264\232z>=\360\317=\2107\027\274\322\027\214=\343\\E>\256:\341=\213\362\007\275\332b\224=\223\207\200>\300\213\204=>\253\345;\352\023\215\276\3344I=\r\200\346\275\320\243B>\362\344n\276\376\231\334\274\315\227e\276\304\026\251>\322\242\020\276F\002\001>\302Oa=\252,b\276\302\242K\276\217Iz>\366\225\274\276\233\301<=!\360S>ls\276>~\231Z\276\207C\302=\327\225\235;\376\210l=\322\274\251\276,]\236\275t1\267\275\336\010\322=\360B\360\274\226\022\013>;\226\211\276\004\267\213>\0013\317\276\360E\323\275\330G7>\243\3630\275\023\216\\\276\312\304J\276\330!\026\276\317)\\\275\221@9\276i\372\261\275\326\272\375=\264d/>!\274\017\276?\r\233\273\3429\257>cP\224\276\270{\214=\362$(;\317\274\020>\216\301:>9\337h\274\302\207\001\276e<\337\275\247\265\016\274=\251\001\276\310q\016>\312\301\r\276\025\010\315>\222$/\276:*|>W\3223\275\345Z\330<t\241\327\275e&\234>\363p\210\274\306\266w>\226\301\373\275\203\305\302\275\271S\017\276\000.C\276h\271\327=\345\231\366\275\243J9>\353\300\222\275\304Q\264>\3007\370<\264/6>\263RS\275G\246o>\370)\022>\221G\276>\251\025\237=\360u\234>\'9\301>\236z\000>-\367\254\275f\362(\276\257\356\247\275L\020 >Fy\037>\n\320\230\276\252\242\244\274s\245\234\276=h-=\252:\230>!cq=%\244\302\2750\366\337\275\341\321\257=\370\360\024=EL\266>\345\027t\275\2766\262\275T@\343<8j\224=\302l\276=\34034=\305\241\340\274J\2379\275jHg<\216\250\3019\020\233F>\316:}\271\244\\\303\275\334\313:\276\263)\373\275\'$p>\270\322\232>\263M\267\2758,\221=q\346\217\274Gb\376\275\342L\204\276g\232\374=\037\024g<\207@H>\321/\214>\321>\220\275\323\254\311>\264\253\214\276\202\374\212\276$\205\201\276\203v\336\274V\351\357\275\220\007\014>\003\303W>\344{z\276,\033A\276!/\003\276\037\ri\275rc\010\276:\n\367\275\254QD>\200\3021>#S\326\275\213\210l=V3\035\276\254\267\030>\214\372\010\276\267\030i>\274^\233>~)T\275$u\314\274,-\264\276\'&L>m\256\214\276\202\"\352<\026\220\303\275\0071\001\275:\365\211>\374p\310<\266\240Q<4\227\343\275\241\272%=\210\017\376\275\330\323\336=:@\360\275\273\261\020>\200\337\275=\000u\002\276.Aj=\001\316e\274|\337\025=\244\3313>\023\007\364=w\231~=\310\270\246\276\320\2304\275b0\252\276\t2\345\275\215\305\'\271$r$\275\013\353a\276\251\256Z>\236\3216<p\361M\276\010\274_\276\335\025x\2754\016\262\276u\203\177>\367\302\374\275j\'&>\321\001\252>O\237f\276F\316<=\207\327[>\345so\276\243\347\023\276D\036\256\276T?\314>\315\267\324<c\234\032>\201\006\">iaS>\317<\260;u\004\227<\250b0=<\027\271\276G\316=\275k\253\326<\342\244\t\275\273\326\225\275\0220A\276`\237[>\2234\021\276u\"\017\275S\000n>\323\267\031\275\306i\261\275\275\034\355;\260F6\276)60\276\271*\214\275(!\020\276\371\236\220\275\002<\002\276\177\213\332\275\207\225\322\275\336\0222\276|o\330=XL\221>\353\356\335<K8\n\276\273m\372\275\356U~\276R$:\275%4\263>`\300\020\276\223B\032>y\220\352=V\'\246\275\304\325#\275\263\016\212;\242{X<\305\270\212\27681p>\231r\313=q>/\275\247\227\022>M\370\210\276jF\375=\317\201\212\2765B&\274\310C\251>OE\266\275K\274\204=\304\243\000>\312}\334>P\365\234\276\253=K\275\266Z\330=\024\026\271=\357\006\330\270S\246\305\276p\345\361;4+]\276\363\017h>\221K\010>t\310\024>\334\210\373\275\267]\275\275F`#=\t\277\217\276vlI=\reY>\341\372\250\274;<\321==\3340\276m<O>\304$\247\276\221=T\276\221Y2>\223@\220>\021\226Z>\206|D=\306\341\035\276W\3071\275\236\217\334=\361B\242=\036\251\242=\257\326/>d\372\004\276\345\210E=\251\373\277=\031\016\277\276Q\363y=s\340\206\275\316y%\276\017q\205\276C!\212=\304Z\331:i\212\232\274\255\r\247=\354\312\246=L\036\310;\372\'\205=\237I\215\276i\203\204\273R\275\n=\017\312\301\276\210P\031\275\265\242;\274]\353\340<\"\372L>B\1777>\'\302\005>\220\257(>4\333\'\275cU-\276\033\007\343=\032\343~\276\246\344\270\275\343M)>\200w2=\225\351*>\365\276\316\275\036\215\210=\017F\272\275h@n\275\356\370\205=\2320v\276\320\323\274>\007\223\203=\211\034\241=\rV|\276\220\013\215<o\032\254\275\205h\212\276\007m\246\276/C\365=l5\241=\024\271\205\276\017\t\240\275\002H\277>\357Ja\2750\031K=\024\266x\276y3H=;_\313\276r\203h\276\260\003\006\276D\2210\275w^\n=\242K\177>\376\313\264\274\374\023R>\374\014C=\033\374\376;y\370\202>\t\345\227\275\312Z=\276\275\234N>\275\223\242\276W\314\244>\300\032\202={\006U=\037g\240\276\267R\026\274\375\367~\275|(\n\276\021\246\337\273\262\342-\275\202\241\313\275:\245\255=\206%0\276\221\234\224\275t\355O\276\370\006\023\276OLh\274,iE\276r\253\206>\205\013\220\275\335\345\361=\264J\343\275\256\2669>#\344\236\2758-q\276\230\034c<|\373k\273\271\017\223\275iB\306\275\357H\220\275<\001\360\275\356\375\307>\260\205\245\276S\375\003\276df6\276\254\362\002<\231\307\264\275\177\213[\274\315\033&\276\232\225\256\276|3}=\205.\201\274s\366\334\275\223\256\203\276SM\032=\237\226\217>\t\002g={\265\032\276\220\240w=<U\360\275\037\374\004\276\205F\212>\263\333^>\221\3142\276\323\024\304>\227\262\274>(\257\204=4\n\235\276\361I\226\275\271\215\274<\274\274n\275\200\345>>\365y\030>k\207e\276P\323\254\276\343&P\276\371\270\234\276L>\217=\201\006\001>^=D=\376\262+<\030\257v\276%\325f\276.\3340\273(<n>z\377*\273\237\0141\274\265J\271>\2213\362=\016\243\262\275\340\245\317>\353\242\334\275\006\245\031\276\215\215\351\275\267\316I>k\327.\274\016\016_<\261px>\016\256\234\276\326\2647>\331R\262\275\2426\224=\r\370\254<?\314a=\203\0202>\225\261\366\275\227\317R>\266\366\030\276\033^;<\206\020\017=P<l>:\036l>\362\035\271<\332\202#;\243\'\200=KC\301\275\036\371\343\274\252,\r>\337dV\275\377\364\310=\002\2116=GN\225\275\357\235\235\276\325\2251\276\251\324\232\275\n,o\276\371}w=\325\343k\275^\216\037\276V3#\275\276\320\241\2757\276d\275\241 \315=\224Z\301\274\202\204\352\275\014G(>\003K\340<\354\330\244\276\256TP\275\361\325\177\276\344;8>M\246\013>\035\233K>\361\022+>\272M\010=\354o\217>\206\340\227>t?\253=\247\327 \276\344e\320\276\246\254\200=q\023+\275>\202\354:#\031\267=\237M\'\275e\t\252=\315]\214\275/\203\214\273\035 \010>\252\003\002=g\365[=);W\276[\220\303>\274\221\000\276X\007\345<>\224\230\274@[\312>\005\321B=\214\313D>\271S\225>d\246d=i\263x\275\035\217\260<\363L\334=\2235=\275\225\210\203=\366X\031\276\371\377\254\276\233\260u<n0\352<0\356\365\275Y\013\021<dF\210\276\362\263>\275\t,\263\276\013T]=9\023\016>\232\\\003>.\240\200>W\t\225>&\334\201>\346\202f\275kK\324=\344\317\253=\205\210\'\275\221\367\026\276\317\302\007\275\013\020\260\275N\227\006<\336\317\277\275Q\005\224\276\376Z\305==%\216>\235\"\020\275\241\355B\273\206\227\301\275\370\'\273\276\032E\273=\037\215\205\276F\211%>\360\242\346=;HS>\'\307#>oq\233=\232\020\251;\253\355\010>\343{):2\240\334\274\331\221\003\276\030\372\334\275\005\036/\276\240KH>\306q%\274\215e0>\271p&>\035\343\202>\274\n\234>3|\024\276\206*\255>3\227\017\276\232\236-\276\351c\365\274=Uc\275=\367K\275K0$>\350b\231\274\312\205J\276\303\267\310=\240h4\276\222\371h\276\342\253\260<\2302\243\276\301\r\t\276\246U\222\276\033\276\331=\2718\244=yB\310>\001\250M>3\354\207\275k\3223\275O\006\356\275&\206\007\276\245\263\001>\247+<>Q\206\230\275\026g\275\276C3\013\276\232\363\"\276*\215 \276\210\376\014>~\033\\>\314r\213>\243\025\200\276\231\037$>o\241\">!\005\264=\303\305G\276\242\317\230\276v\033\373=.O\035\276QO\375=Y\033\202>\336\342\335=\274\223i\275IQ\201=\367\264\225\274P\304\247\276\372\311*<\341\231\342\275\370k}=\214\304\246=t\337\377\274B[\237\275\003>T\276\177P\364\275\034\356I>\027\016&\275r\351\254=\244\250\005>(p\205\276\322 D\276D\303\313\276X#\321\276\215\270\245\275\213\032\266\276j\030W\275J\304@\276\033\215,\276\027%\260\275\2175\257=\333\317\030\276\245\277.>C\305==\305oH>\001\255\271>Zq\256>\355\001V>\353\0173\276(\021\214>\322\022\332=#\276\247>iL6=\312ji=%\314\020=\357\014W\276\365I\245>\002>\205\276\3300)\276\006\000\212>\033\233\370\275\266\221\243\275\277x\">\216\213\344\272?\346\215\276\177h\214\274\274\255\364\275\251\014^\275Z&\336\275?7\356=\370\362M\276(\322\200>9\2163<bG\204<U\307\310=9\350\225\276,mw\275\311\306\010<\005\337\002\276\0108\017\276>g\271<L\014P\275Y\016\274\274\204.\250;\215\346\262\275\215-\036>\262Q\276=\264\013\212\271\243\376a=-v\350\275\016.i>\253\335\341=]\341\332\274y5x\275\340\214\360\275otJ>?\314\277>mz\300\276G\203N\276[n\200\275\0142\315>\037\377@\275`\257\010>\253\240\237\274e\371y>\334\026\032=D\241]\272o\005\205\276\021\032\340=ZLq>\2659-\276)\034$\276b,\016>\214\275\321=\331P\226\276\256\332\273=`\034\004>6S\t>\013>k\274\004\377\336\2756\266l>5\337M=,\"@\276\337\325t=\222\204.\276\3226\326>\322F#\276\020U~<b\203\314<\216vu;\"a\341\275\354\340$\276~.\247\275k\335\236\276\271\365<\276\255p[\275>6b\276\n_\\\276:\243\"\275\210-\027=\337:\253\275Z\343\327\275\213N4\276\361v\215>\265\010@\275\366_;\275\252\351\037\276\037_\020>{\374\204>#\300\333>\007\306\177>-\271\230=\334_\265\276o\n\243\276\302\212\321\273\254A\220\276\014\211\361\275\207\033$\276\340\326]\276\030\002\034>>\215u>\326.W\276\003\003\212>%\261\327=\016\277\177>\373\226\031>:\367\010>KR+>\210\371\005>%\302\275>\2624\227\275B\235\337\275o\315\307\275\257\313y\275\022\2751\276F\342\226>R0L>2\262\">\253Ax=\215\243\030>\200\263\004=%\314\376\275S\336m\276X\237\320<nN\024>_Z\202=\224\234\010\275Bv\331\274\303\315\226\276t\027\234\275\250e\212\276\340t\257>\214k\277>\275\277~<\210P*\275\017\343i>D\223\252<\355\022\206\276\224\337\207\276\253\210V\276\233\001\020=\273\3762>\365e\034\276\200cG\276\t\031M>\346\033\321<\207\275+<\365\370\270>$\327\207=\206\362\206>C\362\331=m\261\204=S \220=*\033\212\276r\324\273\275?\342z>5\022\333\275c_\224=\274\266\024=\027f\267\274-\004\231>\000\207\213\276\331p+\276\025\310M\274\343\370v<9G\210\276\\q\313\275 \354\003>2\007\377=f\3416\276\272\311N>\n\350\375\273\373E\242\274\274k*\276\013\224\260>\210{J\273\212\237\251\275W\216|\276W\013\177>\002rX>\222\265\201=\304\346\305\276\303\236p\276\341\320\230\275\023\323C>A\245\245\275\314\177\372;`\275\224\276[\303\207=\020B\344\272i\306\254\276\343\245r\276;\300 >\227\370G\276\304\003_>\305\017\235>\2250\r>h\305W\276s\221\031\276o~k\276&x\330:\\x\211\275\354v\341>\303/?>c\373\364=\307iD\275\034\225@\276\004\371s\276\235\362E=\370hP>fs`=o\342\367\275p\2667>\367!C<\366\033\216>\211x\255\276\225\352\322\275y\342<\276\312:-\276\013\303\225\275$rW\276>\024\036>\221\032\000;\346\313!\276\025L\356\275\3677\307\276\340~\363\274\233hm=\256\321\371=iv\354\275\352\324\262;M<\203\276\227\007\034\275vs\222\276\311\004\266<\001\3500=\275\244V\274?q\016>\036`\021>\324\366\374\275\347L0>|\006\034\276E\263\215\276\264\036o>\311\031!>\276\322\315=^\377\226>\023t\207\275\330J\235\275b\350\223\275}\355\016>\316\340:\276\345\276\230\274\335\216\220\275\222\331\026>\'\234f=\247|y\276\343\275\016\276Mc\231>m2\004>\300\236\024>?a\224=\006\375\205\274\024j\302\275#S\204\276oG\232\275x#\006\276n\022\240>/\273i\276\234i\006\275\231\024\214\276A\316^>\337\017\234>\31461>\217:\275\273N<J>\237k\034\276\353$\233=\212a\227>\2672\254>64\257\275crC>\247\216\206\276s2m\276\271^u>\305=\005>\260\025\240=W\323\203>LFz\276\224\256\023\276\010\372\253:\004\235\\\276\351\232j>c\342\242>\314\237\205\275\036\307\233\276\237\316\031\276V@69c\333E=\372\212\203\276\326[d=\263\343\275\275\2333m>m?\035>\'/7=\264]\216=\362A\002\276\031}\307\274\241\216\324=\021\253\000\276\r\355\354=\'\256\330<\340|\312\276/X\352\275\216\241:=\360\320a\275\227]\350=\334\177\304\275\250:\031>m\307l\276\224\301\\>\304D\025>\036(M\274\351\234=>\207\247Q\276\024\212\344\274y\334\377\275b}\205>\n\177\304\275\020\304\207>I)E>\332\"|\276\311\354\255\275\373u\355\275u\241A\275\033\217}\276\222$\005>\264>\023\276\002m+=E\264\177>\r<e>\260jl\274\322\264\242\276B\343\327=\347\033\260=\306 \027\276\255vs<\2437\230>\001\363L9\263O\266\276\355\013\324\2751%^\274\312\272W=m\027\031=*\227\210<k\264\202\276\'\361\200>\244{\252>\370>\014>\346X\004>z\304\305\276QVS\276Vri>\000\210\260\275f\215\031>b\226\213>\243\266\272\275\361\267>\275\210\263\207;b\250\241\2764\333\251\275\255K\357=\3034\312>\376\177)\275\326\324Z\273\027OB\275\261#5\276\n\333\003>j\342[>W\177\">$KV>\200\337B\273\327\013}>\201\302T\275J\232@>\312(\237\276\007\3671>6\234S\275\372\016\275>N\357\321\276\247\322\271\276l\022i>/\240\216\272\301H\263=\356-\237=v\226\221\275q\020!\275\216r\207=\274\364\002>\036\310@\276bB\305>\r\030\020=F\221M=\017|\341\273\247 T=\244\245{\275\373\242\037>\373\330%=\3036P\274i\3668>\263\333\232>\377;\252<l\020\337\275\241c\252\276E\225\216\275*\t{\276\300\016Q>C\335,\276.\t\202\276\3645\030>BT\310\276\261\342\320<_\007\241\276V\355\2609\252N\260>\347t]>\353\010~\275#\020W>5R\323\275\307\206\265<\016\223\016>s\035\226\274\n\322\215=\030\316p>mZ\350\275\310\222\\>H\236\261\276[2r<\310E\305<\362l\240>\004Rs=&\333H>\344\337M\275aq\235>EM\001>\274:j\273u~/\276\017A2\276I\200\202>~;+\275\245\243\272\276S\333\227>$\370\002\276\217\321T=\'\026\033>1\315\n>\205\2022\276\327D\245\274a[\263\275\312cP\276wx\236>\374W%\276@E\343<\365\311]\276\204\375\221>u\222*>\326\017e<<h\264>\211\006r\275\343j\227\275\302\223\312\275\342\r\224\274\350g8\276\021V\203\274K\217{=\362g\244\273\301\305\220\275\0359-\2760\332\222\276\031U\353=5\376\203\275\231\004V\275 \370b\2762\220V\276\036\272\243\276~\273\037\275\307ff>\312\001\203>\3610M>\305QN>jgx\274A9\225>\244\336\254\274\336t1\276h\352)>\333py\276\315\200\025\275\273\376\362\275\243\304\037\275\331r\212\276\376\2240\275HV\026>\022m\027\276_V\210>\037b3>\352\205\345\274\001\204\014=\221\337\t>!\021\260=\036\232\372=\300\024.=\213\235)>\362\350W\275\364V\177>i\345x\276\275\007\014>\236^i>\322\335;>F0\020\276\317\"\214\274\211\320F\276\303\320m>UJD\276\240\016\t>(\216\337=\313\t\251>\342\032\362=AP\267\275\320\006\320=Fu\202\276\2643S\275w\231\037\276\256\005O>\224\321\206=3\330h\276\357\237\005>\\\025\002=K\"\001>\004\353\001\273\350\350\304>\344\227\205<\211\376\017\276\034\317\022>\274\332\033>o\222>\275B\254h\275\364\314\200=\270\207\210\275\003\374=\276\300r9\275\205\014\"\276\010sJ>\225M\207\274x.\234\276\376\341\347=\377\321\307\274+U\345=i#\366\275\364\313\033\276\210BO>cv<>\263\347\305=ch\315=*\326\t>T\177\324=\363,\234\275\253\255\241>\237\255\271\276-\332\026\275\366\324\365\275U \223>\341NY\276\301\023-\276\216\270\207=(\243\240<\327eE<R\274\t\276\313\300\177>7+\016\275\205S\252>\324*\365\275&\377\020\276\017\317\014\275\232\210.\276\0018\205>4z\244<\315<%\275\331l\342\275\007\307n>P\326\205\276\205\366\t\276\210`\355\275\022\026\341\274%O\221>\276\325O\274L\365i>>\223\213>\241`p>y>\007>-9\263;\360\022\201>\303\203\252\276=\\\216>\235\022\230>\377\037\364\273\275\254\256>\333\205\220=\374\365\370\275oQZ\276l\rs\275\312\275\323\2753\026P\276\'(\025\276\2762E\276\250\312\n>\317\237Y>\274X\335\275q\003\334:D\177=>B\016\035\275\024e)\275\371\306\\\276#\320\244\275\324\tW=^d\217\276\377\230P\276\277\353\360=\223\213\312={[\207\276V\024\266>\342\010\036>\252\224,\276\366\216\373=-*b>.\026\362=\346\331\242\276&V?\276\262\216\177=@\347\r=\271\257\243>\242\341x>}\010\000=\006\254l>\365\372u\276\300M\344\275d<\316<\345\3506<\216\225\311\275n\360\207=\326\371\202<A\320(\276\026S\\\276\000\2202\276\252\343\362\275\364\2614>\203n\262\276\245\271\212=3\201\"\276\241\225\022\276V\260*:ue >\275\034\322<|f\224\275\250\205}>|\317\275\276_\251\307\274e\267f>K\377C>\241\020\357\275]mW>ey\342\275\265rc\274\017\267\234<\321\325N\276\\\244L>\323\304C\275\021\3462\276V\326%>\354\230y<\273q\313\275\366CK=\307c\016\276\354\261(=\\JJ\276\031\244\002\276\342!-\276\234\264\236>\324\307\200\276H-\330=\n\177\334=6\r\347\274\371\273\034>\2578m\276\037\315\210\276\375r\250\274\'L\236>Y\3736\276u\001\211>1\177\227;\022\213\232>C>\000>>\231\225\276+^^\276\323\021X\275\017\013\023>\306\013i\276O\276\217>\244\336B=\014\355a>\357\033\013\276#\177\316\275\205\346\006>\347\250\214=\340po\275\266\223\377\273r\372\330\275\026\233\363\275\245)\276\275\002\256\367\275\226\'2>\377$%\2749r\214>$\230S\276\334\313V\275\016}1\276%\250.>\004\225\325\275&\025\305\275\tnJ>\210\216\007\276\037x\2729$Q1>\333\335\035>\324\"/>R\362\200\276\262A\010>\020\267\256\276\374>\034>\372qR=3!\215=\3251E\276(Dj\276\223\355\270\274\327\024\364<}\341p>\2136\301\276\264Aj<\223\335\034>@\264\256=\357\024\316;\034f\206>\005\016\245\275\251\303\227=\003\252\264<HP\225>{P\315\276\254\320\r>\227\245f=\303\256q\276\254\314\300>\305N\317\275\206\003C\276\246\023K\276\236z\320=\206I\221\275)\242\346=JDu\27564\"\275\200!2\276\303\000\000>\022\260[\276\325\210\312\275\320\214$\275)n8\276\365\273{>\227\000\213\276R\'}\275\250qO<\265\037d\276\202KO\276W#\306\275\005~&>\315\271_\276|fO>\035\272e>e6\226\276\303\t\013=\210\317\006\276h\031\317>\247E\255\275_\343\222=T\237f\276Ho\205;\263\325\254\275\376$|>\312\317\301\275\331\t8<<\272\240\276\325\002\005\276\027\225q\276+\210\317>\212\330z\273\334\002>>A\332B>\311Y\223\274\350V\344\275\233G!>\'\206B<\360\273\211\274i5\364\275\210\334~>U\204g>\032\302b\276\202\245\260\275z\267\330\274)\263\211\274X\326\236\274\352\223S>\311\301\265=>Zn\274\314x\331\275\347\204H\275R\257\232\276\032\2249\276V\224\320\276|\271[>[\271\237\275f\244\035>\354\204[>d\341\264\275[\267J=\037\304$\275\355r\n>\304\255y\276\2460B\275\235\326\027><\322I\276\260\342\214\276\306\245\262>\361)\207\275|\210\200\275\355\000\t>\022\340\035>a:\205>\312Oc\274\177\372\271\275\341\265\264>q\274n\275Y\303\270\276\2033\373\274\274Zf\275I\307\276\275\014r\241=3\347}\276\375wl\276\226\224\253>\374!\270\274\351X0\276\214\363\207=\244\373\245\275\005\036;>\001 I\2763(\372= \331$\275\233Z\211>o\300%\276\003\323S\275iD\267>r\205\315>\r\312\027\276\332U>\276`\345\341\275\303fY\275B\236v=uK\377\275d\225E>\273\230\322>\206\244!<\252\222.>\264\342\254>[\271$>\375\212\010\275\342o\322>\211j\\\276\t\2211>o\373\220=\361\013\316\275\2446\301>\255\241\256=+3\265=5^H>\234\304&\276\345\335\240\276\377/R\276d\n4\274\326\377\320=x\217\320\275\021\372)>\240\234\203\276\275\313\357<@4\014>\275\260J\276u/\203\275\317\272o\275\016\264\223\274\\bb\276\345\244};\301\'\225\275\333\267->\312(m\274\\t\254>\007\022T>\370\207><\211Da\276\254O\331>j\265\230>u\227A>\r\275\255\273\341\340\n\275c\234\034\276\214:\250\275\037]\332\275\340\372t\276\264/w=\006s\316\275{\371\234>c\324\231\276#\356\247=\352\367i\276\225\204h>\006X\342\275\215\267\201\276\010\250\004\274\200\334\240\276\027\243\235\276\'\014\027\273]+\363=^\353]>\233\204\376;\313\236X\276b\301\003>\322\027\243=\205\005\330\275\367d\250>\260*I>7\240N\276\276\245\303\275\254a\373\275!\330\234>\263\274!>`\327\267\275B\211T=\300$\263<=-\327\275&A\216<_?!\276AF\003=\0009?>\037\330f>\352\371\026=av\204<\333cA>:u\207>\227E#>\362\027\220=\224z\013\276N.%\276\334S\300<\036\304G>\200b\246\275w\272)>\272\220\204=\374\234\303\275\315z\213\275\247\314\"\276\323y@\276\343\243\250\276?\237\273\275\237\213\274>1\241X>J\023\023\275\264QU\276\350\267\271>\263\217*=\036n)=\232g\r>\230}\005\276\341A2\275\346\237\245>J^Y;\007m\362=\034\3576\276C\257\202\276HM\331\275Ah\035<#\235\341=?K\206\275\031\236\304\273\000\321I=\252a\242\275h\326R>\217\333O>\200\357_\272\247\276\221\273y\342\037\2742\2358>O\373(\276,\030->\254\0325\275\266w+=5\312w>\255\326\007\276\253\264\341=32\273\276\013!\201>\033s\277\276\357\355\356=v?G\275\013\264v>\220 z\276\027y\202= s\275>\027\343i>\3772f>\316\321\345\275\225\323\304>!\304\025>R\351]=^\301\352=?h+=0\257\233\275\027\211\365=\207\014\024>\003V\215\275Y\364\306<\3374\214>cx\314\275\274J\316\273\270#\331\275;_K>Ax\212\275[\205u\275\000\340\007>\260\247~=\024\027\213>\221\330\323=\332\326\257\276\366\260\256=\245\222\344=\017O\021>R\261\241\275\255}3>Ry,>dS]=5\t =V\223~=\344\232\253=\373S\346\275\310\232\322=*\320`\275\205,-\276\335}F>\361\374\200=\344\364v<\306H1>\025\234\334\275\374l#\276\225\364F\275Q\245\216<\224XT\274\301\352\005\276\233\347\213>[\247\026>\301`[>\321\376=>J\210\037\276\252l\303>\3435p>\2531\274\276\032i\344\273S\371\235=\240\006c=\321}\254=\345T\214=2)}>\252\240\203\275j\300\220\276G\263|\275\031\020g>\177B)>\372\267\324\274{U\014>\310\346D>\260\216\361=%f_>\326\277a>\252GX\276\023jo\274\301:\037>@0 \2767\327\202\276p\325\013=\231\031F\2760\236\027>K\360\301\274\256^\206>~\331\264\274\324+\\=q\270\201>)>k\276n\276\240\275\244\250D>\245\353z\276\234\260L\276\335\017\235\275t\323\214>\021`i>\325\270\030\276\260\232\003\276gy\005\276f\316R\276\315\225\300<\216\n\251\275\177t=>~\177\245\275\363\3627\276\263\345\201=\373\220\215><\177C>\303k\023>\t+\207=\322k\310\275\217\026\267>n\347\307\275N\261\242>I\335\251\274\030`\005>\304O\332=\245\036\224\275\355\314/=\000[\032=\252\225\330=Qa\303\276\374\374\350=\302~{\276BC\362<\027h\252\275\022\321a=\342\201\303\276\r\306\247;\345b\302<P\'R=\217SU=<,\004\276\\6\210\275si\355<\001\034\217\276O\232\372=\243,@>\030\360s\2756\243\223\2766\374\026\275H\261\341\275Uj\251>\t\371\226\273\202$;>\353f\341\275\031zD>:\310\350\275\262P\216>\264\027\204>\213\007\n>%^4>^\263\336=\333D\253\276:\r\\=\316\357\025=\256Qo\276o\376i>&\177|=\370\236\254:\3607^\275a\216O=\273\3701\276Gv\005\276\036\014\222=#\r\357\275\212\377\260=\1778\354\274\352\016\017\274\t#\214\276\376eQ\2767w\331=Y\023w\276?\'\005>\307\333\t\276\241\304q=\251\2170\275?lT\275\214\014\274=\257\322\271\275\355\\\224>\355\350\037\274\031\357\331\275\243\372Q\276uiX\276\341\307>>Rm\260\276=\327\364=\326t\300\276L(\210>\261\326E>\206u6\276\272)O\276=\"\243\276\240Gy\273+\377\343=\205\2205\273A,-\276\247\305\332\275=\322\036\275%\211\017=G\3757>\345h\213=\364?\007\276\000:s<\324\226\227\274O~\030\275K\024O\276\014\357\275<2\332\206\276\037\330\005>~\352\366<\341\357\031>\210\r\177>\356c\226\276\340\362\204>\245\257\213>JC\305\275\351$[\274\305\352\032\276\273Q%=\347?\'\275#\r)>\204\327\310=q\260M\276\303~\201\276A\001Z\276\355y\343\275\200Aj>\320\027a\276\221B\241\275\365s\214\275\272\331\305\275\367VU\276F\375v>\'\237:\276,\222\331<\201\202\260=*\\(\275!-\255\275\363\325\203=\032>n>tG\205\2764a\333=[\360w\276\026\025>>\303P\373\275\032\213\310={f\311>\244\253p=Q\265]>*\340\321=\211\366j\276\217\310\302\275\367\370\236\276N\311[\276p\t\330\275\256LX\274\331\251\357\275\213\030x=\212\0033\276\264`\206>\226\230!>=\234\307=J\246\271=\271\300\232\276s\253\033>k\023\237\2764\222\346<\004\231r\275[\242\225\275\377*\262=sy\335\2750\337\225=\014\360\261\275\250\271%\275\217\306\351=\304s\032=\233\275\236<\004\t\250\276\3310.\2761\377\255=\235\306c\275\203\016\202\276t|%\276\255%\022>+\2373\276-\346\236>:\020\207>Q\277\201=\003\312\370=G\261\022\276&\310\264\275\177X\250\276\'\247`\276-\213\237>\261\362\276=\220\356\226=\251o\322;6\307\375\275\211L^\276\277Mt\276\262\247T=G\304\250\272o\241\242\275\326j\340\275#\020T\2760>\235\275\r\341\014\276:Z\350\275\237\357\r\274\004\345\271\275\223\244\241\276Y\245\342\274\330I\036\276\241Z\262=\034\232\312=\276\223\235\275?\226\254\276\331\300q\276\261\340\372<\231\030x>\347\221\211\276\220k:>\027\017\216<\206A\204\276\221o\311\275\304\003^\276\302\216\t>\224\375?\275T\336@= \2459>~F\240\275\261\341]=\354\362\227\275i\356V\276\272oa\276C<\305\276\250\244\274\275U\244E\275\235)\031>\241}\344=J\1777\274`\036\311\276\023?\366=\316\036:\276V5\200<\220\353\322;\253H\'<\265\240\316=i\367\231\274T\221M\276\303\037U\274\234sC\276\335\334\342=\322D&>\263o\250\274\362\007\217>H\232\223>\"\351 >\272\344+>\\\315M>\371H5>\217q\224>W\311\336\275O\336\001\276\206\307\314=\247\".\276&\311\210\275\255\330`\276W\023\347\275\276\245$\275^\024\266=\030ta=\372&\001>\342\311\337\275k\201G>\254\244)=g\017\004\275\272y,\275 +\257\27640\n\275w=\225\276\365\342\262=!8\001\275\3222\334\275\372\361\225=@\\\306=\253\212R\276K\351;\274\224r\224;!\017,=7O\253\274#D\212<|\222\272=je\020\2753=\020\276\340g\257\275/\337H>SR\332\275\024?\336\275\305N\014>\032;\372\275\365\356~>\231\226T<\265\033j>o\353 \276\3370?\276<\246>\274\314\021\314=\0341\224>\344\222\357=\256L{:\220\367\004>\017\227\306=\235\350D>\303\225\230>\335\310&\275\017\317W>\323\336\026\276\037\360,\276\217BL>B\251\246\275\202#\203>\312#\233\276\305j\227\276\332\025{=\221\3726=\035-_\276\037i\317\276\370\350z=\223\244\336\275a\211\014\276S\001\202>\000\270\200\2767P \276W\222y>!r\310\274*Um\276\211y\216>\230 $\2763\241)>\376\033\025>g\216\331;\2106\226>3Bg\276\006H\233>\321\277\366\273\243\324S\276\332+m\276q.K=\2455\301=W\337D\275\252\363Y\276\257\3621\276\3755{>\023\336\220\275\245\323\253\276n\220%\276X\311\005=\315]\345<\312u\211>\226\3542\276\336\354\014<:n\216=\300_\213>\205M\357=\360\220\036\276\202\254\345=_\376w\276\260\263\036<*\002k<\375\004\243\273\315\241*=\341\342\032==\361\267=f\021\313>\256J\251>\202\326\227>E\366g\274\354\214{>\225\320\361\275\000\326\270\275k\217\215\275\372\342m\276 \300\203\276\253,9\2763w\001\275\t\255\204<\354\335\311<\310\247\014\276y\231X=\232K.\276\246\310)\276\215\206v>za\246>N\227\217\276\017\334\252=\344\374\226\273\343\240\330\275\306^\303\274-\322\355=]I\310\275\037\\_\275!\203r>\360\037\277\275\032Y;\276\304\356\302\276\374\033\020\273}G\263\275\020+\022>\332/)=Q\032\207\275\214\263\357=O\256!>\014\030\241>t\207\270<\346\321H=KmP\276\003_n>\274\010\240>\006\261&\2765_\377=\366c >\376\276\005>\010\033\210<\226\0364\275?\333\353=\360!\321\275\"\030?\276\255\331Y\2764\363\262\275\302\364\032<2q\264>W\363\014\276\266JU=\320w\213=\215?\367\273/\351\357=\207f\t=\'\231=>m\023\262>w\227|<\204)\374=I\374\212>\315IK\275\216\247\370\275e\241 \275\374s\330=\336%\305=]\270\010\276\231\336\"\276\315\320\233>\006\247\307>"
      }
    }
  }
}
node {
  name: "dense_1/MatMul/ReadVariableOp"
  op: "Identity"
  input: "dense_1/kernel"
  attr {
    key: "T"
    value {
      type: DT_FLOAT
    }
  }
}
node {
  name: "dense_1/MatMul"
  op: "MatMul"
  input: "batch_normalization/batchnorm/add_1"
  input: "dense_1/MatMul/ReadVariableOp"
  attr {
    key: "T"
    value {
      type: DT_FLOAT
    }
  }
  attr {
    key: "transpose_a"
    value {
      b: false
    }
  }
  attr {
    key: "transpose_b"
    value {
      b: false
    }
  }
}
node {
  name: "dense_1/Relu"
  op: "Relu"
  input: "dense_1/MatMul"
  attr {
    key: "T"
    value {
      type: DT_FLOAT
    }
  }
}
node {
  name: "batch_normalization_1/gamma"
  op: "Const"
  attr {
    key: "dtype"
    value {
      type: DT_FLOAT
    }
  }
  attr {
    key: "value"
    value {
      tensor {
        dtype: DT_FLOAT
        tensor_shape {
          dim {
            size: 64
          }
        }
        tensor_content: "\347&~?\017\252|?gO\202?\370S}?\357\025~?\210S\202?\244\372|?\333}z?\255%\202?\000\016\206?z\026\201?c=\204?\025\256\202?\343\244v?qg\204?\355\364\204?\377\357}?\333K{?\254\315\201?\227D\201?y\343{?)nw?01x?\276={?1R}?T@t?\335W\202?n\013\204?m\260~?v\311u?@7\201?\342\247\202?\326O\202?\212\312x?\357\370\201?\'Q\205?\201y\204?\013\256}??e~?\250d\203?C8}?\274\310\204?\271\234\200?\332\t\206?=\205v?cK\200?E\260}?\215B~?\373\025~?\211\214\203?\203N\202?6\310\204?\367\315y?\206\313\201?\350\352t?\265\364\202?B\215\200?v\036\202?aF|?7\315\200?\001\352v?\240\355\200?=\235\202?\'\346z?"
      }
    }
  }
}
node {
  name: "batch_normalization_1/beta"
  op: "Const"
  attr {
    key: "dtype"
    value {
      type: DT_FLOAT
    }
  }
  attr {
    key: "value"
    value {
      tensor {
        dtype: DT_FLOAT
        tensor_shape {
          dim {
            size: 64
          }
        }
        tensor_content: "\033\026\037<\303,\317<0\274\203<\005\001\235\274E\014\234:M9\327<\316a\233<\324\253$\273j\367Y\2749\303\241;\352\365\257\273\342\" \274\'\020\355;\340H\224\270\302\016\252;(k+\274\363\270\010<\340\214\266\272\255|\303\273;]\362<i>/;Fo\022<6\345j<}i\037\274+\006|< \335C<F\022n;\233\207\242\274\177\225\336\273T\003C;\027\336W<\220 !:\236R6\275]\364\027;\214Ie\273\266K~\273!\256\334\274h\212w\273\236\005w;y\347\240\274FV\240<\345\244\240;<\246N<\364_\226\274\331},<~:c<\337\357\241<8zb\270\347\214)\274U\235\251<\330\334\276\2744J\333\272\373\007=<\034\370x\274\346%\030\273\025gJ;N\223\200<\037\006k;\237J>\273\220\305\230;?\232\232<\316`$<\262\236\250\274\337\347\r="
      }
    }
  }
}
node {
  name: "batch_normalization_1/moving_mean"
  op: "Const"
  attr {
    key: "dtype"
    value {
      type: DT_FLOAT
    }
  }
  attr {
    key: "value"
    value {
      tensor {
        dtype: DT_FLOAT
        tensor_shape {
          dim {
            size: 64
          }
        }
        tensor_content: "\007.\000?\361\343\035?0\327\344>\212+\373>5\350\363>i@\036?9\270\354>\356\255\361>\326$\376>\306\237\321>\271D\010?\301\273\343>\035\227\013?\000;\356>\004\036\007?z\214\021?\3132\t?N.\373>\222\254\357>\265\245\351>\316\013\033?\233(\346>\3439\310>\202\006\362>\377\271\000?\203\350\352>\312\345\336>\240\333\330>Z\001\351>\257\371\001?\037\365\345>j\337\320>\032!\022?\320&\323>f.\243>\2778\000?\375\276\026?i~\016?px\002?\036M\021?5\020\366>7\207\367>6\350\360>4\236\356>\224\302\000?\244\243\376>\314\030\357>\351\037\027?\351H\334>u\276\277>\307\356\007?\325\373\007?\322-\357>\372T\344>l\247\025?\233\227\330>\014g\346>\034;\004?7\263\007?\311\003\001?)7\010?\366\260\374>\316\206\357>\337<\340>"
      }
    }
  }
}
node {
  name: "batch_normalization_1/moving_variance"
  op: "Const"
  attr {
    key: "dtype"
    value {
      type: DT_FLOAT
    }
  }
  attr {
    key: "value"
    value {
      tensor {
        dtype: DT_FLOAT
        tensor_shape {
          dim {
            size: 64
          }
        }
        tensor_content: "\345a\240?\025\373\035@%\r\222?\3425\274?\035\336\274?\035\024\344?\020\262\200?\236\027\260?\220g\237?;\036\224?\036\274\331?\260\221\270?\355\023\312?\311\'\301?>\355\340?\373\302\267?_\256\276?o\300\232?m\014\217?\267Q\257?\t\341\305?CE\210?\203\200X?\251\007\247?\004e\310?V\275\242?\006V\224?\334\346\212?}8\252?\026\035\235?\356v\250?\023\321u?`5\275?\375\037j?\271 2?/\307\346?\017\020\307?\017\344\275?\300\202\307?\334W\326?}\364\215?z\216\265?\370\360\223?\r\362\307?\312\302\275?I\204\330?\006<\216?Z\"\302?\272\372\203?\353\021o?W\371\247?.b\353?\377;\257?Dw\230?\234\254\266?XJ\233?l\027\210?\312}\304?9\321\254?RF\266?\304\236\324?-\371\235?\313\321\232?\024\035\205?"
      }
    }
  }
}
node {
  name: "batch_normalization_1/batchnorm/ReadVariableOp"
  op: "Identity"
  input: "batch_normalization_1/moving_variance"
  attr {
    key: "T"
    value {
      type: DT_FLOAT
    }
  }
}
node {
  name: "batch_normalization_1/batchnorm/add/y"
  op: "Const"
  attr {
    key: "dtype"
    value {
      type: DT_FLOAT
    }
  }
  attr {
    key: "value"
    value {
      tensor {
        dtype: DT_FLOAT
        tensor_shape {
        }
        float_val: 0.0010000000474974513
      }
    }
  }
}
node {
  name: "batch_normalization_1/batchnorm/add"
  op: "AddV2"
  input: "batch_normalization_1/batchnorm/ReadVariableOp"
  input: "batch_normalization_1/batchnorm/add/y"
  attr {
    key: "T"
    value {
      type: DT_FLOAT
    }
  }
}
node {
  name: "batch_normalization_1/batchnorm/Rsqrt"
  op: "Rsqrt"
  input: "batch_normalization_1/batchnorm/add"
  attr {
    key: "T"
    value {
      type: DT_FLOAT
    }
  }
}
node {
  name: "batch_normalization_1/batchnorm/mul/ReadVariableOp"
  op: "Identity"
  input: "batch_normalization_1/gamma"
  attr {
    key: "T"
    value {
      type: DT_FLOAT
    }
  }
}
node {
  name: "batch_normalization_1/batchnorm/mul"
  op: "Mul"
  input: "batch_normalization_1/batchnorm/Rsqrt"
  input: "batch_normalization_1/batchnorm/mul/ReadVariableOp"
  attr {
    key: "T"
    value {
      type: DT_FLOAT
    }
  }
}
node {
  name: "batch_normalization_1/batchnorm/mul_1"
  op: "Mul"
  input: "dense_1/Relu"
  input: "batch_normalization_1/batchnorm/mul"
  attr {
    key: "T"
    value {
      type: DT_FLOAT
    }
  }
}
node {
  name: "batch_normalization_1/batchnorm/ReadVariableOp_1"
  op: "Identity"
  input: "batch_normalization_1/moving_mean"
  attr {
    key: "T"
    value {
      type: DT_FLOAT
    }
  }
}
node {
  name: "batch_normalization_1/batchnorm/mul_2"
  op: "Mul"
  input: "batch_normalization_1/batchnorm/ReadVariableOp_1"
  input: "batch_normalization_1/batchnorm/mul"
  attr {
    key: "T"
    value {
      type: DT_FLOAT
    }
  }
}
node {
  name: "batch_normalization_1/batchnorm/ReadVariableOp_2"
  op: "Identity"
  input: "batch_normalization_1/beta"
  attr {
    key: "T"
    value {
      type: DT_FLOAT
    }
  }
}
node {
  name: "batch_normalization_1/batchnorm/sub"
  op: "Sub"
  input: "batch_normalization_1/batchnorm/ReadVariableOp_2"
  input: "batch_normalization_1/batchnorm/mul_2"
  attr {
    key: "T"
    value {
      type: DT_FLOAT
    }
  }
}
node {
  name: "batch_normalization_1/batchnorm/add_1"
  op: "AddV2"
  input: "batch_normalization_1/batchnorm/mul_1"
  input: "batch_normalization_1/batchnorm/sub"
  attr {
    key: "T"
    value {
      type: DT_FLOAT
    }
  }
}
node {
  name: "dense_2/kernel"
  op: "Const"
  attr {
    key: "dtype"
    value {
      type: DT_FLOAT
    }
  }
  attr {
    key: "value"
    value {
      tensor {
        dtype: DT_FLOAT
        tensor_shape {
          dim {
            size: 64
          }
          dim {
            size: 64
          }
        }
        tensor_content: "E:\357\275o\244B>\223\201N\275\033\344\220\276\235P\311\273%1B>\177\352\244\276\254\261\310=\363CC\276\203t\026\276`\271,=\370\033\325\273\244E\033>\334\001\341=l7\305=\341\004\340\2755bt\276\323m\203\2769a:>\353\255T\276\210\331e>I\304\'>\310\217\327\276e\263\020\276\374\331*\275\220Q\205>\210\345\t>\365\203a>!\213P\275\376\252\013>Xr\243\276\000\026[\274\0164\374\275\220`\017\276\021\310\024\276\3665\016\276.\275F> \230\270\275\275-\030=Y\373\203\276\237\024\335<]\257\213>_\016v\275#\273\n=\307\211\311=\003\271\271\276\216\217\250\276\273O\337<@\r\260\275\265\313\224\276bBv\275\353\372\322>i\320[\275\231R(\275\376zO\276X\360\306>\316g\263\275\200\360@\275R\207\260>(\302\327=O\342F\276LQD\276\031\354\251=\345\325f<\371\005i>D|\007=\366\277s\276\263~n\276\327\347\273>d\003\250\275\344Y\t\276\315?C=&2H>\035\262\001\276&\353\214\2747\014\300\276\326\023\003\273\225\346\032\276\244|\030\276\263V\245>\271\264\212>\030j\332\275\370\255\242\275\036$\222\276u\356\317\275EM?=h9\363=oD\003\276\376>\240\276\324\3775=6\376}\276\321\217\203;.\004h\275\n\257.\276\003\270g>#b\356\274P\3168\276\313\007\303=\325\226\226\276\203I-\275\350\205\201\274\324\236z=\325\245\237>\017%\254=\246Pr\276\3760\216\275=C\270\274\320\246o\276\201\n.\276a]+>\226\210\250>\245\304\247\276-)\"=\232\242\177\276Q\350\201>|\004\306<\311\313\245\275\207\247\001\275r\352\237\2756\222\002\276\366\010\241\276\245\335\016>\222\323K<\301Y9\2764\205\250=%\240$\275\t\273\247\276\241}\273\275Us2\276Q\261\257<\211\024\213>\301{\230\276\n\265\213=E\260\233\276m\302\273\276\0324\256\276\016\373\367=z7\222>\261\207#\276\324\212\r\276a\337\210\276p\257B<)\227\234\276\361\373\032>\210\202\234\276h\346\203>\200S\232=\t@\000>\010AT\276\026L\334\275P:0\276\036}\222>\261\317A>E)\245\275\366\"u>\266U&>l\335\234\274\002aX\276q\311\222>~\"\364=M\005\037\276\010\245W\274^\032\210\274?a\274\276\233\353\243\275\014\310\003\276\013\230\274\275CB\232\276h\275\377=\367\267y>\177bP>:\\\007\276\341\221\217>\001\313\302=CKD>Zu\333=<\201u>\005\007\236\275w&\307\275\212\334\200\276\3716\273\275\365(\243<)\030\n>D\276\016\274\336\033\300\276\334\347\231\276Z>%>x\016e>\031\217\227=S?6\275\300\334\255\275Z\'.\276\"#=\276\322\210<\276\302\345\314\276\357j\033\276R\001;\276D\204_>D\001\302=e@\327=\312L\340\275\243\250\025>\003D-\276\255\020\251\276\024\220\211\276t\372\241>\357\212\344\275\246\361\233\276)$8\275c-\212>\311\344\276\275\257|\036\274<AP\276\032\322}\276\244\261\214\276\354q\215=)\216#\276\235\334\304>\004\307\241>\212\035s\276\004\206\316\276\262\317n>D\303*>\017-C\276v\2718\276\227\320\257=\244\016\213\275\300\236\263\276\372m\234\275\305ZL>\2434\221=\277\023\261=\033]\367\275\014\002\322\276\22501\276\317\002\262=\270\272a\274v\356\240>\245\240\272=h\240\346;\314\213\273\274\261\020\215>a%:>+\3646\276\260\034N\276\"\261I\276\324~\342;\320\2656=+\336\177\275P+\004\276\244\'8\276s\3752>m$\344\274\2365\321=u\242!\275-\350,=p\211\356\275\304\257\220<X\332\037<\264\"\353<\2546\350=,\253\273\276S\013\005>\263q\255\275\024H\301>\375\237\223\276A\320\030\276\253\260k>;\206\036>\252r2>\345\3727\276_\267$>\303z\350\275\323\210\034\276\200\007\324>\n\031\020\276\302\032\263\275u\274\033>\3112\313\276\221O\354=i\213|\276;\313\032<W\332\247\275@\343\005\276)\377[=}\266\251>!\256\222\275\230\245|=\202\001:;\352\337f\274,\231\214\276\204\220\247\276~$\024\276M\000\204>\210P\244>\312)\252\276o\233s\275\266\317\307>\375\017=\276\000\376d=\313i\033>\020\006\227>\000\223\027\276+;g\276\212\321\372\275\277\2756\2762\276D\276\366_p>\2760\244=6mu>s>!>e\310\001\276\365\301c<\260_u<9\337\200\275i\375\262\275\247\002\261>4\253:>\317\375\026\276\022\3774=quf\275\372\201\230>Nd\'=0\034\203<\327\255\346<\307\266\361\275xf\225>\026\t\377<5\356\222\275b\362\234=\215\225\036>\212\024X\276\257&\231>\244\027T>\336\305W<u\302J=\266VI=!R\270>g>\224>\264\333&>\322\343Q\276\356\242.=\353\376\333=*p\315<=;\245>gf0\276\327\347\330\275\214\032\223\275eA\262><\214\311=\020\245\211\273W]\323=`\203f\275\3650\233\276\332\3129>.^\354<\342\360T\275\014\266\301<4i\334\274\307\\/=q7\016\276\362NE=\300o\265>:\205\204\275\217\362T\2759fm:\224\243\244\275v\336\t>;\026P\2746*\320=p\013\326<\351\342\200=B\010\250\274\307\214\023>\335\236\005\276\226q\252\275X^\255\274>\025\t>\307K\351=\323\304G<\\u\313=\330\254\217\276\253\313&>{\301\315=/\004 \276AH\250\276%\275\200>\340}\n>\3264\177=9\\\355\275\250w?\275\026\317c>K\240R>\020\257|>+\006\225>\236M\341\275U\025\303<\305c \276.Qj\275\210r2>p\341\313;`\247\234\276\256L\006>\232x\023\276\246xs>\024\333\335\275\001\341/\275b\206\212\276_\255K=\206H \275E6\202>\3474Z>QS\006=\027\316\262=\300\352\014\275\261\311\337\275\255\326\253\2733^\206>PW\024=\r\260\315\276\365\023\006\276!Q\217=\323(&\276\321\265\003\276\315\376\237\276\252\030k>D_\023==\275h=\034\275\244>\255\274Y\276\346\027\007>\212Kd>\273F->}%\033>ZF\272\275\2307\267=\\\356\326\2769\204,\276\355\261\020\276\223o\244\275\305\214 >\021\313\037>={\022\274\n\245\202\276aq\035\276lDW=\370i\013>\214qA\275\331\0108><\227\204>\330\305}>\003\321+\2763\222\214\276\244\017\233<w\2410\276^\r_>m\221\216\275\260\262-\275\355\355\267\276\002\352M\276\327\340\240<\231[/\276\n7l\275\032\271\333\275\000:.\276u\203p>=\013^=\346\367\036\275\343\271\255<;b\235\276\025\205\210\276\3302\013=\237\206\207>P:\372=\306\225\262\274X\351\367=}\000\272<q\356/>\256b\347=\220}z\276,\262J=\206T\271\275\261nt\275\260\273\271\276rq\371\275\373\301\267\275\354\026\254\275\244\265\006\276\364\310\316=\325\372\210>\265*,\276?@\325\275Zd\330=1\204}\275\020\344\320\275!\247\366=\344\234T\276\275\036\203\276\236K\335=\265\224\237\275\177\215M>c4\230\275\\\323\203>F\255\205=\273\325\300=\236n\262\275\264?o\275\260@j\276LS\252>\320\344\223> X\216\274gX\254<rS+\276LL\231>\'\347\272>\3429)\275!\311\001\276S\357\210>\344vq\276?i\027\275\322:\003>\301C\031>E\222\224\276}\245N=\242\354e\276\367\034\213\276\'\310C>\363\002\220\276Cw1>\305\013\350=Q&\226=\017\246\227>/\356w=\024O \276\363\374]>\0045\260<\360\023\303<@\363W\276IEs\2754\306\010>,\363@\276P\230J>@\\,\275\200x\020\276gM\301>\223\352\260\276\360\217\256>\037%\032\276\r\301\200>\276W\207\276\357F\247\276\244\265i\275R\205V>J\337\311>\202\3171>RD\226\275\240\362\262\276\027\"x>\363?j\275\350w\331\275\017\324\321\275g\214\221\274\202\302\244\276\025\003K>\220~8>\033\023\366<M\032\027>,-\261\276h\2526>\254\203r>{|r=\277\024\345<\214J\267\276qb$\276f\370\357\274\307\252\236=|\306t=Y]\264\275\275\"\327\275\374\027\264>\306\336F\2767L\246>W\227\241\273\216\237O>\246\237\303\275\355\354\352=p1\216=\030\345\234=D\035\246=\3574\220>\022R\211=tlj\276\274lc\276=Lz\276;\356\242>\207k\200\275\022F:>c\327M=\333\222\257>~\022\032>\223l\\>>\351q>\220\3557=)2?>\217%\305\275\037L^\2760e\032\276\252\2072>\301\333\344=\243,\026\2767\022g\2751\375B>x\371\207\2761\354]<\0066\344\275\027\311\016\275\035S\001\2760\225\252=\306\252\231>7\343l>\211\030\247=W_\245=\300M\246\275o\001\244>\001\346\314\274\\;\034\275\302\016\311>\300_\362\275^\331d\276w\231\310\275\377r\213>!\\W\276i{\030\276n\037\006\276\274\2037\273\2712w>\364\211W>GDD>\264\030\271=\030\337\n>\224\036)>\371!>\276F\265C\2760\231\275\274\320\211\261\275#\rv>s\243F>\314\205%\276\036\332\237\275\027\2702\276\322\216c=e\273\006\275\326\202\235<x\220\025\276U\324\254<\225\264\332\274x\235\345\2752\030\207\276\320o\010\273\254\373\227>$\005}>\226\334\271\276\337X\252\276\260\337)>\245\211\321>\031\t\014\273\332eF\276\2375K>\317\271\020=\226#\205\276\357\377\274\275\355\342\310<V\373*\276\225\0137>I\243\201>\247\360\242;E\207\371=D\266L\276\304\233\r>\024\226\252>\275G7>^@\244\276\247\003\000\276PNE=)~c\275z\257Y=\233\243\016>\260\211N>\337!1>N\025\247>=\227W>\030\261;\2761\350\032=\017)\217\274\222U`>>p\324\275\305{G\276\277M=> \334.\276\223I\334\275\261?\243\275;\200D>\241\020f>Q\211n>\342\203N\274^\263\201\276\321\003r\276\313\020\002>/x-\276\'\0239:e\353\277\276\250\346)\276=\342\013>\265.\037>\210{1>\025\355\300\276\270\263\001>\177\024\216\275,B\360\273\262_\234>\024\215Y<\327\230\250<\272bA>Y+\257>\'/\007\276\021L\353\275\004\2178>\227\374\'>\247\271\300>C\252\270=\205\244\264=\341N\n>\257\360k\275\340}\214=m\002B>\2652;\275\333\021\231\275\346\3444\276\374\304\244\275\364\\k<\177\0205>/\352\034>\263\237\217\276\231\t\367\275\325\355q=-\363\277>\tX\276\276\3430y\275\217\240\032>\354$Q=\365\261\346=\366\320X=\351\177\226\275\200Or>OI9>ZH\274=\334\314O>\2335x\276\323\353T=3i\245=\247\352\263<\032\335\361=\2201@=dP\350\275\341\025D\275\342\342\021>L^\264>\324*K>\352\373\035>B\005\014>\222cw=\335\025\307\276\\`\201>\341\313V>b\261\260=27Q\276\022\206j<\214\273=\276u\325\034\276F5\260=\031\267o=\240!\233\276\233)N\276\007\342\003>\032\352%=\321\243\224\275\376\255\203=(m\354=\2219\340=S\240\216\2755\306\312\276Q\235\340\275.\334\240\276T\3373>\340\2219\275\234\250k=\314\353\301>b\320\237\276\353=\025\276m\364>\276y\353i\276wB\005\275\371\2170>\346\350\222\276w\213(>\\A9\275\270*h>\333\207\031\276\010\233\206>\250\327\004<\20716=\006\223O>q\252\353=K\204\257>\234\223\307>1\300\241=?l\370\275\375\020\216\276\306\201\210=\210\315k\274\t\003\004=\003\373\255>\034\200c\276\371\037@>!\260\t>\344*\260=?\256\245\275\363\030\234>\306\204\303\275\344\232\254\276\277A\344=z\276O\2769\215\370\275\321o\377=\317x\221\275X[#>\257\017\030\275|9\002< p\250\275S\204J<\263/\">\220W\035=\3207>>;\322L\276&\000\212\276\327,5=n\n]\276ok\234\276w\347\217\275HM\214\275\326\273\342\273\364\'\r>\003>\215\275\230\242\227=\333}\020>\340fq\275\315!\332:\317b0\276\363\036\356\275>K_>B\202%\274\216\246\331\274L\367j\275\257\321\037\276\321\274\254\275 \320\240>\364\230(\275j\253\256>\311\377\277\274\267u1\274\256\302\235\276h\272\211>\262\307\033>e]\207=\006\217\335=\274\312<\275Z\270\267>\3026\027\275\215\352\201=e(_\275\356\214V>\316\336>=\304\314\307=\005\203r\276F@\036\276\330\376\227>\314\244\362\275[m(=>\265t=\210\245a\276\360\321\301\275a_&>\331\372\014>\273\254\271\276\345r\215\276\273\247\332=v\004D>5\237\364\275\'\211\275\275JX\210>\237X\242=\316\376+\276\336\020O=\216+\273=\216\212>>\342{\244\274U\313\352=Tw\017>\201)\n>g\343\222=\364\235\202\275\234\217\314\275y\323l>\317RF\2758\212\243=\304?\274=-\336\253\276\034\304\310\275\021f\221>\365a\214>\303Q%\276vWU=)P\004=i9\236=_\311\227\275\213\234\200>\253n\203\274\027^S\275\023\357\020\276\356\206`\275u\221b\276\200\250I<\327/\271\276\253\312\352\274\375\013X\276L\231\201\276^\343\210>`\221\372=*A\273>\237>\206\275\272\265\327>{\375\226\276\313Rd=\005\273\001>\354o\t\275\225k\027\276\010\r\246=Z\323\214=\357\304\007>\337\200\200\273\251\214\241\274~\262\r\276!\265\317\276!\262\302>\337nA<c\361B\276\232\342\211\275$\214\322=\270\272\014>!\354\362\275\356\232\363\272)j\277\275\210\335\241\275\330\231\230\275\275\246\272>W\230\224\276y\312X>\300m\226\276z\324\354\275/\036\377\274\032\325\251\276h\006\241\275\360\320F>\224\214\277\275^\"&\275<L4\276\353\216\323\274@\277\341\275\\\333\\>\241$\262\275\357D\227\273d\341\265\276n\271>\276\271\366I\276M\\\006>X\354\215\276N\365v\274\245O\236\275\007\241\306>\r\201{:-\213\302\276\t;\020>x_\321=\262JC\275\312\322i>\233\232\303\273\203\306\213\275\254\016\247=r9\212\276\306=\230=\337\315g\275/H9\276\325\023l=\301\031\032\276/iR\276\233\303\274>\"9\301>\235\312\210\2763\256\205\274\317\005\217\2748\230a\276\323\247G>\316\221\030\276\003\221\344\275\254#\375\275_\345\031\273\335\254\222>,\301\200\276\377\r^>\364\300y>?\200\202\276cd;=<&\214>\3774F=\213\246\023<N\371\373\275\037\ry\272\205\361\224\276\236\363\326=\'\246\366\275\233}\203\275(bi\276\314\200f\275\367\035\035\275S\341%=#o\334;\000\341i\2762\265\367;K2\002>\325*\245\276=\224B\275\036\321\303>\362\372\335\275\201\236\210=\255\r\026>\303HD\274\342\246\r\276BE^\275\250\314 \276\005\257\237=\235\355\006>F\227/\275\206\344\330\275\342s\036\276\223\037\234=GA\216>\t\351\020\276\021\201\256\274Y\334\006\276\2139\240\276\265\026\204\275\313\316/\276\274@,\276S\253\262>\306=\315\275{\252u>\342\272\226\276\365b[\275\326w4=\272(\272\276\233Cg\276\276\200\363\275\032\373\013>\236\242d\275\271[\257>\316\372\027\276/\244\271>\210\265\333\275\317\222\232>\307;{\275\347\305!\275\200\001h<^\n\301\276\2214>\275y\347#>\321?\204>b)@\275\277\304\204\276\227\033A\276cK\223\275[\343\326=\370\273\255=g\363\243=\233kw\276r\246D=L\323\270\275xf\233\274\235\027f\276\361R(=\027E\204>\240\320\242\275\016\371\205\276\2301c>\304Pi\275#\345\270=\027\325\003>=\r7\275\316\367s\275(\0009>\314\226f\276\t\361a\276\001f\217>\321J\367=\202<\023\2768\257,>\222\265\312=\370\364\320\274E\261\020>\342)\274\276\362{\212\276tu\340=Gh\000\276\2135\231>\256s\366;\263\222\301=\301\033~=/\231\r\275\\\325\223\275:\373?\276\301&3>$\263{\275B0d\275?j\310=\017#X<\307Kr\275\'\022\013>J\333\177\274c\r\264\276\242\264\347=:,\334\275L\332V\275,w\364<\332\2752>\324\274\265\274\351E\251>W}\243<\031\331\330=\233\016~\276\277\243\210>\371m\243\275\006-\370=\243zJ\276\252\342\325\275\251\313\363:bw\027=\233\004\005\276\232\010\305=\275\020\204\276zT\343\275x\220o\276w\275\320\275\362\371\207\276\373D^\276\007\223\026\274\300\3451\275_Xu\276\214bT=\213\265U<\315&8\276\226\367\243>Q\354|;\024\3564<\344\263(\276h(S\275H\205\247\276\275\244T\276|\271\233\275qaE\276m-\260\276\026n\006>\260\332\020\276\370a\271\276\'\200?;\334\303\305=\2613\024>J\'\215>\017n\003>b\275\216>%q\345=\031\214\214=\202{\004\276y/Y>`N\342\274-\262\350\275\264\316\036>1\223q\275\307,K=\246\373:\276[\274s\276lGN\276\300\256\200>\237\331\261<\033\320T\274pU\206>\003W\260<\361\374{;I\"\367<\361\302\230>jo\345=\276L\373<\2167\303\275\014\036\360=\360R\272\276\0260\250<)qi>\337\355\315\274\236(w\276\014k\361\275P\301u\276\205\346\332=\352\017\234\275\256\021<\275(7:>\374o\334\275,\007\260\276\311\374}\276\353o\240>\022\336\007>\341 \215>S\373\257\275\360Pl>W\023\232>\220.\335\274\\\342\230\274\262\211a\276s;g\275\230\226\207\275\277\312\362\275Hu\372\275\337\210\262\275\257lI=o\n\256=\000\362O<\032\236\326=`\003\250=\274\241|>\313\266->\006|\300>M\253\376\275\277\302\254=W\3039>\007\303\216\275`\264G\275\305\324\254>y5\250\276\262\010\313=L;*>\351\212\307=Z7\247=X\367\322\274X`o\275\004\375\224<\211\316\177>\347:\210<\311\027K>\233\351\266=\300\235\205\276z\240K>\314\252\342=\017w%\275G\031\007\2760\214d\276\240\177\225\2758*\257\275\313\010`>\232}\004\276\361\023\006\276\343\301\235\276\343G1\276\334\247\022\276Q^\314\2751\212j>\3131\205\275ar#;>v\023\274\331\226c>\355\257p=0\002\354<8\016\204\274\255\315\233=\203\232\247>\013\0142<t\000}\276\3476\267>\205\376i\276\002\244N>\357\251\262=$\004\213>\377$\233>\204]{>\025\212Q\276\337\235u=\265\213\202\276\225\n#\276\352!:>\205:\357\275\357^\342=*O+<\017 \323\275w2\007\276\304\001s>\203X\033;\376\306e>\261\030^>z\260\014\276\253\217{\2762\036\255>\035f\265\275>\337F>/\323A>\321\370W>o\245H>&\267\233=\t\340\353<\002\334$<\221\265]>\357\211\320<\304s4\276\336\342K\2763\013\363\275\240\202\027\275$ng>\030P\262\275|\346\037\275\243\007\037\275\007\264\021>\315\034\221>i%_\276\241[*\274\026\340\253\275\206e\025>Ar\314\274\365\317\024=\335Nl\276\177b\330;2ti>x\376!\275\311\343p>qS\276\276,\026\270=\017\324q>\327]\202>\221E\261=\345-L>\313I\346<\2601\347=\267\223a<R+\010\276B\266\256\275;\266\304=wL$>\023\371\253=\2125\026\2765\'\210\276\357\354\277>\223g\005\276\211\215E>\267\275=>(\365\237>4T\222\276x\377v>\rM\003>{)\'\275N\251\t\276\232MC\276]\r\366=m M=z>\230\275I}+>\266\260\230>\352\000\360=\277\002\265\276\363\302i\275(i\271>WG\006\274\006\345\362\275\222w\021>\234\260\211=P2\350=\260\311\326\275^\343\236\273\2270Y>\205\006\201>\255\313k>\257)\213\276\036\026\333=\024n\372:\306\033\254\275&?,\276:\352\302\275\246\320\376\273\356\361\213\276+b]>\240L\364\274\216\t\024\276J\372\006>BLv\276\200\022W;\203/\216\276\363\214)\276\003\233\371<\020s#\276\253\377\324<d\034\233\274\323\240\354\275\266\001\007\276\033:\204=\366\nl=\301\010%>\024\362\262\276Q\272U\275z\250\231\276\315bT=\022.\202\276\220\342F=\253\236T=\037R7\276\215\302C\276\020\3564\276\034\2451>Gl@=\321\331Q\276|\305\300\276f5c\275\322\301\203\276\nH\231>\023\213U>\007\202\016>\372n\204>#Ej\276h\212\274\275\034\010\226=\372\026\256\276\370F\234=U)\267\275yUK\276\250\354u>\"\366\267\276\227\353\211\276E\226\226>\211e]>h.\277\275.1\030>;w\315=\300\033\014<\340N?=\317+\333=:\353\355=\033\236[>\317\226/\276\270\325\240<\255kj>\036\254m\276\"3\205>\370\3135;y\232\207\276\t\345\231\274\230\251\207\272k\306y\276\374(9>\352>\240\276\014\324\341\275\323D\322>S\331\346\2750\343F\276h#\017>\276ax\276\314,\206=|\322\315;\235\350\233=\3460\302\275\235\267\004>d@\025>=g2\276\222B\324>\341\037\245=V\260=\274\027I\003>\305?\007\276c0\361\275V\223\361=!\021\252=\266|\335>\351\215&\276\245\3671\276\266)\214=\'\344\215>)\325H\276\315\005\204\275^\277\035>\005x\201\275\246V\305\276\201\206\335=\3339\204=\307 \247>hj\341\274\300)\344\275\0008\327:H\005\342<\305>\r=/O\212\275\330\262\363\275\326\004\214\275\323\000\375\275\236\2621\276M!\014>\'\215G>WV]<1\274s>v\200]=\t\256\205>\216\004\005\274J6\211<\365x\260\275A\005>>\350\365\013\276\237m\010\276\317^\026>\003\033\\\275\217CS>\300t\037>\276\346\232=\006\2069\276\271\372{>\022k{>bg\213\276\232\305F\2769\217\346=\303\246\000\274z2\034>\366[\315<UK\257\276\207E3\275\200yw\276\275\233,>\304\226.=\300(\004\276M\212\243=\266\224A\275^6\307\276\2104\226\276\263\324\037;\200\365\254=\343\335$>@\344x\276\3609\220>\275\341\002>\305d\337=\030\317\225\276\024\017\t\272\030s\210\276\246\216,>\242/\305\276cH[\276\311\205\031\276e\2137>\212s\232\272:\010\207\275,Y\217<Y\355F>J\r\177\276wA):n5N\274\363\266n\276\251\374\274=Pd\362\275T\270Z=z\304\230\276kzD\276\343.<\275z\032\\\276\344A/\276\001\373c>/\301\304=\327\223D>\211\2258\276\307VN=\254\'\226\276\252x6\276\357\342\027\276Mx\226>I\204=>+oh\275\261\017\177>l\222\211\276\022\312)>0 \027>s`\276=9\350f<\321\2026\275\377\303\214>i\022\252\276m\310\243>\361:\037\275\214a\274>r\307O>\252+m>,\264\316=p\013\026>\260\373T=\233P#>J\222\231\276\213\242*<#\017\216=\242\022 >\316\265\366<8\212\377\275\374\0101\276^p\205\276ee\326=\245\276@>U_\377\274\303Q\025>d\355V\276\232\n\026>(E\331>\2110o>\026\211a\276\346n\320\275%\342\250\274\232/b>N\315\005\276G\214o\276\021\211\315\275O\2300\276\325J \276[\360\023\273Ly\217=\376R\250>\220D\253>n\261W>t\r\231>\310\364\267=I\260\206>)\242\251\275B\322\226>\323Q\237\276\201\233\025>!u/\276\306\371\350\274_\257\217\275]\313\227=oou\274.$.>\000a+>\326\234\'>\351\233!>S\232\365=\225\002\230\275\264\303\365\275\303F^\275\003aL\274\3677\201>N\341&\276a\020\215<\252\221\326\274\237\025\265=\222}\006<\226JC\276\314\204_=\373\3617\276\310;\320\2753\351\210\275\251\214\233>\317 \224\275\263\342\262\275\377V\303>\207\366\304=\002\232\277\275*Zb\274P\235\244\275<(\020>\367\274\014\276F\035e>co\201<\035\n\243>\317\371\374\274\215\030\022\276\221\t\t=\332h\371\274\365jb>\253\003\021\275\245/\256=\025nb\275f\302\337\274\026\3472\276\235\256\243=\243\312X\275[\350\266\276\221\353q\274\343\261\202<\013\321\347=z\r\221\274\312\247J\275\036}\217=\207\022M\276\267\262\003\276=\006\003=\265;\245>\236\306\271>c\240\024>\272\325\215=]\254\230>[\230#\276\312z\216=_\020~=\2026\000\276\331\022n>\305\211Z>vB\211\275\032Ym\276}!\004\276\313\344\267<\252\213\010<\326\250b>\342p\300=03]<\343\314\222\274\363\263\210=;\324\027>\225x9>\362\003\031<\343\271\262\275\026\266\254>\377\214\353\275&\323:\276y\026\324\275-aO\273\271\253W\276\006\232\227\276\007\301\322=\354\233\032=\034\213\037>\227\315\343\275RC\263>\254\320\t\275\241\257\177<\210ZX=6\245$=\335\263\317=yf\305\27674\020>\214\tl>RUJ>Uh]\276\234\027\365=\022UD>~\241\263>H\"\210\276\345\016\277>\340\0039>\271\254\222\275o7\251>\265D\017\276}\377\255\275\314\273\226\275\271W\217\276\'-\261=\364\214\235>\265\213-=\023u\307=\354b\243<6s\211\276\007\351\264\275g_\337=\004w\320\275\240c\374\275\203&\333=u\215\323=[d\357<l\2479\274\336\022\254\276\3600\324=?.\001\275\264\266\211>\267vJ=SP\230\276V*\204\275\026@k;\256\257v>\032\035\003:\3200\023>\216\326C\275N\013\231\276(\016\315\2755\020\201\2761j\213>\227@S>/\007j>f\267\030\276EnF=<)\244\276E\376u=\373\317\333\274\242\034\346\274\352\302\241\275,V\353=\211\345=\276-\003Q\276\355\025\206\274+_\'\276\203\366\271\275e\026\035>%{{\276V\357\372\275\224\342@=\265hn>4\300\241\275\376\343\266>\021D\300\275L\033Y<\336\347H\275\266\2463>\225\304\036=I\321\216\276\211`\305>\367\3319\276\212\263\242\276Z9*>et\301\274\365\220|\276u[\223\276<\031k>\333\022\026<\264o\331\274\343\327\014\2763\374\345\274H\216B\275P\360\223<\221$\356\275\223\352\242;\023\310J\276\275\324\020>\201+a\276a\026\224\275e~J\275Y\202\010\276\206\3619\276\201R\006><(\351\275\'\334\237>\243\"\261>\244P\010\276\312\177c\274\224\334\301\276\342\305O\276\354\020\230>Y\232&=UC\026>/\212(>R\200\310<\320\227?\276oj\017>\235\010\207>\313\237\266>\317o+\276\032\325\002\275\367F\305>\351F\246\2766{\210\276\023[j\276\353\373\242\274>\017\225>R(S\276n\277\207\274\\/\354<E\334\221>\374\346\035<0\014[>\366\225\356\275Z\204\'\276\315])>\222\271`>\276}\231\275\352iW\272-\263d\276*\034\267:\013\231\247\276\252\006I>\n\212_=f\250{\274\316\214\267=L\023(>\302I\261\275\301\240\327\274|\217\260=vhK>\331\265\206>4w\302\274\235$\267\276u\342\211=,}2=\031\252*\275\035wS\276\201\334p>\345rI>\247\204e\276\264LE>)\000\252>\267\244\216>BaZ=f\357\240\276\212&6=K%\223\276\200t}=+H\251\274\n\330\276\275\335h\301=\3461\370=S\340H<\302\233\337<\254\210E\276c\217`>\211au\276\240\3743=f#\235;\342\002\312=\221\311I\275\313\336\251\276|\370,<x\026\010>z\335\236=t\264\212>\325\373\360\275\224\205*\276\241\242\303>\232\220\203=.\335O\276]\325i\274Q\342\036\276\264RT\276\364\262\327=\017\352Y;#q\271=n\257\243\274\017\246\022>\t\214\'\276c\266\204>S\207\203=z\326\322<\207n\313<\026\031;9\203L\222\275\214\202+>N\320\201\275<\017\241=vf-\275\'\003\307\274/d^>\335F\r\274tct>u\350\374\274Y\333Y=\344i\001\276\330\264j>\314\003\376<\300\226\215>\317\371\262\276\034\216\227>u\203\231=\354\331\316=\027\264\306\275\201\271\275=\267\2530\275\251\216\005>OV\332\274U\276\377=\320\202p=\271%\250\276\264\314\220>\241\2706>\276\270#>\303\023\203=\310j\001\276\266\326R\276\030\357\357\2753\335\200\276\366\231L\276\371\330\245<\212\337\306>\303\324\233\275;\365x\274\363\302\257\275.&\202\275\033\035K>\220\312\027:\002{\337\274\340\370x=\221z\242>h\217A<\024\376\226\276Y\026y\274\350P\211>`\242o\276\277Lm=\203T(\274w\222\371=\031\307#>\222w*<\002\020\255>\'\260\025\276\020`r<\216?\274=\363\372\271>\344i\215>\34298>\345\343\335={R[>\361Q\025>\211x\250\276\276\211\030==\230\372\275}F\033=\325I!> \025}\275\265\216\022\275\014P\356\275h\027\205>y\346\031>\334K\317\275(\207[\273T\363\227>\262\234\203=\354\266\244>EK\254>07\226>\215Q\005\276I\013N\276\3315\003>\230\356\217>\267:S\272[\266\005\276\213w\233>sq\254\275P\316\254>\203\207\237\275\375\023\210\2764\352\377=\376,f\275,=\231\2762\210{>\301)?>\3550N>7N\345=:\256N\276\240\337,>\272R\242\275\350\022_\276\270\360L>\374\357\374\275\304\032$=\246\217\340\274\227\365;\275\301\n/=H{\324\274\254\200\264\276x\002\014\276\253u\247>a\304\233>\320\265\034\276Se\253\276\271M_\275<\370\372\274\327\266;>nvZ\276\3253*\276\334\372\235>&l\036>7\264\325=\014f%\276=\311\353=\223\3239\276\032\226g=\245,\022\276H\260\241\274\032\352r=\n3\301\274\352\305\252=\360*\013\276\224\227R>YT\035\276\006\'\310=\021H\236>c\357\017>~\336\032>\023\\\005\274\367\332\221\276 \246/>6<\254\275\025\264Z=\361\317\244\275\240\367$=r\265\032>\221)<>\355 \003>\244\203:>|\302\206\2748\036\021\276\343%\232\275fs\200>\004\267\034;g\r2>T\003\346=N\tC\276\251\303\032>Ws\214\276\257\\\316=\266\307\357\275\342k7>F\031\310=\305\210\210\276\3136.\275S\006d>\353\311\271\276 \003\311\276w\2229>@\330\025>r+,\275\264\252\200=A>\206=\377\252\257\276\215\000\375\275\007$\246>\226\313\034\276\355\222\267>\'Qw\275)\244\214\275k\220\237>?oW>\260\322\224<@\rw>\375\347\200>\303\360\273\276\002u\306=\2016\020>8\332\311\274\266b\365=\316mq\275D>\307=\255H\320>\006\320\253=}8\217>\205A\353=\342Se>%\266\372=\313l&\276j?\256\276\036\r\t\276\370\236\017=\346\311\351\274n\316\202<\026CN\276\025 \247\276z\324\021<S\n2\276\304\236\357=\033`\237\275E,\001\276}\244o>\260\204\317\275\252\n\233=\305\036\272>\177\346\030>\0315\350;\245^\213>\246\027\245>\365K\276=\337\234C\276(\336\252\276\310\027\207>5Cr\276>\347\254\276\033\251\227=\274\272\233\275\276\354\211\276\3723I\276\221\376\267<\267\272_>\3700\211\2752t6;\270\246~\274Rm\342=\177\340 =v\311\202>\364\035\216\276\032\350e\275(P?>\000\303\n>\206\031Y\276\251:X>\005\330~=\216\272\215\275\314\352h\276 \264\373\274\332\257\211\276>\t\225>\3043\242\276\032\325\235\275\001\244D\276:\271A\276\223G3>y*\210\276\321Vy\276\016\026B\275DGm>NEs\276\203\360\036>f\350\250\275\\\032\252=\353\203\003\276^e\'=4\'\255\276\242\217A>S<\271;!\373)>g\220\270>*\266#\276\271\230c\276\330\001\205>fR\001\276\212\301\334<\300\001.\276v\r\206\276\204)#>g\356\016>C\241\023=sI\350\274\2379m>\3501\300=\321V\017\276\322\261\004>\314\242\315=\006\371m\273?\332R=!o\231\276{\276\221\276]\356S\276\343\260\326=\322,Y\276\352\365`>\332\337(\276\\|P\276\253`(\276\346\003\210\276\213\222\215>\246h\223>\255\215j=\224\246 \276\211l\215>`\302\211>\205\007\201\275 \276\007\276\332\342+\275\271d7>Z\320\001\276@%w>\256\317\005\276\020QM\276:\256\220\276\346\231\024\276\327n\276\275o3D\2756\212\004=\236p\233=\335\244\006\276\265\021T\276p\342\203\272k\264\202>W\247\214\276\024\267\310;+\0056>\216\250\321\275\251\013=\276\023\363\250>\214\177\255=kE_\276;\024\014\276iwe>\302\312\200\276\023\'a\276\242\267.=\2001;\276\325\343\257=\027\035\305\275\017\003\307>R\204R=\354\265=>\227rx>g\243\325=8\271r=A\235\257\275\313\341~=}\303\221\275\316:\317\276\177Le\276\232\303\n>pJ\253=\035\\\263\275d3!>5>\252=`\014{\276\017>\322>\020\003\255\275\341\274\217\276\027\n\030\275\224\035R>\376\265\261>\222O|>l#\276\276\365Q\265>\323\370\023>\206!\305<\017C\236\276\31747>\032\224`\276\277\347\216\275\255\317\341\275\234\t\215>0\023*\275$2\207<\344z\307<\314\354\207\276E\214\317=\200\335M\276\335\363\004\274\366\372k\276\n\250\036>\354\307\312\275\212l\322\275\345C[>\240\277\337\273;l\252;\007\007o\274y>P>\033\204-=\016\353g>t\345\371<\035.\247>s\342s\275\032\352\037>{\245\207\275\177\323\206;\335\343\263=@\004c>e\006\220==XS\276H\3308>(Y\353\274r\362\007\275\270,\254>\266\307>>\2055\313<jm\213>o\220}=\305\323\265\276X(\306:\300\ny=\226\312@\275\251\341r>\305R\200>\033W\213>\2472P\276\304\300\210\276_?a\276\205\365>\275\337\367%\276\233\271\234\276\354\037\315<\r\002M>\331A\202\275\3374\252\275\321\375s>\237,\254\274\317z\300\273\265\225S\276+E\220\276\005\177\236\275\203\367m\275\352\240\203>\202\340\223>A$w\276\306\315\363\274!Y\243>/\036\247=\246\222u=\307\373\004\276\264\356=>7\014!>\265\302\273>2\034\214>c\235D\276m\301\033\276F\234\205\276/\026\266\275\305\212a\276\030b\315=\010da\276\345\365;\276-\206\340=\307z\'>\374o\000\275\221PX<\345\315\231\276\345hY\275\231>\206>S\023i<`\322\037\276hWN\276\221o\363\2755\030\334=^\342;=\202\277^\275d\241\234>\260a[\274\020\360x\273\323.t\276@\363\277=\3218\312\275U\036a<\256\301\322\276\373\371\232=!\351\313=\206\"\304<;\273\303=\202\205(\275\215O\200\276\256\322\227\275|\266\301>$-\310=\\*\270<\257\363x\276\307\243\306>\235\032\033>\373\314i>f\026\223\275\352\377I=\216\035\206\276\223\227s\276\314;+\276v\313\007\276\000\213\034\276*\253\310>\204\021D\276\264\275|>\025\377\325\274\372c\020<O\211\220\276\220\316\013\275\"\036}>\247\244p>\252rp\275\031\246\030>\026\361\301=]\267\231\275\227\375]>\366b\320=\222\237C\276\"1\177\276\261#\266<E\026u>\251s\032\276\370\3028\275?\251\002\275Q!j>\210\204\265=\340s\317=\206\177\272>KA2>&u\222>\336N\252>\215\340\347=\246\300G>\025\235\242\276\214\276b>\322\230\320>U\257\005\276\341\205E>d\230-\276A\236e\276\356\345b=1;\305\274\322t#<\272\353\250=I\225\222=\356\252@\276\377yK\276\233y\274;\261EI:\361<\021\276\246+I\276\234\252F\2757\273\256>\216/\n\276\301\212\201\276A\014\211=\302\303\033>u\n\014>\\\002\037>\023\354\204=ek:\275J\013\211\274\334\363\200=]1\021\276\322P\363\275V\033\017\276]\237\001\276\274S\267=V\325}\276\266\226d<5\002\304=\226\0050\276\037w\177=Pa9\275jd\022\276s\3720\276\274\306B>\370\263\004\276N\234\264\276\300\365i\275\255\340\335=gC\274=\341bp>\313c7>X\351\267=\261\332\257\276\247\007B\276 