node {
  name: "normalization_input"
  op: "Placeholder"
  attr {
    key: "dtype"
    value {
      type: DT_FLOAT
    }
  }
  attr {
    key: "shape"
    value {
      shape {
        dim {
          size: -1
        }
        dim {
          size: 13
        }
      }
    }
  }
}
node {
  name: "normalization/sub/y"
  op: "Const"
  attr {
    key: "dtype"
    value {
      type: DT_FLOAT
    }
  }
  attr {
    key: "value"
    value {
      tensor {
        dtype: DT_FLOAT
        tensor_shape {
          dim {
            size: 13
          }
        }
        tensor_content: "P\212o@\274\010\212?\017`\306>\313\376\024D\177\\\245B\227\017nCv\245\014@w\312\245?\223\342i?0-\"@\3370A>=\235\367C\n\277\034@"
      }
    }
  }
}
node {
  name: "normalization/sub"
  op: "Sub"
  input: "normalization_input"
  input: "normalization/sub/y"
  attr {
    key: "T"
    value {
      type: DT_FLOAT
    }
  }
}
node {
  name: "normalization/truediv/y"
  op: "Const"
  attr {
    key: "dtype"
    value {
      type: DT_FLOAT
    }
  }
  attr {
    key: "value"
    value {
      tensor {
        dtype: DT_FLOAT
        tensor_shape {
          dim {
            size: 13
          }
        }
        tensor_content: "XU\242?\332\200y?\271\251\031?\272\366\237C\367o\201B\262_\016Cy\345w?\230\312p?\2172\377=\rd\201? \313\207?\210\365\350C\315!\036?"
      }
    }
  }
}
node {
  name: "normalization/truediv"
  op: "RealDiv"
  input: "normalization/sub"
  input: "normalization/truediv/y"
  attr {
    key: "T"
    value {
      type: DT_FLOAT
    }
  }
}
node {
  name: "dense_1/kernel"
  op: "Const"
  attr {
    key: "dtype"
    value {
      type: DT_FLOAT
    }
  }
  attr {
    key: "value"
    value {
      tensor {
        dtype: DT_FLOAT
        tensor_shape {
          dim {
            size: 13
          }
          dim {
            size: 64
          }
        }
        tensor_content: "\237n\232>`\220\325=\211\237\311\276{\372\316>v\343\003?\013\021\327>\00787?\377S\210>E\327\027>w\022\376\275\203\227\343\275\342\276\210\274Q\314O=>\304c\277:\377\223=\222\275\031\275\256\021\036?_\3343\275\336\226\354\276\2105\241>A/\353>nx\030\277\343\375>?\342\013A?\361v\266\276\016\346J>\301\376I\277%\332j>\345c\201\276\246xI>\242\266\253>l[\234>O_2\277J4\007?\242\346\026?\315\343]=\033\\\016\276\360\035\024\277\266[\355>P\265\353>\353\204\t\2779$\221=>q\253=\313\257\214\276c\002\207\275\t \336\273\332\204\350\276\230\366\262\275}[^\275\373\262\302>\323\233K\276<\3669\277}\240\223=\304\360\201\276\247/?=<\267\r>\260+q\276_rN?\024\340\\\276\252\212x\276\305#\033?\344\306\256\275\200b\255=\316C\026?2\263\021>\034\345\003\277\333\345\331\276\362v\316=\035\313\240\275\255\327\271=\r\357\256\276I\304\355\275K?(\277\035\177\340=L |>\224\223\243\275s\027>\277\343;\320>\275T\323>\3456\026>\353\362\343\273\341\005\032?\301\222\037?\'\334*\277\350\252\033\2777L\372\2761\001I\276\230\024\310>\353\031\013?><\026\277\031\n\242\276\365s\264>:\001\375>?;Y\277KS\320\276G\322\017\277L\024\322>D\265\025=\260\371\317\276\000\006\315\275\264f\215\276\237\031\264>\335\332b>\310\250\225\276\177i\340>\264\243\017?\024\2008\276\216\246\313\276\332h=\274\242\220\300>\251K\300>0\277\272\275n\"\325\276\3055\360\276P\226\200\275;\021\265\275H\275\262>\366\2057\276-A4=\367\305=\277\222\234\245\275\rE\377\276\321\321\212\276XP\271=\340B\005?i3;?0e\323>\267_\304\275\024\001\375\276\361g\214>j\010\017?\200\234\260\276TN\300>\374\252\020?\216\'\245>L\366\377=\335\355\276\276AJ\244\276\365n\224\276T\370\210\276U\365\265\276\355_\260>D\354\r\277\241@\247>\236C\344\275\230\270\216<\034\307\340\276\325\264\312>\256\327\212\276\327\251\200\275\316\210\206\276\001\363K\276\031>\253\276t\037\231\276\261\257\327<\374\320\246\2769*?>:\264\370\275\365\212\221=7A\277>\266WE?\363\002e>\271\2613\274\272j\032\277n\376\206>\241P\352\276\375K\206>\322\340)\275\004\347\236\275\334z\335>Y\375_\276\334\344x\276\223\242\314\276\016\t\372>\244\271\325\275\177\251\202<\270\234^=\2737\373\274o\t\203>\236\213\261\276\034\231\035\276\035\035.?\325\243\r=\217=\335>\200\316\t>*\240%?YA\r?\365\227\205\276\320\314\240>Qz\351\276\226\200(\277k\226\037\277\203\034h<}\016K\276\3341\002\277t.\313\275\\\317+\277\360\220\337>\333#.\2764o\221\276\323\252\267>\314\216\010\277O\3136\277\263\005q\276V\270G>m\315\304\275\323\032Q\276\\Q\231\276jo\306>\353\0061\276\300\317\003>\023fC\277\315\020^?\004\226\022\277G\254\310=\225\261\r?f\330\253>\270\245\327\276\006\262v\276mn7>[\347y\275N\302\273\276\205#N?\227\355\027\277\n\036\262\276`\254\260\276\244\307i\276_\016\317\276Am\327=L\325\214>\017\375(\277\014(\022\277\310\260\010=N\333\023\276\006\335\244\276T\0345\277\355\351\\=\227\300\007?\236\005\007\277\321yV?\314\"\320\276\305\007\234>\254\321\024=\343Av=q\256\376\276\354I.?*>\003\277)\017\024?\203\"\027?\210\304\322\276\021\n.\277>U\030\277\007\303\217=\251\013\260\274\300\373&\277\347\006\037?\315\2048?\000$\353\276\202\255Z=HM\250\275\361\334K\276T\201\370\275\271\262\002?\302b\245>\222.\250>\200\232\240\276\351\254:\276\225\251\371\276$\302\256\272\200Z\347>\354\252\022=\317\363\262\275M\253h>\224\037\270\270\362\300\341>fr\225\276C\243b\276\031\363\025?(#\366=\357n#>\374\352\332>\351c\335\276\343P\324=\222\351W>\360\336\006?L\343\365\275\026<\037?J\203\035>9K\255\276\2203\356=i\271Q>\271r\237>\303\245\355>\266\350\254\276\014\204\t?\370:\302>\212\350\314>~\207\243=\231v\007?\344\202|\276\242\274D?Y\031=?t\031\330>fI\032\275\227\312^>K\360%\277\212\034\t?\223\324\230\276Rg^>n~\204\274\231P\014\276N`0\275\031w\364\276\342$6\277\343\356\264>*\226\322>\331\276\n?9\204\326\274r\265\360\2754\ty>\322\\\r\277\227\334A>n[\351\2755\224\320\274F\305\316>\304\252\'\277\336\2262?\201\027\027\276\317`w=y\372\304\276\254\253A=\312\375\037?\2374\246\2754\260=>\265m\332>\256\370\332\275enu>S\334\341\276\342L\023?\342b\223>\024\371\254\276\0027\366>\247\nr\276^\214\334\275\343P\342=\310\267m\276\342\255\030>\340kX\276xq\327>\270\242_>\217\3073>V\226\240\276\305\241\024?{/;\277\026\317\256>Pz\004\277\220\274\333=\226@]\277\337\2002?\005\245\267\276\375\347\223\276\206\307\350\276W\361\211\275\310\250\204>l)4?\021\270\256>\212v\206>f\016\304\276|;\371>\025\211\250\2756\223\331\275`\333Q?\020%\277\275\275E\252>&\2463>l\202\372\276\241\335\026?W\'\203\2769\367\241=\205\353:>hm\277>\313\310\000\277`\255\006\276\365\027\253=\244\356]\276\374\243<>\257u\034\277\261^\026=N\035\313\276\266\353\017\277\377)F\277\336]\237\276\246\262\351=1\240\205>\350;\211>c\201A?\257h\215\276\377\\\031\277\337Y/\274l\232Y>;\005^\275%\337$={\211\227\276Y8\334>EXV\275\266\t\010?\346\345\344>\250Q5?\233\237M\276B?\372\273%z\351>\250\033\204>\371\232);`\037\204>\347?\347=\372\305\205=\370#\316\276\306\245\262>\3302~\275\247i\010\276\264\276\377\275ri[?Hv\254>\331\032%\277\251u\310>Y\226\325\276S\036\304\276\341\034F\277\235\275\352\276\341w\177>\r\344!?\240`(\275S\273\270\275<|\272>\354\306\204=fN\021\277\266\250\301>A\220\356>\254\354O\277\344sc\276\322LR\276/\333O?\033\3146\277\327@_?Z\352\222\276h\256\217\275\005\362\304>\266\245\323>5m\201\276\246\277v\276\250\342\357\273\250\262\313>W\250\247\276W\274\332>\274\364\024\277\315\221&?\222,n\276\036r\006\277A\030\242\276\323\3345>fd\334>\330\226\035\275\rz0\277\250\261>\275\300\374\375>\303\363\016\277=K\016?c\307=\276F1-\277\006p\226=\227P\004>1c\266>\356\377V\277\231t\026=-?M\276\377\250\342<JE\r>w*\311>\260 .\277w\230\352\276\221p\347\276\264\326Q>\232\244\337>\266OD\276\3107\375>\330\206+?\031\0276?\364\002<\277\265\353C\276\033\322\023?\353i\304>wR\025>\355=\277\276\306H|=\371mD=\350n\300\276#\301H>s1\324\276:D\244=\346\353?>rEp>\336)\260>5v\017?\335N\311>M\002\212=3b.\277MC\313><\2730?\225\237K=\030\t\377\275\311iB?8\274\276:QN\347\276\343\243\256\2764\023\023\277b\032\342\275\275.*;\375\004\014;\322|\312>\265\025\263\2762k\340>7\325\270\275g!\002\277Pu\240\276\267\353\224>\t\232\326\276)i\237\276\221W\255\276C1\342>tT\211\276\370\331\237>\017\341\037>\016W\367\276m\024\367>\217\373\005?\002\326\373\276U\2547>\2205\201>\222\\s\276\3510\235\276(\250\256>\2308R?j\222\022\2766\270Y=\275\034\260\275\251Y#=_{C\277\372\275\203\276\007_\001>I \301=\305\332<\276\320\347\036\276m7\326;\200h!\276\027\333h\276\304(\343\276\324\273\251=X\013\245\274\357|\315=\256\370<?\321\330~\275\031\261\247\276\320\230\227\276tA\224<\206\225B\277g@\t\277\017\264\203\276=\214h\275\302\222\203>:\351\252>\267\000\200>W@(\275%\306\017=\2242<\276P\r\332>\322\236V?\320O\345>\216\r\207\276\241\202\267\275\216\351\002?\203i-\276\033\323\366>\317\263\346>\260\266E?\205\225\007?!`\351\274\202_U>\270\327\353=6\025\'>\377\020\326<\271\265h\276\301\204\326\276\373\\\324\276\367\331$\276d!_>}\030{>G\220\305=E\223\233>\272\277P><mI?]|\224>\24107\277\365;\007\277)*]\276s\035(\276q\3048\277\354\016\211\276\235&\322\276\332\203\304\275\272+>?\\\372u>v\242\245>\226q\031\277\326UA>\377~\270>\r\'\216\276\342\313{\2761ZU\276VS\n?L\322*\2765\344s>$\262\241\275\030\002\336\276\343\303\025\277\177\007\010>\327{\277=\205\332\265>\003,$?i&\017\277\210Bp\275\367\325p\2769\324\200\275\002\356Z=\227\303\200>\322\337p>GZ\006\275\236\323Z>\320a\016>\330>\217>\301\224\263>\270/\306\275\023\361&\276\350s\023\2763\242\253=^qP=\327\373\211>\312H\304=\021l\263>\375A\217\276\214\022]\276\023\215\003\276cO:\275\260\222\202\276\020f\236\276\351U\200>9H\002\273]\242\264=\351q\217>q\233\263\276\333\277\006\277\262\305]>\014=\207\276\\n\275>\336\227Q?\034\3370?\206:\275\276\303\3144\277\036\215\r\277L\362\033\276\004\205\205>\\\316\224>|\'\245\276]\256\303\276My2\275\371y\006?\362\261\325>\262Xm>\032|\003\277B\021\367\275\307\323\364\276\242P\363\276\025.`>\200\344\000\276\354\004\324\275\305 \302=?J\002\277\n\347\016\276\337\'\352>n\036\354\276J2\233>|P!\276\r/=\276\023^\354\275\202\320-?v\025J\276\2035\220=`\302\250>E\352\034>S\253\003\277\242&\327\276u\204\037?M\211\324\276[Hc>og\250\275B\177U>U\307\215\276$\274\304>8\375\356\276\324k\232>\227\261\221\274\324|l\276\235\210\272=zn\370>\366\365`>\240\334I>Qfo;\325.q\2753)\353\276*\241\256>K\3755\276b\016\263>\314\305\020>KiY?\202\016s\276k/8\275\300\001q>z\222\032\276\367=\260\2763\244\220\276\345\204\323\276\317\231j\276<\365Y>\336@\n\275\223f\343=O\344\216\276\017\306B?\213c\333>\233\377`>\377\tY?S\240\226\2764\033f\276\307\230\200>k\020\247>\014\000b\274S\341\254\276\265&9=\256\241\204\276C\331$?H\236\262=\231\\\220\276\'6\302>\245R\343>\255\341\351\275\200\203\234>\323\202X?\335\234\216>X\363C\276\262\325U\277qU\r=\234Q\027?@\206\005\276w\206m>=sE\277\024\327\316\276$2\254\2759q\004\277+B\374>\255\013\225\276\235\335\330\276|\024O\275\004\353Z\277~\'\230>\375\366r=\033\252\312\273\245\3506\276\256I\334>\233\333W>y{;=c\3765?A\025z\276\374e\264\276|^\207>\300;J\275w\276\314=rz\302>m\312\226>\004H\000\277\320(\t?\350.\013?\300\004\352<\312u\245>4\311$>K\314\302\276\326\203\013>z\0340=\371n\252>^\225\253\276\353*g\276\003\350\227>\022$>\276{\345\236>\322tJ\276\017\357\311>_6\032\276\253f\341\276\3166P\277\347\314\030\277\036\007t\275\371^\276\2768\365+?\002\210\301<^\037E\277\360\343\312\275\244\267R?\347\367\350\276\341\306\300>3wm\274\307\3757\277\257\346\r\277\270\234\361\276\367\241\263\275\301XO?\242\026\275\2768Y\332>p\010\347>Q+\325=T=\277\276\0147\364;\250\305\032\277z\353d\275\353yl>\302\201\207>"
      }
    }
  }
}
node {
  name: "dense_1/MatMul/ReadVariableOp"
  op: "Identity"
  input: "dense_1/kernel"
  attr {
    key: "T"
    value {
      type: DT_FLOAT
    }
  }
}
node {
  name: "dense_1/MatMul"
  op: "MatMul"
  input: "normalization/truediv"
  input: "dense_1/MatMul/ReadVariableOp"
  attr {
    key: "T"
    value {
      type: DT_FLOAT
    }
  }
  attr {
    key: "transpose_a"
    value {
      b: false
    }
  }
  attr {
    key: "transpose_b"
    value {
      b: false
    }
  }
}
node {
  name: "dense_1/Relu"
  op: "Relu"
  input: "dense_1/MatMul"
  attr {
    key: "T"
    value {
      type: DT_FLOAT
    }
  }
}
node {
  name: "batch_normalization/gamma"
  op: "Const"
  attr {
    key: "dtype"
    value {
      type: DT_FLOAT
    }
  }
  attr {
    key: "value"
    value {
      tensor {
        dtype: DT_FLOAT
        tensor_shape {
          dim {
            size: 64
          }
        }
        tensor_content: "\200\316\202?_e\201?I8\177?\320s\202?\367\326{?Kw\203?\2375\203?}!\205?\235\'x?K\245~?\323\026}?\3522~?*-{?p\365\204?zw\177?\006\230z?\"\245{?0\324\177?\177\230z?k\324}?\240\006\200?3\232\205?\007\301\201?\274\030\177?\246\251\200?\"\252~?]\322{?WQ~?\007\271\201?\361\031x?\3464}?\220$}?\241*\177?\300\324\203?\373\363\204?6\t\201?\263\031\200?iH~?\353Y\205?*\220\203?K\275\200?7%\202?\262\"\202?\311+\200?\3059x?(\006z?}\275s?\006\377v?\226\310z?\003\232\200?[\323{?+;\201?\263\370v?\340k\200?V\252v?\240\031\177?\332y\200?\202\022~?L\224\203?)5{?\234\025\202?]\242|?\263\301\205?`3z?"
      }
    }
  }
}
node {
  name: "batch_normalization/beta"
  op: "Const"
  attr {
    key: "dtype"
    value {
      type: DT_FLOAT
    }
  }
  attr {
    key: "value"
    value {
      tensor {
        dtype: DT_FLOAT
        tensor_shape {
          dim {
            size: 64
          }
        }
        tensor_content: "\030\273\211\273\257\3475\2748\212\322\273\220\321\304<\361\232\343<\030\306\215:\341\354\304<I\335\217\273C`\023\274\323\333\002\273\263\265\245<\2708L\273N \000;\365\245r<\005\376}\274\326\037_;\243e\346<?\231\275\271\310\3379\274\217\353\211<\316\251\240;\271\201e\273}M\346;\353\253\027<I\213\223<\277\r\024<\310\360\370\273\277Z\215<\347\342&\274\"+\363;\206d\002= \247m<\240\365\203\271\244\227\302:6\372\022\274\274\365\030\275`\243y\273qq\255\2733W6\2741\351\320\273\307`\221\273R\361\226<\305<\232<\207\201\024\272J\373\247\273\212v\203\272\214\025\251<\324\007\271\274\264m\200\274\204/e\273\211~t< \364z\274\210\033O<M9\234:\211\363+<\214\324\272\273\216\312\226\273\364\266[<\347\036\222<R\306\035<%Y\377;6\310E\274\033n \274&~\231\273"
      }
    }
  }
}
node {
  name: "batch_normalization/moving_mean"
  op: "Const"
  attr {
    key: "dtype"
    value {
      type: DT_FLOAT
    }
  }
  attr {
    key: "value"
    value {
      tensor {
        dtype: DT_FLOAT
        tensor_shape {
          dim {
            size: 64
          }
        }
        tensor_content: "J\'\233>\324\033c>\002\277\277>Z\341m>\034\036>>`.\236>\252k\251>\232\024\266>pi\243>7\013k>lu\220>C\204\231>jO\205>d\376\347>((\213>}\3606>\207V\262>\3303l>\204\014\304>iT\255>m\360\300>\000\362\223>m\251\242>\371\246\n?\261\024\316>\340+\306>8=\264>vR\203>!\024o>&\256\267>1r\312> \254\224>\324G\262>\223K\324>\366\377\351>uQ\252>\023\322z>G(\344>H2\365>\022:\322>R!\207>\225\300\237>\025\351\211>r\026\254>\324\364\261>\232\370\275>\361\351g>\244\204\304>o0`>\270W\301>\037\242\242>?\326\303>5*\222>t\235\311>\220M\201>@;\221>\376\357\227>\243(\355>=;\354>.\333\254>_l\267>\004\340\215> I\321>v|\274>"
      }
    }
  }
}
node {
  name: "batch_normalization/moving_variance"
  op: "Const"
  attr {
    key: "dtype"
    value {
      type: DT_FLOAT
    }
  }
  attr {
    key: "value"
    value {
      tensor {
        dtype: DT_FLOAT
        tensor_shape {
          dim {
            size: 64
          }
        }
        tensor_content: "\272+7?\236\r\003?.\262\\?\2358\035?\014?\373>\276Oa?\030\340L?g\006j?\006\374E?\206k\376>\241z\032?m\220=?\362\323\r?\246\340n?\2435\034?XU\362>\360oc?\244\016\010?|u\220?\326e8?\013\006\\?\313m4?\330\252@?,\243\267?\310\373_?\322\001:?\001\3429?%\310\034?^R!?\t\020<?Q4\203?\003\2633?\377yD?Lh\222?\000\373\257?\244\207!?]?\033?<=\220?\027\223\276?\211\351P?hb\025?\300FQ?\225\325\035?\n\234<?.\215\203?\230<\200?u\211\022?di]?F\003\t?\373dl?|Re?knh?\013\316;?\212\326i?%\035\007?K?C?U\231L?\200$\245?\022\252d?\340\341Z?\361Dq?\214\343\024?\301\275\221?\322\336T?"
      }
    }
  }
}
node {
  name: "batch_normalization/batchnorm/ReadVariableOp"
  op: "Identity"
  input: "batch_normalization/moving_variance"
  attr {
    key: "T"
    value {
      type: DT_FLOAT
    }
  }
}
node {
  name: "batch_normalization/batchnorm/add/y"
  op: "Const"
  attr {
    key: "dtype"
    value {
      type: DT_FLOAT
    }
  }
  attr {
    key: "value"
    value {
      tensor {
        dtype: DT_FLOAT
        tensor_shape {
        }
        float_val: 0.0010000000474974513
      }
    }
  }
}
node {
  name: "batch_normalization/batchnorm/add"
  op: "AddV2"
  input: "batch_normalization/batchnorm/ReadVariableOp"
  input: "batch_normalization/batchnorm/add/y"
  attr {
    key: "T"
    value {
      type: DT_FLOAT
    }
  }
}
node {
  name: "batch_normalization/batchnorm/Rsqrt"
  op: "Rsqrt"
  input: "batch_normalization/batchnorm/add"
  attr {
    key: "T"
    value {
      type: DT_FLOAT
    }
  }
}
node {
  name: "batch_normalization/batchnorm/mul/ReadVariableOp"
  op: "Identity"
  input: "batch_normalization/gamma"
  attr {
    key: "T"
    value {
      type: DT_FLOAT
    }
  }
}
node {
  name: "batch_normalization/batchnorm/mul"
  op: "Mul"
  input: "batch_normalization/batchnorm/Rsqrt"
  input: "batch_normalization/batchnorm/mul/ReadVariableOp"
  attr {
    key: "T"
    value {
      type: DT_FLOAT
    }
  }
}
node {
  name: "batch_normalization/batchnorm/mul_1"
  op: "Mul"
  input: "dense_1/Relu"
  input: "batch_normalization/batchnorm/mul"
  attr {
    key: "T"
    value {
      type: DT_FLOAT
    }
  }
}
node {
  name: "batch_normalization/batchnorm/ReadVariableOp_1"
  op: "Identity"
  input: "batch_normalization/moving_mean"
  attr {
    key: "T"
    value {
      type: DT_FLOAT
    }
  }
}
node {
  name: "batch_normalization/batchnorm/mul_2"
  op: "Mul"
  input: "batch_normalization/batchnorm/ReadVariableOp_1"
  input: "batch_normalization/batchnorm/mul"
  attr {
    key: "T"
    value {
      type: DT_FLOAT
    }
  }
}
node {
  name: "batch_normalization/batchnorm/ReadVariableOp_2"
  op: "Identity"
  input: "batch_normalization/beta"
  attr {
    key: "T"
    value {
      type: DT_FLOAT
    }
  }
}
node {
  name: "batch_normalization/batchnorm/sub"
  op: "Sub"
  input: "batch_normalization/batchnorm/ReadVariableOp_2"
  input: "batch_normalization/batchnorm/mul_2"
  attr {
    key: "T"
    value {
      type: DT_FLOAT
    }
  }
}
node {
  name: "batch_normalization/batchnorm/add_1"
  op: "AddV2"
  input: "batch_normalization/batchnorm/mul_1"
  input: "batch_normalization/batchnorm/sub"
  attr {
    key: "T"
    value {
      type: DT_FLOAT
    }
  }
}
node {
  name: "dense/kernel"
  op: "Const"
  attr {
    key: "dtype"
    value {
      type: DT_FLOAT
    }
  }
  attr {
    key: "value"
    value {
      tensor {
        dtype: DT_FLOAT
        tensor_shape {
          dim {
            size: 64
          }
          dim {
            size: 64
          }
        }
        tensor_content: "\030\034\264\275\000\243\237>z\306\010\276\032yy>\306\333\036>h\205\341=\3707=>\'\005\263\275$J\035\275\351\345\201\276\271y@\276\365\360\025\276w\216\250=\213\316 \276\271;\203=;\337+>N\034\251>m\272\036\276\227r}=\235\232$\274l\030\007\276\243\024\264>\250\030\367\275Q\312\334=\0012}\275\216K\215>\376\210t\274F\032\314\275\031`8=\352\253\n>\224:8=\202\334o\276\017i\206=\006\007\006>\340\364\212>H\010\342=\037m\037>5\211\263\275\032S\310>9*\243=\241\254\014>$w\036\2765\341\027>~S\000\275;\2629\275P\210\250\275\301\355\260=x\221o\2736v\254\276\206\237\245\275\020\334\025\275\312\242:\276L\237\201\276|\302\210>\350\n\221\276\211\204\353:\227\016\211\276\354\234L>h\022H>\254\256\220=\332\222\357\275\300\233\200\276\270\2675>B\265\322\275\247,\031>\367\222B\276H\035V\276\001\021u\275p\013\017\276\n\372L>\'\254\300>\267\203\242\275L\313\204\272\202\266\277<\334\027\307\275\344\214\234>y\221\341\275T\026\371=\227\277\334=\263i\002>E;\313>Ke\274\276\252{,>+\306\202>\355\3462\275\351zY>a\351O=\311:\304<\345\245\206\276\222\010z\275\247\352\362\272\\\230`> \243\025>\356\204\357\273\315\353w>\376\250n<\213\372\256\274\345\217#\276PDE\274uf\210>\247\324D\276D\004\n=u}l\275\350\265\214\276m\324U>hC^\276U\333\212=\350\257\252\275\006U\330\274\372\305\371=H@\213\276Z\217\316\276\316(\240=\211\206\251=@$\260\276\215\362\247\275\267=\313\276(\242\235\276(\240\200<8C\375<9d\337=\311\311b\276\350,\254==\232\226\276\371\261\r\276\031\362\021\276$\327g\276\200b\247=OX\231>\237\317!\276\251e\004\276\354 .=\236\234\201\274\350\372\225\276\341\271k>P\316N\276te<\276:4}\275F%R\276\200\300\217>q\n\220>\352\265G\276\004\305\305=\266\010\300\274\354g]\276\217\025\305=e\025\246>>\265z\276\207\276\231>\005\217\\==\217\017>\n3\257=\336N\030\275\353\0268\276\357p6>\247f\214\275\362\373r>\334~\353=#8\334\275\371I\260\274@\363-\276\004\213\203\274E\350\275<-\320\260>=(\372\275\\\205&\276\366f4>\243{\346<\355vA\276\353\376\032>|P\271\276xy\246>\362\255\253=\000Y_>\351%^\274\346\214\276=?\375J\275\237\372|\275\020\006\007\276\236\013\032\276\331~w=)s<\276~\327V\276n}\227\276eDy\274\343\337\233\274[\3002>\320\206Z=\203R@\276W\261\305<\033U\r>\367\220h>\37459\276\000\300u\275\017MM>^\300\024=\315\264q>\3272Z\275f\341\344=<j/=\263\3012>}\233H>W\304.\276H\221\005\275\017\222\n\275\252\212]\276\214B\315\275i\n$\276#g\026\276\371\032\205>\374?x\276\014`\017>\020s\271<U? \2758\265`>\334\3337>m=\006>k\354+>\000\235C>R]\264>Z\244\t>n\035\006\276\005\311\026>%I\270>\343\362\334=\357\261\273>v\344\215>\222C\305\275\032\'0\276j\200B\275\320I\327=w\262\244=\226;m>AR\325\275\203;\200\274\271\301\023>/aw>|4\243>\270\023<\276\201\257\310<}\253^>/\302\226\276d\"\334\275\032\230\311\275\264 \212>\334\342\206>>\233G\276\205\'\206>\361\010\002>\305\314(\276\341\272\026\276\227\226\266>\205\204g\275\226\016\213>\364R\344\274\303\344j>\366t\326=\031\304\207\275\307P\211>-\022\211=Cc\377\275\317\030\235>\021S\303>\017\2321\276\232\376w\276\022pq\276\245\222\020>\001e\253>\321\"\210=T\303&=\352\021\217=R\355z>\353\236\255\276S\311\221\2760!\022>\366\335\t>1\375_\276\204Q\334\275(\234\215\276o\265\017\275=\267\252\275\330\346\001\276\377\2626\276:\375\335\274\223\014\034;\"n\231\276\'\3246>z\007\247\276\270&%\275n\024\342\273\351a\025\276\351\010\033;\275@\246\275\207)\255=|\241\036\276vB\344\275@\"\333\273\016\301\271=\351\255\230\276!\203\303\276\220\331\210\275\253\232\344;\317\r\333\2757\274A>\216\304==\260\363\221=|.\312\275\rg\224>X\343D>\026\230B>\013\035\274\275u\316\r\276\037p\262>(Zd\276w\370\342<~Td\275\261\2228>\361~\370<\334c\267>4\203\037\276\037\0029<\005+q>p\273Z>j\004.\275\357\206d=\004E\000=\336r\242=\250O\037\276\302)\257=\345k\363\275\356F\224\276\253\\A\276\270:\027>\342\354\262\276\376(\253\276:d\312\274\262\032\205\274\004\217\330\275\2520\002\276\271x\016=B\034C\276\313\206n>\312}.>\356\264\246=2\315\t>\3661\321\274y\3444=\243<\330>\247,\311\275tm5>$\210\031<NX\251<I\026n>Y@\010>\342\027\250\276jm\244>\235\246\"=@\025|\276ek\213\276\004\222\311=YD\203\276]\020(\276f\014\254\276\243\316\024\276\360\245\022=\247\016F\276\341\254\236<\242\303F\276n\\\262:\017\273==\314\266\t\276\365\266Z\276<2p>*\177\013\275r\214k\276\247\324\311=(mD=d\3462\275\243\300\213\275d\252\357=0r7>!\264\236=^\021P\275e\302B\276\233\0257>\217\305\347\275a\362\026>j:\214\276\202S\202\276\374\333\t>HBg>\\\210\202;\2047\301<\022\033\310<\213?->\305)\031\274%\352\233\275\'\360\205>\214(f\276\2436\323=\216W\270=E\n\357=\252\253\277<\214\262\300=\211$\206>z\344\210\274\317\2605=\274\312\217>\242{\333<\r\220\323>\261~&\276Y\304\371\275\314\034\300<\246\216e>\310\027\022>\206\253\312<&\341\233=!\206\005\276/t7>\n\221\214\276\\\266\243\276\342w\226\275\3051\326\275c!\341=\3033\\>\220\357\245>d8\003\276\3217\210\276\361\260a\272\r\313\325\275\363JJ>L\362\261\275J\rV\276\010\306\212=h\343\206>\326l\223\276\242\230\251\275\250\257D>\016d\257>\000$w>\343\225\212\275\307\361\317=\242\331W\276\t\352\377\2756\314\211\275\273\373\370=\316\361\206\276\350\r\'\276\2379\305\275\301\342c; z\">\201D\254\276\263\227\276\275\220\322\204\275T\211\211\276sf\213\276T\277\207\275\222/\024\276\002p$>P\370\240=\244\026\267>]\225\367=Db\004=\232\245\035\276\317\036\315\27464\324=`m\037=q\312u\275\032\032m>`\004\234\276\373?\352=]K\215\276\255.\231\276\322\353\027<rt\374=\323\0349\275s\030\361\275U\005\023\275\321\0345\276\363\356\242\274\036\335l\275&d\272>\262R\000=\301\rH\276\253\007|\276\033\257\205=\334Y\024\276\000\323\263>\256\264C>R9\236=a\321\026>\246\2608\276G\222e>g6j>\315K\037>B~h>`\251\021>\217(]<\307%\365=w\"\374=\337c\371\275\206\265\213=\363\341\241\276\005qb=\026\265K>i\340\317<\325\324\n\276\266i\371\275?\3232>a\313\332\275\353\370\203>\245\311\027\276\375\240\311\275\276v2\276k\000\343<\332\377\316=`#\t>\002\022\233\275f@\275=\255h\201=\224\222\366=\242ub\276)\006\337\275\345\326\355=C0\003>\031#\243>.}\314<\372\026T\276Xeb>\220\244h\276\353\267\230=\t\014z=C\310\242=\037\244\211\276\266\031\177\276\221\200\236\276F\373\365\275\0200\355\275\330\240\207<\260\216\364\275\005\377\340\275!RG>\310\025;\275r\210\335\275\266p}\276\213\221\222\276&B\313=|\364h>\203\035\373=T\331\375\274\322\014\263<`+e\275\323\362\004\276\376\264\242\276\354<\206=\311\352\206\276D\226\t\275\351:P=VC\'\276\336\267~\276n\031\024>a\003\005=\274\342\263\276\300Y\204\276V\252<\275\375v\275\276/f\221\276\300\345\220\276\020\371i\275\316$\022\276\'\315l\275\253W\207\275\027\346$\2755\313H>\241\030\371<\357$\202>~\3348\275\373\233\342\274H\216O\273\312\211_>~\324\355\275Ajw>\222\037\214=J\224\227\275q\362\223\275\223\262\t\275\263\013\316\275\232\274\312\275q\354Q>\234\320\211\276Q\022C\273\243\251A\276^\006\321<\031*\210>\327\003&\276\020\241K>\267\206`\275Xg\230>uv\376\274\322L\263>\345|x<\300\221\224\275\211~\013\276\346I(\276\264[\305=\306*?=_ \025\2767\340\250\276\244F)\273\352\372?>\231\334\026\275\272\301T>1YT>2{\204\276{\310\265=b\373\210\275$&\226\273\013\316\253>H\357f<\0376a>Q\032\202\274\020\347O>c\337\t\276T\020\310<\215\304\036<\262\251T=\365 \240\276\001\014\213\275\211\2164\276.V\343\275\001\277\037>u\207\260\276;\360,\276\207\233\253\276\304\314\341\274\2664g\276\304\310\226>~5\362\275\374uC>\322\220\223\275\n.Q\276\213\tZ>C$\006>Y\274H\275iO,>N$\207\276\214)^\276<.\203=F\374\270\274x\022\013>\234,\261\275\324/X\276\376\035\030>O\214b\276\207D\024\2754\254\271\276\371\371\323\274\350\325\260=\207e\253>\355\t\207\275\213\352(\275\200\324\251\275ko\006\276w\361\346<B\361\273\275t\370M\276M{\232\276:;\350=\017\205\220\275:V2\276\255\266Y\276\017\222\214>Y\220\267>\343\313i;\334\366\">\333\021\266=\353\341\006\276\212\214%>i\237\332<\332\231\222\276\257\231 \276\233\250\036\275\334wS\276\231]\030\275\301\360\224\2766\336W\274;/\024=R\177$>\243Z\212\276\232\221\212>\031]\r\276*R\244>\0149\021>\255S\246=3J\344\274\255x\245\272pLU\273x_\014>\263vl=\206I(\274\261R\212>\377A\031=\222\037\216>\364K\216\276\244d`\2767\035F\274l\013\216>Z\376\333\275wq\253<\223\246\\\276DL\221=\320\304\342\275j\036\">\303\222\272\274_Q\004\276\312\326!>\263\251\320>\327\313<\276\212\212\014\276Z\374\237>\243&,<I\007\345\275\000r\354<:SR\276\252\342\203\275j|%\276\013$\335;]\223\206>\246\033\223:>%\272\276.\273%>\000\372\321=\037\232\374=\217\027\243>\'\366\002\275\205\n@\2769\242\337\275N$\204\2766\300\033>~zR>\272\367\206>\354\204\356\275\200\311H=\226\007Z=\341\236x\275\250\241g\275\337\223\242>rg\366=\333c\007>\214y\001\275\025a\221>\304B)\276]\372\264\275\\\242\213>\201\333\242\276\300\2412\275\223i\213\275\255\033\353;M\037\301=\237\323\245<\027yy\275\031D\333=D#+>\246\220\302\275a\212\274\275\226\235\375\274\2546\235=SJ\\\275Oy\206\276\330\005\006>F[\260=\374\240D>\024\000\226=\021A\203\276\332\316\377=F\303>>\362\331C=\260\240\310\276\333J\257=<\234\'>\021\033\231\275K6\200\276<h\037\276\342}\240>\242D\206=\002\373f\276d\344\231\276\305\'\t\276\025\365\242\275\030W\'>nk\261\276\\\274\024\2753\024t>\257\266\222\276\317\307\223\275\221\020\022>@8u= \362\236=\211\335\037\276nG\250\2752\360\347=\336-\217>\275\312\200\276D\357\236>\250\n\313=\277\370\354\274Ml\325=\2247\004=|\024\014>\314\004\341\274\201\260r\275<R\222\276\202g\324\276{\346\255\276C\254\251=o\232\376\275\361?\220\276\234e\241\275\355~\375<\036#\214\275\256\372\r<T\204]\273\275\367\316\2753\354,\276Ue\253>RXm>\003\320\031>\233\243A>\340,e>x\272\274\275\034\242\205>\036>\023=\005q\200\276\266\210H\276\221P\213>\333\227l=\223g\275=|US\276\322ZK>\r\332\313\276\327k\233>\344\246\271<1\022\210=UF =\200T\322\273\333\035\014\276N!\037\276\001\346\344=\032\245\016\276/\333f\276\036\222\237\276\272\032Z>\007\031\256=\307\334\r>\346,\353=4p\210\275\316\026B>\220@1\275\246\354\317\274:\025\025\276\000\314\210>#T\005\276\r3)=\221\303\267=\007\251W=\206@\267>2\201\023\276\2421\203=R\353(>\0329#\275\tx9\276s\0315\275,9\202=\273\275\250>\231\006\342=/,\037>\257f5\2767\376\005\275\0145\314\275\375B<=\326\336\216>\316H\301>C\005=>\021\276\240>\005\222\241\276\255\354\206>\273\243Y\276J\256\\>6iV>\006@v:F\356\300=`t\351=]\306\367=\3558\001=\n\231o\274\025\007\237\276\351Y\334=\033|\372=\343k\201=&4k>\373\027B=\323\215\257\276\243\002\254\275\375\217*\276\244\357\227=\211|\223\276D\314\271\276)V\226\272;\376\210\276\006\031\227\276\375\247z\275\206\030X\276\374|x\275\262\213\213\276^D\361\275\021\345\000=\317\226S\276\027\3014\276\031\025B>\314\246U>4\321\270\275\260\325\037\276\314@\362<\222`i\276\3318\211;7\267\241\276\n@\'\275\315\250w<i\022\211\2765-\204\2767\031\206>\233\241\021\276\016V\010>\234\351{\276R@\331=\327\232K>\361*\t>\261T,\276\235\254[<ETh>\006\266S>\310)\227>&\240\357=T\025\361=\341\304J>\250)V\276\374\224d\276W\002O\275\\@\001>P\017S\276\274&\002>\371\002~\275\014\005\373\275*\361\245>\343k\325<\036/\215>\346\230\223\276h\373\316>\235\213M\276\317d\374=\022M\031>Q\336\027>\336\0231\276\037%i\276\203K\272>\014\200\216>4\260\330\2759\264\016>\252\204\036<<Qp> \351X=\345\r\301;\201\346\221\276\266\336\264=[#\027\276\353\005\007>\215\307\023>VP\271\276\014\366\"\276\354\264\003\273\213\337\242>\332\'\303=\031(I>\3230L<*\352X>9O\342\275Y\247\032>l\031\202\274\202\227\201>Q9n>\375\225\254=\216\264\001\275\306C\301=i\361*>\337m\372\273\270r\216>\236\263\236\274~\232\230>w%\244:c\355V=\203\335}=pP\201>6\002\206>\370\227\261=2<k\276\256g.<GIT\274f\020\003>7\267n=\376\0240=\344\265\273\274\276\236\216>\247\230\242<\370H\006\276\353`\377;6}\220\275_\330Y\276\327\206\206\274\337\265(\274\226S|\276\351G\305\276)\010\n\274\221\300\021\276\303\371\271\276\267\256G>\\/E>\241>S>\207\367\242=\324\036\017\275\262\272\'>W=k\275@\365\204\274\305 \020=\227\331\023\276\214BN>&\351\216\275d:6>\177\367@>\201\250\020>H\236:\275\r\352\216\276\213\354E\274\260\031\220\275\273\030\226>\004\237\330;\233\202\204\275\220:n\276W\227\302\275\021\205+\275\n\\\355\275\375\320\211>8\211\200\276,D0>\247\307\276<\274\261\202>\370\007\234>9m\243\276\311\016\001=\2413\300\275g.\310<\364\225\035\276\353\370Z\276Z5\006>\367\242<\2762\212\256\275%\260\206\2766}b=\353\356\250>Q\030\201\276UA\300\275\345eC>\351\006\307\274t(\246\276\377\2108\276\355\030\010>*\264;\276\022\360\007>\033\247\241<\370E\017<\305p1\275M\256]>\035\3412\276\3708!\275d\025\276>\343\244j<\232[\227>h\212\224\276\330\021\030=\355\226[>\001\204\340=\347j\233\276\034r\323\274\276\324\326=d\367\210\276\36091=\312\353\306=2\255\005>\273s\221\276>\345\203\276wE\262\276\242\331\030\276\306\"\327=\374+\007\275 \r\317=s\214\370=>\033V\276|P\2568\032\233\200\2756\326c\272\224\027\014\276\226$^>Z\025\"\2761\257\226\276\010\263\323=\000i\021\276c\351\262\276\374\2633>|\364\320\274\232\331\031\276\333h\202\276W]L<\2255V\2750\226\013\276@u^\273\005g\034>\246`\r>\3379\000\276\023\252h\275^\372\021\276\361Z\376<Q\237\364;\002\252x>\271#\251=\376g\230\276=\277\016\276\260R@>HA\315=\231\320\223>\201\373>\276\200\346\363;\315\r\014>g\264\026=\315\031E\276\001D\230>\376py>1\252\262\275o\216\020\276].\201>\267=\177\276\225@2\276\275\275\263=\324\214S\275\031j\272=\210\r\355\275P/\256<\327+\253\275>\t\351=\342\271{\276\315qi==\364h>\240\210\314\275P(\212>\327V\272=H\225\216\276\373\274k>\344N\260>]\027\315\275\232\302\224>\203z&=\335\344\236>\321k,\276sC\025>O&\233\274\301Fu>\306\006r\276\217B\241\276\330\311\206\275\351,\213=h\372M>\310P\017\276\315\230\212=-\211\257\275\245\275\243\273w\372\010=^\214\021>\037\336-\275N\377^\276\027~\266=\t]\376=\367\217\t\276\344,\356:\304P\232=\244\336R\276\261;\251<\035*\345=\363\302m>\371\021\325\275)k\032\276\341#_\275\332\260\373=O\032\330=/\243\257\276\240\231\202\275\320\025\345:`*`\2767g\301=\350\247\363\275M#\255>5h)=\005\026\274\276\333*\356\275G\343X\276\014.P\276\212P\305=\006\235\255>\275\314\207=\321\261\272\276\277\227\222>O\002\016\276b\306\230>\362\027\227<\022\234\213\276poz\275\321\302\025>\364\232\336\275\364 \247\275\330\273\257\276B\373 \276s\246\351=VT\213=.t\205\272\347\272\243>\340\345\215\276L\034\375\275b\372\016\276\366\365\000\275Q\266\225>9W6>\014\320\274=d\363\236=\373z\024\276\352\370\260<\355\326a>L\301z\275Y9\002\276L\340\240\275\2252\034\276\01635\276\214\336\312\275n\260I\276\331\372\233\2757\323\"\276Z\017\352=8\227\301>B\306\036\276\350\263\'<\250Hh>\355o\002=&\310\021>\252\363/>\025\271$\2764\254,\276\341Z\235\276\0267\"\276\213\235\007\276\243P\220=\343V\320\275T_\250\276%\207\335<\311\2657\273\373\262\006<V\0273<\002\030\214>\205\367\231\276D\215v>G\006\256\276:w\265\276\203\222\222>\034\037\034>\232\303\306>\356\234^>\350M\270<\361\347\017\274QN<<\330\361 >\343p\232>\006P\303\275Z\177b>\004\226\002>b\023\003\275\347\016\326=\353i\002\276\265\206G>;\244\352<\335T\235>\221\311~>\334\3738\276JU\206\275\203\201\366=\302\276T>*\023\376=\321*o\276\'X\251\275\241\r\266\276\2731\010\276\220{\372\275\311\213\245\276C\020\350<\223U\335=>\0022>D\r[>\237\376\310\275\275Q\351=\021\272.\276\253\005?;\203pV=\317\277\231\276\222\316\271>\237\355\032>\210\362(\276v\030e\275\'\3344>X\347h>\365\246\213\276\333\300A=\212\257`\275\323\010\234\275V`\306\276\223\200\266\276`\260\203\274~\342\031<g\273@=\024\245\203\276W\335f\276\216\035\211\276\275\231p\276\243\357)>\203\035B>l\353\326=\022T\r\276\024\230\'\276\242W\031\276\346pk\273\264K\025=\371S4\276|\213\010\276\262\020O>\266\257T>$M\202\275\315B\253\276X\215\234=Jo\014=%\274?>\323\'k\276\203\237\265\276\257\373\352\275\314\244\312>g\200\263>\307\'\310\276\021\255E>\231\355\330\275\006\212#\276\365\231O\276x\317\264\275\237dg=C\021\347\275\306\213\255>\321\253\021=\370N#\276\221\321R>S1\202>\353v\336\274\200\227\334=\316\305\001=`\254\001>\026\207\211=\013\005\205=\273?^>\320\304\205>\337\234\030\276\301\265\022>\022E\016\276/k\212>*M\003\276:\376\217\276\000\212\035\276!}a\275\226\237\275>\344X\037>\211P:\276\311\337\314=\264\301\354=QWR\276\341\"\341\275\205!\221=\342\034\303\274\333/y>Oh\037>\277]\356=\361\264\225\274\340\227\351\274q\242=\276\261\000\'\276\020\373?>\366\206T\276?\211\337\274kw\323\275\3630\236>v\376\017=\322[\314>:5\330<\353\352\274\274\222\300I=\313\000?\275\020\020R\275O\3065\276\247\370\231=\315WH>\255[j>/\177\027>\020?/>\r\024\023>\301\"\006>\277$p=\344\371\237\275\344%\315>z\314u\276\223\372\326\274?.\272>Q\025^>\277\341\320=kr\344\275l\363\303\274\024O\347=U\331\033=I\320\020\276\321\234\221>\356\350\212\276\223r\355=\320\360p>\311!\206\276\373e\321\273\304\206\010\276\325@\311<0)\222>:\356\225\276\307n\244\276K\210M=\023*Z>\240\253^\276\276I\321\275\376\2530\276(\264\201\275\245D\">\244{\303=_\n\347\274\266\016b\276q\241\213\274Xzx\276M\236W\276\267\t\204<\250\264C\276\024\205\216>\247\374\205>:\312\263=`\337y\275\202\211;>\371uY>w\203\031\276\251\370G\276\227K[>\224\323\035>\212\321\251\275SO\203\275jt\214>78\213\275t!\217>\217\255\274=\363\201G\276\010@K>\313\177\266\275\022\345\207\276\331$\377<\242Z\034\275ye\343=\307\307\247\274L\334\250\274\2723G\275\241q\204>,F\035=\374\3348\275\302)&>[\215w\276\\\0339<}+ \276\364\227\r\275j\213\253\275\022a\223\276\304\374\272=\265P\030\276\327h\272=/\001\217=\223g\272>\237\204\262=\214\313\327=T%\276>|8?\276\337e\225<\253\005\r>\375\231\351<\003\023*\274\356\n \276\360\343\003>\272\256l\274\226\317Y>\201\3150>\0256~\275\303\213\024>\372\025w=\263V\007\276\031\245\217=-\035\237<\277\254\024\276`\342\242>]\301>\276\370J\206<\353\\h\275W\212\034\276\023\023*\276\255Bg>\033.7>\031eu=]\246i\275<P\000\273\357\030\232>\310& \276\273\333\223\275\235d\265=\305\324b\276\213z\252>\027\275I=t\017\311\274\007\334\331=N\276\260>\276\214p\276*2(\276\352VH>$\371:\276qj\331=\027\350\237\275Y\251\322>Zd\306=\203N#>\307\224\314=\024|\217>\224&\265\276uX\336\275\220\0211; \245\251\275|\2375=\307y\234\274F\273\341=\305\320\217:E\026\201=y\310\">\371\366\357\274\267\010n\275[\\\243\275\304\304\253\275\332\273\000\274X\033!>\333\336\275\276\246\321\247>\355\211\001>\340\022&\2768\034?\276\022\266\324\275;\224\t\276\320\357\021\276\252\030\"\276\016\367/\276\004\253L\275\234-c\276l@\021\276\344\017u=\326\342\216\275\226\020=\276X\270,>\022\3755>\243\273\257<:g\014\276\033\366\272\275q^{\276\376w]<\007|1\275\221T\205=\237\036\226>\203\256\002>jb\300\273~H3\276\236jV\276K\027\035=\314\270\244=f\334T>\263\362^>e\374.>e/\033>\003r\263\275\312\356\337\275@\362\232\275\202\264k\276\260T\263\275\245q\215=\017\\S\276\224\t\357=_\307\264>\235\264\270\276\027\014\213\276\202YP>\303\375\307=gIY\276G\227f=\320\031d>>1\372\275/\251\251>\266d\\\276\265\014e=\373\352\334=p\363D>\220j\223\276F\374\231>7\214\232>Md\371=\251\363I\275\302\026\272\276\203r:\276:v\203>\013\251\275\275\'\270\220\275-\317\026\276LH\016\276\277Z\032>\274\276\254<=\335\027\276\200Z\200\276\265\217@\276\276r\262>K\263\013\276\253\004\n>D\222\262=\2723I>\233\307\227\276\215\265\267>>5\221=\t\310\024\276TNm\276\010\347\363\274\314\231K>\317\213y=\203\030\001=]`b=\336^R\275CzL>\023Q=\273\217\212r=F(F\276d%\000>\030\254/<\242\017i\276]\013\024<K\274/\275\216\221\317<R\354$<\252=\365\275G\361/\275\327M\226\276\217\344\201>\376\rI\2765>\211\276\022<\215\275\237\227\216<\203\210b\276T\'\222\275\247\273\271>\276\302\252>\032(\302=x\2458>qwD>\260\320\333\275\026D\277=\026\337Y>\3463\303\274\242px>\n\224\354=?\374\224=\233\032\200\276\237R\255=\353B\243<T#\210\276 \014m>&}\360\272l\226d=\237\017\307<\331\303#<`\351\334\275\242j\273\275&2\275:x\343\002\275#\0056\276O\241\313=\331\245\030=O\205\200>\322\334\226>}\260\r\276\230\245\247\276\227\354\211\276i/\257\2758j\251=\356\224\274=\334u\314>\234{N>\024\200\303\275\371\352\300\273\3055\021>\327\272\324\275\300\263\344\274\203\214\206\273\352\315Z\274\326A\247=\033/l>\014\277\207\276\3042\031>\333/\227>/\300U>(\375\254\276\324\263\247\276\210AE>\203\017h=J\315\311=\344\310\312\274\007\266B\275\326\354h>W\250\316\275\211\266\002\275\224\243\236>O\315\203>\262\253\013>\217F\330\275UI\342<@^%>\341_>>\000\252\222\276\236y\220>,\246\254\274\n\364\n\276\307\236\255\276H\030\">}!`\276M\017\374\275\204m1\275\026\211\020>\246\356e\2761\352\323\274\330\004\233\276LY+>\264\033\272\275zE\211=\343\321<\275(\304\030\2759I4\276^\220\217\276\264\335\215>\214\3362\276\266FD>0+\030>B\363\n=3\260\210>\314\231\264<\005\253\"\276N\234\021\2768\255\277\275\255\r\277\275\257bS\274\252fj\276\217}1\276t\366\240\273\275\214\225>\203;\205\275\007\023\231\276\337\307?>\025\275\337\275\261\231\010<\016Lj>\266r\201=\246\210\216\276\255{\323=4E\230\276\025\351+\275\215\307\232\275F\236d=8\334\252=T\377a\276\365pK>\272\345\224\275pkk>\225\221\t>\273R\207\276\273\335\276>\235\347h>\305b\201\275{\335\204=\005\013\334\275\304,\357=j?\025\276\200H\277\275\'c\204\276\037\212\347\274\367\373\311\274.\315(:\204\373)\276B\375\025\276\341}\214>\223\300\255\275X\316\031>\226\233\365\275M\034\363=O\374\342=\212&N=\3040P>\006\003S<k%\336\275\035js=\033\360\210\274\313\343\007\276\376<\177\275c\304\312=\377\302\265=\207\032\327\275{\364>\276\272\301M\2761\3571>?\204P\276H\327\337\275:\331[\275\326\032\204>\265\211\210=\234w\t>\217\035Y\275?\347\213\276\371\'\241=\000\034\236\275`\273\002\276k\227\224;\356B\213\275\t9\177\274\tp\023\275\350s\266\276\222}.<\353\247\321;\273\017\001> (e>A\037U>oq)\276\272~=\276\010\004\001>;X\t=\240\356\016>\341\023\013>\256r\325\275+\243\234\275\2621\217\275\251a\035<\333\253\022>\337^\030\275\\\243L\275\246\225\340\275=\007\341=o9\216\275sd2>2-S=\005\270\001\276p\234\257\275C\2113>M\371\036\276\'\271U;0d\342\275se\223> P|\275IYU>\330\345\246>\256k\261\273\230\361L>#\3666\276\202\005\257\275nrR\276\263%\240\276&\241\'\276\032J6\276\3504\243>\275\244\277<\"\236\255\275j\216\211>\242\337\227>v\300\205=7\017?\275\275\021\327\273\263\216\250\276KP\223=\254\323\033\2753\177v>\024\261\232\276\300\027\">\013(Y\276\r\'\245\276\301\006\025\275\360\215n\276\307\220\004>\211g\215\276\241\364\376\275\376\333h\276\276j\t>\340z\255=5\313\n>W,\316\276\323\2245>q`\263>\006B\206\275\264\232U>\312\2701=\321\233\334\272\317\376\007=\000\330`>Y\305\013\275\211\3759\275I\203n>=\364\222>\003.0>m\267Q\275\244\000#>$\235b\2757\220\210>-\273\331\275K\024[\275S\335t>\330Jn=\217\300\002=`xI>c\261\224=\342%\377=\346\225\334\274\027`M=\2028\311=\247\033\031\2765c1=\350\036\206\276X8\256\276y\013t>\371@\n>6\333\240\276zt\256>\007E/\276\344k\207\272\375wn\275\r\007\235\276G*\265\276\343\202\261>\347\370\270>\261\n\035>\3176\361\275\331\347\244\275\025E\023>\023\356\014>\202z6\276\265k\320\274\036\002:=\220\t\t=\r\221\203>\326z\311\274\\\275\"\2766\276 >\277\271\020>f\305Z\276\357\303\254\276\354\237-\276\276\352\322\274~\233\264\276\374\300\274\271\245)\014\276!d\264=\373(n\276\033z\324\275W\316l\276\216\001\016>\244\236\362=d\305\t\276\017X\232>C\000\245\275*\303^\276\021\2402\276\020{6>,\367\215\275_\002+\276.\256\203\276D|\333=m\370V\274*\324-\275\264\333,\276#\3258>\260\356\240\275\3639\310\274&\273:\276nO\275=\\\345X=M*9\274Z\260\345\275Aa\366=\277\010T\276\350\262\216>\255k\265\276\020\207\346\275\202I\265\2746\266w>\250\225Y\272%\367\002\276\270?o=N\032\360\275\240\316\330=A\221\017>t\334\202\274&\243\001\275`R\263\276=\022\230>O\022\000>\301\251l>im\212\276=R\372=V\205k>o\377\216\273r\251^\275\330\201\276>\320$n>\010\200\264\276u\367\266=X\264k\274\245\300\304\275\033\222\262>\205Z\002>C\325\t\276\376\'\033=0\346\'>\245\325*<\'\374T=\016p\200>j3A>\216ze\275\263\034\000\276Z\366\273>L\354\255>\22599\276*\200\020\276\205|o>\236@\025\276\304\036=>\306\254=>\270\232F>EB_\274O\315\030\276b\215\271=?\276n>\334\210\022\274S\371^\276\336\241\366=\256\227%\276L\275\325\275C\263W\274\3339\316\275\315I\233>\266=D=\023\324\010>\320\320\205\275m\026)>\005\262c\275\370B\224>\313\003J=\265\013z>\314\306\205>9&\325\275\340V4>\201^\373\275\250m\026\276\035#\322>\226\317\205=f<>\275\270U\340;\371%<\276t^\214>\365G`<\316\306\303\275\312\333L>\217.\215\275\232\324`=/\202\331=\007tZ:m\350}\275\265\246|\275tAY\275/\333\303\273\033\"\231\276\355\202r=\245GI=\365\"\305\275\025S\334\275\204\020{\274\032w[>\247\232\001>\r2c>9\317\013\275\013:\316\275e#&>\264r\202\276\207\317\275=\3036[\272\036\014\230>8.\256=\317J\031\274y\275\321\2765l\216\276+\341T\276x+\227\276\202\224\013\276\303s\222>\224E\276\276\243?\213=\272+m>\344O\334<#\254\t>X\\%\276\307\"\340<\277\225d\274=\215\262=\345YC>\000\\\266<\216\260)>\275\246N\276>\024\237=1r\031>n\023\214>\201\350\267>\340\362\211\276z\271?\276\356Mq\275\361\236\260=\017\204D\276H\2177\276\217\000h>_\023\204\276\376m\201>j\243\224\275\245\032\240\276&\276\270\276\256\227\252>\311-:\276\026tD>\306\340\211<\370\013\233\275\270fh\276p\230Q\276\257\334\204=+x\037=^\277\216>p\253=>}G\206\275\262Yw\276\321Z\254<\362u,\276\020\314>>S\030\363=It\350=\372\344\271\275\031\002\204=\345\343\363\275\263\277\020<\322\300\'>\203\332\001\276\320m\020>\325yP\276H\177.>\352\323\236<\331tg=X\031\030=-\034\323\275zl\352=?\202h>\203\246`\276>\201Y\276\303*\235\276\022\372\246>i\222\363\273\253\2665\276\037\305[>gU\207>\340v\232\275`\234I\276\315~\325>\330\372\207=!\177\241\276a\322\215>\274X\036>)\316\227=\347\307\215>\341\006;\276\016\200\254\275\335\377\030\276%\300\355\274y\356l>\026\203\035>\300D\212\276\205\2200=\316\2641\276hmx>+\310L\276f\320\r\276\221M\035=\327S\010\275\236\215\201>B\270\333<r\010\004\275\023b\204\276\256\211/\274\331\222\236=\314\275\230\275]\010\241\274~\310p=\374\371\274=\205p\215>\016\261\206\276>\276\204>\217am>8F\235>\276\007\267\275\350\370\205<\360\017\030\275\355\376\001\275\037*J\276\233,\217\276\312\257]\276\251b*\275|\223@>R#s>\005\367\252=\252\356\014>\320m\375=\352\2666\27699\224>\321\275\226\274fi\031>\363A}\276\262\005\231\276\347\233\033\276_\376\247>\203\371\220\276\316\035\022=\"\272c\276\262\023\245\276\267\270\\\276\014\373D>\346\214\000\276\270\0234>\007y\264\274\210ss\276~\326f\275g\267]=\364|\232>g\206\017\275\016~j>CK\254>\316\210\223\275;\217\255<\255\360V=\025\342\034\273\225\325\201\276\3528\277\275e\035\206>\214\016K\276\206\357\253<\265)\365<,\220\216\276\247\230\004> \244\251<\245\304N>\257\331\367\275\232pd>\332\020M\276\007\323j\275\004\267N\276\205\3374>\032\241\211\276\370ut\276\370\316P=V&\252>1\316\034>z+\200\276L}\376;\237\254\235\274h\261%\275\245\246\251\276w8\217\275}\235 >TmB>\315Eg>\013\233\273\275\306\006\264=cJ6>\017}o\276\316\"\245\275\277\200V\274\215\254$=\370\026\230<\245\036,\275\302\325\025=\375\\\301= \373,\275\307\377N=\rCT\275\366=\202=\200\224->\202\021\274<\332x\230\275\325\275\262>\207\206\230>s9\037>\253\026G><\320\024=\265%S\276\312\3408>[\371\351=\315+d>\004\010H\276\234)\027\276\317\242\230>z:3\2745M\030\276\212\374\r>\2768\355<\207\242\021=\r\017X\275j)\254>W\n\224\275R\242\264\275Y\035h\276\023\272\267<\200d\r\276\353\241\312\274\306\355d\276\203^o\275\020p$\274*\360U>\267\200\332=#6K>l\037+>\302\326\022\276,\360\031=\"\236\334\275}\367}>\251\322D\276c`7\276\277\257\243\276\220\222R>\006\275\220\275\211\314\357\275\332\007d>jS\265=G@\022\276O\224g=\320\016\261=\206~\023>\250\032\r=\017\343\247\276\327h\027\276\367\222D\274Q\311$<pZ\226>\177\'K\276\021\227]>\330\266\222\2765\036,\276\366?\216\275n^\016<\311\341\205\276\017\177\232=\373\257\262\274\371j\221=\245\n>>?r\025\2769\223F\276u\301\230>\010\235\036;\216^[\274R\211\312>,\302\036>~\327\215\2755\251u=\231\243\240\276\342\032I\276\256\310\227>FUP\275\376c\027\2764\346\375=\255\335^=e\251\326=\374\003\215\276)\252Y>\357\n\251=P\344\246>\275\314\305\276\360\304\244:\245\n\214>\323CL=\025\216\366<\243\210\226\275\301\2253\276\234=\225=\227\177\230>/\000R\276\345A\'>\023\036\236<\326Yl\276\177\345\r\276~j[>e\342\354=8u\206>h\356+\276\315\232\003\276m\362\225>\036\223\240\274\354E\237>\324\325\017<4{\317\274jQO>\273\311;=\237\266\226<\213Ia>T\214\235=\335G^\276\024\323\303=/\375\235=\366\200\256\276\311\325~=;\341\250>X\313\227=\317\301\203=b\352\202;\255\326\233\276Q%k>\244\253\373<\355\370\r\275:\337\333=\327\344\022>\266\336\020=0y\227=c\257\343>p|@>\214wu>\346H\223<\337\234\326\274\223%\335\275\322O(>\302\220-\276\363d\361\274\033KB\276\003\004\365\275E@\270\274\314[\215=2\312\253\275\000G5\276\261\034}\276\030\204\250\275\rx\363\275Q\275/=\365\304\002\2763,s=tz\210\276]\343\210>\334\224*>\211\254\224=((\211\276OC\243>;Ks\276\035\211M\2766\2135\276\340d\023=\243\2223\2760YZ\276U\202\333\275(\242&>4h\223>\227\001\270=\211\365\245=t\310z;\340\353F<{\n\305\276\347/v\276\337\310\207>\305\341\017\276\037\033:>J\377\214\274\016h\231;\023\006\034>\222\352\371<:\341?\276\352A\370=\221\230-\275\177\034\010\276\"\013k\275{w\207>\3417q\275t\346P\276\024\313{\276\347s\034<W\303\223<\265\241\030\276\357\205#>A\3520\276UB\200\275\322w\262\2751\232\014>\2763\005\274KwK\276\220\220\250>c\370 >?\344-\275\234m\232<\247+\r>B>\346\275x\247\264>\336\323x>\205\340}<\370\216}\276\313e\306>_\222B>s\310`\276=\235\211>-$\200>\315\360]=\3131e=\302V\217=RQ\230=O\342\217\274\223H\210>9\256Y>\364\264\230=y\332\373=>\210\207\276\352\346\212\274\362\0201\276>\020\032\276t\207\007=\026\232\300\276\316\236+\275,\214\024\272\257\017\035;lpT\276\362\246x=8\353\022>\007\267A\275\262\327(\276yJ\010\276\"/D=\261\257l>\256\246\t\276\322L\254>\221\r;\275\366\267\035\276\202#\272\275JZi\2753\322#\275\273\214\235\275\323\366|\275U%\007\276K\221#>>\276\211\275y\254\010\276z\237\214>\rza\276\241\017\305\276u*3\276\300\321\215=\324_\202\275\207+\324\275\330\237\023<\307\212\255>\036\242\212\276?\273O>\332H-\276\202p\253<\366\177\260>r\371\351\274\227a\232\276\377\003u<`\022\247\275\303\236\221\274\304\260\307>\346\265\237>\373\225O\276qU\212\275\346#r>\270\0144>**\020>\377\350L>2\265\034\275\221\373\346=.e\267\274]\353\375\275\3740\357\275Q\344*=R\014\334\275\343(\243>\261\372\204\276\321\035Y\276\336@p=\031A$\276\323 *=\216#\201\276[x\237=\364>\237\274\307\027\225=\276\244v\276j\341\223=\234oQ>\255I\220>\203\236\212\273\'0C>\307\225\031\276\336(\232=\3123~\275B\334J>N\363\r\276v\335\266\275K\360\235=\251OG\276\264m\347;h\344\225=\331c\202\276[jG> \253V=\210\033\220<\365D\231<\242\376E=d(\n>\017\016;\276\263r[>\007%:\276u\250\204<e\370\262\274\207\371\020\276h\002*>\r69>\333\241\210\275\001\313\213>B\253\006\275\271{\265\274r\023\n\275\311\252\013\273H\233\322=\2158\326\275M\2579\2753\001\002>o!7\276v\177\227\275,F\010\2769\243T=Qi\265<\301\231z=\321\026\326\272\347G\243>lQU<\346\360\313\275g\032B=\331>\216\276C:\351=n\310t\276\234H\367\275\321\366*>\226Ug\275\261\307A>\006qc>\371\t\373\275\335S\t>\347r\027=W\377\254=\271\004\225=\351\034^\276\210Q\025\2762\374\221\276\243\255\243=\312\311t\275\304)\010=\250\254r\276n\373O\276x\2720\276\021\370\275=\322\223F=\"L\242\276-\332E=\363\374}>\253\320\354\272\370d\305>\216t\251=\304W$\276\320\301\210>C\317[\275\313\347\360=\216X\237\276\207\262\263\2746d)\276a\230\232<\024)\204=Ziz=\343G\006\2740\252\204>\361\342\301\276\036\302U>\310\332\337\275\313Ec>K\267O\274C0!\275\252\301\n\275\303\301\203\276\276\331\321=\216L\006>\202\265\206>.\016R\276c{\232>\310xJ=f\201\325>q\276f>\275\023\177=\303\355\210\276\004\036k=\356U\206>8\305\254\276\250k~\276\r\341\310\275hH\240=\020\036O\276K\t\177>@\")\276\335\214\215\275\355\243\257\276\247}(\276\016\'\261\276|\360\357\275#\232\221>_\265\341=~\363!=\260\374\017\276\t\313\321\274\323\307&\276\2375\204\276\177\263\224=s3\n\274\355\351\221\276\314D9>\252\234\211>PO\217\276\204\020\016>\020,\244\275y3b\275\305_\312=\243\215d\276\312\024}=\225\370\332<\335Fu>\267\325\200\275U\234$\275\314m\212>\223q`>\002\300\357<F\200\204\274\2402}>2x\211\2761\016w\275\246\274N=\250\000x=D\n\225>D\366\004\276\000Uz\276W\271\000>\376\360\265\275\265\245$\276\207\306\311=go\"=I\276\006\276@/\251\276\367\273\257\276\241\243V\276\256\301\220\276Z\020\235\275\203\241\307\274$>\273=\364\351_=\265}\006=\252\332\025=\343<\264=\212\306$\276\037\241\374=\330\241);\\\357\000>r\303\203<\360S;\274{\216\221\276\263\321\230>\355\037\014\275\033\302\233=$\277C>\n\347\212\275\361n\213>>0\232\276g\t\203\275>^\376=n\303\307\275\'%\001>\351\262\243=\364\363O>\252\352\342\2743j\036\276\267\250&>\215\314;>\246\361\225=U\267\224<\205\016\222\273\273\177i\276\273\013v>\325\177p\276y\271\300\275\357<\254=\266\256\301\275,\371\200\275\300\350\227\274\203q\346\275\247\025M>\267\231\351\275\325\353D>B\377\007\275s\256\035\276+\377G\276\225\366\254>l`\036>\305\371\\\274(\217\223>\365\243\233=9u\306> \276\024\275\336u\246\275\216n2\2742\245b\276\201o\206>W\247\246\275;\260\364\275\252\177\032\276`F\306\276\225\215G\275m\205\347\275\355C\322=\r\253X\274=\341\256\276\335\t\036>\350.\212>o5\311>\367\210)>4 \240<L\366\254>p\267x\276?\023\355\275\342\212\'<\006\240<\276$|\006\276\352\232f\276\223\370\304\274Z\363\220\275r\277\265>\021\373\255\275_\347\302>t\346Y\276\252K1\276l1\226<v\232\004\276K\024\030=8=5>K\265[<s\001\224\275\332\262\207>wF\230\275\005;3>\307(\263\274\212\313\250>\214\177\340<\206\270\n=\021\305H=\035\021.\2768\0318\276{8\243=n\274\205\276Kp\232=A\210\373=\336\222\331\273\021\263\034\276\326\020\025>/\200$\275\216\361%\276>\3126>06\331\275\220\010\033\275&\302\002\276\327m\304=\263\277\260\276}S\242\275 ,\363\274\336\240\013=\2402\221=\270\333:\2758U\355\275n\241\020\275\020dK>\320\250\333=\320\341\364\275\310\341\205=\311\334\214\275!\320\353=(\353)>\311?2>y\362\r<\t\033[\276\207\275\206=\014%\316>/\322\005\275\310\263/>\037OP>\207+d>I\006\017>\375\244\263>\326g\255\275\320\204\006\2763\303x\276\311\203X>\253g\017>\t\033%\276K%,>j/\036>\213\336\305>2b\243\274\204>*<hB\210\276\213-\311=q\300\310;\202\233\342\275=9/\276\200U\006\276\3301=>\366\317\005\2740+c>\337\246\365=f\340u=H\323\006\276N\254m>5\225\007>\253\233v=\t\242o<\345\027\231>\033\274\237>x\223q\276y\353\307\275\255&\226\276\022U\277<\223\035p=v\033~\276\344\243\274\275B\251A>7\211\222\276\2750\014\2767\007\245\275`\243\031>\360\236\323=\313\3446\275O\016N=*\207\350=\241cH>\030\230\316\275\254\317q\276l`\242\276k\352\203=\327Mo\276\'\203\237\276\337R(>)F\037>^\255M\276}\322\332=\025\262\022\276t3 \276S\345\262<\202\370\323=\213)\200\276\201-\267\275!5\366\274\267\201z>\365{\204\276s^\201\274\314\\\r>\233?S\276\201%5\275\021z\372:\031\203}\276\311A\335=\265\006\261=\236\344a\276\343w\313=L\204\377\271\303\322\257\276s5\022>\366/\236\275\342\220+\274\342\033\017\275\253Nk\276\223\371\263>7d\001<6\216\230=\"1`\276\2507\313\274\363\365\232>\032\203\030>\007\303,=S\030\201>\346\254\331=\260\225r\276\246\316>\276\372\262\253\274\372\335\204>\027\033\376\275\220C\000=\261\364\333=\232\307P>\251G\317\275~\337\221\276gs\331=\007m\037\275\372\214\207=\325\263w\276\230\352\253\275\342\214!>\210\305+\276\236\205\317<e\245\201>\274\253\305=\347z7\276\337\"\255=(S\"\275\330\316\335=\230\306\310\275\315Y\313=9\3677>\220\320\201\275\003u\227\276\233\207\005>\022n\245\274\024\350\310\275\310\177j\276)DJ>\235\327\332=$\030\314\275\243\346\326\275\334\026\006>\373#;>Et\302=s%\206\275\316:\027\276,q_\274\265\27439N\210 \273\326\360\217>\031\237L=\266\300\273>\354\n\353=\256\310\225=g0\261>\265\2616\276)\316\221\276\225\360X=\343\310=>\0063r;\311\377H\27662%>\n+\257\276bT\035\276\r2 >\356!\270=z\360w\272\226@\267\275\002\334\306>\236\037\313>\223\207\356\275\253/\247>\227\232x\276\241\222G>G[S\276\177\363\247>s\264\334<\277tl\274\206E\233\275\006~\266>\3637\263>\304I:\276P\356b>h\000\206\276\232\233\321\275\324\213)=\364P\220=wVW\276q\255\325\275\270\316U>\241l=\276\017\'\201=)\r\305\274\332\342\234=\344\330*\276\024\020v\276\300\312\212=\343\214\026\2750\354\211\276\357\363\372\275\300\364\215>z\013\367=\375r\306<\323\346\037>V\367\335=\301\206\003\275\025\025\300>\251M\260>&\201\035=O\213\035\276\232\345g\276\242\257\020\275\027LS>\234|\274\275%\213\211\275[\371\252=\363\035l\276\341B\007>\346\261\224>\223\000\322\275:\220\266\274\272\235\377<\261\240\013\275{\205 \275;\254\223>8\371:>\200\234\032\276\270\374\262\275Q\234.>N\321\240>T\346\205=\270{\212=\336\261\220\276}\"\237=\305+\220\276\223\227\330\2755\324\'>\013\220\031>\360\266\231>;\334{\275\314\0215\276\276\215\034=-Q\246>\313\262\251\275G\201\220>n~8>A\211D;_]1\275\250\207\024\275\032\237\343\275=}\226\275\362\313\'=\020\222O\276B\247.\274\236K\211>\237\376\014>\005\340\036>9\213\025\276i>\241>\243\214\032\274\204\036\266\276\247\362S\275({\306\275;\332\322\275Z\372\231\275\327\3778=\350\251c\276K\234U\276D$\211<\233yS\276\336O\021\276r\333\021\2762\021\337\275WU\205>\327\334\355<\314`7\276\367r\200>\321P\027>$\032O>\375\2226\276\377\265\026>a\001\210\274\035\365\336\273\032\356E\275\270\263\216>EQ\346\273m\253\"\276\001\033\177\276(\347\346;\273d\322=3\354\243\276\223\300\363=\231\'-\276\251b\232\276ho\211\275\340\335n\273V\312\216=\252\303\226\275\364r\231\276\3349\250\274\233A\021\276\3273\361\274\211\334\306\275x\326y\276\251\202\343\274\325Ok<\303\201[\276a\347G\2765\316y>C\262;=\215e\341=e\257\323\276EI\027\276`\372\006>\3146\205\2755\261D=6\216\r<\365\351\202\276\306\003)\276\"\036\226=\352ao>\206I\002\276\364\037\376\274\240M\201\274\244R\235\276K\346!>\370\247\323=c\212T:\235\345\224=Y5\375=\017\216\223=\327b\035>\236\272\270=\260\235:\276\022{b=\036\366\313\275\361\007\022\275\207\344\272>\316\013\t=\371\204 >\325?o<\022\262\224\275$\242\202=g\344\270>\230\265\265=\306\275\034\2769\2146\276\333\014s=\034`\225\276\313\345\200\276\221&\247=\034s\177\276\033??\276\312b\016>\276\251\032\276d\252\201\274\351p%\276\230~\250\272\257\306\235\275\022\023\333\273\2443z=\314-\000>\314\367\257\276\220\2653>;+k>\336\252\021\276\222\300\204\275s\017m\276fn\030>P\247y\275f\227\355=\351\"3\276\271\"\240\275T\271\217>R2\254\276\332\370\214=MN:\276\324\271k>\241\"\026\276y\220\203>u\323\377=\265\217\021>\344\327\227\274\313W\217\274\307\316\261<\220\004$\276d\023\307>\001\006\003\275|\024\005\276\341\202\201>Z\020\236\276\300\013=>4\363\324\275\375\007\375\275\203\252\004\276\010\355\302\275u\326\246\275\203\366\233\275\031U1>\003\310\346<\013V\377=\205\005\315\275li\253>\260\357\341\275\013\337\017=\266\234\233>>\347\227>\275\340\265\275\202\332w>\017\230\225=\'\225\375\275\264\374$>\017\206\303\275\3400%\274\273\206\257>\276N\273>\331\020\355=\330\341\324\275\237\007L\276^@\344<\215i]>\273\326\242\276\254\244\216=\305\317\301=`\3623\275u\220\r>ZM_\276\000\216l<\025Ng\275d\213\375\275\340\210\256>OB\220=\007F4=\221\326\016\273K\030\330\275d=\255=\277\224\201\275l.T>;\357\263=\016ys>\342\341\035>\372\200\332=b\177\321\275\335\026;;\035bp\276\006\201\214=D\023\314\272\326\3113\276\311\355\305=\223\242\361\275\237f\221\274\026\321\030\276\221\353\252>\300\242\005\276-\341\235>\244\353\243>\252\213\202=\267\221\223<\010 \310\275\356\324\346\275\016\363\313\275\334]\030\276\245\261\310\273\231\341\233\2744r\210=\006\253\324=\271\037\373=\231\377f<\231\363\306\272\213JL\276\241\233\021>0y\274=\246Z\263\275a\274\202>\301\363\236>\353;\207=\213\265-=e\216\266<\014\001\236\275L\346d\276E:\272=%\0136\276WF==\317\273\003=\020\266Y\275\221\261\205\276\367\206e\276\320v`>\210\373\255<\311\3509\276\301A\257\275xW\321\275R..>\214A6\276\237ms\275\366\312\333<\307\260\357\274\n\234]\276\367\n\r>g\275\247\275\346\327\302>\021V\212=\321\235U>\350\376\262=\263\375\n\276~\267;=\251a\017<6\351\374=H\0252=)\313\226=\312!a>b\2207>\262\034\257\274\206\311$\276\351\315\031\276\032B\352\271{1\t\276\371\001\251>\200\356q\276\343\256\260=#<!\276\325\203\203\276\352\250\000=6\310i\276<\"\036\276\235`\300<\265\263i<\333\207+\276\217?\247>\272I\200>\333\025\310>\017\201\260\276\272\266\007\275F(;>p\334\251\274\244{|>\226[\004\276\207\203G>\177\253r=q\366\350=\331\343\262\276\311\0050>l\311\036\2769\257\221\275U?W>\275:\250\275\320IM\276\0324\300=9\366\226\276\031-\311>(\364I\276\236h\216\276^\265\002\276R\365S>\347L\341=7\340\005\274\336\2133=\033\337E>\000\320?\273\355\376@>\375\224\331\275\272\364w>\234nJ=\260Z\240>\226\204\215\275\026\nq>6\242\253=$C\252>\357ox<\210\204I\275f\255)\276 ]\307\275\266\321\207>X\331\245\276\300\243\236\275\375\372\007\275s\216\226\276\025w\233>H\031\213\275y\233\034>\324rE=\214<}\276\302F\034\276\225\320\025>\"\203\244=E_h\276y`4>jq\251\276\227\211\020\276p\346\272\276_\027\331\275\330\010\251>\t#\003\276G#\203>\326\247\226\276\324\272\311>V\303\350\273|v\212<Ph\251;\233&\030>W+\200\276\323\337\224=\'\266:>\211\263\203\275\333W\r\275\344\013\335=\326/}\276G\004T\275\214Z\317=\334\361\241\276\315\264I>\311h\350\275\360\330\246\276\367\'\022\276\351E\010>\237+D>\017\214\345=\\Np<\2175v=En\213>\212 \001>\004\200<\276\300@\241>twi>\272G\332\275\376}\205=r\262\300\275\3618\203\276T`\003>R\026V>\222\237j\276\003yG>W\rl\276\250\365U=\356\007\006\276\017h\336\275\265Ln\276\276\t\003=\302\240\371\274\305\252\021<\367\301S>P\333\344=\276]\226<\327\211\256\275\316\335\225\275\363h;\276\216\272\017\276}8\245\276P\205\317\274\327\210\365\275t!\252\275\201\\\235\275?v\037\276\354\217\236>3.,>nX\004>ci\007=\3555\026\275g\216\222>\332^\356\275Qe\226>_\223\320=-\365\217\275mQ\214>\034\323\351=q\322\371=V\227\231>\327C\322\275$\202A>\014?\323\276\336,\256=\353-\241>\344\220#\276\325\373[>&Z.>\310\212\217\274\034\341I\275\025o\312\275\3737\232>%\342P\276oqS\276V\227\262>CO\373=\337W\261\27648\211>O\006\372=\226G\336<\314\367\256\274\023Qz\276$q\343\275\346\006\025>C\350\262\275\254\016\222\276\264Da\275RT\352\275\013\301\017>d\252k=l\324\233=\177\333\255=\322\252~>\177\324\205=Z\002A\275R\356\220\276\342\366\366\275\004)V\276\267\"\262\276\201\357\353=_m\314:\310\264-\276\346\332\020\276\215\371\035\276\201F\256>nK5>\356{.>@I\263\275(\335E\276\315G6>B\177P>\211\236\210\2763\315t\276:\004+\276\3465p>\265\220\300\276\237\nH\275\257O\r=\346\313\321=\371R\326=\325\231\226\276\327\325\317>Zt\262\276w\337O\275a\206V\274\323F\031\276\327\266\374=\rBG\276[\350\206>\246\006 >\262\373\303\271\267i\245\275\206\343\326\2757\255\013\276x\354\215>\263\256\340\275\350\2676>`\374\023>\310\317A=\201\366[\276#x\230>\252\234<<\234\036\213\276\207\3733\276\314\236u\275\264\3031=\254\337^\276\246]\360\275tWP\276P\263\234\2753\366\316\274\202[%>\334\254\001\276]/~=\257\333=>\215\207\000\276*\310\221\275\212$z\275_\375\n>k\303@\273:6]\275\314w\265=\350\357\370\275\211\231\206\275eL\243\274\347\237\224=\363~+>\321\272\222;\356-\222>#\272\264>op~\276\230\210a\275\272x\226\274\313\221-\275\035\201e\276\310\014\236>\200\217\215<x%a\276\274\353\212\276\243>6>\020#\266\276\"\202A\2767T\241\275O\2240\276\220\227!\276N`\340\275\313\014\324\275\271\323\211\276v\276@\275c\210\266=#Vo\276\354( >)\312\364\275\024\364\374\274|\224\213;\203\216\250>\245\326\371=)\226E\275 \372\272=\314\262(=\303\366\354=\302\2643\276\215\010\276\275\014\375C=\347\233w<1d#>mfb=sw\261\274\036\322\322=u\025\261\275\025y\036\275\340\210\355=\331\331<\276\373v\n\276\314b\332;\000\003\207\2769M\364\2744\233\307=\030V\346\275\334\250\275=\347\341j\276\362/\265\275\006\223a>\303\322\227=6i\010\276,=3\276X\216H\276j=\335\275x`@>\310\325\024>\202\271\343;\242\010\251>^\362\257\27580q=g\254a=.N\201\276\234\332\347\275\202=\223<\244\202\"\275o\273\r>=Q7>U\220\032>\304\273`>\325\252\261>t\014n\275\205\2111\276\220\r{\276\322M\232> G7\276\225\2149>\263\327\205\276c\260\230\275\220\367\216\276G\307C\276\356p\246\276\024\323\371<\350\326\371=Z\3346\2759\335\310\275ArU>\356\362\033=\346\2228\276s\275\302=\035\211\373=\010\013\246\276\2113\304\275\247\254A>tWG\276\233\022\241\275o\030?\276\232A$>d\231\357\275\024mU=!\255G>\241\347Y>\355\340J\276\031\021\254\275\246A\021>U\221\210>/\t\233\2768\306\323\273\324\313i\276I\225A>.?\376\274\005F\017\276A? \276\002\323\213\276\032\254\002>\307\254\030\276\2013\361=\355\017\225>\361\227\301\274\333\033g\275jy8>l\365\210\276\254\356\306>\247\370\014=\342I\354=\237\235\002\2764D\305=\212\341\324=\343h\215\275\241[h\276\301\210\025\276\000O\210>m\037\007=\213\202\017\276)!\235\276\373n]\275\366i\347=#`K\275\231B\203=k\211$=/\333b=\306\010O=y\360[>G>\035>\225Sa>q\326\371=\231\016#>\022&\256\276J\310p=A\321\232\276tpe\276j\324g>\ni\263\276Z\245|\276\020\346\374=(\312\200=\272\032N\276\334\376\275=*\222\005>\375(a>E)i<\002R\230=aO\314=\256\004B\276m\373\036>Sm\261<\221y+\275K\311\353\275\240KG\273\275\333\220=\026\0336\274\031E\244\276\000\014\321=I\355D\276\224\202\376\275\020s\271=!+\303\275\233\005\004\276\263\337\272=\'\267\336=\340\3311\276\035 \307\275\"s\264<\353q\227>r+\341\275\264\305\235>\271\006\036=\\\005\006<\255\326\215\276\257\336\354\273\r\245\341=\177|\032>F\356\027\276\003\213\215=(\211\305\276\007\330z>)\3056\275(\366\223\275\372\0325=\341\222\264>|\212\367=\nz\257=.\\)\276\230\033%\276k\017\214>\026\002K>\320LI>\\!\344=\246\343\013>e\n\035\275L8P>q[\244>g\200\375\275\004/\275>\213\372\200>8!\270\274\243\013p># \265\275t\236o\275\367\006(>\305d \276\007m\302\276\020RI\275E\022\030>\263\ty\274\025\263Y\276l\230)\276\3529\253\275\336M\'>1\300\271>\263@\200>\222\326\t>6(4\276\3433o\276\245\250>\276\245D\272=Y\002\026>\264e\013\276\211\243\024>_7\251\275T\024\022>\212\326\237\276\004\005\262\275\261\203J>\337\021I\2754K\244\2763\005\231\276\032o\225\275\260\032\322\275\251\237\251<\010\360\345\273\353\025\006>\0348\203\276\0134\353=2U\231=Z\n\205\275\020\2535>X\031h\275V\000o>\220$\177>r\2442>\270\230\\\276\002H\014\275`c\237<\364\320\n\276\363\253\026=8%L=\007\230\254>\275;;>(:\213\275K\227\336=x\230\217>\330\303\237\276\265\002k\276\365\364\231\275V\2604>2xJ=\372\301.\275\001\2172>\027\006\213>w\027 \275/\356\237>9\207A=\352\347H\275%\311\204>T^\342\275\017\235\025>\221\022\">x\375\271=z\214\375=F\3006>\003\301S>O\305B\276\220\215\225>#\214\274=\2342\206<f$S\274+1*=\372)\024=\350\225~\275\216\036>\275\373\276\333<(\245;\276\037\201\364=\336\023\230>\250\324\036\275\002\354\014\276\002Km>\263<\210=\331\212t>\236\277\251>\262E\237\272\360z\203=7\355\035\276\314\327\237\276B\002\022\275\237d\326\275\204\030\306>]<\220\276K]\351;s\250[>rJd>\321?\245>|\213\256\274S69\275<}\016>\354\325\264\275G6\223=\260\323O>1\261>\2766\201\221\275\266\r\002>m#\007\276x\303\232\274\200p\253=K\233J\275\214\247\230\276\017\222\277=\0277)\275Y\360\003\276!\024k\276\372\260\330=\n\000x>\205\027\243=%\351!\276\365\331\276\275O\005B=/\020\270\274S\240\322\275kcI;\356\023\201>cj\315=\330\207\247>%\262J\2761\322\256\276A\345\241>\207\274\227\275g\"\226\274j\230\\\276\220T^\275E\262\230\276\241\025\031>\036Z\205\275\234\t\367\275\252\340\254>\321\033\345\275\271\346\263\2740}\034\275\221\324\367<Q\224\310=\275\223B=i|<\276\016\235q>\210\'\310<\022\314\327=AC\267\275\356]\373=\206\244\014>q\353\235>#\376\275=#wp\276\245k \275U\364)\2751\005K\274l+@\276\332\203\253>U[\356\275"
      }
    }
  }
}
node {
  name: "dense/MatMul/ReadVariableOp"
  op: "Identity"
  input: "dense/kernel"
  attr {
    key: "T"
    value {
      type: DT_FLOAT
    }
  }
}
node {
  name: "dense/MatMul"
  op: "MatMul"
  input: "batch_normalization/batchnorm/add_1"
  input: "dense/MatMul/ReadVariableOp"
  attr {
    key: "T"
    value {
      type: DT_FLOAT
    }
  }
  attr {
    key: "transpose_a"
    value {
      b: false
    }
  }
  attr {
    key: "transpose_b"
    value {
      b: false
    }
  }
}
node {
  name: "dense/Relu"
  op: "Relu"
  input: "dense/MatMul"
  attr {
    key: "T"
    value {
      type: DT_FLOAT
    }
  }
}
node {
  name: "batch_normalization_1/gamma"
  op: "Const"
  attr {
    key: "dtype"
    value {
      type: DT_FLOAT
    }
  }
  attr {
    key: "value"
    value {
      tensor {
        dtype: DT_FLOAT
        tensor_shape {
          dim {
            size: 64
          }
        }
        tensor_content: "abs?cl\200?e\023\204?\376\244\201?Ja\205?Y\322\202?\300\351\203?\027\245}?\203Uu?\231y\202?\331\372y?\370\231v?ag\177?A\273\177?\306\000|?\177\006\201?{\315\201?$\356\201?-p\177?\200\n\200?\223\372\200?\245\333\177?[\014\200?\201A\200?\252my?j\270\203?\235\367\203?{\317v?\177\330x?\242O\200? 7\202?\235\250\201?xj\202?6\365\200?o\007x?\217\210{?\353\300~?\375<x?-3}?\201r\206?!d\201?\311;~?>O{?x\250x?\033F\201?\231\335\177?\347\024\201?\274d\200?\353Q\200?\023r{?\320\370z?\320\177~?\342\256\201?\022\215\202?\373\351\201?A\037\206?#\020\201?`={?.\313s??]\202?\312\273\201?\352k\206?\200\377z?Qd\202?"
      }
    }
  }
}
node {
  name: "batch_normalization_1/beta"
  op: "Const"
  attr {
    key: "dtype"
    value {
      type: DT_FLOAT
    }
  }
  attr {
    key: "value"
    value {
      tensor {
        dtype: DT_FLOAT
        tensor_shape {
          dim {
            size: 64
          }
        }
        tensor_content: "\2268\221<\255L\341:\177\330\270<\016\326\177<\2165\352;\235\313\223\274z\225\331<))$=\271\361v:\352\376d<`\235\354\273D&\303\273\316I\245\274\244\022\000\274\320\330\311\274\226{\334\273\273\r\302\274~C\243;a\017\215\274?\215#\274\025\224\203\274\005&^<\\?=<}\'\255\273\214\202\337;\335H6;\334\222\366\274\224\235G<\345\365$\274\376\221i\273_\3234\274i\3619\274\004\022}\274\277H\223<\202\324\315\274#\240\313;\253\315<\274vG\243<\311\\L<u\251P\274*]\261;@\273\017:\267\363\257<\005\312\246\274@8\262\2735c\034\274ID\372\274\244\207\230\274\221KM\274\227P\233\2743:\341;\217\275\222\273\375\235\000<\315\270\274\274\330Vo<\260\231\276\274\205k\244\273\0313\267\273t\252\224\274t7l;\213\025F\2731Q\033\274o\207;\273\367N\273\274"
      }
    }
  }
}
node {
  name: "batch_normalization_1/moving_mean"
  op: "Const"
  attr {
    key: "dtype"
    value {
      type: DT_FLOAT
    }
  }
  attr {
    key: "value"
    value {
      tensor {
        dtype: DT_FLOAT
        tensor_shape {
          dim {
            size: 64
          }
        }
        tensor_content: "*Z\t?\277=\000?\246\333\000?\331{\r?\2724\007?\362\000%?\270\013\343>\372\376\341>\250\220\352>\212\t\013?\005,\345>< \361>\376M\344>q\201\004?\300\260\021?a\300\376>#\027\000?`\023\010?\202u\355>l-\365>\347O\334>R>\333>\370\236\004?eU\304>\242\266\336>\373\336\342>\007\363\364>_\352\356>Q\\\353>\'L\326>\246\255\375>\360\247\373>}:\356>\220M\004?\212\275\014?\303i\020?A\023\360>\267\270\366>3]\346>\004l\310>c\260\314>f\315\364>p}\354>\365\335\363>\347\263\005?\217Q\344>5\245\006?\025\334\327>\220(\342>E}\366>%\\\n?\304\334\356>\324\336\361>\300\376\371>\335\254\373>\340\311\374>h\235\362>\013M\340>w\337\314>@\344\361>\312\343\343>\262#\347>\305\022\t?\244\r\367>"
      }
    }
  }
}
node {
  name: "batch_normalization_1/moving_variance"
  op: "Const"
  attr {
    key: "dtype"
    value {
      type: DT_FLOAT
    }
  }
  attr {
    key: "value"
    value {
      tensor {
        dtype: DT_FLOAT
        tensor_shape {
          dim {
            size: 64
          }
        }
        tensor_content: "F\363\342?t\177\305?\025\354\332?9\226\310?\005\237\266?\252)\366?~\343\227?\200f\232?=1\311?E\215\244?\355}\215?\253[\266?\365\374\304?\271\227\305?\rc\231?\361\251\330?\351\250\323?\211\226\240?\036^\215?\271}\207?\324\003\224?&C\210?\257\231\232?\260Ku?\355A\216?\2545\246?\243:\275?\213C\222?\2608\301?\345\235\220?\"\265\324?\013\013\253?\177\222\224?\rY\335?\272[\302?\363\242\326?\n\235\226?\315E\242?\302\032\243?\206\006\202?\300>Z?]\202\210?:\226\237?\005\363\223?6Z\235?n\214\207?#}\270?vp{?\236\370\234?\270\202\227?\032\312\260?\017>\233?$\344\224?\256\347\221?IX\274?U\010\263?\020\002\234?\237L\202?D\207\222?\007\013\216?+\221~?RR\225?\313\334\335?\373t\265?"
      }
    }
  }
}
node {
  name: "batch_normalization_1/batchnorm/ReadVariableOp"
  op: "Identity"
  input: "batch_normalization_1/moving_variance"
  attr {
    key: "T"
    value {
      type: DT_FLOAT
    }
  }
}
node {
  name: "batch_normalization_1/batchnorm/add/y"
  op: "Const"
  attr {
    key: "dtype"
    value {
      type: DT_FLOAT
    }
  }
  attr {
    key: "value"
    value {
      tensor {
        dtype: DT_FLOAT
        tensor_shape {
        }
        float_val: 0.0010000000474974513
      }
    }
  }
}
node {
  name: "batch_normalization_1/batchnorm/add"
  op: "AddV2"
  input: "batch_normalization_1/batchnorm/ReadVariableOp"
  input: "batch_normalization_1/batchnorm/add/y"
  attr {
    key: "T"
    value {
      type: DT_FLOAT
    }
  }
}
node {
  name: "batch_normalization_1/batchnorm/Rsqrt"
  op: "Rsqrt"
  input: "batch_normalization_1/batchnorm/add"
  attr {
    key: "T"
    value {
      type: DT_FLOAT
    }
  }
}
node {
  name: "batch_normalization_1/batchnorm/mul/ReadVariableOp"
  op: "Identity"
  input: "batch_normalization_1/gamma"
  attr {
    key: "T"
    value {
      type: DT_FLOAT
    }
  }
}
node {
  name: "batch_normalization_1/batchnorm/mul"
  op: "Mul"
  input: "batch_normalization_1/batchnorm/Rsqrt"
  input: "batch_normalization_1/batchnorm/mul/ReadVariableOp"
  attr {
    key: "T"
    value {
      type: DT_FLOAT
    }
  }
}
node {
  name: "batch_normalization_1/batchnorm/mul_1"
  op: "Mul"
  input: "dense/Relu"
  input: "batch_normalization_1/batchnorm/mul"
  attr {
    key: "T"
    value {
      type: DT_FLOAT
    }
  }
}
node {
  name: "batch_normalization_1/batchnorm/ReadVariableOp_1"
  op: "Identity"
  input: "batch_normalization_1/moving_mean"
  attr {
    key: "T"
    value {
      type: DT_FLOAT
    }
  }
}
node {
  name: "batch_normalization_1/batchnorm/mul_2"
  op: "Mul"
  input: "batch_normalization_1/batchnorm/ReadVariableOp_1"
  input: "batch_normalization_1/batchnorm/mul"
  attr {
    key: "T"
    value {
      type: DT_FLOAT
    }
  }
}
node {
  name: "batch_normalization_1/batchnorm/ReadVariableOp_2"
  op: "Identity"
  input: "batch_normalization_1/beta"
  attr {
    key: "T"
    value {
      type: DT_FLOAT
    }
  }
}
node {
  name: "batch_normalization_1/batchnorm/sub"
  op: "Sub"
  input: "batch_normalization_1/batchnorm/ReadVariableOp_2"
  input: "batch_normalization_1/batchnorm/mul_2"
  attr {
    key: "T"
    value {
      type: DT_FLOAT
    }
  }
}
node {
  name: "batch_normalization_1/batchnorm/add_1"
  op: "AddV2"
  input: "batch_normalization_1/batchnorm/mul_1"
  input: "batch_normalization_1/batchnorm/sub"
  attr {
    key: "T"
    value {
      type: DT_FLOAT
    }
  }
}
node {
  name: "batch_normalization_2/gamma"
  op: "Const"
  attr {
    key: "dtype"
    value {
      type: DT_FLOAT
    }
  }
  attr {
    key: "value"
    value {
      tensor {
        dtype: DT_FLOAT
        tensor_shape {
          dim {
            size: 64
          }
        }
        tensor_content: "@^l?j\371s?\017\257p?/\002p?\263\330o?\270\302o?yBq?\313\313{?,\314o?<\300}?<5s?\205Wq?\312~w?\377tk?Uwt?%\035w?\250\324r?\315\375q?,\305t?\362Ym?\360\224m?P@s?\031\033m?\261\364p?\010\245m?\207I{?\243\242z?\032\264q?\313\251z?\256\327z?\266\341s?\374)o?B\246l?\237[m?\305\365p?+\252\203?A\311q?6\222k?\\Su?\032Ao?\033\352u?&(l?\263\031p? \014z?\326\221p?\220\333~?\014\310m?\227,x?I\003p?f\000u?\325\234p?\310qu?\244\311p?\340\335p?~\330z?F{s?\376\255r?\342Co?\316fq?\2575w?j\235u?\321\026{?\005\356u?V\225m?"
      }
    }
  }
}
node {
  name: "batch_normalization_2/beta"
  op: "Const"
  attr {
    key: "dtype"
    value {
      type: DT_FLOAT
    }
  }
  attr {
    key: "value"
    value {
      tensor {
        dtype: DT_FLOAT
        tensor_shape {
          dim {
            size: 64
          }
        }
        tensor_content: "Z\256\345<s\340\374:{\214~<}\003w\274X\270Z\274\255\r\341;hO\316<\373\342\024<Q\327\352<\310\331\213\274`|\264<\252\336\357\273j\374\227< \330\233\274\235\337A;\032\301\010=\033\360v<\n\275|\274\'\226\240;\306q\007<\306gg<5\301\324\273\257-\221<\255\327\017\274\263\303\037<\357\352c;\322\372\017\274^\206\037\274\242@n<\010\322\327::\242u\274JNx<T\360\273<\260*\214<\273\315\220\274\213\333\237<\327W\007\274<\021\334<g\367\200\273\315:i<&\303\206\274\353\000\314\272\252e@\273\275\302\023;\307E\266\273_{S<\234\026\320;\224-\006\274\t\026\223\274;m.\274:R;\274\314\225_\2740iq\274n\306\305\273\362\347\024\274Q^%<\244\252\353;74\376\273\327b\037<\266\342\214<J\007\2579\240\034\023<\336\215y\273\267I\350;"
      }
    }
  }
}
node {
  name: "batch_normalization_2/moving_mean"
  op: "Const"
  attr {
    key: "dtype"
    value {
      type: DT_FLOAT
    }
  }
  attr {
    key: "value"
    value {
      tensor {
        dtype: DT_FLOAT
        tensor_shape {
          dim {
            size: 64
          }
        }
        tensor_content: "\rt\365>\002\000\334>\230v\364>\225\206\361>\307\211\337>\367\026\372>\244~\345>=\315\323>T\016\362>$\253\021?]q\342>\374\343\373>\243\177\344>\027`\010?\242\251\370>@\232\n?\030\237\003?E\334\013?E\006\377>\213\267\367>#\207\000?\205\247\340>\347\252\363>\226\321\317>.\342\341>Yi\357>\334<\357>\324\235\335>\006~\003?\372Q\371>>\304\361>\314Q\355>\n\220\357>.\336\002?\374\204\004?\307,\021?\263\267\347>\277\235\366>(\004\311>\222\351\343>zS\335>\006u\374>1k\006?\300.\370>\350p\000?=4\363>5\362\362>\220\365\323>O\310\332>F\275\333>\267\007\014?\323c\376>\244\004\350>\331\310\352>\177V\010?j\223\004?k;\000?\310\n\373>(\367\331>\310\363\366>\371\251\365>\3175\351>g\021\371>l\365\004?"
      }
    }
  }
}
node {
  name: "batch_normalization_2/moving_variance"
  op: "Const"
  attr {
    key: "dtype"
    value {
      type: DT_FLOAT
    }
  }
  attr {
    key: "value"
    value {
      tensor {
        dtype: DT_FLOAT
        tensor_shape {
          dim {
            size: 64
          }
        }
        tensor_content: "\376\032\302?f`\233?\017k\304?\016\333\261?\233\363\246?\334\354\265?\370\277\275?\240\333\204?\333\021\313?\036\257\255?\352+\221?\205\311\332?>D\302?\234H\245?\223@\206?\323]\004@j\225\332?\354S\225?\017J\312?\026g\262?\212\221\341?\251\271\217?\036\273\224?\364\024\211?\202\345\223?\340\237\233?\344!\261?\357v\221?$\214\376?<!\326?\025\264\314?\227l\235?\246)\257?\222\354\336?\306\375\247?\244\221\n@E4\237?\r#\254?\220\272\212?\260(\206?\371p\201?\351\374\230?C\356\346?:\343\223?\261W\205?\357z\241?\r\246\257?\317\335l?\215\n\225?:\202\207?\301\300\245?\212\023\262?A\020\223?b=\220?\024\332\243?\320\361\265?\372D\304?= \233?[\251\235?@q\237?\030\327\217?o\253\210?\n\345\256?\320\014\274?"
      }
    }
  }
}
node {
  name: "batch_normalization_2/batchnorm/ReadVariableOp"
  op: "Identity"
  input: "batch_normalization_2/moving_variance"
  attr {
    key: "T"
    value {
      type: DT_FLOAT
    }
  }
}
node {
  name: "batch_normalization_2/batchnorm/add/y"
  op: "Const"
  attr {
    key: "dtype"
    value {
      type: DT_FLOAT
    }
  }
  attr {
    key: "value"
    value {
      tensor {
        dtype: DT_FLOAT
        tensor_shape {
        }
        float_val: 0.0010000000474974513
      }
    }
  }
}
node {
  name: "batch_normalization_2/batchnorm/add"
  op: "AddV2"
  input: "batch_normalization_2/batchnorm/ReadVariableOp"
  input: "batch_normalization_2/batchnorm/add/y"
  attr {
    key: "T"
    value {
      type: DT_FLOAT
    }
  }
}
node {
  name: "batch_normalization_2/batchnorm/Rsqrt"
  op: "Rsqrt"
  input: "batch_normalization_2/batchnorm/add"
  attr {
    key: "T"
    value {
      type: DT_FLOAT
    }
  }
}
node {
  name: "batch_normalization_2/batchnorm/mul/ReadVariableOp"
  op: "Identity"
  input: "batch_normalization_2/gamma"
  attr {
    key: "T"
    value {
      type: DT_FLOAT
    }
  }
}
node {
  name: "batch_normalization_2/batchnorm/mul"
  op: "Mul"
  input: "batch_normalization_2/batchnorm/Rsqrt"
  input: "batch_normalization_2/batchnorm/mul/ReadVariableOp"
  attr {
    key: "T"
    value {
      type: DT_FLOAT
    }
  }
}
node {
  name: "batch_normalization_2/batchnorm/mul_1"
  op: "Mul"
  input: "batch_normalization_1/batchnorm/add_1"
  input: "batch_normalization_2/batchnorm/mul"
  attr {
    key: "T"
    value {
      type: DT_FLOAT
    }
  }
}
node {
  name: "batch_normalization_2/batchnorm/ReadVariableOp_1"
  op: "Identity"
  input: "batch_normalization_2/moving_mean"
  attr {
    key: "T"
    value {
      type: DT_FLOAT
    }
  }
}
node {
  name: "batch_normalization_2/batchnorm/mul_2"
  op: "Mul"
  input: "batch_normalization_2/batchnorm/ReadVariableOp_1"
  input: "batch_normalization_2/batchnorm/mul"
  attr {
    key: "T"
    value {
      type: DT_FLOAT
    }
  }
}
node {
  name: "batch_normalization_2/batchnorm/ReadVariableOp_2"
  op: "Identity"
  input: "batch_normalization_2/beta"
  attr {
    key: "T"
    value {
      type: DT_FLOAT
    }
  }
}
node {
  name: "batch_normalization_2/batchnorm/sub"
  op: "Sub"
  input: "batch_normalization_2/batchnorm/ReadVariableOp_2"
  input: "batch_normalization_2/batchnorm/mul_2"
  attr {
    key: "T"
    value {
      type: DT_FLOAT
    }
  }
}
node {
  name: "batch_normalization_2/batchnorm/add_1"
  op: "AddV2"
  input: "batch_normalization_2/batchnorm/mul_1"
  input: "batch_normalization_2/batchnorm/sub"
  attr {
    key: "T"
    value {
      type: DT_FLOAT
    }
  }
}
node {
  name: "MYOUTPUT/kernel"
  op: "Const"
  attr {
    key: "dtype"
    value {
      type: DT_FLOAT
    }
  }
  attr {
    key: "value"
    value {
      tensor {
        dtype: DT_FLOAT
        tensor_shape {
          dim {
            size: 64
          }
          dim {
            size: 3
          }
        }
        tensor_content: "\304\255\375=n\314$\276\317\301\020\276\272\014G\276\244\372\220\276ND\316\275\240\025\311\275\371X\232\276)S\204\275S-\212=\006\334^>\262\247\010>\032\321J\275\241\305\">\003\217\373<\307f\004=\032Z\227=q\311\036\276\303\202I>\2670\312\275L\351\325\274\030$\024=\357\036\205=\237\270\201=\327\276\032>\251M\006\276\017\247\226\275\260\3643\275?\365\'<b\207)=D\224T>A\362\237=\341L\">,N\274\275\251\252\226\274\"\327\334=\306;\307:SsL\276\230\305\001\276\340\305\367\275\303\320~>d\347\267\275\034\275/>\314\253 >\354\211\364=\031\204;\274\212\\\007\276h\311\254\275\035l\276=\007]\037\275\302\202\r\276\354\345@\276\214x\002\275]e*\275\033\306\'>e\377\363<\313$\347\275g5!\275\273\014\022\275\002p\205>\3711\230\275\334\250\000\2768\312n>\233\206q=i\203G>\030\3779>\2623\226>\271\025p>\250\251e\275\331\206==Q\374\032>\240\355\270<\036?\276=\267\342\376\275\237\223=>\220AM<OuN=\357\320\230=\276\243#>\204g0>\205\327\030>\020\372\307=b\366\202>\255YT=\234\007\320=\007\230L=\273=\030=\240\014\022\275*\241\313\274-\313D\276\214\375L\276>l\277\275%C\017\276M\366\344<\255\220\355\275\270\277b>\210*\275<h\006x\276\206{\254=\233=?>K-)\276\277\240-\276\335\345\010\276\331\255\254=\022-\361\275\222\316\010>gq9<\277\027-\273\346:\216=\232\0040>9\316P>mi\233\275S\010\230\276]\022\004>\352\232\366=\3075\210=\024u\207>\256\267}=\031\230\300=\211\315\003\276\034\253\343\275K\\\225\275\353\t\003\276\271\004\006\274\244wG\275O\031\205>\241\255x=/\272\233>\307T\\>\253\2122=\231\210\344<\221\253\267=\265\257}\276|B^\276\342\240\254\274\206\307\250>g\331=>\335\263\033>\031\002E\276\264\243#>\243\241\375=\304u\\<\340\331\221=\310^\035=\342*V\276\207\027\344\275L\360\\\275\312\350\033\275\r\316M\273_&\242\275]\332U\276\023\205-\2758/\257=\\*\350\275D\252K\274\372\257\266\275T\304/\275\320\303\246<\255\356\344=\226\230%\276e\232\001;\320\247R\276`\365\014\274a\005p\274\310P\324<\206c\027\276\305\256_\276\315\347\342\275\365\3300;\363\267\360<\0315\345\275\244\201\355\274Hh\317=6\304U>\262\255\226><\004J>\226\021\315=i\225\272\275\014\363\215\275\2501\003\276hD\322\275\016h\017\276\214\326\214\275\350qp\275\337\211\335\275\204O,\276\264\337w>\035\267S>\354\236\374=}\036\317\274^\313g\276\006\2273>"
      }
    }
  }
}
node {
  name: "MYOUTPUT/bias"
  op: "Const"
  attr {
    key: "dtype"
    value {
      type: DT_FLOAT
    }
  }
  attr {
    key: "value"
    value {
      tensor {
        dtype: DT_FLOAT
        tensor_shape {
          dim {
            size: 3
          }
        }
        tensor_content: "\226\257\240<\366\377\245\274\336Z\270\273"
      }
    }
  }
}
node {
  name: "MYOUTPUT/MatMul/ReadVariableOp"
  op: "Identity"
  input: "MYOUTPUT/kernel"
  attr {
    key: "T"
    value {
      type: DT_FLOAT
    }
  }
}
node {
  name: "MYOUTPUT/MatMul"
  op: "MatMul"
  input: "batch_normalization_2/batchnorm/add_1"
  input: "MYOUTPUT/MatMul/ReadVariableOp"
  attr {
    key: "T"
    value {
      type: DT_FLOAT
    }
  }
  attr {
    key: "transpose_a"
    value {
      b: false
    }
  }
  attr {
    key: "transpose_b"
    value {
      b: false
    }
  }
}
node {
  name: "MYOUTPUT/BiasAdd/ReadVariableOp"
  op: "Identity"
  input: "MYOUTPUT/bias"
  attr {
    key: "T"
    value {
      type: DT_FLOAT
    }
  }
}
node {
  name: "MYOUTPUT/BiasAdd"
  op: "BiasAdd"
  input: "MYOUTPUT/MatMul"
  input: "MYOUTPUT/BiasAdd/ReadVariableOp"
  attr {
    key: "T"
    value {
      type: DT_FLOAT
    }
  }
  attr {
    key: "data_format"
    value {
      s: "NHWC"
    }
  }
}
node {
  name: "MYOUTPUT/Softmax"
  op: "Softmax"
  input: "MYOUTPUT/BiasAdd"
  attr {
    key: "T"
    value {
      type: DT_FLOAT
    }
  }
}
node {
  name: "training/Adam/iter"
  op: "Const"
  attr {
    key: "dtype"
    value {
      type: DT_INT64
    }
  }
  attr {
    key: "value"
    value {
      tensor {
        dtype: DT_INT64
        tensor_shape {
        }
        int64_val: 100
      }
    }
  }
}
node {
  name: "training/Adam/beta_1"
  op: "Const"
  attr {
    key: "dtype"
    value {
      type: DT_FLOAT
    }
  }
  attr {
    key: "value"
    value {
      tensor {
        dtype: DT_FLOAT
        tensor_shape {
        }
        float_val: 0.8999999761581421
      }
    }
  }
}
node {
  name: "training/Adam/beta_2"
  op: "Const"
  attr {
    key: "dtype"
    value {
      type: DT_FLOAT
    }
  }
  attr {
    key: "value"
    value {
      tensor {
        dtype: DT_FLOAT
        tensor_shape {
        }
        float_val: 0.9990000128746033
      }
    }
  }
}
node {
  name: "training/Adam/decay"
  op: "Const"
  attr {
    key: "dtype"
    value {
      type: DT_FLOAT
    }
  }
  attr {
    key: "value"
    value {
      tensor {
        dtype: DT_FLOAT
        tensor_shape {
        }
        float_val: 0.0
      }
    }
  }
}
node {
  name: "training/Adam/learning_rate"
  op: "Const"
  attr {
    key: "dtype"
    value {
      type: DT_FLOAT
    }
  }
  attr {
    key: "value"
    value {
      tensor {
        dtype: DT_FLOAT
        tensor_shape {
        }
        float_val: 0.0010000000474974513
      }
    }
  }
}
node {
  name: "training/Adam/dense_1/kernel/m"
  op: "Const"
  attr {
    key: "dtype"
    value {
      type: DT_FLOAT
    }
  }
  attr {
    key: "value"
    value {
      tensor {
        dtype: DT_FLOAT
        tensor_shape {
          dim {
            size: 13
          }
          dim {
            size: 64
          }
        }
        tensor_content: "\223\310\253;\231\270\034\2743\001$\273\'HA;\340\020\242;O\311\306\272\026\337\330:\0210\315\2707B\325\270\021\177\230;\307<\307:f\351\261\272`\016\247\271G3q\271\2474\231\273n\010\345\273<\020\013;x\217\303;-\214\262\272\255F;\273\203G\240:IA\2659a\244\026\273\316\213b:gD/9$\307\210;\341\321\037;\205Q\261\272*\226j:\231X\304:\311\313\016\273\215\357}:pc\327\272V\241\360\271#\225\031:\241\261\000;R\010&3\343\014\256\272\036d\222\272\014\365\231;\223f\211:\206a\2649X S;\267\335/:\230m\2009\321\274\'\273\206pj;gsG\273d1\224:\370\335\304\272\325W\225:%\024M\273\362h-\272\322\363\026\273\345\374>;?\001\013:\367C\270\272z\0370:\024E\016;\341~\2068\032\021F\272&\025\222\273\025.\3019O\356\004\272\373\234\001\273R8c\273&;\301\267\317\333\026\274\n>J;\231[F8\233\2337;_\234\273\271D\372\030:S\341j\272cn\215\271s\333\023\273+\230\2719h\321B;\226\031\327\272YL\232\271\023N\232:\230:\364;\231./:\231:7\273\252U\252\272\204W\366\272\007\360\200\273\334\004\270\272\331%\3059\3065\3278\246!\004;H\274\267\273\371n\213:I2\211:\210\034\300:\2638\003;\214\245*\270c%F\273X\235\322\272\213\335H;\251\033\276\272\371\033\371\272i?\376\272\016\262\021;\311\314P;o\326\365\271\227dR;;<\3179\302\350a:\205N\356\272\204&\272:\271\006\346\271v\225\356\272k\334\341:\320\256\345\2728-1\273\035@\314\272\260\313\3549]M\007\274F\212\260\270j\266\034\273-t\230\267\240\037\257:\307\347\3318\027;:\273I6U\273r\273\365\272B&\3539\037L\000\273\240k\022;Z\005(:_\177\210\273d\016\271;\207\313\254:\337\'k;Pl\2009\254\030\360\271\373\262\2029n\3502\272\323\002\274\272>\033S\273\232e\025\272\266P\261\272n\361\260:\207\216F\272\265\304\345;2V;\272\272h\373\271mo\312\271\234W\367:\226\373\005\273b\315\213:\245\372\003:9\336\233:T\010\000;\256\314\335\272\355\324|;\031\201\231:4\312\214\272\246\364\202:\'\270\202\272\000\221\036\273K`R8\334\372\346\272V\254\317\272\226\030\224\272n\305K\271N)F;A\253Y;T\313\332:\000\332\2259\0310|\272\202\367\"\267#\035\006\273\200s\013\272\225\370\314\272\315\010\355\272`\266\346:\232\316a\272+M\3649\025\323\022\273H\323\014\272g?\350\273\241\321j\272\225Z\365\272!\241\370\271\232\364\200;\312U\315:v\361\237\271\331G%\273!\372\257\272\241\000\3519\007@\302:\261\277\356\273\2505 \273P\370\256:\253\263\215;\266L\306:@v\307:\004\341\021:N\213}\273\234t\230:\341\376l;\264\372\010\272o\234c\272\234\372\275:\010\023\350\273K\207\273:,{ \273U\376\323;\023g{:\204\323\211\272\000\260\220\273\375\206\014;\203\323\344\272\265u\225\272N\246\254:\336\235\210:\252t\337;\010\372\227\271\231\326#;@\245\";\303\326(\273\253\213\303:\326b\005:l\241\352\271.\312\033:\321g\037;\262 \254;A\241y\2722\333C\272\022\322\035;_\357\227:\331\004\264:\272\333\257\272\201\032\032;\253\320\341:\272\214m\273\314\365\371:7\220\303\270@\357\334\272\254\"\337\272m\350x90\004\201\273C+ ;\353)V\273\276\303\213\272\230\001\242\272\020\005\"\273\341H\310:\025\320a\2701\366!:;PT\272\344$\262\272B\r#:\031\nC:\277w\314\273\031\253\341\272\262\205\307:\307\236o:wAL\272\373B\352\270\273p`\273\331\324\260\272\305\367\224;\333\353\271\272\207)):\353{X\272bN\367;\224%\005\274\242\344\230:??\233;bS\241\272\246\035\360\273l\217<\273\235xl\271,-h;\347u\007\274\225\024\256:\230\202d:\336@a\273%\001\351\272\337\204\230\273\351\352|:\230\033S\2733\213\201\273s\306\370\271|\225.;\230kw:\221\273\000:\004\357~9\370\354\020\273\267i\337\273mx\037;<uU:\360\361\310\273\026P\254\273\021#\2119\344lg\273\271\n\215\267\224\361&\273\"\336\212;aW\200\273\"\235\351:\216\nz\273\205\236\3569\004V\032:\240\236p;(\214{\273\353\272\216;^\\%;5\244o;G\377\252:\337y\2248\332\027\r\274X\2562\273Nt-;\320\ro\272\334\252+9\332\324\235:.\302\3049\213\3779\273\353\345\036:1\263\2409b\200E;\223\313\216:\225\241\212;\273\303X:\225#\336\272\372\323\030;@y\3579u%%\273\337\nc;\027\023u:\215o=\273Q;\n\273\314\'\277\273v\013\201;\324W\365\271\354\367\275\272_\245\022\273s\245\360:\272\000\225\272I\n\372\272\357&\336\272\230\206\302\271\"\006\237;\022\364W\273{\021\2128ft\233\272d\206\2049\230\356\232:b\360\323\272Xk$9\364v\004\267\034\377\3059\240\027\225;\343\r\225\271\247\034\027\273D\025&;<\303\005\273\027\265\003\272\342B;\270\346B!:-r\021;A\230)\273\263\032\241:\310\307Q\272\316J%\272\337 R\2736\214\027\273\002j;\273r\346s:\242\0019\273\rw\005\273+\345)\273\230)#\273\236\254\341:\220\335\036\273T\200\301\270\033DA\273[\306\302\270>s\002;\027\354\247\271\276\021B;\211\211\201\272}FO\272q\204\331:\334:\303;\t\224:\273\231\340[:\303\021\2139#\370\n\270\361\345\241;H\210\213:e\26529Y\037\201\272\024\274\301\272\376\034Y\273<\364\361\273\2729\266:Y\274\363:(3\266\272\275\237\034\273\300o\327:\244\255\233;\226I&\273\304(\2149eV\321:%\210\212;\305\037\325\270\263m\321\2722\025\036\273\363\220\314:\234\014\305\272\374\027\231:k\356\304\272\353\230\303\2725\027O\271eF\207;\325r\000\273\243m\230\272\321\351M\272\206\241\013;{v\247:.5w\272\303\205\342;\206\033\323\2704\332\032\272\241\331\356\272n\027L;WPT\273\371VD9\220\010\3018\213\205\362\271\315=2\273P\366R\273,|A\273\'P99_\270V;\351\3071\273\212N\3659\2128\025;y\025\231:\214\024\357\272\273\340\223\273\312\207\3728\r7\343\271*\273\304:?\233B7Ma\363:\210\256\351\273b\275G;\213\213 \273\271?\204;\230\227N\272\256\021\n\2737\003y8p\222\026\273\367\341\2508\374\331_\2724W\354\271\"\242\031\273\0109w\273&L\305\272\352\342\346;\263\371\2328HD\002\273\375E\317:dg\305;\271\200\027\273\342\344\366\272\252W^\272F\313_;jx\2079a-\275\273#t?9\217\266L:(fZ\273v\233\246\272\344@s\273\016\305\n7dv\340\272{\266\032;\017\224#;\275\275\331\272\016\001\335\270A\242\010\273}\237\004;\234|0\273\211\256$<\2716=9nk-\272}\225\317\2723K\017\273\322\300\030\2725\362\260:\024\n\230\272N\3317\273\227\004\201\272\344\375\321\270\362\267\t9\246V\333:f\2704:\"\214!\273g\301\3436\006\254\231;\241A=\271\020\255\'\273.\225\222\272\236M\t: \242\024\273\026\241\016\273\342P\025<>\252\3529a\315\266\273C=@:\204\230\370:j=\322\272\360\254\350\273:\321\217:&\023B;r\353E\273\273\341\315:\2675l;\206\366\016\273\004 >\273\362&\207:]?7;\333\217\274\273\367e\242\272\000\267\211\271\006h\324\272,F\007\272X\n\2207\226\216a\270\261\370\355\272\202\007\037:\321\315\352\272\251v\201\272J\364\014:Q\272\014\273\354RO:\244}.9\235U\326\272\037\000,\273M\322\325\272&X\030\272\207\024\021\273o\n\364:\033\340\r\273\372\327\241\271n\364q\271D\202\2658v\320\361;\240P\t8\032\204\310\271\337\013\2729\275\337a:\032\033\222\270\373\247\177:g\276\262\272\227\223K9\272\314\2479\370*\031\273\275\330\320\272\343\312\375\272\023\021\201\272\023\317C\272\365ho:\272\0315\271\213\253%\273P.\2779A\246\326:#\342\201\272\203.\0239s\226\236\271\263\322\363\272@c\025;h@;\272\321\223\371:\232\030#\2737zI;<f\220:\2466\035\272\332\263\010\273\\ \021:(si:\262\371\350\272\2504i\273\315\276c;E#\221\272\377g}\272T\372\236;\331\223Z:\022\003\364\272\265%\017;:\216\200;r\377 9\315\323p8N!C;\234\233`\272\014\271\023:\241Ao\273\331d4;\216\305\300\272\0377\322\272W35\272A\232\202\273\370\222\014;\332y\362:`\333\352\271%\031\017\272e\270)\272\316\337\310:=O\031\273\005\244&;b\272C\273i\324\244;\304T\343\272\205by\272\306\362\314\272_e\221\273\256a/\273;\005\314:\377>&\272/\034N9\325\237\330:\354\314U\273\263\251\0338\321\300\236\272\006\304W;n\271\220:\264\031Q\271\227\254\324:t<\207\271\234)B\272\370\266\201:\0346\265:m\255!\272\371\355.;\276\375L;F ::\032\374G;\356\214E:c!\000;CN\316\272\355md\273\376U\000:A\2245:\350\375\252\272z\267\025\272\320\364\010\273\271\257U\273\351\277\232:]L\301\272j\366\2609eDG:}\3368\273l\\\2739c\375s;\300kE\273\031\360s:t\311=:\\\2041\272\372\366\246:\320Y\267\273\337\255(\272n^\315\272\033\227\326:\003\272\270\270\300\276\242\272\334\202B:\352\224#;\347G\265\272\013[r;\355@\325\272\031e\274\2722\264\225\272\345\n\227\273\327\331\264\272\360q/;\225\256S;\2361C\272fCa\272\341V\222\272\373\010>;\022\312\351\272d\013\317:7\325\230\271R\256\017\272\216\302\260\272A\013~:Evr:\205\326\237;W\016[\271C\271\214;\335\202\265\270\026-\021\273\360A\252\272\rM\3039Gu*;\244l99?\006j\272\026\0338;\333v\217\272\306Hi\272\302S%\272T}\024;4\266\207\271\227\241$:\302\237?\273z<D\272\034R\207;O\027^\272\300\017\032\272D\212&6bx\207\272?\367\311\273\3648\222\273\224@)\272\342\231\346;\364z\360\272\016\224\023\273\370\022\216:hu#\272kI\272\273\300\310\026\272\303\253^:\231A ;| \3429\357m=\273\322\343\024;.\n\214:\211T:\273\271R\001\272\256CB\273\346\327\270\272\r\332K\272\007G\370:TB\255:\320\347M\273\007\351\263\272k\036\035;\303\330\354:\030}c:a\267\3329\325\n\235:\262n$:#\2479\273\030\330 ;\306)U\273\031\376\244\272P\207\327\272b\314\003\273\016\242\204\273\217%\'\272\246\306\313\272=\325\350:\256\364\206\2729(\371\272\306\35259o\363\004:\352\255_\272\340\254X\272\237\354Q\273\023\240\022\272\362\240\205\272\"\234\244\273\272\236\215;\265\356*;\342U\233:J\375\311\2715\210\211\271\356r9\272?\322\302\2727\273\2518t\251\021\272\337\217\3127\347\326-\273\311\355\233;*\340a\273\263\202+:}\202K;5\025\302:\234:\3429\266 ,\272]\371X\272\2026Q;>\237u\273A\264A:\017\351\016\271\334\306$\273[\356\367\272CW\352\272\310\355\304:)\212!\273\n\337g\273\005A\340:\343x\325\272 \231J\272C\212\203\272\'N\252\272\320\\\312\273\351\2641\273\017\3767\273.7\020\273\"\327\320\272\332\366d\273\334\334y\272\016\000\016\273\227\023\364\271\351\277@\272?M\3259\311\361\034;%\373\226\271\351\211\345\270\351\357\025\2735i8\273\221xF:\366\251\3619\335\263\374:\372G\2639>\004\037;\33419;\227\351\366:\004\021\223\272\202q\340\272d\371\364\272r s;S\330\300:\2243X\272"
      }
    }
  }
}
node {
  name: "training/Adam/batch_normalization/gamma/m"
  op: "Const"
  attr {
    key: "dtype"
    value {
      type: DT_FLOAT
    }
  }
  attr {
    key: "value"
    value {
      tensor {
        dtype: DT_FLOAT
        tensor_shape {
          dim {
            size: 64
          }
        }
        tensor_content: "\201~K\273\004\276/\273\'\376\361\272@:\305\272]\233<;\263x\021\273\260\243\216\272cA\272\272<Q\351;0Js::\021);\344\230O\273\025\347:;NP\270\273\363[v9\234\273\000;j\274\2338\270\010\254\272\306\013\233:\236\251\332:\213VR;a\273\313\273\032\247\2519\307\226\373\272X=Z\272Q\253\233:\210P\365:\310\311t8\301\022:;\255Z\"\272(o\262;\203eY;\003E\212\272\301Yi\272g#|\273[\027*\273\203\344[9&{\252:\r\250\230\273\000@\225\273\254\327\253:vH\000\273\343\277o\272\237\025\003:\232\251\207;\037q\342:&\005$;J>\020:v\274\361:\252\367\032;d(\023;\375\243\204\272\305B\351:\305\307\001\273tut;\004\322\200\272\270\326\243\273\001\023\356:B\311\270:\030\257\226:\314\372\210:\t\n\352\271\224\357\215\273\366\226\207:"
      }
    }
  }
}
node {
  name: "training/Adam/batch_normalization/beta/m"
  op: "Const"
  attr {
    key: "dtype"
    value {
      type: DT_FLOAT
    }
  }
  attr {
    key: "value"
    value {
      tensor {
        dtype: DT_FLOAT
        tensor_shape {
          dim {
            size: 64
          }
        }
        tensor_content: "q\326\201:oN\007;\266\275]:\306\376\273\272\257`\016\273\262z\025\272\022\364~\272\017\206\236\272-k\202\272U\363m\273\224\221\202\273\206\365\2629?\306\"\273/\354;\273\320\372D\271q2E\272\310\004\026\273\315\tQ\272\222J\250:\224{\352:\221o\3649?=\r\273E\326D\272\026\022\0009\307\"\206\272\265F\005\273Z\275w:~\303`\272U\200\267:\357^8\273\344\r\370\271\372\237>:id\032;\327\'c\272\333\231\261:\036\316\3069\3241\260\271\002?\024;+%T:\261$\2229\312s\255\267\305\352\336\272_Sr\272yXS\272\016\317!;\317\035<\272,e\200\272j\324+9\213N\006;\227\305\217\271f\371\203\272\355\366\000:\006\034Z8\340\246\225\272\220*J\273\013V\204\272\316RV\272}Y\337\272\021\320U:r\255\375\272j\311W\273\263P$\273\336:\3579\'S\263\272"
      }
    }
  }
}
node {
  name: "training/Adam/dense/kernel/m"
  op: "Const"
  attr {
    key: "dtype"
    value {
      type: DT_FLOAT
    }
  }
  attr {
    key: "value"
    value {
      tensor {
        dtype: DT_FLOAT
        tensor_shape {
          dim {
            size: 64
          }
          dim {
            size: 64
          }
        }
