node {
  name: "dense_input"
  op: "Placeholder"
  attr {
    key: "dtype"
    value {
      type: DT_FLOAT
    }
  }
  attr {
    key: "shape"
    value {
      shape {
        dim {
          size: -1
        }
        dim {
          size: 13
        }
      }
    }
  }
}
node {
  name: "dense/kernel"
  op: "Const"
  attr {
    key: "dtype"
    value {
      type: DT_FLOAT
    }
  }
  attr {
    key: "value"
    value {
      tensor {
        dtype: DT_FLOAT
        tensor_shape {
          dim {
            size: 13
          }
          dim {
            size: 64
          }
        }
        tensor_content: "\362?\037>?A\337\275BY\274>\256l\243\276\016\322\030\277\220\253\031\275\t\217\001\277\342\253\013\276\274\327\r\277\2075\270\276\"8\246<\260\037a\276\261\274\302\275\241\2628?\3736\236>\366\311\201\276\206\271\016?]J1\276\235SQ\276>\327\212\276a\2353?YQ\'\277.*h=\312k\202\276\013\356@\276fA\320\276\313\373\216>j\033\305>6] \276\337\250\003\2763t\227\276\234S.\275\0033%\274WT\262>0\344\032\277\246\353\305\275\377\366!\277\216z]=6\016\347\274[\364\201\275*\204\326\276)\033\242>\263\263&\277f\341\255>\245\225\276\276u\220\216>\372A\272\276~v;=\251\207\370\275sl_>\022,\361;\327\3012=m\347E\277P\373\004\277\227\275\310>t\020g>\243/@\277\017\331\036\276\354\213\210\276\200f\224\276\035\350#\277\026\']\276Y\230\314>(x\345>y\257\273\275\210{\263\276\242\r\314\276\372\036\242\276\267o\251>\027x[\276,\207F\277\330\346\001>\370\024\240\276\336\025\334\276\035\241\316:\000U\020?c\031\016?\215\002\321\276\013\013\202<\260\033!>k\242\'>\200\361=\276\324\246\204\274\233\352\333\274x\265\013\276W\273\006?hy\010?\373J\244\273\212\340*?\226\2504>\005\274\224>\352*\252>c\310)?\276\256\317\2761\252\036\277\265\261g>n\371n>.\212z\276\345\003\225\275\276F\225\276\002>R\277\374\206*?;\352_>#`\252\276u\317\034>f49\277q\036r>\277/\261\276&)\006?\2613\212\276\344\203K>uA4\277z\202\206>;2\037\276\2725\035\277o\367\371>\210\362\001?\245\227\236\276\177\251=\277f\357\346=f\362^>!\013\223\276\276og\277\202\213\337=\341\247\233=\343\0173\277\254\323T?0*\010\276\374\301\371>\225\375\264>c\302\n?\267@\024?c\rE\276.\rZ>\364\304\262\275\310y\362\276\226\035\306>\267\014<?q\267<\277\306%R\276u\302\346>J!v\276\013\3512\276\000\216\263\276\340\335\222=r\325\246\276\234\032\025?\001\257\340=q\342\335\276\374K<>v\206<\276\033\236\001>\177\2246>\207o\255\275\302\352{\276\222!u\274\3548\310>\027\216\306=+\200\033\277\373g\023?\376^@?y\'/\2760\t\272>\372G\375\276D\2377?W\022@=\355\n\255>\034\341\264>\261\213\226>\303\233)?\273u\220\276\035\211\234\276@\343&\277\212\3250\275\256:|>\001l\010>_+\n\276\307@ ?\3042\210=\225\242E>+XA>v\211\366\276k\233\230<\304\203\311>\373\244\260<\221ZJ?\357\032\263\276\323*\203>%A\200>>\340\036>\214\342V\276\342\316\306<(\233\007?\\D\310=x)\033?j \337\276\224\201\334<\325\330\244>CE?>^K\335;\231\275\346\276\361mW>\244R\027\276r\276\221\276\010\220\252\275dw]=\254\340\225;6\234\014?\376\334\336=\224P\274\276\353\343\332\274\006\350y\276\251b-\277\032H\340=\007Y\307\276\246\212\312\276*\273\265>\033\243M\277(+\345<\267\224\255>d\242\371\275\252\361\223\275q\257=\276g\261m>\262k@>e\225\177=q\212\273>\376\211\344\275\220-\240\276\354@\333>a\237\234\276y\347\212\276J\016\345>\\\005W?\235~p\276\210\331\013\277N\226\200>bvo\276\254!\243>T\335\000\276A\236\036?ODb\276Y\237\231\276\212\215,?9c\017>\311\224]\277\275\276\270\276\326\201\000\277\254U\223>\255\016`\276\240\271\267>\010AY\275Sc|\276\177\017\204\274|\245\350\275+V\253;\374{\201=tUW=\347\205\024>\303\265\237\276Vj\256\276>\356\"?\235\035\207>\247\016\034\276*\263:\277ej\366>{5b\276\202\360c?\244\350\330=\243K\215\276_\220\210>\331w\213\276\031\3776\276\244\327\276>\001\355d\276\347Lr\275s\252\277>\313\265\363\274\312\262\230>\226L^?\234\316A\277\237\306k\276a\204S>\342u,>\006\005\276=mc5?MY\333\276yL\323<\000<\374\2769\370\262=\307\236\346\276\250j=?\311\022\222<GZ\025?,\326\363\275\234\316\345>\032\311\316>`\032C>\350\207\310\276q\010i\274\324X);\237z\233>\220\275\210>>7I\277\317\035\221>\267W9>\354\031\300\276-\341\367\276k}\315=\270\0231?\213\225\262>\227x\243>uAL\274\303\024\311\275\321G\276>\234\340p\276\3700\261=r\205\242\276\343I\003\276\032\341$\277!\034\001>K\212\364=~H\027>y\377@\277\357\001\005\276jje\276\324\336\016\277\">\354>\030\314\315\276\037i\037?\252\2470\276\025-\364>\310\346l>6\3458?w*\317\275\321W\336>=\235\352\276\002\213\206\276\236\226\214\276\345@\300\276H$!?Z\351\373\276l\214\247=\350\224F\277fr\351\275\365Qo\275@u\r=&\304\020?-X\021>\235\224\"\277\016W\300\276Y+\312>\343\366\332>5\361K>\261b\357\276u>\035?S\n\305>\2638\354:Q\272\222>\200\213h=Q\351\300=\265\276\r\2775\035\346\274L\215\t\277\341y\206>N\006\244>{\204|\275V 8>\202\330\250=\204\310\327<CT\262\276[\375\032?\310\3272?*\370\232>\277\227\333<\303b\276>(\002;?\016Kj>t\353\n?\231\343\217\273Y\3510?\313\372\r>.\\!<\027\310\231>\007\347I>\230\210#\2777\003\302\276\005+\366:\363\304\357>\212E\311\276&Pw\276\035\272T?2_\001\277\201n<\276G\013\331=z\251\253>\2628\033>\022F\243\2762\006\234>K\016\026?\"\034\316>\031\0325\276\275\036\222>\2515a>\215h\007?h\373 \277\016\211\202\276\036\223\352<\352\375\254\2765\2634>\317\0047\277\256\262]\277\030a\002?\324\360\260>0S\341>\372k\026?\303w\373=*\216\306\275f\310\271<\331\334\243<\330\272N>\350S^\277\266\225\317>\n\222b?\363\343\361>:m7?u\3642\277]\373\240\275\311Q_\277\\\t\361><\236\267\275\316\2404\2760\203Y\274$\351\235>A\232(\276\327+z>\027y\301>\014\022\347\275\342q\213\276\233\235 <\257F\027\277!*\244\275.\236\'?3\000\322\275\337-\023?\317\nx>g%\007?U\325Z>\222\316W\276.\202y\2762\247r;~X\234\276Y.\010=-\024I?.\302\022>\327B\033\277\2214T>\'\354\323\276\303\'\217\276\205f\016\277\335\217\261\275\346\317\030=\255G\004\277\362\266t>\254\301=?\\\007V\2771Q\360>\0138r>\273\205\201\276\354\2438\275\222B,\275\017\213+>\270\232Z\274\0220\224=M\032\001>\336\362\257><BH?\260[\211=\376\215\302=y\222\013\277\022\246\235\276\353\252\315=\254\304\343\276\347\026d?\350B\005=\266\010\024?1\026\356=\254NZ>>\262\305\276\023\250\025?r\036\241\276\306\222\347\275\352\331\n\276\217\224\n?Q\371\277\276\275\'\036\277r\331y>I!%\274;\233<\277k\206\t\277\271e}>\301^\251\274\277$\234>F\241#\276e\244-?I\001\035\2773-\010?\013\334\">\234\265\343\276%\264n\276\246\234\304>\367\340\224>\372\0315\276A\237:\276\224\251\276\276\223\316\001?mY\264;d\010\257>\265G\003>U\254\225>\035%m>y\317*>\225xc>\177\352\266\276\037?\256>\226=\236\276\177\353\265\275)\364&>\247\357\033\274\226\242g\276L\210J?&\305M> \321A\276FC\036\277\374\006{>\217\t]\275\300w^\277\361\331\006?\355\006\314>Y\t\301\276\324\247\232\276\033G\212>\306\257\t\276\265\2410?\317\026E\275\341\264\302>\020\215\311=\235\323\353>_\205\262>\350\350g=\020\217\333\276+\373\035\277\244\244\n\277\271X\026\277\272\276\262=\2617\n\275\216\031G\276S\030e?\003\256^?\210wu\276\341\341\211>\035\002\310\2720\245\210\276M\304\247>\261\256B\277\007\006\030\277\374c7>j\342\320\276D\230\231>b\232\335\276\216\314h\275o\321\020\2756\027S?\262\003.?\0315\310=a\354\212\275\377<\033>\013\322_>\025\361\014>\212\211X?\244\250\356\276\265\250\022>\255\032C\276\241\345P?\266w\024\277\361!.\275\214\003\234<\363\326\365>0}\020\277Xb\204=\347J\212>\306\240\303\276\017/\262\276\324\231\266<eO\275>e\337\216\276\031\274^\276&\037\005\276\"~(\277}k\302=\346\005\217;\2034\265\276\336\036\033?&\350v\276\320\266\325>\022\261-\275\375\032\340\276\244\365*\276\241-)=\324;3\276t\257\260>\204.\316>\222\014\306\276\341q(?\003\305\031\277NG\005?\247\030&>o\331\237=\014b=?\207\002(>0z*\277\304}\220\276p \263>b\"\212\275\013w\255>\351Dq=$\302\330>\301\'\350\275\004\274\006\276\000\221O>v\305e>9D7\276\351\246\343\276\3024W>\235g;\276\365\356\261\276\252\030$\277\267?l<7*\t?!\344s\275\262\322\257\276\347\035\036>\333\310\355\276\033\314\270>\237\332\321\276\203v\270\276\227\371\213\276\034\245\263>;s\227>/\201\356\276ZF\206>I\315\342=D\316\317>\361\265\315>\372\364\034?\316\214\014\276\277\212$?\030\023\033?\366\"\330>\312\251\272\274\317\246\323>\002\322\242\276t1\023\277\222\374B\277x:\316>\332a+?\262\276\231>\364GS?8Pw\276\303\" ?\026\352\244>\302\204p\276\332\250\212\275J\217c\276\257\377\014>\0314~>\220\327Y>\353\3110=8q\356\276?\223]>\221\274\032?\326\'\037\277w\017_\276\n\264\267\275\272 \000?\033$\307\276\003|G\275\371\204\002?6\016\234>h\316%\277bP\325\275\242\261\003>W\366A\277\021\220\343\275\363\213\333>\321\277\352>\362\223\371>\007\303\324>\020\320\303<u\313\205>i$\252>\354\306\005?m.\207>\217\353\210\2730\253\002\277h\336\375\276\206v->\361\026u>\352\270:?\341@\007\277\210\306@<PH\245>\036\315\261>\276\336\222\2764-\370=\267\325\365=w\346\016;\177B\020\277v\027\325\275v\266\006\277/r\231=\"\354\021?\256\'\247\276:\234\361\275\366Pd>\370\244E\277n\267\343\276\213M\351>\223\273X=f\240\361\275\257\260\034;\005\244\267\274\365\035\321\275WE]>d\261\365\275o\001\360\274t/\312\276[E\221\275\360\331\232\276Kg@>_P\367\276\361^\343\275\370\326\256\275\177+q>\363\352\377>\026\320\346\276\2344\355<\3272\'>^\305i<\3324\324>\255\370W>\022\311\350\276\325\0244\276fV6?\233\346\355\276\313\"\306>\336M\277\275W\253\020<V\331\"?\245\315(?/\245%>$\310(\276\004\270\235\276\tH@>\261\360\214\275\332\006\302\276\340\235\211>\347\214\250>K\"\035\276\276(\324>k\031\010>r\363\361\276\364\321\264\275\237=\212\276:\212q\275\030\247y\276\t\365\331>I\237\261>\277-\216=\345yV?]<\334>\332\002\333\275\257\017\242\276\005\2256\276\234,p>P\001\314>\004\247\024?\217v\222\276la\275\275\371\250\001?Q\007#?9\2617\277\010\334\n?\311\031\216<\315\216?\276\214\247!?\024/\321>\302#a\277-\r\260>\340kS:Q\370\331>\222eU?\333V\235>\013R3<h\262\022?EN\367>\223\356\230\275X\232{>\3551\313>\024\366s\275sJ/=\247\206\250\275\026i(\277\231\020\366>3\211\177\276\262cW\276\024\375\002?\304\206}\275\364\025\360\276\334\350\260\276VZ\234\276\027\316\216\276\271\205\322\274u\254\270>\006nT?\030\024$\276\351\277\235\275\245\273[>d\r5\277\033>\260\276dhD?\256~\306\274"
      }
    }
  }
}
node {
  name: "dense/bias"
  op: "Const"
  attr {
    key: "dtype"
    value {
      type: DT_FLOAT
    }
  }
  attr {
    key: "value"
    value {
      tensor {
        dtype: DT_FLOAT
        tensor_shape {
          dim {
            size: 64
          }
        }
        tensor_content: "\307\376^<$\225e\2744,\332\273\277\275\240\274\000K\264\274\304\202\311<\234e\223\274W\236^\274\222V)\274\033\362\210;\\\027\213\274r\204\205\274\020\333A<Y\313M\274\265Z\210\274\032\006\360;\016\357=\275n\247/\273\323&\003\275\032\024\211\274Y\230m\274\253g\037<\334$\262\274D\025\213<\210\260#<\003\333I\274p.\021\2749aY<\031\242\205\274\006{#<\217\371W\274HQ&<Q\036M<j\000I<$\216;\274d>\026<j\334\204\274\261\252\214\274\n\334\342<sZc<u`\262<\022\206b<\330\207\177<\016\220\327;G\303)<^\365+<\232D:\274\314\347E\274\026\004\351<\217\345\033\274\303\267\205<\'\224\017\273,\216\021\273\031\031#\274\351!?<\207O\266\273\334:v\274D\237\210\274Rh\003<\255\222S<\256\201&\274\023RO\274\355L}\274\2549\370\271"
      }
    }
  }
}
node {
  name: "dense/MatMul/ReadVariableOp"
  op: "Identity"
  input: "dense/kernel"
  attr {
    key: "T"
    value {
      type: DT_FLOAT
    }
  }
}
node {
  name: "dense/MatMul"
  op: "MatMul"
  input: "dense_input"
  input: "dense/MatMul/ReadVariableOp"
  attr {
    key: "T"
    value {
      type: DT_FLOAT
    }
  }
  attr {
    key: "transpose_a"
    value {
      b: false
    }
  }
  attr {
    key: "transpose_b"
    value {
      b: false
    }
  }
}
node {
  name: "dense/BiasAdd/ReadVariableOp"
  op: "Identity"
  input: "dense/bias"
  attr {
    key: "T"
    value {
      type: DT_FLOAT
    }
  }
}
node {
  name: "dense/BiasAdd"
  op: "BiasAdd"
  input: "dense/MatMul"
  input: "dense/BiasAdd/ReadVariableOp"
  attr {
    key: "T"
    value {
      type: DT_FLOAT
    }
  }
  attr {
    key: "data_format"
    value {
      s: "NHWC"
    }
  }
}
node {
  name: "dense/Tanh"
  op: "Tanh"
  input: "dense/BiasAdd"
  attr {
    key: "T"
    value {
      type: DT_FLOAT
    }
  }
}
node {
  name: "dense_1/kernel"
  op: "Const"
  attr {
    key: "dtype"
    value {
      type: DT_FLOAT
    }
  }
  attr {
    key: "value"
    value {
      tensor {
        dtype: DT_FLOAT
        tensor_shape {
          dim {
            size: 64
          }
          dim {
            size: 64
          }
        }
        tensor_content: "\267\265\223>\025\201\203\2758;Y>\356\2223\275\243\342\205>\202%\002>\377z\334\275\243#\036>\271\263k=$\321M=\371N;\275\255]\202>\t\210\316\275\226!\010\276.\360\246\276\233\344r\276\260\257\037>2\270(>E\341\236<%\221\350\275\323S*\276_U\237=\332\303c=X\334\335=\201\217;\275F\207\240>\376sd9\226\324W\276\343\313\016>tD\241=\375\032^=_`\220>m\357\273<\034\256\306\275\217V\204\276A\336\246=\246\364\314\276G\331\243>\303T*\276D\013V>\347\354\225\275\242\244X>\337\323\014\276\272\212d\274l\265\341==\376\336=\375%&\276\306s\211\276\317\217>\276qW\000\276Y[\004\276\373\370*\275\270]\312=\016\211\373\275\t\030J\276\341\014\325=!N\377\275Qbx\276C\271\201\276\335\371\201\274\354lv\2760\305\245>6\035\374\275\010\016@>O\374w=|%>;\004\231\301=\200cE\275C\274\216\275V\237\013> >\324=;H\024\276\3158\362<u{\203>\277\003\315\275\r]\242>\022\306\274>\n:\344\275\003\016O>\021f\242>\221Qi\276\315v\352\274$\020\205\276\270\254\373\275\010\332\365=ObL\274\016\315\010>\364\324\243<\307\251\213:.\305\374<^1M\276=}\267<\214\026\353;\027\250\203>?]\324\274Q\252\027\276\031oF\275\255\034T>\221\255\306=\344>\260>\0003~>\264\260\276=\330\242\006\276\216\361\220\275n\350}\276\002\312\212;\313\033\221=\226\362\036\276:\234_>\267\256\250=\375\033\034>\177\340\025\276\336\256\'<(\355\323=\203PF>jL:>\342q\207\276\246\200j>`\021E\276\320\023s\276\377\336\201\275\2536\n>@\322\207>\365p1\276\255C\372\273\305\363\242\275\003\020\'>\227\341\271\276\216\276T>\232\226\363=\377\023h>\255v&\2753\007b>\277\032\360=\006:\250=\256\007)\274\017\206\322\275\207\030\247=\026\233\030\276?\257[\276\243\036\306>2\367\341\275\320Dq\276\316\017u\276+\244L\276\224V*\273Etl\276\252\353\233\275\307# >\335I\271\276\357\226\323\275S6=>\307u\266>\301\310\016>\213X$>\244,\216\276\257VZ>G\035\355<\205\241\251\275\266<H>\337\246\351<\027K\264\276N\213\244>IN\246=,2\030\275\321\334I>\177\333\312\276\007\221\200>zn9>\016\032p>R\204\243<^I\246\276<\2053\275K;\367=\037\220\375=\031\322\313\276M\350&>\266\014\">D\207\336;8;\023\276o\312\016>\350\013\014>\263\354@>\246\243.<V.b>u\t\324=qV\006=\343%\242\276l/\300=Hi\267>\332\257\333=\370\346\203\276\274<\360\275\221\236;>\335/\321\275Q6$=\226H\032\276\262\266==6\342P=\221\206\t\2767\266\016>\335\036z>\034\256\242>!\245\022\275\203,\301=\277\246\223=\345M\217\276\260\002\351=K\305\211=\031\313~\275z}\370\275\375\233\002>\313F~=\253\000!>V\\\013\275\000\224\215\274a\252*=3\355\253\273\326\026\001>\023\275\310=\243\n\320=\033P\316=f\202D\276\226\360(>\357\021\031>\216\260\225<n\242\t\276\3219\300<\003\304\231\276\275\356\261>|\033\007=ZX9\276\254\025\217=\032*1>k\232v\275\003\244\253\276wU\310=\231[(;\320\036u\274V,\204\276\034\010]\275\002\204\211\276njA>\022\"W\275O\365\203>\374\336h\276_\340\301\275\262\364\255>`\275e\274Q{\362\275\235\270\244\275\366\332\026\275\265\2415>\330\030\342=s\3735>~\364\346=f\025x\275\271\016F>q\234\230<6\212|>\252\276U>\247\361\035\276\024\374\222\273#\224\236>\232\347\343=\024/\213=\3474\307=\342\010\030>j\323\006\276\266\210\337=\352\002\260\276g\177\321\274\276/v>S\002|\275\275a\013\276\316\372\304>LZM\276\277\255W\276\344\271\320\276\301\373\024\275\223QI>\347\347E=\034\340X\276e\242\216\276\331\212\020\275\364\2224:N\351\215>\032\335\277\276\273H\221\274\221\300;>\302-\256>\227\334|><\262(\274\340T\273=d\025\234> \302B\275)\316\367=-\256\221<|\312\310<\325/C\2753J\375\275\251fT>\251\000\314<Y$8\274\232\'\025=\350\243x\274\367\361\000>\356V\033\276\220\006\242\276\267(r>Ub4\276\3147<\276\314\265\354\275\216\241\247=`\252z\276\373 \346=\250O\211<\031]\311\276\177\372%>a\371Z\276\3414\376\275\242\033N>\324W\021>\202\370\212\275j \231\276\r\251\023\276}\3631>\351\365\275\276\267\033\013\275 |\206\275f\335g<|\025/>\373E\214\276\007\014\020\276J\327\235\276C4i\274\252]\204\276\021J\267=\025s\274=\367<\250\275o\317c>\322\255\002=\037\211m=\314 g>_\364\312\276\250\274\302\276\267\n\330=Q\r\017=.\351\023\276\352y\"\276Z)\320\275\376\0256>}W\203\273\016\320\236=\251i\367\275\324\016\336\275=\321~\276\220n.=7![\276\316\302\256>\375\236W>\255\333\242\276F>\031\276\241_\264>\304\324L>\210j\023\274{[\270\275!\345\003=\362\303/>\347\"\222\275\306\263o=\264.\276\276w \254=\'M[>,\316J>I\306\035>\366\215\321=\214}\330\275\362\337\010<\030\227N<\340\233G\276#\373)\276C\354\311>\350\177\352=\344\347|\276\234A\213\274[}\300=\214\021\306\275l\010\\\2769o5\275\337M\025;B\343\275=,\"S\276s\013\306\274\225\030M>\3036\t\276\2653\032>\035D\r\275P\035\t>\276\305\267\276*9\025>\233\363\031\276\307_\256\275\227\204\375=\323\2761=\200\223\202\276z\021\371;]\357G\276`bf>>7^>+\034c=\263Z7>s\263\362\275\223c\242>\353\035\r<3H\025<\302\005\002\276\250E>=(\250\302=\250\372\324=Q\223\034\276\375\214\217=\355\215\227\276\034\206\201=\270I\376\275l\251\223\276\016\0324\275X0\267\274\355W\246\275\212Ed\274f\242)\276\\\\>\2752\250\351=\014\312\223\275H\263\335<\351\250!\276:a\013\276I}|<7Z\021>\306-\223\275\253uJ\276\373n\027>Ov\002=\206~\327\275i\350\236\276\307\365\210>\262\247\271\276\252\244R>\241,K\276m`\205<\024\236F\276\003i<\276\306\224W>\013\211\201<P\357\232>\242D\273> \' \276\037\325B<\374\316\207=\372D\231\276\370\274W\276\215`\007\276T\014\216=+C\275=\301\"\374\274\027U\236=vZ\355\275\216{&>1\270\031=\346\252==fY\200\276\347\022\312>&\351\322\275[0\233\276\000\n\365=\213\270\217>\262;\311\275\375\264\203\274\373\325\222>!\207L\275\331\000,=\327\330\302=$]Z\276@\247\225\276}rg\276\034\235\255\275r\2434\276\213\346\377=D\342\005>\317\213\005>\270[K>\340m\t\276\357\032a\276\204\323\007=\334\324\'\276\247\362\034\276\300k\347\273\313\\\217>\235o7\276O\262Z>r\3333=\302\311x>\001\205\250=\236\014\032\276\207\327\250=[\3639\276K\020=\275WR$\2752c\220\275\273\027f\275\027\226i>\340\274\023\274:x\354\275\'\342l\276C\220|\276\260\"\222>A\336+\276\271r\245\276\247\235\246\275\367\376\016=\346\371)>11\215\274\2645v>\363H\303\274\006\346M\276\313c\223\276m\004\204\276\244l\316\275\264\261Z\275\231\331\322\275\236\236D>\350\210\206\276\350\300\213>\004%\003>_-q>\263\'\224\276\206;\213>}t\235\275S?\006\275\361\245\200>\325:\352=r\016\260\276\336\376\032\275V:\253\275\201\375E<\004\234\244\276\244\227D>O\347\371\274\370\371\000=\342\235\365=c\331W=7\006\246\275\321\025O>\014H <\035\362\304\275\273<\267>\212\270\237\276\351;B\276\001#A\272\020:\256\275\226w\222=\365\233\374=[0S>\014\251\370\275\357r\005>HG\237<C\002t=E\\\\<\221\346\325=\371\030o\275\326!q\276\033^\237=1$6>5\202b\276\2048\233=7y\257=\264j\220>\tq\275>\304\245\014;\267\245m\275?\364G\276S]\014>\226\310\330\275\301\301u>\347q\313\275\n\321\217>\244\310\234\275\353\370\213;\235\340Y\276\2232w\276\334s\250=+\201m>\244\263\025\276\261\026\031=\032\020\226\275\240Hm\276v\030\201=jAw\276\342\316\322=\nZ =\351\253\301\274\225\251\200\2760\022\267>\351o\245\275c\342j>W\272\210\276\026@\274=\3435\331=\226\'\024=\254\016\025>\377\005\372=\300\2359\276o\204\227\276\263L\214\276\303t+\276\201\250\347\275\360V.=Tfu\275lar;\027\312Y>\304n6\276\2762*>9v\351=\262\233\316\275Y\370S\274v\247X\276\252V\273>+3\317\2758N\030\276\244\030\345=\225\302\270=\031\376~\275\345\230\261<\327\"\236\272\002&\217<C\334\006\2764t&=\256\353-\276-\235Z=c\203A\276\027U~>\300&(>\003\320\264\275X\022Y\276#\370i\276\247\241\312\2757\000y\273\325\332\005>\255\340=>\361\342t\275\251\320\256\275?p!\274\272\000*<\245\335\036\276\363\006\224=\311\362\032<\3359\335\273\253\003\203>d\005\335\275>a\251<\257\200s\274\3755\230>\356\317m=\307\200\226\276\r#\023>P\201\032\276.7\237>-[\342\275\316\020h=\242\217\327\275\316\265I<n\313\336\275\214\271\346;\327-\202>r\377{>Ze\211\276\372|\244>q\241\t=\211\363\314>\326\311\000\276\2202Y>\204\377.\276O*.\275\212\261\214\276`\275}=V^b=4\335K\275\030\216\312\2758\246\373;h\2524\276\013Z\275=\024\354s>\037\234H=\224\345F=\351\352h\276\033PL=gs\006\276\372\242\256>yh5<\274\355\022=\357\r\016>K\200\013>\217\017\301\2750x\005\276\316\265\'\275\305\205\253\275$\240\007\276\362y5>\352W\267;\310w\251\276_\370\331\275\24461\275\337\357\323\274\252\271\031\274` e>v)\344\274\233\345H\272t\373\257<\306\322\203\276\242C\270\274\333\016\253\275\231\033 >\216o\352=\314\370\222>\251\274\031=\305GH\276\345\200\321=\013\"\035<s\255N\275\024\027\232>H\343\203\276\320\207\275>\t\222\000\275L\367\266\276\035\275\225<\375I0>AV\023>=8\277\275b\321\242=\024C}\275\356\333v<\3755\262>\343\222\337\275)\364\244>|r\237\273\037\231\245=[\306\035>\325@\245\2752A\211\276\306\201\261\274\237\230%>\312\000D>Y\215\030>(\314F>6\257L\276\205\332\213\276~%-\276\256\025D\2766\024\237=\021\372\335\274\223\317\244>|\314\n\276\301D\266\274\244\347_\275\276\027\004>f\023\017\274V\3101\276n\224Q\274\214\301\036>\2040\215=\217\211\267<3t\332\275\273\371\000\276.\222@=\271Y\200>\030p\202\275\377\320\206\272g\332\014\274-\3576>\352j<\276\240\356(=\370\3325\276\353\265\250\276\373C\035\275\235L;>\263\346Y=%[~=\001\363H\276\363\213}\276\363\271P=\030I\262<\341\037\261>0\273\001\276{{R>\340\355u<}b:>\001\036\245\276\263\266\243\276U9,\276U\020\035\276\n\253\211=M\002?>\334y\363=V\235#\276\004\251\343\2746\346\203>\242\"\003\276\226\310\263\275\007 L\275\r\007E>\356\"\220\275\221\016m>\215\237\243\275w\207P;K\237\242>\355\177\010\276\361h3>>\211\200>\236Hc\274\022\017\345\275[\214\305>&\\\335;\215N\331;\376/\335\273\016}\341\273\371#\264>cG\202=\000\224\020\276\020\256T<^\273P\276}5\212>S\257+\275\3663W>\006\205\202>\265\277z\274}t\315=\201E\204\276k\353\313=\212\031T\276JdY>\277\307m\275\364\270\270>\310\232Z\276p\017\226\274\261%\233>;\361d<\"nZ\276K\236\220>\225\035|<?\004;>\r[\000\275\244OI\275M\325\220>\207\263\262\276\216\002\301>\370\324\247\276\356`}=\217\002\342\274w8\177\276\362\306-\276}\342\251\276H\375Z>\022\322:>\"\264n=\312\353c\276?\3168>Q\356\377=\301_!;,\210\371=^\221\025>\361e\246\276\200vH\276j\3327\276\345],>\266\244h>\226%\306=\3310\374\275\330\373\001\276E\240\n>USY=\315\353\337=x\003\302=g\006\223\276\315b\360=\t\322\243\276I\373\325=\021m\275>q\257\335\274\317d\250\273\234\"%\276\220\336e\276[+B\276(\374S>\002\304\231<\026\tR>[KV\275\0106\203\274!\005d\275\353\265\210>\254<\303=><\020\276y\036\026\276\323\204\234=h,\256\275\003\354\023>\306\243\204>\314\324a\275\320{\257\275jtS>\276\224\254\275\323m]>C\304w\275\343}\266=,W3=\300re\274\30487=-\246h>\314\032%>\377\023*>X\017\276=\363(\260>k\215\r;\267N\025>\315\353\270\275\361\204\205\276\232.\225=\253\031\030\276\324@;=\236\233\251=\305\035\207>\2758\200=\364}\322\275\273i\232\276\315&.>f\237\t>_L\270\276\020\327\351\274\323\370\342=\356NB>]\203T\276\030\316\024=\206O\000\276\343\333\036\276\375\351\374=Zu\001>b\231\276\275\205\037\257\276\326u\342=\353\345\253\276Y^\016>\264\332\233>n\017T\275\201\016{\275qU\272\276\014\334\203=5?\212>\3273M\276\002A\032\272Qp\032=|#V\275\264\330\020\275$\347\003>\2204\021>\014\227\002\2767f\026\276\342\030*\276x\275\001\2744\325\334\275\276p\202=\301\276*\276\376\203%=f\326\337\276T\372\255\276\262\333\t\275\321L\245\276\371\321J>\214;\251>\364\317\t>Db\356\275\304i\266\275I\'C>\315X\376<\\+\377=/\316Z\276:\014\315\275\364\003\032=\262^\003>\266<\202>\330\3778>h\362W\275\t\265\032>8\001\207=\032\303\274=f\273\316\275\031\335\323\275\370GQ\276\017\352\031\275\376\2132>\355\003\r\276\3276s\276?\241\231;\004b\356\275g]\025\2763&\226\273\345\026`<\206J\n\276\246\220\224>Y\264\021=\025$\201>\320\237\213=%w\236=\347\023P\275\314\233_\276\336\217\233\276H\203\272>\325*\223\276\312\311\006>S\001\307\275\240\353\340=\374X\001>#\333\265\276@\030\231\276<n4>\225\206\n\276\277\344A\276\353\0027\276\237\n\354\275\357\225\025>\377z\027>\306h?=OT\010\276?\267A\276\034O\225\276\371\353\221\275:U\t>\034\341B>\034M\234\275\033\005\002>\025\251\010<Bp\326=PG\354=\025\302\254>^R\215>f\017\037\275\310\260\236\276\032p\333={\366\036\276\372\'0=1gk\274\353\242\246\273\315\243\205>D\034\360=\244\251\230=\037\322\006>\t\357\222\276\351\261\037>#\200\377<\0341\331\275!\373\240\276\267\001A>\372\217\256>!8\207\276)\035\177\275\311Fe>I\213/\276\010J\006>\334\246B<\335Q\335\276\207J\327=K\327\020>\246u\177>\203Ir\274\361/\257>\002[$>\322\004\345<>8B\276\373q\244\275_\240)>g\322\221>\r\027&\276h\377L>-\327\315=\317\010\237\275\374\360\244\276\372\242\254=5\371\256\274q\003\271\276\"4=\2734\371<\276dK\257>ri.=\311\314\'>\036r\220<^\342&=4\351\263\274\006\327\230\275L\251\316=\377.Z=(*\314=\366\3343>\320\037\001>8\320\252>*\362\204>?{\224\276s\221/\276\252\237\301\274\224\372L\275F\314\356\275\217D\263\276\215j\220\274\007\345\307=\302\324\222=\320\234H<\237\241\244\274\321\301\241\276\235z{=\023\340\202>\337Q\227>\314\340\320\275\007V\210\276\200\3457>\355\276m\276i3\344=7\234\215\275\205\211\324\275\362\337Z>I\366K\276\310\324\247\276\365\310p=\311\366\214\274S\331\204\276~\242\227=\002C\274<\216\3055>\274\312\r>\315\231\312=\006\014#>\314\222\244>H4\354\275\016\000\334\274\235\024\323\273\303~-\276.)\275\276\362\010~\276\200y\211\275\304\256(\276`\3552=\310\225\223=\275=s\276\256 \271=\273i\270\275\377\345\204=%\264#\275\261\n\316:\020\020\347=F\212y\275\320\242\034\276\0230\t>w\342 \276\237\265H=\226\031H>UJ\005>\271Ar\276\360i\235>\315e\224>c\302\235=\214g\266\273x\340\234=\025z\233=\322F\202=\251\352\021>\325\371\\\276x?\340=\254\341[>\210\373\233>\274\357&>\240\345\231=\033\242\201\275\253\'V>\371\272\241>\3144\254<\336*q\276\036\220)\276\362?\326\275\360\367\375=\003\005\306>H\355\201>\031N3=9\254\274>\177\227\306\276\002\030,>\177\3654\276\225\252\035>Y\004@\276e\177\303\276T\224m\276\266\373\320<\214\212\372=\315\013\214>\250Y\225>\346\356\224\2741\317Y>\262\033\025>\2125\214>0\n\032>\377\ti=\372\215\356=\020\342R>\304\225\033\2758\210\225>@c\035\276\010\374K>0\3218\276\024/\373\275\264\346v\275\243\263\211\274\001i\013\276\322\257\033=;=\271>\301\355\316\273\211-\345\275\013c^<\351\2438\276C\303_\275\031Z\245<\253\246`\274\302a\352<\227\005\276\275\324\240c\275\310}[\275\031\340B\276YD\2309U\317O<\024\312G\276\031\013B<\027a\215=\340h\205\276\220\265X>H\367\241\275N\241#\276\360eb>x+l\275\002\021\376<3\225\327;_!\233\275\226\334\372=\016\020\265\275\005`\253\276l\313a>Vw\035>\246\030\014>\374\0206\276\3046:\276\244`m\275\253j\231>Q\227\317=\353\340\225\276D\024\325\275\313L\200\276\345s-;\366\350o>LL\030>>D\026\276\363\214\335=CP\344\275(\031\242\276\026+\023>\240b)\276\262E\'\276]\217\241=I\t\032\276\251\177\367\274\345H\205=m\304\300>{\035\254\275^\0335>\320\003?\276An\235>\013\250\344\275_8\263\275N\001f\275\323\256\216\274=P\257>s\'\264\275L$n\276\333P);+\205\324>\205\250\\=\365\373+>E<\222=9\275\237\275\034\014\036=E\031\246=M\323P;F\337o>\317d\211\276\336\360:=\262B\226\275\310ks\2763j\266\2732\007:=\223\n\241\275\241\373\212\276\261\370p\276\362\366\200>3\'\267\274\223i\342=\000K{<\374\003\"\276\'\301\252\276\233z\333\275 iB\276\303r_=\334I\t\276uA\214>\033\033Y\276m\324\004\276\241GB\276\364\377\225=\t\035\367=(\301\277\274+\345\367\274\312\201?>#\002\331=5\273!\275L:R<\244/\316>!s\254\276D\356*\274\340\010%>,\234\016>e?\301<}\246!>K\223\272=\024\342\336=\261z$\276F\010J>\004\322\347;\210FI\276C\333;\2766u\217>T\363L>r\234\021\274 \262\026\275\331<\246\276f\t\010>\022{\004\276ck\">\301KZ\276/S\321=\264\202\307=J\205\210><Y\215\276\223h\256\276t\203\261\274\331\342\320={8\210>\226\373\340\275\217\375\303\275\217f\215\276\256+q\276=\351I>Ne\025>bH\035<\034\335\203\274\006\013\352=\273n\235<\261O\010\276\374\250\253\275\251o\327\275\367-\236\275\030\345\030>1\030\022>\365~p\276^\366+=\315\317E\276\217{\004\276\332\021\375\275#T\342\275\203\'\332\275\211\177\227\276XP\017\276Y\333\232>\277\201\204\276\356s\316=\256\030\000\276!-)=\274\324\256\275\031\272\336<q2\201>\\u\'\275\267y\234\276\335|r\275Dc\r=N%\202\276\314\337\353=\004\223\234\276\250\360S\276@`\252>\351\004\002=`\2619\276\304\332\210<7\340\256=16\264\275\316\030)\276\315E\206=\000O\021>S\304\002\276\306\226\002>f_0\275/\177\215>\\\327\223\276\017\307\201>\347T,\275\240\240\213\276\354\t\035\276\334\211\304\275t&\330\275\331N@\274-\203\216>+\272\217>\330\265\274>p\214\277\275\323?\201>\204\225K\276\237g\377\275f\344\000\276\310x\244>\277\363\361\274\001\376R=\t\214_=\347\037\370\275P\247\263\276\3078\240>AZ\245\275\344\343\317=\315\237 \276PZ\002\275\240y/\276M$v\275\302u\263=\"cj>]\036\334<\021^\352\275\267\257\026>\336\304L>z0\016>b\257\007\276%\350\n\276)Fz\274}\345\327=oX\270=\\\177\243;\210\376\313<\313\325V>\327\263C\275\341\277\035\276\317)H=\252\022\226\275\371D\004=~x\017\275\262C\243\274j\263\250\276\332\0162>+8\001;e\362\036=\020#m>h\341\234>\200\230\332=\327\033Y=\177\244\334\274S\214\250;\\\311\237=\241\304C>M\302\241\276\326\262H=;X|>\357\363\220\275\241*\237\275\225\377\240=k\035!>GTz>\022<\361=\177\325O<`2\014\276\031\360y\275\375\225\236\275\322\013\273\276\351\205|\276\210\366e=\366\230\202>Z\031=\276\234\200\215>)\276<\275P5>=\223{\233>a\256)>\304I\327<*BB\275\217\340\352\274\330\2463\276\371|\036\276\225\177\226\275\244\204\213\276\364\005\317<\214N\274\275Rm\200\275\016P\255\276I6\310\276E\350\262\275,L\035>\\\366\"=?e\212>\221M\377\275n#R\276\'\240\322\274Tb\350\275\200\210v<\365\320,\276S\310\262\275\266\214\030\275at\201\276L\241\344<u\323=>wf\217=I\327\201=p\365\211>\217tt\275\364\344L\276l\260\313\275\317(\222=E\237\335\275!\022\265\275\320\013\322\275\235\207R\276k\251\301\275K,\237=6\014\r=@\302\305=\034o\030=b\367J>\371I >Z\272\267\274j5\001>.I\206=\272F\257=\335x\321<\031\213\234<\345%\265>\2428,>\355\3060>\300\027\031>\267B3>|Tu;\233\370\001=]\307\253\2751u\007\276\024=\342\2755B8>\320\254\003\276+G\312>]\300\001\275n\035%>\361\357\004\276\200\014\034>C\272\307\276\377\314\236>O\354\247\276\222b\014\275\247\004\314\275\233\264\203>{Dt\275\377\234\251>\333g\033>\342\034\233\275+3\026>\013R\253\275X\363g>\246\210\353=0z&\276\001\201\322\275\233^\204\273\250\034\267<\266\006\033\276\\\036\340\275\267`2\276\252;j\275\307]\020\275}\036\254=*\274(\276\031\275!\276\355Uq= \030\375\275\023\361\220\275y:U\274!\344]>\351\201\220\276\302\313|=\2443\211>\035-\351=\250\n\203=/\241A\276\207>\263>\001\343U\276\327\2216\276\340\037\276=\313\024\036=X\"\236=\004\343\271=\376\305\013>\231\345\317=\207\203t\275A\372\363=\356\031/>\276\260\010<~\205\237\2765\313+\276=\205\261\275\235\014\270=\010j;=[\341\302=p\332j>\322\\V\276\025S9>\363\030\230=r\211\321=m\027\202>\274p:>Q\264\207\275\346L\005>\252\276G\276\233\303\246>w\316|=\363\200\263\275o/\273=\275\270]\275\t\336\247=\"\307x\275\002\201\025>\204\272y<=\360\371=\227I\202>4\301\036\275v\370\372\274\'-\007>\210\327\300;\r\027\364\274\274S\215>\000g\200\276\022*u>M\267e\276|\006&=X\264\253>\314t\275=\317\014\324=:\271e=qi~\275\216R\020\276\301\2120>,\353\257\276\2467\372=\233]?\276\n\032\357\275\035|\013\276\242\206\243>B\005N>\237M\236<\nB\257\275\023+!\276\350\204\275\275\032\200\263\275\303\261\204\276\203;\365\275\226\347\314\274\177\325*>Q\351\275=\202\343\246\274\030\265\226>\034.\002>\177\214j\276*\262\254\2767!\203\276^\346\023\276\020N\305=\332\321\241>\332q!\276?g\243\275\004v\021\276\0003\023>\231\013\246\276\211\227\301\275\345o\253=u6\234\2766\275\006=\370\226>>\373\013\347=d\340\025=\301\326\014\276\305\267y\276Z\2479>e\374<\276e|]\274_\352\354\275\252\355\376<\201\373h\275\010\376j>IN\311\272nX\244\275\227^\023\276\226\252C\276\327*\017\275Z\326x>\216\245\227>\235\262\013\275 \022\034>\342\022a>\264\333K>\204\016\355=\3441\203>FE\333=\354\345A\276526=\304q\231\275\010\331%\2764\356\376\275\037L\007>o\036\270\275\210\306\022\276\334A\007>\202\231\212\276\\ \323<\315\001e\275\363t\311\275\252\206\253=~W\225\274\350f\334\275\235\213\211<\273\230\005\275\026\364\364\275\310\373\030\275\3728\030\275\2706\347=\263\367\222=\266\032|\276\3573\330<\337K\004\276\255\220\205\275$\343\234>|T\334<\036&\">\201\274\355\275\323\034\260\275\3110\212\273\357G\252>1s\207\276R\3220><\207y\276\235\3716=a\014[\2756~\t>4\272=\276\237!\010>\254\342T>\230&\347=\363\023\275\276p\255\212>\314\244\265\276\374q\000\276w\361\375\274Q\253&\276\370\023X\276\221\365,\276\0104u>+\321C\273a\310\267\275\357 ^>\232\\\321\275\306B6\276\014\271\253\276yt\353=\223JL>b\033\310<K\016\232>\340m \276j\036\203=\252\264\036\276\"\255b>\237\332 \273\301Gx\275\272c\230\276\006\263\232>\027\003.=&\264\204\276F\345\\\276\324\265>\275\211\006\267<y<\203\276K\241\230\275\222\323\203=\301E%\275\367\240\230\276\241y\260\276\177\211\031<BP\374<\371\361\215\274\302!\215\274\334\320\307<\304xB\276\315]\241\276>\023\346;5\346\276\275\255\t\245=\314\254\035=\321x\310<V\253\004\276I?p>h\247\246>\277\006\253<sg\360=\360\004/>9]\346<\226je=\207x\215>\0259\230\276\306+\255\275H\220c>6\277\031\2760\0162>\311\352\005\276\357\3545=v\305o\276K~\026\275\276x\360\275\020Q\300\275E\373\215\276z(\352\275u\325\315=\274\252\"=7\256\210\276\2224\277>$\347\221\276:K\210\276d\310\213\2769\205Q\276R\0303\276\362\374\344\2757\330<>$\350\302\274h\304O>\273K\001>\372r\266\276L\327\272=V\255\035\276m\320\025>\341\372\315=\206\026\307\2768\302\234\276\036\021\013\276\tH\253=C\243\256=\307\300\214=U/\311>k=(\276\234\202S\276\321\030\205\276\336\3140\276\030\322\222>\2467/>H\014\204\275\036g\234=\020|\225>\342\270\200>p\005\001\276\335\307\007<\352.\270>{\262\200\275\276\374\021>\331\270\214>\362\350\275>\227\353!\276]\206E\276\354\372\363=\021W\365;M\251\361=\202\025/>\217n`\276\021K\201>\212J\010\276\310$\365\274D\014\200>\005\035\262\274}S\205\276S;Q>\322\202\252=\"\323\332=\021\022\253>\247\320\032\276\271Co>=\re\275=q\367=\212\336\356=\225\001\307=\326\227\200=\330\213\002=\357c\202\275\\y\204=\322y\205>\364i\202\276\017\017\250=\315_\212\276\211\022\332=\024`5\276\022w\t\276P\035\256\274d\353\r\276\251\213C<b\200/=z\027\260\276\375\002\226\276\3002,>\3131P\276f\264\205\276\252\200\\\276\323\213h\276\377\202\010\276\241v\016<H\263\005<G\351\246=\347)\306>\014\331\270>\361\203\261\276\255\217D\276\211\255~\274\r2G>\200\264M>\226C\267\275D\331\312>\366`\235\275\252h3\276dg\222> \255O<Mz}\275\375\305\237>\266{\177>b\321\343\275Gf>>Lx\021\276\246oj\274\177\024\376\274\312\016\224>U\364\257\276k8\250=\004KQ\276<@N=\023\325\257;\325?\002<[\027\336\275\201\035\310\275\272\264\225\275\2404,>\032\211^>\233\370)>\267e\022\276\000h\276\275w.\237\276}7\001>\036\341\215\276\350{\033>\205\366\373\275\214\037\003>\255\360;>\214S\203\276F\034\034=0\222\211\274\205\2167=\363\250\366\274\361om\276\206\300\255>=\354n\276\022\320\354<&e\033\276\312P\240\275gs}\276\322]\031\276\370tY>\177\257\222\276\017vJ>K\002\303>\215\257m=\213\334\006>\252\365\322=\017\355\201>\306z\230\273u\272\252\274B]`>\253\225\014\276k\367\214\276x\313c>\327\356Z>\3346&>&\3315=N\225Y\276\376\005\364;\354\273(>hY[\276\225\310\211=+\201\253;\377\242\036>\365\264\376=\360Q\013\276\023\272\234=g\333>\273\214\356T\276\225\215>>\247{A=j\304\334\275T\223\234>\017\271.>\032L\211\275\n\0352<d\342\260\276\023zd<\372zs>AEF=\n\307\215\276\237~\256\274\200\245\214>\333\311z>\367\250J>,h!\276\017~\231<\007E\016\276\257\225\376\275\261\202\255\273c-j\276\367Kj=\00635\2762\351\254=\366\365\017\276>\250\025\276\247\024\335=y\222\307=l\031\217>\256\357U>61\020>\235&}\276}\274\302\275\022\027\227\274\357V\240>\335`B>\305\232\014>Bo\005\276\320\230I\276\366#%>Ezs\275\374\266\246=\243b\335\275j\236\255\275\210z\266\276\332\337d\276\364\022\250\276\227i\322<#\200\336<\024QT\275Hx\332\275\356\335\270=\361\206\324\276\315\207D>:I\275>\251\374\354=\311e\275>\261\264\016\275\332\374[\276\305\220\006\276\236B\206\274w\036\245\2759Q\003>\2004\272>q\243\245\276\222\233\"\276\300l\335\275\264\322\307=\034\210\267\276\027\261\207\275pi>>\242x\342<\224\204\256\275\244\344+>f\030\220\275\211LO\276\335\235?>\227\000\300\276\201\314\253\2768\362\254\276`\342H\276zY\036\276\352\271\271\274p\216\"\274\303\014\362<\320;x>\017\372\220\276 s9=\257\374S\276\322\217\t>=\245\237>\266\340\306\275\260xP>\301]\034>\236Y\003>\230K3\276\266\301K>\177|\247=ra\037>p\211\361=\233\245\016\276\274\022%\275J\263\264=1\003,>\340W$>\367\013\257\275\213\342\024\276d\303\303\273\005\214\033\275\216?_\276\247+\311\275\254\206\206=j\016\227>T<\224\276\327\211G\276U\327\005\276\305S/>\306\026\315=z\343\274<.\003\226>\034\033<\275\242s_\276\256\226\225>\025>J\276`\212)>\023\265H>j\020P>&3\267>\333\247M>\225\365\027>\213\374/>\270\211\341\275\256\220F\275\256\243\307\276\252O\350\275/\023o=MIS=\353\243\312=K\353\247>r\025\007=)Q\016>\207\241\234\275A7\233>\244-Z\275\365\031\\\274\303L[\275\347\250\205<\377\353\274\275\\\352D\276\366pf>\322\205S\276s\344$\276j\304\314\276\264\255J\274=j(\275B\007\273\276\307\317\304>\2076\303\276x&\230>\225\017I=\371\177\000\276\242\352S\276\254@9\276\263\022\266=!\005\214=s3\031>\332\010\235>\311\256\030>2\333:\275v+h<\362p@>N\210\245\276K\210\244\275l\245\203=\330\027\244<\226\357\210>A\010\363=q$\235=p\2573\276\207[\313<\021\376M\276t\360\240<?-\240>\313\257\031\276\333{\035>\337\r6\276\231\207{\276\031\264\235=V\317\307\274\263\304e\274\243\032\261=\305a\207\276\212\345\201\276N@I><.\276\2740\004y=\236\315x>NBE\275~A\244>j[w\275,\300\300>h\260\301>\275\325!\275\221\\\222\276:\236,\275cg\033\276]\321!\276p\225L\276\003\364W\276\213/K\276#d$>\323\'V\275\344\305\022>0\365\200>\267\333\231\275U\346\354<\223\341O=\252\'^>\023\326O>?oG\276x\305\010\276|\"\t>\"}\214>\272h\220\273\"\333\257;m\247\215>i\013{\275zN\250\276\241C\274\275\257^X>\313N\205\275\024\3010>|\031\230\276\355G\201>8\330\204>\307\337\016=[\t-\276\3770\243=\033\210u\274pz\233>\242\217\207\276\025\362\276>@E\232=\346\306\207\276\177\211\365=\336z$\276\367\364\240<\225\307M>\307%\"\276{l\317\274o\271\026\274`\'\374=\016x;>\212\360\344>\007M\360=\336\253\t\276\374\021\236;\250\316\321\275R\253\255=D\327!>S;w>\227\023\023<6Q\361<\314\274\203\276\3503\341;aK9\274L\342Y>\004\025\021\276ER\207>\377\263\274\275=>u\276\235v\'>\275\225\246\275\327UX\275z\326\250=\232]\213\275\326\201e>\311\223\233\274\324\320\271\276\215\010\277\275F*G>\0065]\276M\224\031\276\031s\240>\\%5>\333\220\227>\237T\207>p\274\004\276\333Ks=bL\362=&\256=\275r\333\252>E\2221\275\247o\r>\332f\243>\027(\306\275:\001\315>\026?\214\2766\227\006>(h\374\275\327\224x\2753;<\275\224\370t\275#\264+\276\013\271[=\252\177h\276}\3235\276\351#\035\276\0048\311\273\213\322e>\261^P>\310t\033>\247iw=\276\374\332=J7\272=\314[\333=\207\304U\275<\217 >=p\247\275\0374/\276\027\343[>)R\241\273\206\364f\275\222ZT=\021h\200\275\316\364#\276L\335\025\276b\303\214\275\346\302\332=\2105\n>\334\365\252=\036\020\201\275\013\353\275<B\002]>\035\352\301\274\274\005\267>\003\3079\276\346\037\300\276\211E@>\002\201\006\276+\"c=\001k\240<%\361[>\025o\267\276#\227\306=\333\006]>d\243\310=9\323\343\275\303Ic=j\236\201\275<\215\250\276\254b\254= \014\217\276\235\306F\276M;\033\275\245\266\370\275{\325\246=\353V\027>\020s\213\276{\321\373\275\232\234y=P\203z\276\024\216.\276@\237\037=\313\352\254>\375C\213=\007\262\370\274+\234\245>\347\031C\276UT\362=\370\021\034\275\217n\031>\332\200\234>f\303\317\274*\211H= \020\026\275CE\324\274Y\022_\276>\336\224=\014\317A\275\360\t\202==]f>\352T\335=u\233\272\276\236\001)>T\214\226\275#$\222>\354\302\216\275\333\n\265\274\301\252\204\276\r7\303\274<\236\034\276\211\032\000\276\007\201\314\274\272m\211\276\250X\335=]a\244\275\273\240\207\275\346\335\001\274?\355Z\275\227\027\265>\345\304\'\276\342:b>\231\306\332\275vUg<\333\213\006\276Qj\203\276\233\030|\275\304\276\242=OoV\276\220Z\305=R\374\314<b#\035\276R\350\242=\352\307(>D\204%>Q\226m=\246sd\276r\276\241>\212\230\204\275~{\234\276\212a\020>B|\002>16G>\\\321\037>-\241\342=\272\347\272>w\300\000>\341W\346<l\264p>u\237\240>\231\245\230\274\320\353/>+^\315\274\372J\277\275\t\'\240\276\356\204R\275\371\020)>\354\315[\276\260o\232\276\001\210\336<\347\227/=G\030\000>\310\2461>\007\374\345\275\001\335\200=\2616}\276,\370\240\273\231fI\276>\242\207>wr\321<H\360\347\275\022\247u<L\310\255\276\232\251\226>\244/=\276q\2628\276\252Zk\275k#\216\275\204\t\232\275\215\356\017\2751\244M\276L\274x\274\366={>\325O\036=Q\250\031>8\254.\276\316\2173\276\322\\\265\276W\355\214>\354V\025>\247\274`\274xM\020=n\354\350<\210#\366\275}{M\276\001\265D\276\306\247^>+\0107\276\311\314\214>\340\333\021>\016\373i\276+-\254=\306\275Q\276\312\306>>\264s\217\276\321i\200\275|\325\033\274M\315\305=\t\325#=\355Y\310:&\341v\276\244i\370\275\344WP\276\000\rb=\035\240\013\276\236*j\276\027\266\203\275\024\373\241>`\302\242=Z5J>*$]\276n\2112\276vD~>`\302\344=\362N\367\275\340M\252=\000\027\317=$I%>\202\273y>Fj?={\334\354\274:*j\275\243f\010\275\275y\340\275a\'\001>\304\033\207\275\000$\n=\020\240h\276L\036\207\276\027\374t>\256h]=u\211\013>\024is\275u\024\025\276\360\216\270=}\344\377\275n;\251><\327O=\\\271\320\274n\033\262\276F\333\366=f\370\021>\245\207\263\275\211\372\024=\371\232\307>-\372\030=\325\263v\275\020\223\255>/\035\300\273\243\302\036>y[\301\275\273\315\306=\2745\262=O\357\230>\245\255\006\275\347uj\275\035\302\344=&n\246\275\202\'\336<\316\333\003\275\374\231\232<\016h\336\275^\201\007=\335\r\360\275\201^.\276-D\214\275~P\355\275Zq\000\276\305\016\005>\373\307\021>\340\004s\276\030\235S\276N\027\207\276\341\271e\276\375c\311<\034%\363\275}\334\200\275{\224l>\3447\030\276\267\265\n>\250`\273>\010C->\001\026\024\276\365\271\207>\352\214?=<\354\262\275\250\013T>\3612\256=a\214\223\276\327b\230=\303\355]\275lc\030\276\203\274C\276\222\362\317=\262_[\276\317~?>i\350\273\275\353\255r=(w\232\274\330\347\201>\211\220<>i3\315=\357\265\217\276\200c\231\275\331\276\017>Eb\020\276\227\347\222<\352\002\343=C\243\202\276+\376<=\203!\031>\243\210\237\276z\313\274=\330R\215\276\215\001>\276D]\003\275^\260\221\276\274\301o\275\342\372\001\276\026c\272<\006\222;\275\343\225c\272Pg!\276\021q\206\276Y9T>\326\205!=\331\315\265\276\364\321/>T\301\021>.p\356=\014\203\037;\026\340\236\276\244Y1>Q\303C\276\225\352\037\2764\031->\026\244o\275\332\264H\276~|&>\240)\210<\267\336 =\343\264\242\275\214V\207>J\264\377\275\001~O>Q4*\276)O\">A\"\177\276\372z\254=\307\304\310\275y\333\377\275\213\233\247<0Q\t\2740\263\226\276\226\265\270\275X&\271\276\344\003_=\306*\232\275\274+\010>j\260\354<\222\001E\276\34556\276\003\1774>\002\317m=Wl\211\275b\200v=5\2720\276\317\352\020> }\364=\373\2055\276\026\022\203\276!?\255\275\236Of\276\200\354\210<\024\317+\276\305\331a\275\265\242\030>\253\r\273\275#\220\373\275a\345\345\275u\233C\275%\235\021>Q\323\003=\236\337 \276\213\355g>\202\354\014>\254B\364<)b\275>\340\031R>G\037\016\276\223\325\300\275\236\306\023>\256s\"\275~sq\276Mk\000\276dZ\033\276\014\2304>\367i\317\2757\207\022\276\021\246\221\275\264\215x\276\251\364\021=|w\325\275;d\260=\000\262\357=\277\261->\"\022\\\276\221o\303=\275\211\226\275 \246\031>\305\325\005\276\223\2212>\025.\223\276\354\220\260>a3s>\205\305\">Z\271v=a+\227\275\354I\252=I\321\234\276W2\205<`F\327=9}]\276/\305y=\371\251z=\341[\203\275\345n=>BC\275>\352\346\241\276\341\332\313\275\207\350\257>\253\327.\276*\344*:a\305\213>\357\302\203=c\320:<\335\246I\276\200b\221>\246\302D>\236\3239\276\367X\372=\310\243\027>\356\330\316=^\231\373\275\230\354\032\275%2\222>j\353V\275\202\334\310=y\267\206\276\211\2238>\366\320i\275\277\310\246\273\244KL\276\367M\035>\303\021\217=:\256\375\275\355\203\266=\t\020\r\276\362:]=k\356*<eO{<n\346=>\233i\005\2760\222Q>\354jj>G\246%\275\204\037\252\276(K\002>\352\032\236\275\341\321\246\276\310\360\035>\313\272D>\266 \241\275;\n\n>\216\267\272\276P\342j\276\014\271`\275\237\274\361<C>~\275\370,\226=<\264\277\275\302x\335=\353]\n\276#~C\276%\365D=\365\022\253>\rV\256>\276\344\231\275\326:}=G\234~:\300\025\254>wW\241>p\002A\276\323\033\316\275\264\274]\275\005\230[>\321\034\217\274\240\002?\275\222{\203\276\014\032\353=P\251`\276\374\363\372\275\034]+\276d\336\021\276b\177\205>\021\2114>?A\020\276~T9=+\331`\276\303\265O=\354\300\262\275\265\3356\276.\373\202=\321\262\205>S@0>\361~\217>sW\"\276.\254D\276\024|\213>3+\026\276.\321D\276\332\023\314=\310\307\264\276S\375\224\276\210]\345=\324\020[\273\343\343g>.\270\353\275\361\227\373\275\235\353\351\275iWi<k\304\272\276\314;P=\n\262\272=\302\035\366=?\3103\276\005X\375<#\236\007\276\223\017\023\276}\217\201\276\242,\305=?N\262\275\"\347\265\276\200[:>F\211\204\275\316 \323=b\337\275=\25452>\0017\262\275\\\371\210\276\020\227\356\266g\0337=:\327\201\275\243\333\227\276\000]n>\305\263\n=\222~1\275\037z\314\273\027\332F>StR>\215~\266>\302\317\256>\354\261\262\276\231S\240\275\244E\215=}\036U\275\313\247s\274x\327\224\275Q\347\204=\274\353\024>\212\301\014>\370:\253\275\242U\225\276\2472\210\276\340\t\004>\213\001$>K\234\210\275Ci\324\275\255\376)\276{\272}\275\225i\027=\276\352\320>\277\031\344\272`\2736\276m\325\277\275\345u>\276\357\204|\276\300%$>z\3357=$_P\276\013\335T>\356T\025>S\355\231>\307\236~>l\302\322\275\016$\210\276o\007\252\275e\336\210<\330\351\211\275\024\351\035\276\243\364\235=\321r\252\275\244\204 >\277[\255\275m\355\271;\217#\216=+\362\230>\237\267\231=\363\\\324=\214st>\ri\252=\235J8\276\277\305\032\275\020\"\030>\340\250\213=/\250\223\275\372J%\276\202\264\200\275:d\363=\r\233q>\323\346B=\033\274\205>@\330\206\275\"\205\232\2764+==\203@\010;.gl>\221,\022=1\275\225\276C^\301>d s\276\220\243\262\276\027\245\332\275_\371\331=\251{T>\327\205\215\276g_\"\274p\021\240\275\035\270+>X\210\203>\r\254\323=\232\272\022>\313\024R\276e\001\024\276<_\277\276\377\323\377=\244\027p\276\014\244\213>\032D\330<\370/\210<h\024\020>\357\310U=\037f%\276\255\342\313\275\036\315-\276Q\346\316\273e\336\204\276N\224c\276_3\207=\260\225\323>\270\304S\275\374b\301<\257\302\335=\211\r\210\275\316s\232\275\021\003!=\357\031c>y\200\265\275U\014\033>\211\234(\276\327\310\217>\n3\242\275\235\037\320>\2150\210=\200\217\341\272A\231\217\2767\2505>\027a\252\276E\265\234>7qL>\2414\021>]r\370\275$\222\026>\261Vd\276\032\272-=T]\371\275\177&\034=,[\007=\244\300Q\276r\341A=o{\255\276\236\241~=\262\304\213\275S\253\001\275QE\322=\347\334\216>\026\375\267\275\235\274\017>\334\256&>\t\263R=\303\265+>{\373\200=1\375\257\273\017`P\276\340\224f=\022M\017\276^\322\205=\245t\244\276qU\330=\023#\037>\261\372\363\275\276\343D\276\210\245T\276\375\333-\276\016\315K=n\234\031>!\027\206>\324\345\034\275\377\325\230>\323\312=\276\314\177\272=\362\250\202\276a<\365\275\214\345\t\275\333d(\2764n\245>\314\013C>\332L\033\275\010\2340\276\335\356\263=),^\275\033\377W>V\343\276=\020\005\304=cNP\2769\020\376\275\223\031k>\336\246\033\276\230\274\222>y\350\306\275$\263\210\273NP\026\276j\202Q\276:\n\206=.\001\245>\273Q_>ujg>G\007\007>\207\342p\276:\347\006>\346,\202\276\237g\203=s\305\t\276>\244\227\276\021\372\341\275\331\275G=L\330\277\275\342\220\212\2761F&\276\370\302\373=\006G\262=\330\370\352\275\230\225$>@\223\200:\014\341D>\211?\205=!\245\325=tD\314\275\302\005*>\215\0347\276\333\316\244\275\304\305\220=\211\260\000\276p\356\230\276,\322\345=7\221\237\275\231\004W\276\267\014\234\274Gq3\276|7q\276\306`M\276A\007\034\276\340u8\275\253\332\257={Z\237=\177\n0=\355C\202\276\342\302 \276\350\364\312\2753\357\"\275\035\352\014\276\371\0017\274\304\337\347\275`v\"=\014w\222\275\255\027\013\276$N\255>mJ\003\276\325Y\221:l\3134<\366\344\265>\336\365>>_\362\236=\234\365\240>&$\022\276&Us\2766\217\253\275L\372\217\276G\314\031\276 \372\210=N\'C>#\352U>\031\307y=#\242\274=\234\272\363\275\r(s>\204\263U\276?\237\274>{\204u=QI#>l\250\377\275\267\230\270\274\321\020\221\276\227\303\212\275\237%\374=\271r\213<\0036\300=\210\302\003>\010\017Z\276\231W\330\274)?F\274\226\334\345\275\237\200\351\275\273R\020>\261\307\002>\366\306e\275\353\377\275\275\302\207l:\r\337t>{*}>[\274\217>\025\003I\276\030\275\210>b\251#\275\375\327\207=\200\3316>\272\347\200\273_+\010\275\256\246\031=\036\333>\276\344\316\205>\031\222\224=E\316\261\274\004\252A>\n\307\206\276D\242\322\274\315\202\232\275\246\370q\276\376U\205\276^r\237=\354\3223=mP\222\275\263^\223=\367\307L\276\326\350\355\275\237\370\207=\265\n[=\371GE\274F\337^=q\262\275=\262\031\013>\014\t\"\276\3606\277=K\314\222>\317\262\247>dzb\276\375|\236\274:\332A>C\256-<\345\304X\276\000\213-=\370\320\251\275Zm\304\275\013/\n\276\377\331\241;\362B\311=(\246{\276\362!\026>\304\001:>&\216\200\276o\317\327=\232\232\244=\036\230\237\275\322\261\036\276y\r\240\276\004\235\337\275\304\247C\275h\246\036\276q]\252\275[L\371\275\301\223\201>\240\206C\276\017\307\253\275!^\216\274\030\361\031>\003I\253\276\3270n>@\200\234\275U\374\241\275\310\376\201\275\360\330\213\275\267\024\201>m\312&\275s\207\020>\036p\325\275\353\3206=\0379\200\272%*\026\274D\365\211\274\362\031\300>\357\201\326\275;\016W\274\326\256(\274\241\373{\276\264c\260\276\000\372Q\276\033\331P\276\004Ub>\377\303\032\276\346\tr>\340l\021>\210\340\246\275F\004\250>\305I\034\2761y==x\221:\276\333%\205>U1\346=J)I>;\313\300>8)\220\276!\345\006\2767\361;>\334\214\024\276\036\220`\276\204Z\272\275\235>\241\276\343\224^\275\32636\275)\3646=7\304{\275:\325\006\276\004\270\206<\201\335a=*s\315\275\300v\232<\303\231\006\276M>\257\276L\372\365\275\032\253\340\275\374\332\340=3\365\226=\245\313\200\275\024$E>\305\346\014\276\261|\231\275lN\225<\372y\221>\236\244\342<\337\337\001\2768\007K\276\277\006\\>\245@\002\276\371\2529\276\217\204\021\274\365\254+\276\034\356D>\022\250\376=\221I3>\205cN=\227\021\373\275~[\271=\301\235w\276\\N`>c\363\227<\245\346^\275\365\001\">\227,v=OaP=\006\201\220>JK\317=\3044\337\273X\304}=\310\237\377\275H\005\245>V\221\236<:\276\207>\250\241\346\275Y[\200\276\364\354m>\016\2453<\250xa\276\255\177\313>tS\340\275H:[\275\373\237\260<`\271\204\275\237{\321\275 \300\254\275\007\373\204=\022\211\022\275\006\013D\276\352\226\232<\251\031^=\022\366\244\275\352\025R\276\230\373\377<\215\365\006\274:\010\261\274\317\n\r>\t\346[>*<\363=;\020\330=V\232.\276\203\010S>\364\222\365=\274\004 \276\370\355\013<\212~\370\274e\332\214\275\036\234\261>\246\340E>\022\320\025>\227eo\275]\026#>\013}a\2766\036\264\274)\310;>U\200\003\276\203\002\324\275G\313\265=\327\303\014\276, g\276\251pK=o\211\352\275I\213\003\276\251\272\353=\257\332R>$4:>J\032\344\275z\027T\276\205\365\202=U\244\324<\221q\356=\233\361\336\275\346Ps<W\032c>\356\254\027>\371\235\300\276;\312\261>\345\000\177\276\322\277\236<\177{\334\275\374\330\t=\340\023\236>\315\364\212> \277T=aU\202>\252\262\241\2763I\225\275\341\036=>\250+\000=p\371G>\2741^=\375\226\230\275H0\324\275P\235\311>\343\315#\276\346\253z>H\321\210<\021k\001\275.\236.\275vW\252\276\356m\207>\217}\272\275\253\032|<\352S\235\276D\212W>%\322\006\276\023\205>=]\307\276\275\254\216z>\323\337\235\275\330\214<\276\2566\224=[aQ>v\356\235\276{\204\013\276g\275Q>S\235\304=\262~A\2763\206\223=\005\350\017=C\347\253\276\316\302\372\275\264gY>\006\362\200>\250#T>\020\346\205\275bv\323\275\202\313\007>\212\005\224>\017\306:>\337\275\216>\024__\276k\320\200>d\224\244\275<?I>\260\244H>\032\177\253\276\233v\001\275\206\223\220\2730\302z\275O\343\206>\327iI>\244]\316>\322\\\241\276J\275v>\354\344\251>\366\372\003>\316\327m\276\221x\037>\350\256\267>/\266\203>d\'V>\352\030\262\275\321\201\201>GI+=\016\253\257\2762K\275=`\274\271\275X\216:\275\310\256\212=\234\206!\276\004I\235>\236\'\234\276\033\354M\276\272S\022>\376Y\225\276\273i\353=\227\201w>^\234\246\272\371\'\361=/\213 >aEa\276\275\230S\276\304\225\271\275n\001\276=\221\335K>\204!f=\230g\244>\312H\243\276\322\365h\275\010O >\364>,\275\271\364]\275(\374r\276e\321\005>%sc>\235\007\350=\214\267\201\276\332D\034>?\017\337>:\227\204\276a11\276\251\200\247\275\237\244\251\276\256\246A\275\374\314\231>3\207\002\276\330\252]\276\352Vv\276\001\361\232=4\344\'\276H\266F>\241\356\233<QU\202=s\251\236=\220[\246\275\003\306\303<\0377\321>\303\360\242>p\276&\276mV\232\276\201\260t>\331\355J>D\251\227>}wU>\327[\003\275D7\200\275\330f\233\276\371\361\026\276\r\270$=\275HW\275+\014\212\276lo\321=\373e\237\275`\034\334=%\204\271=WD\307=\265\036\246=(\206w\275\024\311p\276\244\332\267>\3371z=^\266(;\270x$\276\316\027K\276iF\t>\376\346d>\334\312\322<\2412\004\276\374\tV\275\n$K\275\241\307c=\303\221Q\276\310\010\005\275m\272!>[>1>\275\210m<\347\242\222\275\317\214\256<d\365\004\276>Pi=\365\007Q\276=\243\234=\034=\340<\231\311J>\227\033R\276\177(\207\276\013\2260=\344\321\360<\221\344\034>\022\376\255>\363?!\276LsV\276\323\207p<(\330\326=`\216\322=\233\037\031\276\235\330\234\275u\233\254\276\303^x>D\330\315=\313\204R\275n\310&>\306G\226\274H\000Z=\324\231\355=\2754\250\276|YF\276Pl\n\276\027\276\263\275\367\262x\276]\225\227>P\313\330=\341v\220=b\315\026\275\377L\006>\302\357\204>V;X\276\036\031t=\266\022\213>\2239\032\276\037\306?>\234\233\256\275\001e\320\275F9\351\275\212\312\277\2768\330w=:m\210\275\356]o>\213\253\324=4:\271=\234K\354\275\021&\251\275\003\005\013\276\375\322V\276\337\2749\275\371\212\320<\232\277\213=\300\326l\276i^\244\276W \013>\336\257%>L;\233\276\307&\322\275\206\224f=\254\025\321<!x\022>[`\226\275\304\274\203\276g\023\307>\272z\210=\300.n\275\030\271\216>I\346\022=\0144\341;\274\025\245\276r\201\364\275\235S\262\274\313t \276\025Tb\276@\027\025=O(\207>\375\341\236\276\325\022C\276>\311U>\203\035=>\302\343(>%\307\207\275\210\2663\276\355A@\276\014\311\301>i\340\252\276\177\276c\275\0003\'<\240@%>\035\037k=\362\275C<\334b<\275g\210]>\014\335\033>\242\345\236\2757\026R<Dt\240;g\341\322<\227}\341=\304\246\206=\375\214\246>\275\321\254>g\253P\275RAB>\244\346K>\250\245\227>\252\255\356\2750\356\306\275G\030\277\274\237\266}>\224/\010\276|!F\276\032Cq>\271j}\275\031\314z>\026\233\347=\305\267\321\274\300\335\215\275\243\356\334\275d\036\337\274\007\334z=\235}\251\27605$<[\277\027>\222\370\353=&\236\224\275Q\014\020\276E\212\177>,t\254=\360@\021\276*\223V\276\035\364-=XL\346=\354\036\374=\310\3114\276\267NP\275X#\235\275\304fe\275iL\204\275vY\023>\006\346:>\227\334\237=&\256\323;\313\341j>\363h\016>\3567\215\272G\244\311=<\232X<5\344\014>%\244\n\2752\243\312\275\313\272\220\275\267C\020>x\205\244>R\351\006\276T\256&\276\206\337U\275\354Ij=.\243\240><QI\276\346)N>\261E\224\276\255\027\206\276V\014\362<\007>\353\275\370%\022\275\340\337\254;\263n\n>M8y\276-\311$=0y\245=\347\320\002\276Q|\t>\240\332\276\275\304\302\036\276\217\025}\276?\004J\276\000\3269\274?\251\014\276\242\307\002>\010\353\236\275\235\r\223>\311\267\210=\372\022[\276\272%\247=\032\222\236\276\223{\247>\311\3131=Z\314 >\255\357\215\276\021|\353\275\313\024\276=\232K\355\275\315\243\232=U\244\351=\246\010D\276dR\036>\347\312\215=\342K\227\275j\030z\276\330\226L\276\246\303\230\276\333\306\234\275\230\2041>\016\r(=\233\375\306=r\367\300\276\346w9>\241\275\223>/W\247\273\215\266\256=h\220\307=\306%[\274\242\010Z>\320\212k\275n\237\207\276|_\243>\027\246\003\276h\010\277\276N\373\372\275\236\376|\276\030\203\333\275j\377\267\275\372\'\330<1:\373=\360O\006\276\252?\246\276\267*\276\276?Y&>\3523J<\217\"?>\324\014#=\005)\026>\326\321\346=D2\304=\373\307C=\200T\003=mp\221>\322\td\276\003\274R\276\350&\020\274\002:\331\274\324\333\365\275\361\203#>W89\276\037v\215>\220\022C>(\036\253\275U\235R=6Fj\275 _\240<?6\010;;\214\206\276 \027{\274\370)\037\276\206\014->G\341!\276\345\251\022\276hZ\364\275\025Z\036>!h\222=([\344\276\315\346\364=D\271\262\275`,\326=\333HG=\200\357\010>\264\242\372=\373Bj\276Z\320U\276X\'\216>\325j\253\275\362 .=M\326\201\276f\245Q\276\222\375b\275\261\311\240>\330\034\026\275\332;\270>\204\362\245>P\232\367\275\200\007\007>\3703]\276\210\357^\276\274\321\203=0\313\201\2761Y\205>n\222\363\275@~\251\274 \t%>\355,7>\241\204\223<\215Q\206\275\231\377\277\275\244\"\216\276\214W\362\274\247\271\204>j\255=\276\361\220c\2741<\363\2756Q\211\273=\267~\275\363\\Z=w\207\250\276\232ER=\321p\030>\016\246\201\275G/!>\337\031\205\275`\312c=\250\220]\276\267*S>?V%\276\345\376\374\274^~\242=\201<e>F\315\033>\264\244\245\276qV\221>\300%\032>\007\024\003\276\333x\377=!\327\252\276y\203\226=\226\307\205>T)\271=o\233\221>$\205f\275H\355\257=L\030\036\275i\024\373\275\215\212m\276\n\344\377\275c\366\031>Tmj\276\373\342x=\2208l\276\017,6>:oA\276\315%\'=\207\341\275:\364\333|\276\305\216\306=\335\206\211\276\322t%\274<-k>\363d\250=C\245\020\276\037\\\027>\320P\270\2759\377\027\276p\301\263\2759/\341\275\343\315,\276\270\317\253\276J\202\261\276X\223k>@\200\037>\227\365\021\275|O\321= %:>7r\222\276=\227\037=\365\370\016\276\224=\253\274\020\344\201=`TJ\276|\310Q>\204\201%>\n\303\356\273\230\326q=B\007\314=\177\243\375\275\016\177g\276f-\010>cw~>\036\247/\276\216E)\276q\377p\275G\233\216>\226\326t=,\224`\276\017#\270\275\236\365\247\276\372m\334\274\016\2026>\022\'^\276^\250\216\276\3376\316\275\200\225x>\'\204X>\304\014\230=\024\006\261\276\357\031\250:!!=>\027/\223\276\202$\207\274\244\200\202>\357\276\350=\265D\246>\335q\016>\\:I\276\377\376\006>\275<\224>G\0145=\"F\014\2768\246\'\276\360\324\202\273\2056\316=\355\234\327\275\3775\003\276\203\207A=\220@\226\275h\342\237=\205\257\234\274\351\343\317=Y\345\261>\323\353\376=\263[\013>U\337\\>\244k\305\275\240\237s>\360\032Q>\202\300\017>+\271\211\2755\025\224\272\256a\310<Z\367\211\275~\177\230=\272(\220>2O\377<\215M\343<b\225\262\275]\244N=\253<\212<fqa>\224B\027\2769],>[\035\271<\336&\315=\014\007\376;\027\247\325=\355\3511>}\212,\274\364\223m>\313\354\365\275\036}\371\275\307tF\276P\361\202=\'\343\250=[\345\026>\357\230\371=\022\246\002>}\355\005\276\253O\371=\024\013%>\361\262k>\360\272h\275b;\002\275\\+\244=0\234\205>\232h\342=\313\2021>\275\252\222\274\225\035\355=\"\243\272=0q\210=3\206y>\001\021\311=&`^\275Ct\211>\330K\347=S\343\313>twU>\003_\374=\010\312\001>Hr\325\275\037\356u\276\201\263\300\275\243c}>\017\261\271=\371\355\206>\367~\257\274O82\275\017\244=\276C\261\257>w\300G>\302|C\275n\016\202\273S\300\227\275\344\327<>\007\302\336=\263f\022\276X#\027\274)\205\325\274C\372\221\275v\325\026\276\272\270Z>\271\302\323=\304\241J\275\013\010==P\341\004>X\300[\275YL\031>\032d+>\360b\021>\010\223\335=\013\027\007\274\322\266\033=x\235\332\272sc;\276\017\276\n\276\031\235\241<\212r\030>\204mG\275\006j\351=\247\217\004\276](0\275\331\325\220\275\303\324-\276\037\350I\276\303\217-\276\212\253i\276v\340\214\276-\205\313=7\037\230\276\010\276\205>\307\213\304\275\223@\205>\263/\231>\212~Z>\022x\222\276\256]X>_uR\276;\000\203=\356[\305=\023\371Q>\262\265\363\274P\214\201\275\267\310e\276X\377\247<w\2066>C)(\276\244\014\321\273=#C\2764\034\336\275\031\030\271=\205T\024<4q\256=Xb\014>\2475|=\034s\204\276"
      }
    }
  }
}
node {
  name: "dense_1/bias"
  op: "Const"
  attr {
    key: "dtype"
    value {
      type: DT_FLOAT
    }
  }
  attr {
    key: "value"
    value {
      tensor {
        dtype: DT_FLOAT
        tensor_shape {
          dim {
            size: 64
          }
        }
        tensor_content: "\0343\201\274\353\320/\273f\367\032\273\237\366T;\346\363U\274\345\325)<\242\310\026<\024@/\274\205@\'\274\034\367`\274\205\305j\274\323`\253<\254QC\274 \362G<o`\\<ac\205\274\010\333\036<\014\3240\274\rm\205:\233R\223\274\253\002\235\274\306%\344\274\226\233\005\273\351}c\274\370\370\\<\313\303\206\274\242\303)<\322\005\233;mFM\274\360\245\351<IBR\2740\001\307;\246f\200<\301\375i\274\327\244|\274a\276=\274\033\312\021<\363\261\340;\331\241\017<|M\307\273\217\014\377;\224\000s\274\225\020\201\274\0221\231\272\314O4<u\232\013<\311\t\261\274\223\024\234;\375 \243\274\365\022i\274\312>\177\274 \243\317\272\3272\034=\242\312\325\273\243\225\213\2742.5<\004(5\274\363\r\304<\205[6<t0-<`\267t\271~\271V\274\274}\214\274j8F<"
      }
    }
  }
}
node {
  name: "dense_1/MatMul/ReadVariableOp"
  op: "Identity"
  input: "dense_1/kernel"
  attr {
    key: "T"
    value {
      type: DT_FLOAT
    }
  }
}
node {
  name: "dense_1/MatMul"
  op: "MatMul"
  input: "dense/Tanh"
  input: "dense_1/MatMul/ReadVariableOp"
  attr {
    key: "T"
    value {
      type: DT_FLOAT
    }
  }
  attr {
    key: "transpose_a"
    value {
      b: false
    }
  }
  attr {
    key: "transpose_b"
    value {
      b: false
    }
  }
}
node {
  name: "dense_1/BiasAdd/ReadVariableOp"
  op: "Identity"
  input: "dense_1/bias"
  attr {
    key: "T"
    value {
      type: DT_FLOAT
    }
  }
}
node {
  name: "dense_1/BiasAdd"
  op: "BiasAdd"
  input: "dense_1/MatMul"
  input: "dense_1/BiasAdd/ReadVariableOp"
  attr {
    key: "T"
    value {
      type: DT_FLOAT
    }
  }
  attr {
    key: "data_format"
    value {
      s: "NHWC"
    }
  }
}
node {
  name: "dense_1/Relu"
  op: "Relu"
  input: "dense_1/BiasAdd"
  attr {
    key: "T"
    value {
      type: DT_FLOAT
    }
  }
}
node {
  name: "dense_2/kernel"
  op: "Const"
  attr {
    key: "dtype"
    value {
      type: DT_FLOAT
    }
  }
  attr {
    key: "value"
    value {
      tensor {
        dtype: DT_FLOAT
        tensor_shape {
          dim {
            size: 64
          }
          dim {
            size: 64
          }
        }
        tensor_content: "\247\267\352=\217[p=\001\034\211\276\304\304\247=\250\310o<\220\360b>h\260\034\276\203\342O\276\332\017\023=m\331z\275x\234\027\276\325\241\254;\301Y\307=\331\317z\276\322\022\032>\243\306P\276\252\024v>\352\024a>Cj$\276\0222\'>@\233\220\275w\231g\276\314\3319\276o\323w>\263v\356=b\357o>\242~\232=\3610g>\252\227\313\276J\364\024\276\034k@>o\363\033=\n=,\276\272\216\320=E\237\340\2751|\201\276=\177$\273\277\245s=p\334\000>\212\325\020>\014ec\275p\335r>\231\342\276>vE^<\375\014|=\211\202\020>|\200\376<\003M{>)7J\275\275\301A>*\3361>g\343\270\275\rZ3>\274\312\240\275\276\355\253\274L\371~\274&s2>\001et\276/\374a\275,\326\013\274\344\230\316\276\016i\232=X\\@\275\2541\013\276)\204\263\276x\203\340<\322\372\230\276~\203\250<k\247P\276\246\245\322\275\220\031\366\275\356\226\177=\375\265\r\276l\010C\275\024s\277\276:\203\251\276\\+\262:\307C\244>\367N#;\'D\277<\"\354#>kQ+>\231$\t>\303\006\311\275\312{d>t\037B\275\320a2=\254\324\264\276\026\326\222>W\225\346\275\240q\\=\016\"z\2765\330\240\275\207{\020=\316q\t\276I\342\300>\255a\027>\225n\322\274\224p\223\275\001\013\t\276\237b\346\275\033\222x\276\363\376\267\276%\020Z\276\0263\031\276.1\005>\200\334a\276\017V\274\274V\327\330\275s\365A\276\325\'\314<\272\260\221<\271\t\036\276g\364\224\275\213x\027>\3739\336\275a\335\265=\233D\246>^\0371\276\221\253u>\200/\017>j\026\234\273\35342=\355\307/=E\272\264=\243\253\253\275\206@\353=vhO=1D\327\275(\233\264\275\267\006C>m\\`>\354\375\267>\366\351\273\275\246v\212>\226\225\313<\267\215\205\276.\347G\275\031\010d\275\312\017L<\244\241\251\275b\357+>\016C\331\275\363\033\035\276\371\034\363< uv\276\232N\212>qLJ\276\314e\220>\0371I<R{\256=\333\267\263\275\027\265\201>\360r\364\275\213\302\257=;a\276\276k]\002>\303>\311>\224\305$>\023\227\266\275,%\346<\322$\344;\014\242\265\275\234\364\236=M!\001=\337\306\347=\342l\313<\231\227\021>8\275B\273+\003N\276\016A\223\276\002l\210>;\026.>7(\216;\303\200\036>\230\260\332=\326\231*\275Ul\213\276\027 \240<\'\345P>\343\265$\276\0167\243>\\\257\363\275N\t\333\275\343\365\341\273kz\006>\370F\002\276\t\266c\276H\031\226\276}p\030\275\335\346\224\276J\366\210;Y\023\200=\030\006\217<S\023t>\376]\342\275k\213|\276\225\010\000>O\255I\276\300K\265;\360f\257=\204\373\215>+\330\000=\013=\217>\325Y$=\305\226\320\275\326#,>-\257\000>\200C*\276\232\255\215\274\261\326\237=\020\230\374<^\240\031\276f\267\261\276i\260\"\276\227|\301=B5\204=\227\363J\276\3270\325=P\263\217\276\352)\021\276\321\220\256<]\201\231=\266,\264\274\307\027\246>C\253[>j\371U:9Y\243\275\252\317\004>8LK=\250\373~>\345>E\276\210\326\231\275\327\311\372\274\357S\t=\321\322$\276\330=,>\267\362P\276U\330\205\275\264+j\276m\007\013>\333k\244<{Z\201>\337Ll\276\270\216\203=(\246\373=#G\346=O,\265>\347\273t\276+\251=>\251\277u>8\\\004>!r\257=J&\346<r\372\211>\256\2733>\223\3541=\207\321\213>T\030w>\332\375\016=\2750\000>\255KA=\223\372e>\365\237\227\276C\216\331=\371\341P\275\322\354\013=\273\023\273>\001\363W>\037\207\262\276v\327Q\276\332b\363=W\334\r>( _>\265\264f\276T\331y=\220\r\216>\240\216\210>\274z/=\337%\242\275\327\213\027\276\341\004i\276C\322\247\2766J\373\275C\240\356=\347\3625\274\272)\r\276rja=\214W\211\276\231KQ\276aR\241\276\377y\026>x\005L\276sl\246=\377\300z>im\215\276\322\030\366\275xV\231=\371\212\241\274\300b*\276&\311\035\276\274p\035\275\311\325A>yH\256\276\373-\250\275\310l\243=\202\343\323\275\250\217\260\275^\272\036\275\023\263\232\275\"\002\037>xm\226\276$~L\275\013\333M=\234\347\023>Fk\002>M r>\213$m\275\203\006\347\274\274f\323=\306\354z<\223\274\267\275F*\230\273Hq\310\276\226M\360\275!\326\n>\363#2\276\204\236\245\273\3618\027\276\375\212\321=_`\340=\225\222<>n\034\367\275P\230\224=\337cb=\263\242\210\276;\233\007\276cR\227=\266\201\213>\026\001\210\276\331S\r>_\307Q\276\262\270\010=\327\262|=\355\026\033\276Pe\261\276m\223\226>O\376\r>\027\213\300=q\221\311\276\026\255A\276`\307\264\273Hq\237\275\353z\236>8\344F\2769\020\340<xq\024\276\301\351B\276\006\322\304>\235\017x\276GNm<\206\347\276\276u\266\030\276\3531\311= \3140>0\207\222=\237\013\244;~$\333<z\376\322:(H!\276\311\345\252=S\220\240<\275\306\215\275\317v\001=#\252\003\276\227\003n<\201\024\271>\336\rh\2760\242\016=\007=\n>\277*A>\330\234\254=B\007m\276q\346\247\275\2672\234\275G=\223\273N\\H=\321b\301\2767#\n\274\257\337*>\310\267j\275\332UV=U:\013=e\276\310>gq\351\275\301R\254\275\177\360|>{\242O>G\203$\276A\265\017\275*#\224<\r\\T>S\216\346\275Y\362\313\276e!\233\276/\236\306=\217\346D=Vm&\276\256\234\302=@f\274\275\267\210\331<\274J\030\276F\273-\276\331\375\342\275W\307Z=aW\034>\017\362\034\275\020\243\231>\032\026\032=o?\273=E\244E\276b\337\202\276e\240\345=y\322\025\271\316k\212\273$\311\350=\244z\323=\227\223t\276\n\007;\276N%\244\276\345d\206>X\257i>=)\234\276\330HN\275\033\256\024\276\033\226y>\345\276\204>\005\270\035>\030\000\203=\332\337\316\275\035\250X\276\211\241`\276\252\304;\276\r\020\206\274\366w\267\276\021\021\237\275\237l\202\276\317Hq\276-\356\013\275\315\277K\276\235\360f>?\021\342=G\206H\276\362\331S\276\367.\267=\306z\244=\311\202J<\334\231+>\314\010R>\203\327\262=\340\373\325<\342\372\314=\006\324\241\274\017M\216\275%\211\240\276<\330N=P\253\204>M\310a<q\274\223\276\232\365\003<\367\3230>\347\"\030\276+\255\265\275\366p\013<\1779\307\275\357Ag\276r,`\276\245p\037\276\325Pc>\232\253\323=AK\370=k\366\r>o\340\361\275\321\245x\276W\352\261\276\r\242H\276S\000;>\234\352\027=\364\227\256\275\232I\227>Z\276\017>t\037\267=j\250\320=\324\255\241\276\257\217\350\275\253^[\276\212\366\016>QW\260=l\0212<!>y\275c,\210\276N\002{>\254\265C>\203t{>\217\267\351\275\243\035\234>R\274>\276\257\rt>\365\274\214\275\317\313\016>|\252\216>\017\304\226\2747\3772>q\314\3628\324\025\254\276\355\007\276<\307\330\206>\001\366\017>\336F\'\276\206N}\274\361\213i>.\254\366=X\231s\275\215\'\226\2741\271 >\250\016)\276\031\027B\274xE\247<e\273\034\276\"\306\221>\375%U\275r\032.>:8\322=?\302\254>|\233\235\274\315\2446\275\023q\201\276^\340\t8s\205\265\275\010\333M=\314\257W=\235\375:<x\337P>\371\\>>\337m^\276\340N\377=t\257\202>\334\326M>m\271\203>\022\334\033>\256`\006>\302\205\t\275\005@\274\276\013j\216=s\316=>\002@>>\241\370\275\276\022\240\346=\202\240^\276k\336O\276\272<\353\274zi\365\273\235\262->\236\212\254>/\220N\275\242\332_\276)\2529\276J\2742\276\240\242\333\275\337\271\362\274@l\006\276\255\r\014>~\225\">\232\344\207\276\221\372;>\243\301\301=\005{\205\274\232\030\240>\200\304\207\276\371i\201\275W\374\">\023u\247\276zp\301=\033\241.>\270[\035>aH\204\275\3559[=M\225\'>\273U(\276\331\010\212\276>\274\'>&\266\245>\335h\272>\020O\320\275ab\016>\030\342\030>\020\235g>\220\264\010\276\274\3029=\3202\016\276R\334\">\2030\n\276\377I}\276\325\200+\273r\3456>1\272\266>H\351(>\2064d\276\345~\237>\217\034\272\276DD\301\275\205\370\036>\372\322A\276\347T\222>\2250<\276\024\221#>\004\263\273<\255d\"\276G\337\232\276\360\302D\275=aI>{\203\230\275)\313o=\210{@\275\322\027l>1\021l=\262\277X>u\206<>&\270\207\273\256\250\200\275E=\035>\277\255\211>b\0202>\017$]\276\275\264\313\275p\300a\276\037\347\213\276\354%Z=\245v\320\275+$k\276\377\300\377\275\302\032_\275\267\350\303\274L\247r\276id0\276\304Qd\275Y\312\356\2758\255\260\275\206\332Z\276\365\024.\276\022\250_>s\224\213\272\322\370\235>0\317\004\276;2+\276\363\036\n>E\001\377=\213\254\332\275pC\314\276\345ax\275\264\035\334=\206?\000\276\247\312\250>\272\334\227=\2026\304>u\322\235=\234\335\332\275^\231\034>\023\261\346\275\277\317\204>y\354\243\276t\364\231\275\334A`\274\213\336\223<\306J\222\274\265\023?\275\177\341\032\273\267\351\227>\355X\202\275\2631:\276\246\251\344<)O\004\276t\236\225=\245\005\037=[/h=\025\n\306\2754\335X>\277\026l>\221\0031\276T\254W\276Y\212\262<0j\335<\311\251\360\274\t\030\325\273\\\\0=n\347r>>\377\357:(u\007=\241\221\367=\347\013O\276\221t\007<\033\023\035\276\343\334f\276\224\310\254\276\257\036\360=@\211_\27406\231<\027\322\274\276Ou\214>\244yC>nRs>\010<V\275\032LQ\276786>+\230^\276x\266\206>\201\376}=J\317\253\276?~(>\264X\224<\262\336\374<\234\370\372\275\257QZ\276\246\346\226\275*i\216\276\010w5>\275\3553=2\334\212\275\355\323\212\2764\310\306=\035$\223<\360z\220\276\324\2321<\\\201\202\274\352&%=\244\230\334\276\244\n\330<\265\250\003>\261`\256\275\265\276\336\274\257k\374\275\372\356\262<\230,\255=Z\366\021>I\210\177\276\257\253\032\276b\335U>\347\256\254\273{\211\005\276\216M\201>B\366T=\276\354U=\212\035\257\275\212\374%\276\362\230,>\311\026\027>\240\370\322\275\214W\013\276\374\001\205\276\36514=\016~\031:\343W\014\274\222\267\264>R\242\035>\261\277\252>\271w-\276\320\030\017>Tp\342\275\372\237V\276,\235\017\275\364\226\226;\021\031A>d\372\252<\277P)\276\336\257$\276\360\253\302>l\262C\276\311P\200\276\336\323\305=\330\320I<*@\270\275\244\231|\274\327\326\234=\304\256+\276\016\303\235>mZ/>P\343\331=/\020f<\254v\276\275\017>\020\276H\235\007=T\3331\276d\357\247>V\310q\276\236\203\003\276\004T\372=\267\242\312>p&\225=\301\033\031\273\336>\376=\200,]=Q\277\241>\340*\254\276b\374W\276\005|\214\276\214<\350\275\262A\371\275\304\356\362=\300\206\320\275\231N\275<K?\363>r\352\311\276\304\304o>\330\303m\276\366\201\307=w\217)\276$\276\022>}\241\345=O\026 \276\226v\n>WG,=\321@\201\276\005`6\276\220\261\342\275\035\342\243\276\233\242\003=/\225\203\275\010wS\276su\245\275\320\363\341=\272\307\300=Z\231\036\276\334\016\t;f\327\315\274\300\275x=%\020U\276\350\351\254>\225\n,\2763\274\t\275\377E\264<\253\301\362=\202\331\341\2757\331P\275\310\'\005\276[\254L>\340+\262\276(\017\232>\207\"\010=\256\312n>|U\223>\020\300\201\276\356\207g>\362\301`>\025\"\262=\312\202\265>\342g\240=\033\215E>AR\323\275O\231\252>\377\"W\276\014\365E\276\240g\317\273\021\034\253\275\372sn\275\034\037\223\275\032k\024\276\350w#\276\341\342\325\275\306\205\343\274\017\227h>\236\220D=\245a[>\275\312\232\275yWR\276\313\321\262=-\302o\274?\361:\275]\177k\276\017\303\305\276\271\001\345=\360\200\240\276\177\342F>\323;\016\276b\327\r>\374F\210\276+\337\265\276\301\372)=S\311\r\275\244a\243>iuJ>w\362\341=\004\353\206\2753\016\201=\010\343\004\276\346\241+\276\320\277N\274\227\247P>\215\251\222\276`\244\233>\356\322\257=\324\265g\2765\253\216\276\223\335t\2761!\247\275\3710\235>\\\177\007\276\241\2500\275#\331+\275.\010\345\275\364\367\270\275_\242m<\267\014\266>\367^\205\275\330z\274=\266b\r\2722\216\216=\356\027\026\276\255\354\'=Ju\205>\010,c<\304!\354\275n9\206>\n!\270>\000C#\276\201\177\361=\252C\230=d\037\206\276B\007>>\031\321\224\276Sl\207\275\274.\021\276\007\327_>a/a\275W\023\260\275\322\001\014=\320\"\360\274\253zs>\354\034}<\024\321\372\274>\257\021=J\317\231\2757b\206<\2421H>w)l\276\217a\023>\"\370\351=\375\240\314\275\233\205\003>2|\306\276|\325\031\276\"\373\362\275\303\024\033\276\274W\t>1\234\375\272\337\364\301\275\362\315\204>\226\221q\276\256\2320\276\246\"\247<\341\305\322\275\371\022\227\276\330\266!=\030\326\033=VO\244>\314\255\222>\205\304\271>\325\3531\276x\002e\276\277W\034\276\2523\303=\345d\232\2762\224\243>4\234:>v=\300>T\034K=\322\276\371=R\253\237>\377\353=\276[\211O>\261\361 \276\336\370\232\275\013GM\276$\226\231<Z\177\245=\r\005\325<c3~\2755m\234<\250\342N\276\017\n\343\275\204W\237\273\004\237W\276Wc\005\276g;V\276\002\026\t\275\270\357\357=]\357F>\224\253\252\276\241\320\323=>>2>3\230\210\276\216\022T=\215\230\003\276\270=\020\276;\226\240\275_l\'\276v\035\013>b\034\272\275\203\013\270\272\343\320\004=\213`\r>\236\326\202=_\202.\276\241\353\211\276\355AZ\276P\213\205>ArX>\266\357H>\370\251\034\275xA\227>\315\215\255>\021\251\357=j1x\276E)a\276\003\006\2658\t\243\305\275\345\233B=\372\270\205>\375\232F>{ b>\314r(\2753\331p\276]!\345\275\256\016\243>\336\275#>9\345\363\274\376\223\000>\003\305\264\275\'g\265\276\347\036\213>\331\301\340\275\263\017\326\272\336\034\305=X\257]\276Ww\276\275o\227\211\276g\240\225\2753\366\244\275v\353\242\276\203X\202>\002\265Q;\254\307\034\274\033g\241>\362\"\213=\205*\017\276\263\225\305\275k\217p=\323\245\207\275\271\317\307>\351\025Y\276\322\366\244\276\267\023\316=P\307%>\346\212c\276[\372H\273\352\367\302\274B\004S<uX\367\275\262\305\273\276\337\0043\275d$\214\275\362\356\254=2S\226>D-\336\275\227\341\004\276\300\357\253>\314bJ=\307\300\254\275\306\230\324\275\001\006[>l\243\302=\375\236c\275b\342\303\276&\373%>\320\370\001>\312I\273\275\316\224\260<\237\016\343=\001&m\275m}h>fh\202\276\022\377\024\275\275\034\340\275\331\272\036\276\225\364K\274\326tJ\275\316\367U\275\256\332\234\276\266t\256\276\346\260\351\275\307\341\010>\251\014\364\275\312\201]>\253v\t>\004i\001\276D<\006\2752\362l\274\237 \261\273U\210\366\273\345G\231>\363t`\275\006E>>\274:L>s9\206>)s\201>\204rI<n\343I\276\013wT>u\203\030\276hV\273\275\016E\254\275\001z8\276\321\267\026</e\245\275\266\200\361=\244\225\n\276\007\303\000\276\212aY>\360\265\323=\'\336\021=\323U\221=W\211\201=\301\2154>\216?\225>\245kv\275q\212\230=<15>\322>\255>k\3743<\210\346\251\274\276\233\346=\020\346#\276w\272\t\276\325\331\236=\314e\211=\276\316N\275\320\244\r\276y\024%>\032H\237\274\212\215\200\276IC\212=\361\020\212\276\200\220\276=\314a\251\275\2517\363=\017@\026>\\\277\373\273\000\206e;*z\321=\217\323\030>\315\262+\274\276\216\276\276\246\354H=t\222R>\370\212\235\275\'\037X>\332\000\334\275\2409.\276\357u\326\275\020\315m=k\311s>\035\021\023\276\227\322\373=K\3536>\030\323\330=\206\202`\275\212\341|:\373\311z=D\022)\276\315\2373\275\215\214a\276\251C\003>\253\333\177\276\377\240\370<\034J\002>\026\217\263\275?\375k>\252\205E\276\345\303\250<\335\215\325=F\246F\276\351$\265=\026\n\263>\311\017+=\317\241L\275Gh\262>\236\272\236\2751\231\267>\016\022\032\276\256:\224=U`\245>\376fA\276\255iJ=E6$\275\324\357\020\276\235jG>~\363I\276/\233(>&7\210>\231\366\014=\n\212(\275\211vB>\013\202\223>\375$K>hvn\276D0G>\340f\261:\211\307\246\275I\361\302=\221c\321\275\350\303Q\276\307\315\224\275\034\3220>\205r\343\274\201]z>\355C\352\275\272W\210=\\Q\213=I\352\222=\232\333\262\276\317\037\260\276Y\374\225>\'\334\272\276\326aF=\004 Q<\tt\303=\377$`\276\301jU\275.zF>\326\325\265=\024\363u\275O\315s>\311\322\032>\322T\326;\':h\276\333\316\320\275\003\036\343=\354DI=\326B\203>\303\206\247;\2649\177=RE\273>\31706>B\3348\2720\252\033>\305qe>r\332P\276O\r\020>LM\374\275G\177\346\275\261(k<\344\225\205\2752m\307<M\023Y>\032\3172\276,\361\343=\312\026\270\275\203\267\300>\232\262@\276\022#O>\"H\253=\214\255U>\355NH>U\207*>\325\3561\275\370\022,\276`@\014=\366\'V>.\364\203\275\331_H\276I:(>E=\244\275t\\\300;e20\275\32534\275\231\327!\276\023\235\201>\3733[>R\257\366=GW\001>T\217m>IQ\225>\354sK>\351\r\301<\232\320\234=\357\243\003>#\232\372=\307_\204\275\237+\255\276\315\211h<\013\247\002\276\214I\362=A\243\262\275\377\336f>\326\240\'\276\226\t\234\274@[I\276\221\327\356\275&\017\333\274\005B\270<\320\233;\2750\360\n>\224\230\275\276c\200\t\272o@*\275\244\377\253>\020<\311\276\033\\2\276<\274\266\276\340\2003>\315\336*\276\237\030\020=\234Z\251>\335\303\250>\310o\321\275QZ\003>a\261\375\275\311N->\370\322\'>\256\316\022\276\037\224*>\315\227y\276\336\354V=\302\2471\275\335\306%\276\240\310)\276\t_\010>*\016\276>\353\001\006<\306W\246:\355\276\225\274#$S\276\313\026\224=\223Q\315\276\250\200\016\276\217\254\235\275.-\200\275?\\#\274j\213\037\275\306\333n\275\235\225\022\275\207\261t>\371\023\r>\350\256J\276\366u\016=\242zl\276-lS>\020\003*>F)\373;\250\327\037>\340Yu>\372\302D>\037\312I>\206@\256\275\264o\261\275\016\024\305=\334g\017\276\273\300\301<I`G\276\236\221\221\275c\325[\274D\211\254>\003bo\276\241\373t\276\266A\r\275\016\256\250\275\236~\207\276\277<n\274\364\227\214>Ra\216>X\375\226=\243~\037\276+J<\276<\021I>o+\263\275\023\014A>\201\310\341\275\235\215\210\276\261\232G\275vp\031\276:\'\007>\356\214\377<\3153\372\273\013K;\275\211\220\216\275)\237\004\274H\205\026>+\371I\275{\377f=*\271\263=|\022P>s\000\036;\254\237\223\276QR\210\272\\\305\007\276\344\374\225=\225\353\217\275D\001\250\274p\322\357\275%\010_\276)\317\265\275Z7f>\262vE>\343\3530\276\261D\227\276\014\n\036\276\227\216\006>\233;Y\276\317\272\013=\370\364R\276\317\3364<\026\362<>\214\315\316\275[\017\220>\321k\257\276\003\310&\275\003l\362\273\343\250T\275\233X\243=\235\231\256\275\347\357W>\\\232N\276\277\337\r>\034\241\351\275Wx(\276\201\2757>\244\017?<\323\221T\276\221>%=\320\233\020\274\376W\244\276\212\036\325\272fL\225\275\026\241!\276\027\342\315=vzb>\353Q{\276\360^^\276]\323~\276 \303\257\275\326\372]=\257%w\276\031\252\\>rc\253\276\347\366\024\276\022\243\204\276\0103\233\276\257\251l>\033\306\220\276\330Mx>\264\373\255\276\202\230]\2769\336\262>Z\330\'\276\013\317N\2765\3636\275IN\264>\256\334\\\276fE\267=\n\2425>\267\256\341=\256\267\320\275\tx\222\275\332\357\037\275\255\264%\276\345\344\214\276QE4>\340\361\272\276\207\343\243=>\233\306>\373\327\237\275\360\223\207>dWM\276\2673\005\2751\306\200\276\346\016x\276\024i\304\273\201\330}>*\"\354=\307K\016=\\\374\247>\035h<=L\353\230;\356\324\017\276\350Wl>\252\2605\276l\000\220\275|\224\026\276Hr\024\276~\342\234\276\322O\244>E(\311>\240==\272\350H\020=\2710\264=\236\322S>\341*\272\276\306\231c9\237{ =\261]\351<M\271x>\230\326\010\275\320\332\206>\2036T\276\221\377s\2767\300$=\316\231\253=\235\303\200<\316\024\325=\234n\225\275\022\231R\274\345\356\n\276\035|\344\275\0073\355=E\263+>\263j\261=-l&>\266e~\276*\002\207\276\260\205\205\275\260Q-\275\376\025N=\326\376Z>j\357\324=\226\n4<\336H\033\276\357\200\">}\263\261=\220\255\223\276\201^\326=\010\354\225=j\243K\2766G\211>Sa\034>J\204w\276snL>\262f\326>mQ\252=\004\256\021=\001\263\277\274\2056\336\274\312\252\247\275\253\250\033>l\211;\272\212\205\314>P\010\217>e\014\357=\347M4\275\263\261(\276;@\022\275\314\320f\276*U\264\276\255-S\274\000\246p>\201\000\036\2764\305c>\005v\231=k\336\237\274V\037\316\276K \223>_tA>[dy\276\307\225\310=\374\247\272>\202H\367\275[\243\303\275\356\254\211=7G}\276\312\241+\274\\DU>-/\334=\3328_\276\221\335\327=\\m\243=l\350\343\275m\316-\276X2\035>\242\024=\276\270?\216\275\227*\3669\243\333\336\275o\3570>\332~a>\341\341k>\362\355\346\275ES\007<\242H\353=?\362\245\275d\335\"><\357\376=\331\362\263;\324\n\004\276\224\257\236\275Tn\357=kc\035<j8\214\275\001\340E\276\030\375X=.\244u\276\n\014(>\235\333\273\275\227\2107>~Dy\276\266^\240\275\210oV\276\250n\201\276_P\345\273g9!\276x\273\004>\221\251\350\275\327R!>\233\266n=\274\215G=\201\305F=g\375N>\353\002\037;\250\301A>)\243\245>h\306l>7\331\242\276G\250\302>\274>\"\276=n\222\276\nM\021>C\2711\276]\301\233\276IZ\241>#s\270=\332\005#=\316\017\245\276\206Q\331\275\032\315\001\275\345(\375=\036\235\204=_=,\276\235l\360\275(\226_>\365\314\027<\374\256\214>\347\250\241\275-\360P=\314\007\002\276\013\335T\274\324\355;\276\256\240\343<\234\317\211>\3502U\272\260\"\251==]\223\272\266C\266\276\037\227J>\372tq<\311\233\340\273\322r\221\275l\007\373\275\"\212\262=\317g\210\276}\203\237=\344\315\\\276\316\272P\276\3112d\276\014\347\231>\262\224\222\276\351\306\226<-q\031\275k\215\235\276\322P0>Mj\r>\340\316\006=\254\027\204>\230N\211>\300\304\345\275\231\2522>\241\251\\=n\334\374=}Z\353=\031\022\305=\335M\207\274rJ(=\270\352\006\276\322\\\223\275\244\234R\275\215\334z\276\316\025\275\2759\002\201=Z\316\303\275\275\364l=\020\325\030>)d\355=\274\017d\2765\272\022>\350%\266\274\262\204H\2763\360j=\310`S\276\nO\315=\242\031\275<\004\256\244>j\2578\276\267n/>\226X\266=\267\253\263\275P%\"\276\221\020\004\275\022\032->zp\262=\032\205p\276\200\373\215=\357\360\324>\323\035\372=w\356\263\276\316y\375\275\025\205\002\276\341U\217\2744T\271\272\324\270E\274\337\241H>_\2205\2769\270m\276E \263\276@\0359>\265\312>\276\261\264\376=\270\177><\202W]>N7h\275QK.\276\356\177y>\350Cr>B=\005>!r\200>DRb=\2263\325\276\362\206z\275\025\nG>I\302\332=\332\236\232>x\350\016>\257\321\266\276<\256\231\276)\265;\276_%\255\276a\374\206>\211\375\330=\204d\207=L2\232>\t\277?>\037\311q=\270\0173>LL\266\276\344\363\212>\300\202\354;\357\200\031>\256\347\013\276Poz\276s\346f=h2\206>q\275#\275\205\213\255=\207\253\271=\216\330o=\341u\266\274\206\021P\273\332i&>\366\021\215\276\245\214\253\276^\211-\276-\2145\276=\277*\276\344\025a\275|\255\222\273\014\332q\276\333\376\256>$Q\223\276f\024n\276$\367\014\276\345\200\177>\204\373O>\300\221S>\026:\220>\245\354\\\275\204_h=\263\016\222=\250\373\306\274W\213\207>\243\3716>\217e\036>\263B\241\276\035\236Z\276\026\243r=\237`S\276\264-\n>X\rJ>Hf\203>\345\221=\276\356\312\314\273\203\235\307;\t[\250\276\\\237\260=.\376 >\346\002\025>e\202\023>-\357.\275f\031\320\275`q\237\275\n\356\200>\0139\311=\253\2460\276\204\233\005\273\272\241\020>\213B\367<\034\322g>,]\236\275\242\257\260\276\006&\377\275C\264\374=B\2611\2750\347\364=\273#-\276\330\030\327\275\327\302\207\275\3378S\275\230\'o<X%\217=\356\202\334\275R\374\205\276\323]\212=\323\\\223>\234\272\017\276\354\257v\275\2248\003>\"\347\375=bj\230>@\326\027=\254\350\223\2757=.\274X\260\306\275\250b\270\276\032i\254=\233\241j\274|\215\223\276!\370u\274\334\226s>\301U\207>\376|\300\275\246.5=H\010\321=\225-d\276\233\337m=7\276\002=\254\225\333=m\001\300\275i\024\302\275Yh\253\276\273\002:\275\262}\263>\363\017:\276\367C\246\276\323G0\276w\265`>C~\200\275\241\265e>5Q\020\275\274*\037\276\325\\\247\276@7\365\2757\307\027>M$;\276\032Sj\276m\002\035\276\200-\270\274}]\362=\205\300\200=\327\r\305\275/\220\376\274\265\357.>U\224\232=\317q\200>}\252I=\267\211r\275\267\271C>\243\220B\276\037\310<\276\363\217\273>\245\250\013>\340C\021\276?t\321\275\203r8>$n\376=\001\344s\276\0278\223=\270\252\003\276\'e3\276\215\210$\276H\200\034\275\311\031e\274u|\301\275M\213\201\27619%\275\334Qy=\\L\376\275K\021S=\t=\007\275)\367\231;q9!\275\322\005\025=eh\251\274\312D%\276\271\353l\276\362_\264>E\010\212\276~\276w\276\256\010\215=\250(4\275)\"y>l\261\333\270\366\323\202\275r\300\207>\326s&=M\212\033\276\273}\313=\215\271\270\276\026\006\206\276\250!\245\276\352V\220=\357\013\036\276\221\024\005\275d~\316\276\031ql\274,j\240\276\nD\244\276\327\022!\276\316\320\251\276\374AH\276\304j\244\2760^\234>D\"\232>\343[{>\t\2715\276\316\353\301\274\246E\231\276\376\302n>\243,\270=mbe>\315g\330<n\261\013>)\305\300=\345\235u<,So\276!.3=\357r\311\276M\262\204>\032\330\036> \210\207=\375\203\243>{\300\266=_\022\227\275\034\024\021\275[\204^>!\260R\275\225\252\270=\033\2672=;I\220=\312Sg>\274\350F\276\256\275e=\257\222\361<&\324\211\276\316\231\276\275V\024~\2759\227k>\351~l=\367\357\376\274+\013O>p\263\254\275\216\217\272>\240\321(\276/\274\010>\363\223_\275b\262\202>\207\250$>\204a\254=n\213\233>\274\351\275\274\220J\230\275\014Y\241\275\367S=>\'\307~>ct\211>\204\306\006\276\222\261?\276\341!\330=\323\315\204=\352 *>\370\331\035>\374\375\240=\300\222\304\276\353%\312>\367\320\203\276\372\305Y\276#!\211;\355DG\275n\311I=\216\005\026\276\237\357N\275\200\355\215>P%\266\275\246\215B\2765#\251\274\306Q\203\276\001u\227=\272\320\244=\2225\232>\276\027>>\261YL=6I\275\276\"\355W>t$W\276T\345>>X\327\032>\200\225\301>\177z\210\275\311\343{=\3106\375=\365A\'\2761\202\031\276\307\010n=r\244\003\275\014a\314>\310\272\200\276\230Ru=\336\325\014\276F\tC\276EsW\276z\300\362\275n\372\306\276{\275>>+\247+\276ph\357\275%o6\274\225\346\323=$G-\275\000\234\321\275\037Y\341=\207\244\273\274\0107\222>\014\253\313=\320\223\335\275\245\262\367=\234\263\204>J\366\270\275\"\304\362=\005\225{\276\306g\025\276S\241\324=|W\255>u\200\305>\253\235.>2\003\226>\276\312z\2752YK>pK\305\2758\241h\276\010p\367<\304\342+\276w\'V>&\037\006\276\227q\302=\226k\325\274\241\354\243>\005\255\327=\330\r\200\276\372\205\227>CS\202\276lp\007\276\272_\244\274\322\303\256=\337\254\036>?p\255=8\371%\276\325m\216\274\317\201\223=\335g\326={\260\357>\351:U=w\037\225>=]\237>\237\336G\276p\373\354=\233\2329\275\207\321\230\275\202/\200\276\277\250$<\357D\244\275\013\330\002>\301\232\205>\352u\233=\303e\013=\2053\237>\216O\252>\002{\373=\212^\211\276\263L\223=\367\253\022\276w\035A\275\235\2243\276\223@\217>\020\201\244\276\256\377\316<d\370\234;`\007\244=\200\014\017\276\326\223l>\232ap>\263j1\276\036\273e\276t\345\254\276\\\223H\276\222\372\350\275T\341\216\276\200#\325>\234T\274=\241H7\276zu\224>\363\3343>k\212\255\275\201r>>q\362\231\276\336\306\234\276sa\270=\024\237~\275\2013\224\276\326\027\307\271U=\"\276^5c=\212\374\010\276\254\256\023>\303\224N>\324\t\002=\251[\213>\267\354\237\276\225%&=gG\363\2755\263\262>\325\323!>&7\207>5))\276%\"\254<XE^>\024q\177>\241\263\004>]\014\314\275\010\273\201\275\341\253\201=\362\021I=\363e\212=\301\317H\276>*\031>\000\323\017>G\021\227\275x\256@=\324kv\274*\371\266<o\2054\276U\237\277\275c\267\034\275\370G\360=\362\223b\275y$\004<\310+\354\275~J\032=-\221\201=\315o\340\275\217`u\276\202y\252\276t\026\350\275\305\031\036\273D\360j\276\325x@=h\033q=> \274\274\357Y\n>\377\275,=\316$\256>+\202\333\275\001.\272>\255E\277\276hhv\272b%\314\275\363S\222:\335\255\021\276\302\203|\276XuU<6\200\334=#4\244=y\226T>\202\301\255=\246\356r\275\352\226~=l\256\243>\227\362?>\004\266\243>\013\351\317<\333\225\253\275\354J\236\276\205I~\276\006\013\033\276\3106\352\275y\325\n>|*a\276\r\241\001\276\025\215Y\275N\024\266\276\302Qq8\rfR\276[b.\276i\301\030=;+\277>\237\233]=;\020q>m\343\266\275\030F\232=\263wK\276\031\267w\276\250\242\233=\0269\226\276\374\214.>\016\206\177\276]\252\231\275\364\352c>\271\333\253>2\334W>[5T=\252%\025\276\265\205\010=\255\302\274<\336H7\276cg\344\275N\254\201\276\235\021\256\275\367\213_\276[\237G\2761Q\245=\225\277\304>\376D\030\276$\341\275<3\355\276\2762\036J<\215\310\207=I\257)=\375\220\033>\300\265Q\276\266\010\014\276\351M\201>x\211\223>\"\311\262\276\330\322#\274\245\337\345\274\340\336\307\276\222\035\265\274\022\367\343<\03712\276m\311`\276\205=\027>\303\236\355=\344F\243\275\177g\207\274C\026n\276\211\273\376\273\246\001\361\274r\235->\246k\240>\354`&\275n\026\366\275\221\036\002>\230\273\021\276\027\264\232=\024\266 \275\250\361#=\233\202D>\216\240\005>eV_\274\334R2\276\254\037\215>*\373\236>1s\305\275zZX=\026\200X=:+\237>jA\277\276BL\301\275AS\371\274h\215\342=\315\365\353=\365\271\234\275BS\335<*\357q=`]\303\270c\367%=\250\344\264>\244\332.\276\365L\200>\341\310R<\002\240\017\276A$\245\275\207\026X\276[|\257\276\335@`\275\311\034\022\276\"\244?=w\024 >M\322\204>V\252\177>w\013?>\336`\014>\237\2479\275\312\353\261\276\001a\232>%\362\014>\206\253p\276\223\351\221\275E\321[\276n\235\226\276k\322P=xC\035<lf\030\273\354\020=\276\257l\311=w\3473>l\366\256\276\335\301\023\276\305za=\221\267\275=-\230O\276\301\327\272>\34785<\255*\033\276C\021\302\274\371\312\252\276\215\027g>V\247\006<\031M\010=\363\3640>\362\363\255>\210\235\350=6W\244\274\235\231\022=\252M\r\276P\353\t>=^\256\275\365\364\206=A\224\205\275\273\250d>k\373N>\232.*>)\316H\274\367\306_>\311\236N\276\0106k\275s\2231\275\"\340\226\276\370l\322\275i\277\236>Q\372r>\213\323\265=/\303Q\275\322\376K\276{\203y>\004\215\227>u\332\337=\326d\214>Q\357\213>$\241\020=\364I\234\274\335^\376\2750Z\243\276\220\244\t\274\311\305(>>\377\212\274\267\353->A\237\'\274\"\354\266\276\355\2200\276\354q\210=\364\373\247\276\017\025!\276\'w}\274\216\310\247=\303\007\014=7t\236\276\241W/\276\255?\215>\r\3652\2768\317&=\243\337\006\275mA\247>\200\305\317\2758\242\222>6`\026\275\313DP=\373\261\352\275\300O\200<^$\001\275\250\324\223\276\".\265\276\250v\321>|\n_>\035&\312=\336u\243=\352n\216>f>\276\276\375\200f>\014\003\264>\3116\205\272\224W\267;T\252^\276U\264\002>\026\366\207=\321(\263\276\366\372\236\274H\3658\276\202F\241>\033\256\251\274\035\233g>\371\334\205\275\367w\177>\374\205\014\276\365\005%;]<\236\2769q\236>A\206\n>\354\306\304>\315\256a>V\263g\276@\362r\276\344\005\224\274\001\262\272>_]\300>A\217\014\275\340w2\276\'\237\240\276\365\335\021\276\224\341\307=4\306l\274\233\304a>\332s<\276>(\261=\203_\024>E\264\365=\017\352\334\27481\016> \306\021\276Q\"\036\275\036\260T>h\226\013>\010O\215>;\265\002\276\rF\022\276#\335\320=\0236\025\275S\024\303\2769\277!>\255j\227>\210X\024\276c\024\200>\354\255q\2756\205\035\275\257\302\002\276\025\213\021\275{!\372\275\223\325A>\350\262\224\275\001{$\276\374%Z\276l\322`\276\277\t\006\276\254#\032\276]SR\273\275\340\002\2763\036\222\276\310\305\305;[)5\276\235\235=\275K\304\214=\324;\243\275\205f%>J\323m=,io>\027\371\001>.\014x=l4\306\276\344{\316\275R\365>>\242\002%>Tt\017<[t\005\275\207\374u=HI|\275b\331g\276\301\032\235\276\034P\225=\203\362\206>\275\342\010>\337\341\'>{Q(=\"B\275\274\272\355\220>.&\350\273\032^\266\276\261\254\013>/\\*\276\276\375\236\275\364q\305\275\032;!\276\367\223)\276\320\215(\276%\305\233>\340i@\275cI\360=\365\213F=\342\0037\2761\267O=\273\307\354=f\334\003\276\365{\027\275\021\2779>\230\251\201\276\210\305R\276\307\014\214=\307\257~\275\357\365v\276X\253`\276S\017\200\274\362\376L\275\022\215?>PN\255>5\t\306\276\374eU=~An\276\306\233\n>\246\035b>\321\020\207\274\0059\\\275{\0365\276\252J}\276\200\364\025>\221I\223\275\270\\\362\276{\3018\276\322\250\365\274\215\250L\276\273\226\030\274\274\352\352\274r\232A=\311V\277\276\327\3679=\252\340t\276\345e$=\353\3265>\001\000\325\274|\377C\276\322\274\036\276\334k<>\364\206\023\276\3505\004\276\223\325->\032)\010>\031m$>\003>\232>\200KJ\276\3567O\275S\231.>\377\252\221=Z\236W=\325\251}\276|\313\004=\341\353\006\275&\010Z\275\257=\005\275\225PM\276\264\001\255>c/\313\275\276\353\274\2755\204\000>]\001V=\003\265h\275lLR\276\2310>>\232\275\257\273\322\263S>\341u\025\275;\250\211\276\233\324\031=D\214\203>\241\023s\275\202R`>\220z\246>\034\242\260\273]\026\014>\343\026\014\276\363\263_=\377 \320>\2419M>\211A<>o\302|>\237q\244=\3164\252\276\226\270\237<\302\355\221>/\234\251\275\003\255\257\276\214\t\364\275\374$\235\274W\007-\275\0278\273=\303\\5\273\243!|>\022g\275\275\016\t\234>\343\010_\276\251\247\311\2753\3139<\247\212\025>\3032\374<\303)\331=,WX\275\364\346\317\275(J\240\276~\232\267=\240\221\035\276!\247E=\tV\363=3h\310\275Q\274\301;H\316\265\276\263\244\272\275a\017_=~\317\305;\357p&\276p\224\233\276\227\036G=\2646J=\313\312\250=\201[\322>\006\010\375\275B\246n=\252\027\352=<g\314\274\356\344i\276\"\333\017=N\356\261<\316\006%\275\327\254\225\276\026\345\322\275I\033\006=K\027\257=\225\213*>\227\035\207\275\002\354A<\032+\014\276\222%1>\371Q\275>_\302\253>L\016\222\276\342hu\276\3009\334\275\327%8\275\315\304\324\274\326\344\275\276\255\002/\276\344\355+\276\367\336\000\276\020\265\017>q\004\244>\324gF\275\321\371\270>]\006\375\275\313\273\277=}\023\224\275\372\277\r\276\013\237/\276\350\204\016\274\000\217Q=5\351\371;{\264\312\276\373\217\336=\344E\235=\334\032J>\210\020/\274i\022\035>\321>\211\276,\n!\276a\210\204>\240\215\022>\256\027\246=D}\234\2743\262\220\276Z\3573;\261\300f>H}b>u\3708>\356\004\212=ul\342=q\036\252=\257(E\276\312yv\273\270\200\205=\376\2668\276\216`\000>\201i\017\276\034\262d>b\200\025\276\334_I\276M\211$\276\177K\221\275\352\346\317\2751\376\325=\231&\342=\320\"o\276\016\331\330\275\215\366\340=\266\3744\2769\'\206\275\344\261{\276<\233\376\275\263\212\204=\356\361->[qB>t\036\260\276%Ja\275\267\314\320>\341\317f<=\\w\276\252@\225>\324\306\000>s\036\030\276\345h\236\276\300#\"<\003\364_\276\372\032\026>\337\277\254\276\365)v>\343\323G>\013Bq\275\231\350\033\276\373\027\307\276\244\317\n>\276h\317\275\370F\224>)\375C=\234d\305\275\244\214b>RBc\276\201b\306\275\266z\373\275P\352\245=\335N\n=)U\001\276g:\264=\306\247\206\276\n\221\211\276p\311\317\276>\326\330=\355K\037>[\200\270\275\226ZT\276N\200\232\276\365qb\275\030\372\201>\311\021\252\275\237\327\303>=\301\260\275\236n\336<f\310\352=\032\334\026=\261\325\032>`@\202=\305\357<9\3006\256>\274\362\205>\2574\262<\240p\001\276\020\360\317\275QB\217>H\353z\275)\256\353\275W\311I=r\273\211\276\242<\253\276\203jK>\200\355l\275\202.V\275#\370\022\275\227C\023\275\302&\241>*%\263\275\250[H>|W\374\274i\351\372\274@\263\025\276\024B\316<0\377\351=\273\222\261\276\213\330\370=<]{\276\270\344\374=\341\326\030>\315\332o>\344\356f\275}\322y>\316G\203=\036\344\211<}\002+\276 \367\205\276\307e\t\276q?\325\274u\322>>\031\245\n<m\306\304>$\277{\276O\0013>\331\204P\274I\325\217\275\"\354g\274\3121\244\276]|\214\276\312om\276\256\365]=\177\310\303>WN\310=b\356\025\276\272A7<DSw\276\261\362h:\027p\255;\225\2264=\215\207\032=\3748I\274\320\023k>E\232b=\016{\263\276\003\004\226\274\240\246\266>$mc>*\324o\276{\270T>*\322\220>b;\241<d\375J\276\205\263?\276L\264T>\312\351\205>8p\">p\264w\276\273\246\022\276`\343T>\260\252\373\275\245\364F>F`.<\237\\\020>\004\340K>\204\224\331\275\254\314\353\275V\021\364\275\362Z+\275* \207\275\243\365\374\275\230FV\276a\027<\275\003\201E=\312\3152>F\213\271=\261\365\000>S\030l\275X\234X>\314\260\003>?(\001\275 \207\016\276y\314f\276\322s\253=t[S\275\325\227\006\273X\376\311\275ycM>SB]\275v\323\237>\"\233\327>\025CN>\240\353\263<2\265W\275$\212X>\340\262\321\275Wv\220\276\337\366\226>\230\223\264=\004\355H\2765\305\360\274\307)\216=0\276\370<O\016%>\211^\204\276\233%\235>\244]W\276\207f\027<\246V0\275\342\257\213=c\353-\276\325!\233\276\276\225\255=Z/\307>F\304y>\027$\216\276\373<\253>,l$\275\334\342\177\273\264q\231><\310%\275r\246\220>\237\201\217\275\224\263N\275\273\270\311\276ep\326\275\361\234\222=\303`+>\226O\331\276\201\370+\2769\206\237>\225\336\240\276F\302r\275\006\256t\276E\252\207=Ty5=\274U\334\275L\350\200=\220\270\037=\213D*\276\235t\223\274\364\206\035>\023\350\214\275q\342/\274\343\324\254>1\272g\273o\234j\274#l\n=\212v*=v\366\217\276\262 \241=\215\013\267>H\213)\276\245}H\276N\\?\276\336\372\223\276`7\244\275F|\245\276k\2101>\212q\325=\325n<>\204<\332\275]\327\220=0ot\275\234d7=\037&a\274+k\312\276\233c\211>\334\266\'\273V\2566>G6\215<~{/=\306\003\332=\007{6\2754\255\262\274[:\024>{#\313\275\215j\004>\333\235\273>\212\370\354=:\024\232\275>\266\230>\t\2146\276|+.\276m2g\276\311\2506=\037\375V>&\344c\274\306\231r\275i >\276\372\213\222=p\322G=\312\0219\276z\330\353\272qM\202\274S\315h\276*F\213=@\242\236\276\231\006\237\275\031\026\226\276\242\361=>\213\354\347\273W\327\320=Q\3675>\231W\010\276\215\351W\2765^m\275\260\036|>k\341\027>)\026*\276\262o\264>\212b\252>\203|\202>ri`\274\354\323\001\276\254\242\357\274!\000)\276\243\006V\273\336\315\037>9\270\264<z\007\375<\006\\=>\342~\237=_\004p\274\317T\014>\357\372\010\2767C\327=\210Q\305<\273\207\343\274\351j\256\275\330\320\247\2751\0164\276\255\031\r\276\236\305\022\276\204f\315\275\252\375\316>Q\253c\276Ht\330=\022\364\342=J\240e>\001\000,>(\036\037>nS\231\2762\013,\276/r\003\276\302\305*>[\302[=S\2564\276\024:\330=%\035\274\276\361\354\023\276Z#\231>\337\301\227=\205\226\366<\022\0004\276\263\302W>\0027\203\276\255\204\\>\017\246\034>\331y\372=\226\330}>\374\345\216>\242\221O\276\256\2300>4\020H\276j\264\253=\377s\345;d\266\371\275\216\211o>F\257\370\275B|\001>N}%>\240\221\331=\3536\201>\245\322\032>\320\250\240\276w`\227>&\371\341\275\002\263\226\276N\003\023>7\310\262\276Y\375\031<\202\244\312=\324U\230>\307\345\204=y\256\266\276O\\F<EA\032>\340yC\275\027\327\205\274T\222\201>F98\276\032\210\020>\363\201\030>kf\254=\214\367\035\275\215Z\275\275\2467`>_\342\351\275J0+>+m\335=\305W\265>9\013\365=N\275\273\276?\276E\275PG\022\276\326\223\311\276`\t\261<\341i\212>\026\313\016>\3077.>g\367!>\201y\242=\246\002\'\275\035&\330\275\313\352C\276\032\020\013=tW\272>\212\317\226>PJ0>\361\246\004=\307A0\276h\000\020>\237@\240\275/\255\350\274GnU>k\275\022>\327F}<_\312j\276\253L{\275c\313\020=\002+\200=\232\n\232>\353\300Z\273\251\317\250>\031\314\036\275Q\016\217=\221\234\240\275\266p\221>0\346\014\275\376\346|\276\327\356$\273\032\021\316\275c\261W\275\201#\331=\351=\241>T\262/\276\343!\247;c\354U>\223\000\313\276f|->\213\022\221\275\333\231\364=\274\316\225\274>f\214=d\372\225>\3175?>E\262\030=\231\264\021>\256\3617>\257\201\003=\377\212\000\276\374\360\212>\253\0222;\nI\236\276D8\263=\231\245G\276\371\302M\276\366\224\\<\030\204\302=vk\360<|a\220\275\226\200\303\275zi,\276\256\313.>\335|P\276\002\267\212=A\345#>\232\206\037\276\277L\343=J\3448\276\347\224\177=}b\321<=\037\265\274<p\017=\306\364n\276b\236\014\275\370\356^>\327\231\004>\330\005}\275\274\320C\276\334\260\271>\036Z\205\2761-A>i\363\'>Uf\311\275\303?\234=\335\257\004\275_\331\266>3\232.>AB\367=Q\0201\276\245\360\270=~@W<\031nw\274\343\321G\276\352\200\n=\376\277->X\343K>Z\201\236>\351\307`\275\027\rI\276\275\244\n\276\251#\257\276\221@\232=Z\017{=`8\027\274?\360r>\370\336\253\276\025j\203\275\020g\013>\335X\253=\265\357S>\020lK\276\320\375\373<\257\331\201<\240\337C>[\022\231\275\341\307{=\007O\200>W\314d\275\245\237\240>\356\340\340\275\245C\222\275\023C\035\276\002t\010\276\301\271\252\275H\216\330=\336\242}>Y?\334=;\313\355=s\277A\276\235\231&>Z\350\205\276\230\347\236<:\t\006\276\253\266y;\302\006\314\275]L\357<\336^?\275kn\222>\024\376\217>\375\361E>\026XC>\373GD>\014\315\307\275\270\221\034\276e\267\210\275\361~\215\276\225\032b>\014\257\016\276\2542Y\2762\3721\275\273\373L\276\233j\267\275\351\300\005\276\362lR=\225\340\026\276]P\216=<\336,>\\N\377\274)\362\024\275W\314\014\274\212x\210\2766\263\337\275\250 \014\275^-\203>\261Ku>\220\345\003\274\275;|\276\254\264!>\266\036\241\275P/8<\303=\226\274\301\032\237>q\351\257\275\354.\353=\363k\226\275L\244\263\276\255n\032>\024\320m\276\333\352\037\273\022t\025<Y\230\036\276a\344\207>\260%\252\275\234RY=;\375\230\274~<n\275\"\273\257=3\031V>n\263\210=\245\001\256>\0357\300=\243\256\333;!(\034=\026\210\252==\363|=W\007D>>\252\314\275\312?+\275\3444\002\274\022\201\304>\307|E\276\236\021O\276\263\327\312=\253Wp>\263\332\345\275\345A,\274\330\351\277=\nx\302<\035b\223\276i\341\007<<\364\377> \036\276\275\204\"\003=P\353\031<\032\232Z>\240\261\237\275JI\275\276\230e\263>\222\263\007>-\270\247:K2-\276#\216\265\276\365\235\001\276\035L\n=\r\033\376\275$\"\300=<\347s\276\345\007\\>\002\000^\276\004\226u\276~\320\201\275\313e\270>D\036\205\276{\3763=\271\202\252\276\324\017U>r\305\330={\247+>\323z\002=\036j\222\276\206\235\n\275\361\317\357\2756 !\276m\027\265>/\021\031\276\312\247\001\276\310\361\231\276f\326\203\276\233\023\205>\367l!\274%\221\364=v\335\260\275>r2=O\022\367<\264\312\367\274\316\216\r\276\234~O>\221\211\243=\250\364\332\275\270C\027\274\310\364\017\276\372l\306\275\002\241\311\275\t\035,\276\354-\303\275y\330\246\275\252m\304\275.y\214\276C=V\276\355y/\275!\217`>\3142\200>\262\344\340\275[$?>\263V7>f\362\251\274\353\314\003>\3211^>\217\247,\276\200d\252\276s\213\312=\314\325\241\274\\\'\031\276\331`@>\350\200\325=\334\014\234=Rs\024\275\346\007*\276\217\020(>\352~f>\300\225\270\276\355\345\312=\254\226`\276\274|\252=\332;\004\276\026\354<\276\345K\252\276S\320y=\346^\351\275#Q\332<z9h\275\211\362\345;\247\260\364\275\312\325\262\275c\200\264\275\264O\312=>\364\261=\334[\314>\263\006\240>\010W\207>\177G\026\276F\315\344\275\313\265\331\275\010\375%\276\335mq>\364\'\247\274\207\252r=\001\227\274>jd \276L\365\327\275\355\005\237>\367\241\210\276X\256?=\301\005\247\275\351hG\276\254s\020\276%\362\375\275\\\335\236\273\227,A=\343\317\200>\226\244i>\207\n/>B~\037\276\237\343\211\276\036R\231>\017\223\210>=\354x\276\265dq\2764\312D\276\322`Y=\230_\233=V\331\033>\001m\313\274\354t\016\276U\327|\275\321\255\n\275&\242\037>\354\277z\276\246\022\314;%\360\016=9\305%\275\205dB>\356\300\220\275\025\233\027\276\013\213\r>\334\217\251=\275P:\276\373g0>\373-\221\276\321g\252\276\004\245\326\275p-\177>\r\252i\275\274q.;\265\332\326=;9I=K\360\225\276~U\021\276\310j\354\2754L7\273E\337p\275\236X5\275\023v\211\274w\304\200=\237\302T>Z=P<E\006\252\276\337c\250>@\306\241=g\333\217\2767\245\177\273\315X}=\230@\017>\301\333;\275\323\351\000\276\304\t\223\274\227\372\277\2757=\033\275r`$>\217-\211\276\203&\323=\355\215A>=\275V\276\3754\206\276F*\274\276\017&\013=A\266b\274)\255\021\276.\001j\276x72\276d\177l<\241\310\207\276\217\215\247>\273\030\336\275\251e\026\275\226d\272\275\223o\226>\000s\202>\354\246\210=\301\260\330=\223q\206\276\200\317\000>1\261\204=\345\321\362\275\257\364\351=&L\352\275q\035g>\232\010\245\275.\230\307\275\211\376\220\276\357(\214\276\274\222\031\275`\327\222>\350\031\215\276i\033\313=\365A/<\036\262=\276\316\265\300\276@\251\262>+\364\207>;\213\256\275,