node {
  name: "dense_input"
  op: "Placeholder"
  attr {
    key: "dtype"
    value {
      type: DT_FLOAT
    }
  }
  attr {
    key: "shape"
    value {
      shape {
        dim {
          size: -1
        }
        dim {
          size: 13
        }
      }
    }
  }
}
node {
  name: "dense/kernel"
  op: "Const"
  attr {
    key: "dtype"
    value {
      type: DT_FLOAT
    }
  }
  attr {
    key: "value"
    value {
      tensor {
        dtype: DT_FLOAT
        tensor_shape {
          dim {
            size: 13
          }
          dim {
            size: 64
          }
        }
        tensor_content: "<\206\300\275\032\341\373=\375\337\361=\246\362\005\276IH\232<56J\277e\216\000>\264#\016\277\026a\023\276x\357q>\301\307M<a1\025?;d\266=r\204\317>\216\341\277>\205\220\335>X\0233\277\000\006*\277\262t\335\275\26639\276\274\2035\277\325:m>{:\223=<U\005?nf\022?\017i\003\276\256F\312\276\006\214<?\260JA?\021\005\"\277\343\001\013\277\220h\361>\301\302R>Y\365\310=\010\367\242\276\210I\023?K\020\031\276\010\353\221\276\244V)>[[\365>\276\225\315\275(d\014>g\316\332\272\235\006I\276\350\253\350\276n\250->s\004\202\276\376x$?\226\253:\276\235\377,\276\361\242\257>\322\330l\276\010O\033?\035\253\237>\tu\304>\272\317c\277\253\207\263\276Q\302V\276\300\241@\276\' \217=\215\331\'\277y\030\"?\204\345\203\276\013\027\363>\274_\352\276\256\266\272>\241~R\276\260\375\313\276H\336\347\275\214\364G\276Q\300\355\276j\201\255\276hU6??m,?\373\'\227>\221\212\362=\005\213\013\276\021\'\315\2765jY?W\227\202\2757\005\017\276\364Xo=\026\323\032>\322{\303>\321a\033\276\224@8\275XY\033>\024\201=?d\353o\274w\355W>\313:K\276\374\336:\275\226\247\317>\361\304 \274s\224K>\000\234\217\276qo\266>\250\032C>\227t\033>p\252\351\276\211@\212\275\002\364\220\276?h\363\276\207\035\231>\223=\240>#\016\337\274*\247\366\276tK4>\034O\347=5\010\316\276\027fV\276\335\'-\276)\311>?\2626\t>0\014x>\204:N\275\2109B\277\2043s\276\346\221Q\275\340%\357>w\013\324>\213\223\305\276\264\267\000\275|v\324\276\375\023\201\276\307\\ >\307\314:?y\353D\276\\\374\205\276\272\336u\276\331\2547\276\260\003\271=\177\275\341\276\216\027\002?\312\255\247>\375\306\340\275^\247/=\177\316\007\276\304\2101\277Nvg?\337\212\317\274Wtq\276\r\017\302\276\0222H\276\017g\303<\t\032A?\'\376\254=\370o\233\276\211\0335>5\237\204>~r\212\275$\301I\276\361G\237=\300s\201\274\257\032\030\277S(\212>_\365\217>\223\233\235>\t\'\331>\210\r\344\276\267\260\330=\247=\371>sJ\371\275\tq\010>\315\"\021>\255\003\231\276\332\327\323\276\037\275.?\224LP>L\027\205\276\267\205\334\276@\177\025?\307\013^<N\305\037\276\300e\023>\002\360\007?\0014\374>\006m\002\277^\3454?M\201\337<)\241\370\2760qB=d\220\244>(\312\260>+2T>\350>\375\276\373\2255\277U!\254\276R\351\231>\275K\035?\312\207 >\225\345\020>Ee`\276\014W\220\276\370\000\000\276u\022\316\276\231`\351=\374aI?\252\307\214\275\200Q$?O\261\254\276q\254\217>\211h\002\277\r\321\005>\022M\266\276 n5>a7\230\276\343\303\006\276\256\020\225=;\335\242\276\253+\021?\004h\033\276\327\017#>\3504 \277,\273\032\277\253\3209>9\266\366>\332\206\n\277\275\277a\276\237\347\017\275\227\316\'\277/\353\032\277\007p\";\010\253\253=u\273\200\276\013E\032\275\035\261:?Z7\333>\3120(\277-5\014\277\000q^\276C4\001=\2369O?\242m\203>\225\371\306<%\226\024\277\333O\323\276v\367V\276\226T1\275\343^\307\276\313\215\240\276\2261\024?\002\263#\275\0100\030\277\020Y3>t\333\365\275H~{=\372\205p\276\3679\r\276Y>T<\357\256\223\276\r\372a?QNn\276\252P\227\272\316e\256>:n\r?\214\342\026\277B*X?[H\252\276\306\303\304\275S\274\237\274\353\226\366\276h;\331>V\341\020\276\324Y\313\276k\242\242\276\222\341\022?\024\352\264\276\366?:\277\273\231\237>\254\357->\004\376\r\275\326\276\311=>H]>\001XE\275\0379\313>\033\177\353\276u\t\004?_Z\032=\307\270\020\276V[s=T\270\033\277wJ\305=\350<\372\275\327q\205\276\310\004Z\276\33132=\017G\303>F\266\277>G\262\230\276\254\270\021\276\344\327\\\275H?\036?\317\260\001?\314n\222\275\315\023\010?$\022/?\001\340\202>\213Y\306\276\311\014\255\275\260KO>\271\226\255\276k\004f>\200<\003\277\277\245\013\2757\306\315>=\334\242\276@\n\003\276tO\301>t\355>\277-\356\331\275\025\216\t?\013\006a\277\204\231\353\276\032\213\244>\005\300\210>\375\314\027\277\243\316)>Q<\203\276\212\020\"\277\034\303\315\276\232\035M?\236\322\002?\r\013\207>\032x:?\362\316L=\027M \277H\236\370=B\210\302\276WA\'>\260\266D\275\237\377\273\275\2459#=\017\213\026?\177\037\037\277{\324\313>\256\007;?\231\220\227>\020\'\326\276\270`}\276\272\235\013?L\212\346>\227\222)>\341\305M\276\260<\355\275\257C\306\275}\025\206\276+\370>\277;\010t\276\177_\274\276&a;\276\351\205;>\'k\327>,\333\\;\241\200(\276V\320\315=R\013\004?\030)\343>\335K\021\276\255\022.\277\236+\200\276\343n\365\275;\351g\276\237\rK\276\267v\344>\206\036\333>\004\201\275\276\352\370L\276\206\340\241\276\204\231\374>\177[\366\275B\315;\276\311*-\276_\354\037\276\246\342\231>\277\371\314\276\367\0071\277n\2252=\263\313\222>(d\341>\3638X\276S\321\226\276\035\303\326\276+\206\366=\251\241\240\275;3E\277\0046`?\3529\220\275\311\346\177=\275\261 \276\tI\323>/\374\036\276\210c\004>\232\242\n\277\247;\022<\211_3?\217k\240\276\222\001\033\275\377\"\376=u\332f>\224f\362=\265tt>0\340\375\276S\333\007\275I\2463\277P\220\242>\362\306d\276\335\016\374=\333\226=\276\321m?\276\215\263\001\277\313GL\276\220\310\331=\313B;?Y\341\276\276r\311\'\277\273\300\013\277\371\327\004\276[\267P\277\031\374.\277\200\344\002?\243w\276\276\242\325U>\303\317\353>:/9>\354\311\367\276\024\201\363\275px\216>s\350n\275V\333\005\277\241\247W?\221\273\200;\205\014\037?\250`\337=\357d\221>\020\343\220>\232\206\016\277\3149Z\276d^\317>\007\311\356\276\370\003\201<\250\003\200>\223\3370=\264\320\036?\013\010S\277\375S\344\2757\337\027>\022P>>\266\246\270>\366\333\277\273:\r\203>+\265\203>\340\203\222\276XtK?\020\026\033\277iT\327=\304:!>\270`\373=\006\374L\2774x=\277UD-\276:\036\r>M\016\037>F\243o\276a6\202\276*14>\215\363\003<|\334\030\277:W\266>*^\302>s\026\"\277\243*\034?\"\221r>\254\006\"\275I\200\r>B\021s\275\nN \275\304F$?+\326!?L\206x>%\233\210=\320\321n>\\\006\225=KCk\276\373n\n?\273\n,?Ea\212>\376|\262>B\007}\276\005#\246<\234\231\020>\332b\360>*\256\024>c\267x>p\231\202\275\344\276#=7\311K>e\331l>\022d\327\274\340\251-?\nF\004\277\314)J\276\304\206&\2761\230\230\276\2636\260\276G\023\001?\331\334\236\275B\316\371\275\256J\n\2775\035\200=\241\r;=\363\007`\276\"\220\230\275\000\244\222>\205N%\276EV\017\277\304\214\247\276\246\273\013\277\355\316:?}\245*?\251\205H>\nd<\277\203\t\317\276F\332\300>\025V??\353\275\036\276\004\207\341>\310\213\037\276\201\0059?\026\247>?\2463\244\276\017\344@<h\225\215>\n\244$\277\020\237H\275pB\324>\003g\232>EP\266>U9\264\276\225<i\276iA\\\276\254\312\261\275\367\310\261\273\340\267\200\276\313\256\002>D\310Q\277_\025\261=\255\325\370\276\225*7>\256\335y>i\317{>p\233-\277\202\004\"\277\021\\\"\273\302\3446\277\265\002\326\276Bi\002?\237\314\200>:\355\246\276\023\362i\275G8\232\276\022\0061\277\024\275\023\276\272\354\333\275\323\037+\277en\362=dd\234\274\177\233\316>`!\357\275\025\177\326<\345\n/\276\250\370(\276\317a\033\277\2050\t?\216;\257=J\352\202<\237M4?\225\301/=3\226&>s\301\301=\325\2123\276\321Ou\276\026\261\333\276\237b6>;wh>,\367\337>@\323\212\274\275\246X?\237\354T?,N >\324\035\264\276[E\264=Xe\255\276\3242\232> \373\274\276\251N\250\274\336\276z>\302\220\244\276|h\030\275.\201\317>b\252m>|\214\231=O7\270>-eC?\333xx=V\330U\276\255_\302=2\276\251\276\371\3670?\232\004\362>z\266\r?. X?!tg?C\236m>>;\225\2767e\302=:V\313\276;\372\022\277\322\212 >\377\227\362>\010\244\014?\243\350\036>\351\016\314>\306\010 \276\034;\200\275*m\275=\272\305\250>\305\263\223\272W\272P>Y4\316=\016\024\362>e\313\304>\321\371\253\276|\253\315=t(]?\3632B?\035\303,>\253yK?A\330\001?K\222\023\277Wf\205\276\247\000\235\275gQ\r?\224\245\355>\357\226\313\275eJ\021\277g\300!\277\374\376\206\276\323c\247\274g5\001?m\245 <\274\014\253>9y\310=\372\013[>\221;\256\274I\021\347\276\232\207\007?\204\217\021?FJ\306>\220\305\334\274\020\203\266\276S\302L=V\320#\276\240\234\030\276\346\3022>\205\200B>y\233&\277\355\314]\276\262\n\212\275$\216\206\275\246\263\352>\221\031\357\276\317\264\253>\275\333\304\276\032\3626>\256\376\264\276\374\225\353>\0272^\275gjW\275\275\253\013\277~\220\023?\260\006\261\276>9\025\276\302A\022\277\\\276\251>\236\346\006\277*X\004\276<\002\366=\240\373\322\273\316\267\245\276.\007\264>\366\330v\275I\224\236\275o\317q=\013\226Y>\251\2509\277\334\262\207\276HxK\273\373\304\215\276\210\351\270\275\334\rz>\016\006+\277\265\010\010\277\342\t\370>\361\005\366\275/\252\200\276g\231M?\375\'\374\275{\265\301=\020\226a>\261\010\203\276HP\346>\257\210\357>d\253&>x\365A\276\327\343\026>5\202\344\275\262\022\222>\357[>\277\376\317\214\276\200\270\005?\356f\273\276\3500\023\276.l\352\276,\371\270=\002\"`>\000\036\260>r\"\201<\304\\^\276\302\014\020\274\205\231\237>(\262\033?\221\223M\276=\255f>\037T\177\276|\351\360\276\235]\332\276d\304\320=}=Q\275\304\247\353\275\255\032r\276N\262\266\275.G\024>SY\215>\351\356`>v\220\374\276M\331\272\276\035\353\026<\344\010\275\276\207\354\256\275\014\300\3349\254\363\374\276\304\007\302\275\300\310\n?94\"\277vr\232\276\010\030k\273\274.\240\276<\314:=\032\230\333>h\217\223\276)\357\217\276\304\353\344\274K\3057>M\261\315>\356\023\215\2766\370\353>\022+\033\277\016\177(>\264\325\236>:\253\355\275]\250\000?\266\333\n>\006:8>\352c\017\276\236\246C\276\324\351E>v\341\247\275\342e\r?\251d`\276\007[0>\031\221\033\276\340\213\264\274\340\315O\277\246>\031\276\242Qb=>=\326\276\3237\006\276\277\031s\276\374\362\031>\316\327\221\275\316\232(\275\343\234\244=\177m\007?\006\r\277\274\213\026\305=\305\370\203>\001EA>\225\210\363>\004\020,?\r\266\n\277\\vU\274a\351*\275\213\321l>z\224\227\276\374\332$\276\267\236\304=V\360\002\276\205\355Z=\320&\335<o\307\274>\263\204/?(\333\006\277\006-\215>\025KV=\262\223\024\276T\367\t>QQ->\255\277\305\275kH5?j\214\243=\313\274\342\276\025\227T>\000\312~\276\3072\010\276\'\0351\277\346\361+>\203\341\027\276\010>l>\370\003b>\375a\301>\217\347Z="
      }
    }
  }
}
node {
  name: "dense/bias"
  op: "Const"
  attr {
    key: "dtype"
    value {
      type: DT_FLOAT
    }
  }
  attr {
    key: "value"
    value {
      tensor {
        dtype: DT_FLOAT
        tensor_shape {
          dim {
            size: 64
          }
        }
        tensor_content: "aCg<\300\373\200\274\277Ei<\004\354[\274~Q]\274!\274\205\274\316\220^\274\300\224L\274\211\277\035\273L6W\274x6\275\274\001\236M\274w\256\270\273\t\350p<\207DF<\313\343P<9\370k\274\230tc<W\302`\274\356\250\201\274\000\300\200\2749\303\207<\300|\220\274\314=\202;\265\320\211<S\036O\274\251C\211\274&\205\014\273\200\272\265\274\303\315R<\337\347l\274a&\202\2747\037\233\274\257\275\216\274\324Kd<\327\001\203<M\337\234\274\033;%<(\'\205\274\216:\377;\257E\374\273\374,\207\274\365\305x<XA\200\274\203`\214\274?\\`<@\365n<\\\t0\274y\323\200<\013\025\243\274LT\216<_\327\224\274!\350q\274\257\251\225<\246\206\343;YV\226<\341iK;\312=\257\274\253%}\274\246W#\274\016\253t<\203B\205\274\223\346j\274c\270\300\272"
      }
    }
  }
}
node {
  name: "dense/MatMul/ReadVariableOp"
  op: "Identity"
  input: "dense/kernel"
  attr {
    key: "T"
    value {
      type: DT_FLOAT
    }
  }
}
node {
  name: "dense/MatMul"
  op: "MatMul"
  input: "dense_input"
  input: "dense/MatMul/ReadVariableOp"
  attr {
    key: "T"
    value {
      type: DT_FLOAT
    }
  }
  attr {
    key: "transpose_a"
    value {
      b: false
    }
  }
  attr {
    key: "transpose_b"
    value {
      b: false
    }
  }
}
node {
  name: "dense/BiasAdd/ReadVariableOp"
  op: "Identity"
  input: "dense/bias"
  attr {
    key: "T"
    value {
      type: DT_FLOAT
    }
  }
}
node {
  name: "dense/BiasAdd"
  op: "BiasAdd"
  input: "dense/MatMul"
  input: "dense/BiasAdd/ReadVariableOp"
  attr {
    key: "T"
    value {
      type: DT_FLOAT
    }
  }
  attr {
    key: "data_format"
    value {
      s: "NHWC"
    }
  }
}
node {
  name: "dense/Tanh"
  op: "Tanh"
  input: "dense/BiasAdd"
  attr {
    key: "T"
    value {
      type: DT_FLOAT
    }
  }
}
node {
  name: "dense_1/kernel"
  op: "Const"
  attr {
    key: "dtype"
    value {
      type: DT_FLOAT
    }
  }
  attr {
    key: "value"
    value {
      tensor {
        dtype: DT_FLOAT
        tensor_shape {
          dim {
            size: 64
          }
          dim {
            size: 64
          }
        }
        tensor_content: "\363N\245\275\312=q\274\306\003u\276\215O\023=\357\251\377\275\351%(\276\232t\254\273a\275\221>\263\'\363\275\347\035\377=\377\262i\276\210K\\=\320L0=\214c\001\276\257\031\263\275\r\\\272\276\214\237\257\276?\345\262\274\\g\000\276\017\226I\273\264D\311\275H\234I>4*\037=\304\313/\275\267\235\001\275nfy\276\267\346%=!\022\t\274\2714\253\276\206\242h>^\237\310\276\t\373\202\274hq}>\273\r\332=@\352\020>\262\031\352\275\261\215\253\274\2373\224\275J\373\221>kg5>\211\274\223<\276\216\263=\344\253\205=}Qy\275\256~\233>\2664\027>\220\271\254\276\356\006G\276\232==\276$L{=\276\324\201>*\302|>\277\026\265\276W\372\235=\364\320\333::_A=\272\036\202\276\271t\226\275\215F\255\274\364Y\200\276\031\031k\274\273v\200\275|\274|\276\363\351\030\274\212\321\263\274\236\013\345\274\263\345u\275,\013\216\276\270\2263<K\301\n\276w5\334<\303tJ\276\244et\276\\\241<>\014n\277\276\021\201\257=\021\214\236\270 \027}\276\276\017\236=Q\222\017\275\010\266B>\263`-\276\021\307\022>\246\242a>8\322\333\275}\233\031\276\207\322\205<K\327\024>\027%\207\276(O\335=\355\377\223>\232\037\362=\352\246\370\274t\213\n>\212\315\232\274\270M\234\276$w\276\275\344\001\306\275\003\375\301=\010IA>a\204\301=?hM>\005\236d\276\256\310\003>\327\2235\275^\372k\276\214\215\217\276\036\270\210\274\367\305\203>\217~j=\245\307\315\276+\212\213>k\177\303=\310:\275\276R\253v>\245\263R>\'\014O>\265;\177=\242y\362\275\344]\377:\213Z\304\276C-I=*\221_\275r\033\314\274\263\034.\276\337HD\276\341vr\274\231\221\203\276\202\227\211>\243\213\274\276y\260@\275\177g\265=|\302>\276\237\303L\276G\341\336;:\277a>\354\262\'=4\350\"\276\034\2432\276p\303o\276C\217\220=\221(\007\275/\374\376\275\0279\310>\210B\230\275ot\215\276\340\324G\276\245\024\222=v\001)\275\303\352!<\271\017\215\276PD\304\275^\250\325\276\201\232\010>\314\032\214\275\333\361\213\274::\364>E\365\344\275\314\356<<\373 \347<[\0019\276l,\207>\277\033\212=@\"\232\2764\313\035>\250\267\332\273L\336\225\274\r\243\204;\235\242\206\275\313^=\276m\301[\274\246j1=\306 \362=@m\263=\007\034\252\276B\223f\276\225\225\335\274\365\227\322\275 ~\247\274\315m]<\027\273\354\275\010\245\273\275~u\342\275\226\335\255=\003\377a\276V\206\207>\023\305\002\276\321/\027>\226\177\207>\206j\253\275\275\205\273\275\351\320\367=\022`\362\274#Q\014\276\334\374l\276\027\364Q=FR\345=\226x\013\276\002i\220\275\226\253A\276m\242p\2760\222\260>\357\001\231=f@N\276\257\347\274\276\341\022\210>\253u\201\276\325\263\264\275\001\351\347\273\242R\361=\014Qf=\2541\t=\327\274!>\313\217\330\275\254xi\275\330\004\260<\375\3526>;\326G\276\013\034\211\276\010\263\260>\276U\232\274\300\351\277>\374U\007>\376\212\211>\261\371S=\177\241U<[z1\276.\240b>~^\243\275\275t\223;N\324Q>\272s{\276\233\345\016>uA\321=\226\367\024\275\013\217\021=Q$7\274\271\214|>\232TB>\276\032O>&\367\263\275\320pN<\363\225V>\320F\003=\276!\206>\'\356\351\273\273\311\263=S\252\210\276\257\311\304=7_\327\275\274\205\266=\222\215\324<\"\0370<\301\037\t=\tD\375=\350i\"\276\014\270$\272\225r(>\233\274\344=\327ra>\343W\277\275\372\317\244>\025\314E>\202Q\340\275\270\230k\276J\246\347\275!\340\225\275\204@B>\2272\247=A\2164\273nZ\000=Q\314/>m3\340\275T\244H\276\3453+\275U\245\317>\034\301F\276\000\374\275\275\361\003\377=\003VZ>s\243S\275\356\366\"\276\357I\315=\026\231[\276\211[\231\276\030!?\276z\245\335\275\217\036\217\276\253\2132\276\257\301T=\276$\250\275k7<\276\306\r\212=\366\333\017=b\216\345=p\372\"\276\307.@\276\337p\212\275`C\233>\037B\357=\025\206>;:\253_>y\361\250\274\273n\246=fO{\275\252\372W<\026CX<\004MM\276\2758<=\246t\224\275\002\177\007\276\301\377z=\234\233K\276;\201U\276\250\023\016=.\325\344\275\326A\272>v\207\221\276\340U9>\026`,>\260Q\275\275a\260J\275\372\035\235\275\275<\024=\250\263q<\016\305\223\276\342c\212>\216&\307\276\036\0065\276h(b>\256j\017>\241\365\276>\353\313{> \224y<\264?I\275SY\324>U@\247\274\335\357w\275\373\322\325\275\265S\'>\006\237\263\276LF\361\2738T\272>\377\002\342\274r\ro<d\316\340=3\017n>\004\216\356=<\357U\276941\276l\266#>\232\221]\276}\r\035>49\214\275}[\032>\206\034\247\274\265u\273\276[0\232\275\235l\251=\263k\027>\305rF\275F\2772\276~\215\325;\227\005\270= fb\275\021\026G<\236\266E\275\337\236I;\277Pq\275\006\036Q<)r\252=\303d\316>\314\316K>\005T\244\275\033S\210\276\210\351\312\276Y\\\236\276\267\023*>\317\331\027\275\224\212\016=\363h/=\013xg<\204\367\226=\345\215-=\200\007\212\276\212~&>\256\246h>\375\241\024\275/.,>\035S\"=_\365\005\276\0343\272>9\242E<\320\r\361\2746\204\250\276\376\231Q;Y\332&>\373m\213<=\311\030>\030\304.\2752\355\372\275\003\244\\>\332\261\304=a\n\357=&h\212\276_E\253\276\361yH>\357\340v>A\353\352\274\022.H>H\207v=\225\374#<=a\006\276J\273\310\275,~\004\276\010\272\363=\336\376\210\275b\371\270\276\202\277]>\312\271x\274\255\225$>\'\375\320=1\3366\276\363\027 >T\177\256\276\003\010\265\275\363\031N<\021\226\031\276\305On>\2429\261\276\250\013\265\275\377\367\237>=T\220\276\310\1773\276\200\016\022>\"\037\000=e\271r>\224\236\214\276\221\340\005>F\230\r\276\361\224\373=+\262\014\275\331\323Q\276\243$P\276\263\240m\275\002\377\243=l\376\231\276y\2511\276UB\313=]\305\256\276\260\007\n=Mh\217>c\237\246\274ZX\345=G\341P>n\256\356=\336|T\276\335\211\315\276\306\344+\276)I\006\275 \341\224;\343\\\271=\262\224\222\275K\223\316=Xc\244>\304\240\256\276\301\335\223>\245\274\203>\244g!\276\250e\023\274\201Sp=!\017\007>\206\352+=\376Q\335=\220\016i\276\033\352^\276\323-\005>! \273=j\001\216=\334@\227\275Z>G\272\023\035\310\275w\327G\275\237\223\220\276\010;\026>\333\372O\275\242\256\334\275pN\023\276\021\353d\2752\030\225\276\274\315D\276\210\\\263\276\3616;\276\010\022\202\276o\'x>\354\247\007\275\234$Z\276\177\377\217=\334\300\220=,\326\354\274\326\247\355=\037\032:\276j3\035>\341u \275\023.\307;\376\033\204\276\256\266\264=!\325\205>q\253\005>\223\026-\275\341\330\271\275c*-<\310\021\013>m\355\031> \003\263=\025\3411\276\\BQ>8\335L\276\317N\322>\331/\221>\013\007\231>r\217\256\275\335\314\227>4\211\362=06\234\275\247\300\230>\210\323\247<\355y,>M.\000\276\277\274\327\275\267\331\300\276kq\023>\353\251\217=b)W\276\221\014\221\276\2578[\276\344)\231\276\233u\256\275\306\026m>F`K=\274%}=\010|\001>Z\\I=\n\022\000>/\312N\276\332\301\214>\003\251\340=W{\372;*C\034<\203\350\377\275\365\360\217\276\026\310\272>\213\366&\274\031\032\256\273\225\033s\276z\242\327\275w\033\324=\265]\205>\365E\227>\343\322\024\274m\207\323\274yR\210\275\222\351P<Nl&\276\3000\360=\037~\232<\345\2128>\364\232\001=\216@\213=\273z\037\275\256\037\243=\346*b\274\001\223Y>\266\253.\2760\016\236\276\232i\232<#\355\346=\357\347h\276z\326v>\014\253\214;U\007\200\276V\232\260=n\375\036\276r\212\000>\236\357$\276i^\256\275\354\200K=\2145\030>\366\221u=(T\273<;\307\r>.\303\r=0\016\266=\260\330f\276\036!\'>n\306\371\273\341\317\362\275\251\016t>\007\332\002>\2555\270=\201\030\275\274\213\2305=\021,\037\275\344n\340<\220\332\242\276\005\204\007>\272\203\261\275\227\221\222\275J+\225=Y\033\205=\222\313o\275\225\240\326<D\177\357\273\360\226\267=\250\016\226\275\376\330\272\2756\333\210\276\03203\275\213\225o\275r\370p>\023j\360<\332\343\201>\243T\022\275V\311\270>i3k>\255\347\354<\303\212X>\252^\014=\207\365\'\276\265r&\276\010\361\215\276}\310\202>d\324\242=k\223w\276\210\351\253\275\027\013\031=\026\274\346=l\311g>+\301\245>Q\245\302=\001\203\220=\234\256p\276(e\361\274\233\020\">\260\023T;f\005\267\275LH_>\321\260\\=xqN\2743\370\261=Y;D>\273!\353\275\324[\274<\273i\216\276l\004M>\231\361\200<-\002\235\276\237\207\347\275<\374\231\275\233\\\325\274S\361\026>\365$$>\254\344\344\275\240\357\322=&C\253\274\277d\260=Q\260\251; ]\202\276\251b\017\276\220z\251\275\r\036.=Hnw\275W\243\017\276\364\345\301=x7\246\276\2260\361\274]_\244\275\001\331!\276\232\025\034>p\036\213>o\364\225>\351xV=\033\025\026>\235\031\237;8p\211\2768l\225>\231\223\010\276q\360\240\275(\241\204=\\ \276>7\022^\276\217t\002=\031#1:\231\0238<\233\213\277\275L\351@>\216:\223\276\265W\305;\273P\037=V\007\010\276k$\032=\244}\320=rx\217\276H\365!>G\336\243\276\316\251\242\276b)w=5\271\344=&g\362=\316\036]\273\323xW\275\266\2428>S\247\230\276N\t\307=\311\317\026=k\031\305\276\253\327\037\275\321!\247>\257\267\017\276\230\353\210>G\243\202=\t\317\226=\013\256\317=Ui\234\276r_/=s\340\007=vw\010\276P\364n\276tS\222>\275\022\036\276\247\357H\275\031\303K\276(\255o>\2026\216>+\003\314\276\344\250\326\275\227\022\005>\330ai=2\361\267=\366\010\250>\006\264\010=\326\222\341\275&\355\254=\035\366\357=\341\207\202\276)A4=\2445&\273\347\023\260=\377n\264>4\316\357=Z\024\210\276S;\035>\220>E\275\344&K>\275\0140\276\217G\260=/\207k>\033\t\310\275\236a\376\275\273\026\216\275\245R^>;\236G:\250\324(>$\002m\274\224\342\304>=\205i\275\251\304\346\275\363Bp\276yU~=\2218V\275\325\315\257\276\227\352\207>\r\346\217\274\342\272/\275\234\006\252\275\277\352\377\275P\270<\275]\207\203\276\235\315\376=\r\314\010>\006\364\214\275T\024\241>\240\233\246=eS\017>\223b\240=|\035.\276\377\204x\276\024\033\323=\204\243\365\275\351\376i=c\277U>3\250\206>\tt\266>)\003o>\323\245\256\275\355>\300=v\206\245\275a\2675\275\223\202\257\275-\320\220\276\240\005\225=k\371\211\275\n?^\275f\271\237;=\356\003>Wk\211\276Nco\276\316m\026>\005\266\215=|\223l>#<\363\274\255\276J>\325\255!=Si\324\275v\224j>\341m\r=jk\235=\005\321v\276\322h\323\275\177\363\322=v\220\214>\306\302r\276/\250k>\252J\375=e\317w<\264q\t\273\325V-\276\\@\007<\2148;\276\000x\273=R\374\003>\363\342\203\275\3631W<\267\007\225\274e\'\023>r{8=^\353\360<\224\314\223\276\343\254\264\276\214\326l=\265\013\206=\252\314\212\276\263\263{>\351Br>\020\376j\276\300-\276=\226\342\253>\030P\221\276m\364M>w?/\275\341\003\376\273\337\0310>\233\371\265\276\202\313\305=K\311\226\276\323\256\263\274\246\215\031\2759\376G=\241\246\004=\303\320\241>E\311f=\006\306\247>\332sb\276\345\305\230=p\324(=\027\347\350<\373\234X\276\222\251\217\276\007P\211\275\201\315\300<l\237(\276\224\320\370\275m\321\031\276V\304\310=u$\324\275\325\013\322\272\r\375\201>\025\272\272\276),\211>\216\232/>\227\211\232\275\013.\245=\363\245Z\276\250\326\322>\006\\F\276r\231\263=\251\200$\276t\033\267\276\246[*>e\342\373\275\343\005C\276\252;\244\276\031\237\253=\375?g>w\342\225<\363\016\025>\376+\224<\264\214\237>\357\3626>\321\370\373<\213Rd\276\305\210x\2760D->I\034\253=, 8\276\n\235W>O\302\017\276\234\263\023\276O\312;>\224\330\253\275\250\340\224\275\200\201\320\275\333\212e\276\227\001\204> \267\005;\017\222\216>t\024\035>O\340\232\275\214\347M\2753\256\235=\254\222\204<\254\244\203>\r\343\312\273||u\276=\203\014>s\016 >\367Z\027\275Vq5>\271d\343\275\r\373\254=dh\375\274\3545l\276k\224\367\275\030)N\275\331\231\332\275\271\007.=3\003 \276\277\242\006>\r\252\257=N\032\317=\362d\260\275\337\361\367\2749\352>>v\025\200>\266\354:>\371:#\276\035\n\371=\263\274\342\275\2504\200>\314\336\273\276\216\244%\276j\306\246>x\303\374\275\210\365\016>\343\236X\275\030|]\274\315F\344\273\212\254J>\332\371\306=N(l=ab\341\275\224\230\203>\344\000\335\274\303\363\216\276\0147\313=\310\202\211;\003&\302=\026\031\033\275\331\323\223>7\206#<\224\305\370\274\365\264x\276\371_}=\312e\026>\354\323#>S\207\215\275#\204\245\276<\361g\276V$\273\275\203mb\276\366\001\224\275\333\201\345\274\310U0=\360\277*>(_\226=\275\236\010\276M\002\270\276\265\030\244=\325\314\236=\220\222\224=\024(+\276c\2416\276wb|\275\202b\200=\340\340\033>\234\363\243\275\351\222$\276f4\001>\306\007 >\221%\225\276A\035\020>\024[[\276\210\303\037=l\266\205\272\243\322^\274\273\362\342=i7\236=\314\235\364\2753\027F<\327b[\276Y\332=\276(\356\254\275\005\007\265>\373\270\315;\0061N\276(P)=:\313\014\276\360\252\006>\247\276\272\276\213\231\300>_$=\275\244?6\275\266NK\276[\001\364=r\376\032\274\377\031\254\276\240n\305\274\215\301\252>\223\270*\276r$S>)\355Q\275\025C\251\276\205f\217>\007\302\246\276\370\374~\276\320\263\262\276o\232#=\230\3645\276o\260\302\275\256\017\246\276\222}8=9\226<=V\nj\276C\313|>\242\265\215\276@\022\277\275\303@?\275\n\315\223>\032\363\024\276`:T>\335S\016=}7\247>J\223Z\275\253\3542>_f!=|\300\007>U\333\260\275!o\'\276\267\240\254<\031Vf>UR\\=\232\246q\276\241\273L\276\254Y\\\276\227<U\275\222\203z\276\211\026q\275\374\356D>\267\304<\276\317\256\260=ZLI>\202\313?=\024\207\371<\334\305m>\342k\375=\"\350\230>\233\323\333=\023J-=\352G+\276\037\355#={\350\230\275\377t\250\274\023\205\264>\356pp\275\327\334\261=Yd\257\276\370\304s>\354\227\246>\340\345\232\276<\036x=\221/\335\275X\304\212\276\206\256\301\276\324\274\222<\214\375\236>H\226\335\275h\221U\276hr\363\275J\004\267\274\267\350\251>\203\342\300=.\006\'=\326\230\363=q\253\227\275\331\266\223\276\274\267\220=\260B\212\276I\207\273>\334\355\201>\333@\375=\005\0241\276r\224\205\27679k<i\350\373\2756h\205\275ZY\036\276\311\356\325>\246!\035>}\216o>\364b\262>q\312\336\275\367!\330\275\251\355\205\276T#\032<R\230 >\250)\302\273\013\037\036\274\350\000\222\275\315\205\211>\036\365\020\276\346E\357\275\356\350\304=6&!>#\365\004\275K\227.\276\350j\022>*\241\264=?\032\275=\t\242\007\276Y\366\260>\016\356\277\276\013\207\244=\240\207\255\275\025\347\024>\2624(\276\362[\026\275\213\262z>\317\374\200\275\022Am>\274U\231\275\277\326/=\201e\n\275$\326\232\276\202\353\241;D\305\325=\nDi=^l<>1\267_\276e/z>6\361m=wv\004\274\245\340\272=\204\200\216=\0015\206\274\267\263o>\037)\037>\006+@\276\362\252\005\276-\017\000\276P\360\211\275O\240^>[\377\352=\356\377\n\276Fdp=\351\350\272>\216\213\004=s\234\330\275\327\300\022\276\006\322\254\275\307\320\266\275K\225\244\274B\360\271\275\342x\202\276\357\2101=\350\202\t>\366\375w\276_\317\250>\211V\226\275\3276\001>-\351+>\311\363\022=\300\001(>e\0032\276\025\346\331=)\252\037=\204mE;\350\344r\276\224\347\360=k;\253=\017\272\205>z\351Y\276!\0144\2740\243D>\347\301@\276\275\3701>2\302,=\343\006\226\276\014\324\273;\002\373\251\275\355Y\017\274\247a\204=\n4#=\363\013\023\276\031\360\3348\325@\225\276\260\254I;S\221\177>\277t\310\274\332\344\230\275\310\351w>\233c&\276\251\023\257<^\323n>\244U.\276\304\203W>\233\026N\275\027\020\024\276\212r9\276GB\033<\337\365\022\276_\272g>R\353\263>\020F\212>.2\202\275\206x\221\276yq\225>Xg\201\276\220\330\005\273u<\2708Y\243\252=WH\025>\002\254\275=\266\n\323\276\355\247\240=\026\310:=\220\230\021\275l\214i>:Z\031>&\262\037<+\024\025=\332A\263<\245\343\030=\305\235I\273\025\007\036<\277\2179\276\371\026\202\276.b\235=f0\213=#\311c\276?#\022\276b\216\322=\007j6\275\336\220\r=U\020\205=S4\205\2769@b>\242!A>J\230@\276\254Up=!\271*>\243\343k\276\215\233p\274\310cQ\276\372V3\274\347\364\205>l\356\277=\234@\250>\314W\\\276\271\211O>3,\203\275\335e\016\276\367\351\373=\327\251\210>\000\003\010>\006\"4>\304x9\276\000\006\257>\376?\246>\036\366\277\275\340\211\352\275\257\207t\273\017$T\275e?|<\227\233l\275\362S\361=o>\337<)\302\204>\342\036\275=\222B\360=\005l;>\325\236E\276\337\304(>\300M\304:\313\244E\276\271;\317\275&9\035=\301L\216\276*\332\003\276\332p\n\275P\225\222\274$7\013\276x!\356\275\356\232\203>\006\355\220\274l)\233\275\340\252<>\302AD\275\001\375\250=\0056;>\362\214\023;@\337 \276\272x\024>\332\330\031>\030\225\276\275B4\021\276\246\242\324<7\264\232=\267\037\n\276\373\237\030\274\215tE>\001\021\226\276\3700\360=|\315\265>e?\271\276\024\365\215\276\250\332\334\275\307\214J\276\361\035\240\274\305=\317=\254\0261=\374\355\244\276\244kf\275\353$X=\177\213B>[dJ\2762:\234=\353d\354<4\337\241\274\370\374\245=\326v\211\275\226\300\215\276\330\327U>\034\030\032=\254\023\361\275\253b\353=\2012,\2754\251\344<\201\007\226>*\220\n\276\214\277\212\275t\206\211\276\355\001l>2\023E\275\365\316\360=\364n>>\033\254K>d\3652\275\312\316\006>\257\345\251>&O?\275\326%\017\276\213}?>\207\241\341\275\347\306\017>\026\000\202\276dj(=\233\230\366=\241\323\235=\3135\263:\0343\205\276\320l`=\361\036}>\263\355*\276\352\224\206=H\354\t\274\325D\241>i\270\263=C\224\212=\275\007A=\316\177\300\275\202V\342\275\206\034\216\275[)\304\275S\201\212\276\302\242\320=\215\214\354;\323%B>8\017\377=\014+\240>B\316\251\275m\250\344=\346\2456>&\213K\2761U\237\275\251\247G=Z\301\347\274HQ\351=\250h\222\276T\323Z\2755\222\215=\023\245\272=\347K\177\276\303<\001>\010U\007\276z\220\213<\306q\224\274\267\032\356\275\245\036C\276\036\301I>\377\222#>|\2434\276\343`\000>\270\233\206>\013I\017\276\200gp\276?s\367\275\223\227\361=\347\274\253<\267H\263\276\371\236\274=d\213\205\275\311\306(\274\214\222\351\274\300A;>V\207\345=\315s\302\276\001\3675\275\2669\266\276\247]\331=hy\213>Na\246\276\261\262^>l~0>@N\232>1S\023\273C\257\004\276\226\203\340\274\324\264\253\274[\024I\276\261Y\357:#\177\210\275W\242\340\274^\347\331\274;\312L=B\212\360\275\213\231\275\275\373;\220\276\025\322\201\275w\356t\275\226\261\312=\027\366x>u*\277\274\2019\327\276\370H5>\255C\037\275n\023\004\275qMS<F\013$\2768\350Q>\315E+>X>\252<.,3>\031\201\307>\017\033\200\276\270\366\261>\221N\005\276\207\036\274>M\220\214\276\266\024\356\275 K\242\276\t\021\332=\364\273\224>\0335\331\275{\265\263\275Z\246\274=r\251x>\325?\363\275\365\306\376=9v<>~\321\327>i\312o;r\252\250>\352i\341\275O\333a\276\332\305\021\274R\311J>H*l\276\211\300\221>\306\334j>s\312\261</\325\271>\365\370\355=:/\235>f\342\221<\235\374\016\276@\254*=\352f\324=xT\"\276]\236\303\275\216\212\r>K\373\204\275\346u\330=t\371\337\275\332@\374=\373\233H\276\241\340q=\364\260\023>tK,>\323\304@=e\236T>\337\376\273\275f\375\350=\330~\357=\343\341\031>\235x\014>q\264\004<\264\373\312\275\007RK=~\235\232<\302\377\265=\264{\225\275\\\260\303\276\251(O<d\300z>,S\311>\343\010\260>\033v\340=R\217\022\275L\315~>\227\314\261\274IK\016=Dq\272\276\201\\\221\276\342~\364\274Pn\177>\360U\273=\211\025\033>L\355,\276\255P\235=1\362P\276b#\212\275We\234=\266/\026>\014T\243>t5\237\274\025\356\200>\367\323N\276N\221R\276\257\255\265\274\332N\221>?|\236>&\352X\276K\no\275-\003\203>\331]d\275?o\004>\263\374\203\276b\373t=I\274\333=%\212n=\237\302\030\276N\256\356\275/\312s\276\225\237g>B)\360\275\221u\217\275\370\013\033\276\273\376\216\275l\203\316\275\035U\377=\230:\367<\224\364\213\275\223\216b\276\t\332\330\275\273<\251<Ff+>\257/\025>\340\203\342\274\307\225\365=\324\235\032>\004\365\230\275\353G\031>\243\310\001=\203\353\215\276\014qt>\033\3477\276\227|\376=5\224\346=\267W=\275\371F\222\276\220\317\222\276\013\004\240\275\347T\021\276\026qI>\254\245\337\2755\362\367=\234\014\224\276\372\2558\275\355z\362=\340N\274<\"H\177\273\237i\251<i\265\324\276O\221\326=\332\001\244\2753_0\276>4\275\275\313N_>\234\267\277>\0051\014\276\022R\\>\3247B=J)\266\276G\335\334\275\274\305\320=6\3657>\013\206\300\275\021\031\241>\204\263\244\276}\031\275\276\244f\362=\032\315B<\020\310\270=\025\026\023>Z\2744\275\337l\260=\332\031\212>\320O\274=\222t\034\276\356\235\347<\320jC=\373\313<\276\372C\307=\245V@\276&\323\203\274Q\363\236=\177!\223;\377\207\202\275\272\332u=Ia\222\275\3532\372<T\027\207\276s\347v=\270\250\210>\302%j\275QLt\276\007\357\305=\324N\027\276S\350\246>\212\014i>:9$>\206O\301\275\272\325\020\276U\263`\276%\230u\276\036k\301\275E\007\314=/\327!=(\025\202\2769&\002\276Z\277\302\275\201 \001\276\260)\r=H^*\274\315\253\r=3x\243\276\357\005\316\275\307\232\317<\322\3412<\007\261\375\275\217;>\275h\356P\276(\336\207\276\261\313\024=\202\001\242>\025\247\240=\215\227\264=\241o\205>\376\370\271\276E\203Y\276\307[\312=\003\026\257\275Y\235\227=\332\354K>75\320=&\024\232\275\024m\217>\010g\233>\277\016\202>g\276;\276\220ND>\347\356\n\276\030;Z\276A!X>b\332\307\275\232\221\004\275w\344S\275\242Q\210>W$\021\276S\360\'\276\223pt\274\362\247V>\337\344>=\211\262\312=Kd\343=\177t\017>\021\262\215>\0323\257\275\350Hd\276D\214\017>d\001g\276Cy\215=\034Ql=r\031\336<\346\226\333\275\374\257\t=\"\033\037>\252\204\270\276\370\266\002=\227\253g\276(\304\031\276J\301\323\275\254s\'>\243\t\342<j#\313\274 \215k<a\370\034>z[\244\276\261\276w\276\235\372\322=/\213\031\276\035\014\256<\224&W>N\200\235\275\0250\206\276\207\356Q>\022\241D\276\325\256\000<\373\266\033<\016\332\227\276s\317\025>\367\236\023\276\265\036\262>\016\355\246>\255Pu>w\010\250\2764+%>l\267y>\023\376\020\275\361\361+>\303\251+>\352\001\362>\304\311\263>\266!\007>;\347[>K\301\205\276\273kK\275\027\206\336\2759\314 >\365\230\216=\355\3473>\2078\235\274v&\223=g\2054>\215\223\312\276\264\261_<\326\364\263\275tB,>D\245a\276\n%\021=\014\233\017\276s;$>n\227\306\273n\377\003\276\312.\346\275R\206\007\275m_z\274`\247_=\260\220\275=T\037L\276t_L\276\313\027\r>\206\371\036\276\243\3256\276\216\367\264\275\2053Z>tb\010\275GZN=5\257\353\275\312\2121\276\\\321(\276%e@=\223\373\236>b\351\231=\353A\233=\026\"\347=H:S\276e_\230=P\310j\275\237\306\302\276Y\200y\276j\237\262=\276\202\'>\303!\030\276\331\021Q\273w\213\370=X\212(\276\257\360\233\276\250\203\326=\326r\350\275\272\210\033<~\246\252\275\233\020@\276\016\n^\276\t\342\223\276T\343\017\275:\216\344\274\310\242g=\325B*>\013\260\n\275\204E\033\275\210=\366\274\365K\303=\252\250\353\275\317\014\">\021\315d\274:^\314>\320]y\273N\317\033\276PH\002>\347)r>\363y\256\276^\355\255\275\021\374\346\275sJw;9l}\276\013\\o\276\275\352B=\343e\034\276\266\t~\276\202\305U>is\250\276\201bE>NY\377=x[\213\275\255\366\034>e]\317=\311\337p>AtU>h94;t\207\340\275V\222\034\276\n\345\026>L\217\330\275\'\341\205=n6\250\275\030K\023<\247\030\323\276W\036[\275\306l\230;\360\270\302=!\367\215>\224\216:>\335\r\264>g\222\270\275\353\327!=\177\215\257\275\307R\177\276\213\226\363\275\220\263\244<\017\303#>G\353\211\276\331\027t>\007\327\247\276\247\326\027\276\300@\034=\265{\215\276f3\245\276\363\016\307=\371\t=>\344~\226\276h\347\307\276 \204\323=\267\002\372\275\337\225\177>\276\037\210\275T(\260=\373\026>\276\265\322\271\273\200\356\346:\270\030\200>\327\367\213\275\351\366\276\276X0\014\276\267+\376=]\214R<\032\3403>\240\3327=\334\324\206\275\0260\270<I\226\235\275\200\330u>\016\214e=b\262&\275u?X<>\r\245\275\277\311\217=\032\030\234>vz\242\275\021\032s\2768\242\350\275\374\217~\276\376\014\342\275\232[\202\274\245m\036\276\366\240\251=y\305\223=\332\226\236=\204\251\273>\356\377\313=\264\374\202\276\302te\276bx\214=\'J|=\236q8\276k\251!\2760V\253\275\302\230\366\275\302}\207>\255\340\243>\'\224y=\275\377z\276pH\252>9\224\307\275\031/\317\275$\261\315\275\210\303\230>\007.\256>\262L\215\276\222\001$\276n:\217=%o\247>\245\027b>\364\317i>\352\372\214>\346\005\005>K\033t>\264\017\342;\316\334M=\216\215\303>\246!*>8\361\234=:\037\216>\246\205n<\341\005\377\274G<\203>\244\024\225>ID\251>\"\333\023>\030\036>\276.\261\211>\225\022d\276\352C\003>j[\317\276/x\241=\036\335\210>\347\345\300\274S\301.\276\005\276\201=a\242\372\275}k\270>\r\205\277>\312\300:>\n\013i>\370\004^>P0\207\275\254$\003\275\200\356\266>/\251\247\276m)(>\324W\023\276e\035\222=\223I\033\275\237\347\337\275\246Q\201\2750\272Q\275I\025,=\022\261\216\2722_|=\353\323\t=X\014\304=\342\200L\276\303G\001>\306\000\027=\006Q\272=\224\2724\276OY\274=r\345\207\276\212\362\017\276\337\177Z\276\347rE\275\334\334!>\006L\234>\255E/\276\275\233t>2\325\360\274\341@\250>i\263\335=\341\342\252=\370Q}\275\037\002\032\276\367xT=\306\256\324\275\252j\301\276H\246e=cMU=\367C\254>\364\363O\273\211\231\313\275\2215\352\274\323]\256>\237\350\273\274\253\330\016>5(S>\365\022\356\275\2740h\274\'t\371\275\001\020\243>\341w\222\275&(\317=\233\333\230>\037\253\270=\344*\210=%\221\r\2767\336+\275< \243=t\030\245=A\250\207>\231\030\354\275\357\362\240\275\335$\211\276\013\324M=\33648\276\270\316\237>\002\214\201>5_\255<\030\202\240\276r!m;\000\356\355=\242%\034\274\204\204_\275\260h\227\276\025\315\310=\256\031\220>O\331\005=N\232\316\274\372\340\333\275\206\257\245\275\344\016\016\275\272\247\310:\200\217B>w\216\037>>\373\010>fx,=~c\373=|\246I>\301\351\237\276\306\247a\275\276<)\276x\303;\273U&;>\361\t%>\020\037\245=\336X\r\276hp\223>\274\360\207>\246Q\004\276\\\001k=\177\226\246\275I\331I>\234\242\031\276GUZ>\324\201K\275\341\342\332\275\020\245\312\275\273\210\006\276\274\263b\2764\231w\276-\034@\276z\365\202>I[\252\274\n\240z\2753\333\242\276\r\177\216>\375\'\215\276\0100\001=\266Ih\275\256\322G>6N\226>\\\316Q>\032<0>Dj\340=\347\263\335\275\347\020->\373\340\250>\277\316\266=\031\344\213\276\250;\014>\306\266\357\275\023\035\017\274?%\325=\202+\256\275\2137\272\2766YS>\326\246\016>\241\rc>\025\025\036>}\333\'=#\023\224\276\212dr\276y\037%\275\001\242_>\362/O\276\026uN>\271\260\221\2751P\325\275\367O&=\3605H>\003\375(>6k?\276\241\331m\275\245\3751>\256q\032\276\243\367<\276\361\217\005\276%\351\'\275\325\347A>\265\313\241=V\036x\276\357\313\232\276\036\333h>x\227D>es\020=y\360r<\236\312\216=\024\372\202=E]\032\276\256\264\376;9S\206=w8%=\303d\372\275\023\217\357\275\037q\277\275Z\2055>^\220s\273\203\274\255\275\265\230D\276\t+\373\275\027@z\276\211\351)\276\021\243r\276\365\212\017\276\37059\275\245\277\341\275\2409E>\350\254$>\264\016\220>b\026\215\275u\221\\>\232\303\001\276\342yz=\225\322J\276TiK>R\3425>\274\212\217>\331\223(=\2409}\276\304=7=\327^Q\275e\267\266=\342\234\271\276\216\201\252\276\257r\306=0\310\276\275M\311\001\276\307Q\231>\014\305\000\276\266aV\273\230\025,>\255\223\222\274\260^\022>J\342\374\275\022sZ\276\231\211\266\276.s\303\275\033<t\275\017\245\'>\233\273\364\275\350\330\330\275t\256k\276&0\312=56\334=\2747\"\276\254s\200>&\277\264<\253o\242>\254,R\276\003g \276\024\2007>\364$\241\271\310I)=\267_\270= w\214=q\303\221\275w\376\037>\242\375\273\275;\205->\274\201\324\275\326\2430\276\215\350\215=S\361\017\276\321F\007\276&;\233=M\013\027>\322\t\006\273}\230\242>`\334\001>\204V\330\274\264J$>W\335\356=\000\\\251\275\212\205\211\274\225\243\216=M\234u\276\272.y\276o\274k>\273\271o>\243\214>\276\267\373\243=k\371?\275\217\216\303<\366\204g>\255\022\361=\032\243\315=(\330\375\275\247\3620\276\375\200>>\227\254n\275\177\356W>\257\367\221>\252\370\362=F\034\035\275WR\271>\332\206\321\274\2166\023\276.\027\221>hI\211\276\242\307\004=\342S\245=\306@A>\216\341\316\275\277\351\252\275n;\002>\330%\254<\'?7\276<j\217\276\021(\317>\247|\016=4\332\001\274(\321V\276l\203\031\275\201\2737>\020\353\310>\026g >\312\306}>\240\2733\276[\320\226\275\373\270\006\276B\255\231>`@\007>\260\036\265\276\277m\311=\261h,>\343\275%>\235\334\213\276\2634V=\252O\251\276\362}\227=n\013{\275\020\326=>\341\377\341\275\006\323e\276\010\214\231\275\317\256\276\275\314\252\300>\271\337\3639x\242o\275\254\2558=\317.\020\275\222>\224\274\223[C\276I\360\225\275\373_\241\275\314\212X\275M\274\014\2768\272\351\2744QW=\016S\t\274\"\020\331;\212\"\243\275H\320\371\2751v\\\276\261n\036>\3049\023>\006\002m\2760\242\267\275\026\031\201\275|\342#>\035\017\316\275\216\345`==\205+>\320\350\220=~\342Z>\210A\032>\013\014H=,\002w\2763t\024<\214\370C>G\332n>\223\014\372=\r;\276\276\317\016{=\232\"\214\2746{l>\007\0004\276\226>\024\276w\227\221>\252\250\351=C\021\205\276o\213\251\276\322\000G\276\221\277\021\274\234\370\217\276\231\352\316\275\335\243\230=\315\234\221>{\225\276>)\274\014>\301\300\215\276\237\2654>\323\224\016\274az\006\276\003-\267\276m\362\217>\314.\020>_\003\266=\223v\354\275\352\200\244\275\223\347\301=\331\3372>oS\270\275dX\325<\375f\235\275\201i\031\276F-\235>|z\n=^\022\222=\005t9=\032\241\330=pV/=\356;\241\273\257\372\310<a\273\235\2756\031{\276B\306\310;\000\354|\272/]\302\274\375+\276\275\377!\216>3y\314<\034\352\327=\234U0\275\024\230\224\274Gu\033<\204\337\210\276\274\n\260\273 \220S\276 \370\027\276\301.(\276\371\261\213=\3663\274=a\377E\274\013\202\301\276\001\'\206\276\tpb\276@\333\232\276&\240\006>\373\301J>O\317\224\276oij>\033C\262>\\\312\356=8]G>\311\255\252=\327h\302\275\250(I=\030\\\001\276ZP\323\275K*\352>\222JM\275\033\032\263=\035\320\365\275e\204q\276\213\'u\275C\001\251\274\344\374?\276\340\016\341\275{P\016>\021\337\212\275\266\365A\276\010/\037\276\032vq>\227\200\222<r\r\231=\330\221\017>u\003\255\276\2278\205\275\246&\374=\016\262\033>h\341\357\272M\245\010=\222\334\232\276xn\220>\006\370%>\363\314+>b\247\233;%50\275S\272\336=\222\244z\276G\350\247\276\306\366\274\275\247G\206>!\351\315\27575&\276Q\267\014>\245\201`>\264~\260=\\\331\017=\216\252*=\354\316\246=\231\0205;\035\262\256<B\242\236<\242j\261>z\001\220=5\245\266<gQ(>\252&\232==\344\335=R\213_>\303G\302\276\302y\272<\236\305\323=\006g\241\275\324\246\021\2762 \226\276X\211\024\276\227\354\323\275#\356\024=\367\223u\276M6a\276\312\230\014\276\377\265\210\275\254\027\236>X\351\251>\347)7\276\257B\375\275\007\2262\276\363G\035>\217w\226\275\313U\255\276\'\350\245\273\034\026\005\276\370\322\027\276\243\232\215\275!;\373=xW\262\275\"\206\267\276n\"\342<\317|7\276\240\336\315\275\027R\030\276z\035\227>\230O\225<\014\235-\276x\301\320\274\002\324~\276\014\177\r>^\034\344\275\320\257\356\275\333\003l=x\302|\275\245\304\254\276\240\237%>\353\263\277=\360I\001\276\234\317\224>\330W\244\276\300\004R\2765\261\227\275\377,\021>\252\0141\276&4T\276\225?\017\276Y\023R=7y\266:\031d\204\276O\343\033\275|\000\300\275\335\n4>@\316\263\276\013[\034\275\216z\023>\255\027Z>\020\035\364\275\005!_>\036e\270\276u\307I>\211\335\356\275\022_\371=yr\224;\351\212\317\276\013\204\230<\253\002t>4\355s\275\263hG\276\237\243q=\312\260\274>\373\241\202>\325=\022>\300\341\013<eq \276\024\302\037>\0329\370\275}?e\275\031n\035\276\261\324\277\275\232:\266\275z\000\236\276\021g\202>\331\267\341\275\362F\243\274\343@\213=\026k\226\276 M3\274L\252\001=\030\301s>I\n$\275\366\265\277=/\3633\276y\213O\276\2540)\276\306\004!\275Q\0235>a87=\254[J\274\035\236\205\276TR\224\275\321h\265>U\332\003>\257\005\205\276\254\224\355\275\331(\206>\"\344\331=\227\024N\276\022\367\031\276\n\311r\276\034|\005>\232\361\0319zL\236\276\315\206\214\276\230],>\204\272\032>\004\345\335=\227\266s\274\n\310\306>\212t9\2760kQ>\007d%\276=E4>\033\252\224>\222\330\263\275\036\377\310\273\311&\001\276\21592\276\205\256\205>\026\033\002>\341\240\002\276?z\304=\356+\346\275Q\256\274=\372\220\242\276\362|\261\276\000\327\252;+\273\215>\006\266\257\275\037\207\312>i\215\314\275\357\315R\275\272\344q\275\3223\376=8[f\276\350kO<\'\000\016=\2028,\276\313]\002>m\360\211<\334\253m\276;\026\352\275\304d\202>\203d\031>\330^\005=\300h\252<\276\227|\274.\335\033>\002\245W\276\320~y>\201\342\375\274{z\303\275\"\225n>r7\206=W\034\023\276\023Ko>\021J\216\276\221\251\275\275\232\325]\276X%b\275N\212\237>\301\335\246>\352Le>pv\210>\364\'\223\275\230\240\340\276\322\006Q\276`\232\001\276\024-\016\276\017\005>\276\315\221\350\274^\301->\221GQ=\206\017\327=\250/N=\203\364k\276\325\250\352<j\177\005>wP\253\275\216p\221\276\241\344\303\275\361n\031\275\346\335M\276\231M\275\275\276\257\214>n\242\330=\234f\206>\370S\025<\377\257\025>l\222O\275\244FM>\177\206G\275\267\331N\276\224[\"\276\240\022x\276\245\224\222\276?\221\233\276E\335*>P[\257; \250\363\275\342\220z>\372\251\251=Y91>*P$\275\354\214\017=\221#\214<\3736,>\370=Q>\374FI>\226\351\347\275.\024\215=\333\0019\275(\363\002\275H\356\252>\242\322n\275\341\365\256=\2237[\2764\022\251\276\206\212v=4\306\177>\243\360&\276W[\210>!6[>\351\024{\276\337\371\326\274s\307~>V\320\033\276\313\242\225>\000AH\276.\202\244<\216\367\323\276\232mx\276\326:\222\275<X\036\275\332C\320>\r9\004\275p\375%>\034\200\341=\303\244x\276,\320(<(\365\315\274,N\231\275pX\024>\314~\206\276\270\336\207>\010\022\241>\344\303\017>\334\007\214<[\367\251\274\312\361!=\"\336\t>T5\254=f\007\361\275\276\225L=\306Q\301;\237\003S>\252:\016>\035\306<\276XL\032\276\000>\001>\214\333\227\275\373G\214>\032kK=\361\304\211=\034IN\276FY9>\322\332i\274\263`\353\275\337\365a\275u@\033>\223\365`\275wAt=\251:\334=\027F\022\276\232\332\262\275\261z\017>\314\004q\276T+X>\262$\272\275\353\326\220>\237-\365=/\353\"\276x\351\307<\024\177\277\276\034t\210=\325\000t\276L\3760>\215\342\004>l<\t<+\037\245\276vh\255<\255\363}>\241\037\037\276\370Y\214=F\333\230=\001\305N>3\313\344=\343>\r>\334\367\035\276\233\244\014\276b\\U\274P\363\026>\217\256U>\361\240r\275R\334F=\024|\236>\177%0>\210\354\003>\324\013\373\275\030\371\014\274\304\237\353<:;0<\212\270\235=\035F\270<\344v3\276\005\331\256>\020\342\305\272\335^\013<\337FR>\351\226\236>\232\273\276\274\353\351\254\275k7\035\276!c\261=\216v\215\276v\372\272>\253d$\276\315\277\253>\0374D=\313\010\226>\001\352\006=\361xc>l\231c>\350\216<= a\375\274\027\232.>\341fA<.!$>k*I>\260K\215=\242K\321\275\006\375\033=\367x\320=\275!\345\2745\372B>8\336\005=\355S\002\276|DA\276\277\366\246<\0020\r>\201a@=\254\237e\276\272\305\324>\246\r\274\276+Z)\276Yxr>\221\312\304<\004\236\235>\"\223_\276\352\222\245=\357\267\371=^@\275=f\224\210>:\257-=>K\353<\277\016\264\275Yr\261\275\000\247Z=\217\024?>\007AV=\315v\264=\3567\246=#jn\274\327\363D=\305\207i>\365\327\266>\272\210\034\276\344\316}<\026z\207=\265\020,=}`\241>Zvg\275\304Ik\276>\201\364=\234\313$\276:\337\330=\240\036S>^i\212\276HI\243>\217%{=\211\221\032\274\224\277\033>\361\214\222>\243\256\327;\337\366\n\276\320\r\016\276;\024I>\236\233\331=)\344!\276k~9\275=T[>\013\301\032=\214\232\360<i\371\213\275P\233\271\276!\325\222\276F\372\244>\277\224\210\276\263=\311;X\027\343\274\335\3119\273\305\037\035>6\035\212=X4}=\362\021\251<\001O\212\275\n\021\326\275\260\262^<]\314\205\273\200\016\337\275Hy\225<\256\025p\275u\337\353\275\270;@>a=\354=\360\224\226\275\245\301\372=\334qF\276\360oH>S\240\241\274\274\236W>\364\303\233>\357T\236\276\033\034)>&y{>\315\000\355\274\3674\276\276E\037\203>\022\217\214=D\217\354\273\227\212\256<\234\325\003\276\213Z\006=w\372\037>\317X$\2753\335\231\276\361\2647\276.\353I=)\2015\276/\244Z>\273\013[=9\215B<\222\237g</0\013>]\002\276>M\222\277\276]\021\364=\352\323=\276\275\377\366=\r\273\342=\360[\217\276\177h\261>\002\374\222>\010[\357\275\232n\277>`-\205\276\277I\007\275\261\365\021\275\\\321|>!\267\317=d\225\250\276B\242\250\275\"\027\211=~\320{\276\tQ\232>\221\021\240\276=z\372\274R\331F\276\247w\244>cx\007=2 \003\276\237\025a<\177O\036\276\370u#\274\007\177\206\276{d\223>)\006n\275\237\225\302=&\035\317<\276\347\033>\377\2304>\343\274\016\276\336&\361=w\306#>s\247)\276\223\2520\276o\2058\275\333\2623\276\025i\365\275z\246\021>9C\230>\237\326@>\024\242\265\275\023\211\003>\221\277\246\276\350{;=\033\036\222>\210\340\217>\236\350\352=\214&\214\275\271\322\177>\236I\206=:\032\225\276\260\353\013\276\177\360\037>\273f\027\276\306\321B\276\311\312\014=X\321\337\275\213\177\207\275_*\007\276\227\253\311<IN\214\276\262\310\301\275n\000\345\275/HA=\344\325r>\207\377\206>\003\n\030>\333\332\340=F\215\000\276\304\020\360=\356}\346\274\307p\026\276L\020\241\275\004\213\347=*4*\276\313Z\271=K\n\257=\320\261/>\243\3232\276\361%\014\276\337YP>\315\247\254\275(M\346\275\351\330B\276K\206,\276\377t\305\274\332q\031\273\203\276\'\2757\210\250:?S*\274\n\223(>#)>\276jt\220\274\376:\216\276\017\030\224\2758D]\275W\300\301=\250\332\232>\244\255-\276\r\177\244>|\3225\276W\3219=l\013\247\276\r\257i\276\335/\240\276|\025\300\276\264\027H\276\300\260\343\274\311:\344;\257\027\302\275\266\312,<xtU\276\374\205\025\276+\013\302=\203\221\202\276\3475\350\275\276\342\037\276\002\217K\273\020HT\275\363\023\034\276S\304\'>)\243\346<V\213r>\211n\372=\312Mg\275\356\375\204\276\272\222|>\276\323\014<\343\332\213>\007R~\274\337\220\216>\226*C\276$?\367=\374\372^>\000\320\032\275NG\200\275H\272.<\220\215s\276\357\355\365\274\020`\210=\347)_=\000\033\347\275\245\013\016\275Y\243\"\276-\353\324\274\320\r\230\276o\307\226\273695\276\251[\014<{\361L=s\334\314\275!J\310\275\360\354\231\275\346dj>\034\001\013= p/>\336v\320=bZ\235\275hJ=\276a\314\232>\336\031\355=\205\230d\2756zX\276\216\204\347=>\213v>}\216\n\275\202\0243>\022P\376=\031\2130\276\225\004\332\275a\215\332\275\362z\304=\332w~=I\366\225<^\271&=\226\003\177>\231)\366\275L}f\275\255h\277>\2761\204>\301\344\213\276\207\247r\2767\223\301\276\026X\322<\0271\003\274\364\024i>\237\020\333\275\252v#\276\014\t\024\275\206\334\203\275.\3540\276\21737\276\034\031\276=\376e\236\274c\0045\276Y\355\356\274\316\365U\276_\342\270\275\214,W>\324\241\265> \356\274>\007{+\275\320f\312=\\\314\007\275Q\251}\275T\314{\276\036)\215=\234\326\316\275E4\351\274e!\231<.\246\216>\t=&>\201\t\311\272V\351\212<\213\256\201>wu\017\276]\031\231\276\r\231\037=\253\203\210>\010i\265\275\000r\240=\377e\266<Kt\323=\0219\247>\220\356\320=\336\n(\276\320\323J\274o\350\276>\325G5>t\257\262=Q\341:\276\233\216\346\275Uf\001>\266\033t=\321\341\340=\254\216\312\274\367\035\364\275$\310J<\315T\027\276c\"\025\275\204m\235\274q\032\247\274J\336O\276\251\245z\276\233\335\203=\371\226\314\275B\017\250>j\352\361=2[6>\251\036\210>\341\001\226\275\317W\251>\201\333\216\274KR\340\274\332\262\200\275\030\230.\276\277\370\n>\362\205C\276K\017\237\276\215\244\261<\300\236b=z\315\204=f$E>\037\276\270>;\301\252\275I\2720\276\243E0\275\014\357\000\274\200\031\233>\322g\220\276\364\252\r\276AW\221>\225\205\306\275\347\r\"> O\274\276\240\321/=\257\377\232\276+e\225\275\031\355\024>\2279P>\344cR\276r\306y\276\237\033\"\275\014\235k>\314\223B=\006\300\332\274q\227_\276\353\003K>\334\260\">QhD>\213M\211\275\344\304\254\276\232\020b>\027\232\347\275\343\242\030>*\'\024\276\2707P\276E7\250>\246\020\020>\373\335\200=8\006\254>\273\252\327=c0S\2762\222\n\275]\002\230>\036\273\277=\207_Z>\346&\t>\nL\205\276\372N1\276q\212R=\366z(>\2341h<\003B\000\275\007\334\361\275-\377s>\023t\234>\341\001O>\320\224w>x\362M>\317\350F\276\023\325\335\272\022\2318>\2464\226\276\010\255-\276\350\230\237=\370\211\032=\221\017Y>M\375\223\276\010\327\250=\2022\024\274\2739F>\250\231{\275\256\243\021>\212K\001\276[\222)>\205\000u=\222\314,><J\272\275\203}\251>\343\215\326=\225\240\304=>\217*>L\351\027\2759\355\355=p|\201>5\020\014\274\325A\377=\356?\232>\264\006\024=?\305\020\276\004\373\007>t\224\022>jB\300;6\334:=\237\025\206=\201\267\257\275\t\323@=\223\025\212>\344\373H\275\271$\240\2752\023\201>4\023h>\356\266\232>fD\224\275&H\223>n\326\277\276\\Y/\276\014U\273>Y\306\276\275\014H\027<~\270\337\275\336%\250\276\230\244Q>\232\236W\273\346\325\025\276\327\204\200>/\346\364=\354~o=5(?=Tm\010\274\001\317X<\360\007l<4U=\276\036\030\265>\2564\305\276\2447\032\276\343\246h>\233\335\216\276\003h\037\276lj\211>Q\030\342=\245\314\030>q\340l\276\223(\263>wfG\276\333\354\003\275\312\363\231>q$\232<\262\367&>\202/\212\274z\227\246\274:5h>,\272\306=\255\206\355=\"\202\034\273\337\017(\276\316+\205\276]\032\026<\365e\303\276\267=:>\033*\260\2755\223F>#\376\253=\312\242\020>\247cb\276\225]L=\313u\237\276X\354P\2767S8>\361\245\332<q\212D\275\243\346\264=\216w\n\276\266\2276>\344\357g\275`\177]>m/\201\276\353\372-\2763\005\322=[\307\260\274\246\305\261\276x\233s\276\347B\017\276*\232\r\275\216\247\300\275\257\330\211\2768(,\275J\274u>\355g\031\276\365\366%=\212#\325\275\325\252\272>\236\003\332=/\271\241\270\240\220\230=\336\315q>B\343\357\275\261\357R=rg\201\275\035\374\211=\315k\230\275[\034\273>\305\321\003\276\306)k>\257U\234\276\337\025\237\275O`\201\275\236\210\266\276\334(z\275H; =\235\262\317=\360\365\265\276\\\034$>\201T\310=\375\002d>\326V$\2740qC\276\247\302\301=\214\364\253=\301\361k\273\217\307(>\023c\013\276\260\022\341\274\257\233\022\276HPt=\203\271\345=\200\t\177>\221\217u<R\233\333<\205\263O\276M-T=g\371\267\276\254\346=\275u\276\027\274\3355\271>\014\340\212>\255\010\030\275\t#K=\260|\212\276\306\355\367=\231\262:=\230Z\352=}\276|=\226\2571>\372\t\246\276\256YG\275\277\333\224>h\234\002<\023\370\217=\301\262\251\276\262\\\345<\261\265\273=G\201\233>i\003\233=\242YC\276m\347\224\276[;&>\200\352L\276\034\265\220\275\031K\307=\325\264\220>\203W\263\275\371\315\r>\320\t3=\037r\227>bk\341<\030\356\204\276\317\267V\275\333\014O=l1\346=\241\247\203>\271\342m\276\222pF>,\206q\276\242E*\276\2025Z\276\314\255\345=\352\\>\276\220\014\302\275\363\332Q>\340x\r>\305\351_\276(\352\211>:\253\340=\231\351\212>\'Uf>2\323\030=(c$\276\366\365\001\276\344\024\241=Y\324R>\370\n%\275\003\254\307=\025S\223>K\266\233\2753\030>>\'\"<\276\261Z\202\275\004\372\n\275\335\354a>\333\247\233>Yp \276det\274\2729\025>R\t\276\275\'\027\245\276{\256S\276\261n\227\276\362\016\272\275\277\276\254=\246\335c\276\372V+\276j\222h\274]^\t>h\256\377\275\255\3113>\024!\210\276sc\037\276@#\257=\335\031\203;~\031%\276/s\212=9\022\036\276\276\214\265\276q^\260\276\261\035\246\276\000\241x>\237\253\376\275\365\311\214>\313\3629\276\300\n\304=JgN\276\204\345\262>\241\020)\275\277\327\257=Jq\'\276~\t9\276;\214\000=\234\024c\276\254\301\010\275\022\034\267>\232\303\227\275\004\254\266>\304\375\242>\247\225R>\320\007\037\276\261j3=\213A\246\276\326?&\275)T\222>;\320%\275\342<E>\240\224\030\276$\333t\274\t6\247>\001A\230\276P\324\270>\342 ]\276LK6=\376\313\232<\1775?\276\364!\205\276^|\001>\357p\267\276WMo\276\n\030\275\274\220\'->p\314\377\274\242\215\037\276_!\344\275I\310X=\2406\013=6\336Q>\232\331\t=\225E\206<\034)h>I\367R\275\374\242\253\275\0303\020\276O\216\343\274\007\3200=M>\222\275\36095>\006so>\254\3027=@\352]\276\024&\267\276\234\026\363=\002l\022=sz\333\2752m\322=\255\356\024\276d\"r\276\034\272\357=v\340<>\333$\220\276l\022\343\275j\336$\273c3\232\275E\353\226>\271F\013>\3633\322\275\337$\206\275Bp\326=|\265\236\276\214\'\327\274\334\245\020\276&\256\243\276f\214\374=\203\273#\276#i}\276%\363L=\212\030\347\272\245t\254>\230\322\363=fZ\241>\2040\244\276\302\377\332<\366\225g\273$F\037>\324\0175\276)Yd=\353\306\265\275\234\027S\276G\2720\276\271\221R\276CR\220<O\230\333=Ab\022>kg+\275M\016U<{\010\">[Ih>\307\025\226=\rZ\n>m\377\250<\360\'\342=\353U\243>\365\203j>\226=h\276I\r-\276\353~\236\276\247\\\024\276gSy=\223\301\010\276\227a(>\276\3367\271<\270(\276\213\276\201\2751\234\003\275\213sD\276W\206\263;6\030K>\217\215\233\275\311\361\332\275\246\354\231\275\270{f\276\326\262\353\273@+j>\'\336\232\276\267\301\227\276C\010\250\274.\021\253>\357\236\212>\274\366\037\276\204F\324>\027\342\341\275\232bW=\216\325\341\273\037\020\326=+Y\264=L\312\225\275$\371\250>\033yD\275\211\013\320=\010lz>\206<0\276d\3772\276\345f\256\275\236L\027\276\244\2212>\364)\267>d\301\313\275\275X\221=\363\235\212\276\333\266a\276;A\377\275KJ\277<*\274\007\276\363<t>-\006\216\276\216/\022>\343#\217>\356$5\276=\361\226=NS\210\275\347gv\276\017\023%\276!*\216>\026t\353<\016\254\303\273\\\017\306=\374\231\327\273\1772\364<!\010\277\276\366\355\377=\274\022\222>*\031H\275\377\243;;U\306\\>K\022\265\273\025\324W=\300ux>9\365\266=g\362\373=(EO=\350\332\365=U\264\201>Axn>R\'\210\275\360Iy\276\322\250\350;\341\333\302\274\274ol\276\224#$=\274\275\230\276=f\251=m\357N\276\372\314v>=\352\'\276\224\201\205\276\367\363Z>E\275\274\276. \340\275d\270\311;\236\367K<iC\337;\277R@\276\235\211\230>%\300f>\233\004\221:N\006A>\032D\222=\224\307d=\342 \247\276\037\354\223\274z\203+>\017\2018>H\277\257>\307\010%=S\025Y=\341\355}\276\374:\220<\334\361f<\177a\274>\210\305\023\276V\227C\276\211\373\262\274\220\344\241\275\002\247\245\274&<\231\275J\322:\276\360\340=\275\327J$>\371\2033;\236\3530>o\263\005>\220P\243\276\003F\236>\002J_=\375$,=\004N\036\276\200Mq\276\343\270\301=\244\255:>\374h\026=\261;\036=.\317\322\274\315\310>\276\367\036\244>\256&\265=\245\275\205\276\234T@>v8\010\274.\365\234=\205\022\200\276\010\323\231=\014\354\250=\377\020\034>B\261;=6\330\352=_D\316=A\006d=\002A\250<\r\344i\275\310\267{\276\361\023S\2750\325\376\273\217c\203\275\216\233\224>k\003m\276\035\026\232\276`\333\030>\033\251.>\330^\023<\240\rq\275\343L];\337S\032\276\365\3677\275\243`U\275i[;>\226\006+\276K\0012\276h^L>\352\025\023\275\367\264o\272\016\333G\275S\314\002>\324\027\234>\273\006\257\276\227:)\276A\370\">\373h@=\320\223\r>\2672\003>\215\010\016>\331\000K>\350\255\202\275\320\320\217\276i\201\177>T\301\321\275\267\311\006\276t\376\277>\246\023\213\276\230\260\260\275q|\025\275\342\234\025\276s\256\010\276C\205\222>\351o\217\276DU\343=\372\310k<\247\222A\276\275\242p<\200\233\300\275/`L=\330\261\313<\003\366\251>\022\010\235\276\024\t\277=A\304/>\005\315k:\345A\244<%3*>\030O\332\273-\243\\\276Fj\204\276\033?8=|\324T\273}v1\275\3328\252>\345\204s\276\371.n\275\306\267\371\275\352\355@\275\024+\223={\234\367\275l\332\032=^\366I=\277\022\267\276\032\325\023\276\353[:<\245w\275\275\"\2663\274[\251I>>$\304\276\342\036\300=\313f\215\276\237d\356=X\320\340\275\256\346\256>\323\206P\276\371\021\024>\177s\334\275\n\210\370;\206\353s\274\361Ln>\rG\214>W\223\205>4$\017>q\366I>J\364\001>&\314\370\275\233\264\206>\376\271\002\276\2255\007\276\233\245\374=\263k\002\274\364\337\026\276R\243\014\275\207\220\r\276\270\2066\275H\352\022=\311;\t\2764s\023=\201\201`\276!\243\205\276\002:1>\010G\212\267f\022\264\276\306\355\023\276b\373\025>\243\234F=\371~\216=\226\311\377\275\242\211k>\275F\262\276rT\023>>\246\277;v7\254\272\223\236\232>8\237\214\275\032\224>>\275\365\213>\365\023(<\270W\256\275\324\3604>Rc\234\276\037\240\236\275\221\273\277\275\212\323\265\276\262\301w\276\237BJ\276\321\231~>\306YJ=\202*\021\276\264m<=\323\204\246=H0|>\236 \347\274[\200 \275\312\340\241\276H\261\266\274io!=\025N$\275(\010\n>\266\211.=\235\344\035\275\205\314F<\224B\023>;n\247\2768nS\275w\260\257\274\177L!>&\214^\276\2602H\276\310(\215\276\330\313\266=\013\377s\276\022\227\273\276\247\301\206;`9\030>\232/M\276\337\253?=@\226\320<\216\275\265\276 h\022\2762\267\347=WH\225=-S\344=]DH\276\023\274I><\003\270=\347\253\224=\256\376\020\275\005V\226\276\204\332$\274\363\021\303>ob\345<\'7\035=Up\262=y~\026\274pK\271>\002\024g>\213\207\367\275\324^S>\230\260&\276\373\211\307>\354J\334\275YN\256\273x\t\316=\300\204\323=\3665\341<\247b\327\274;\242y=\352\212\274\274\361\277A=\025\016<\276\215/4<\350\221\244>\303]8>y\231\257=4\252\255=\355\320\270=\035\261\211\276\317\020\026>\030\373\036>\016\227\004\276\201\321\r\276@\373p=\336 \006>\352\343\206>\tM\n\276}\265i>\313\024/=\016\333\305\2757\001\341=\262\024\336=\337\242i>\206[/>\026\213Z>n\275\023\2767\315\204\275>WH>\246\2351\276\355\205\213<O\251\007\275\214\362\227\275,b.>\005x\272\276`1I\274\254\2720\276\3318K\275\322_\224\276?\001\230>)\347\244\276\370\r\004\275\360Q\272<@M\034\275@\267S\276\372\207\201>=\356\304\273\0178\374\275\343\304\253\2756\354\r>\253o\235\276\244j6>~\276Z>\247\237f\274\004\323\231\275\224c\253=w\001\264>\273\032\304>\351\014\253>\366\313\336\275;\032\222>\362\037\371=\360,\365=_\271\322\275R\223\311\276\274\016\277\275{\346\026=\267\251\253\276\327\027\235=\305\214\251\275\270M\267\275,~\253=\341\300\212\273N\023p\276i\003\032\276/\371\215\276\026Z\013=w\n\245=\301\274\003>\235\000\220\276\266r\203=4{5>\312\320u\276\234\351\264>\340\200\207\275y*\230>\330\372N\275U\315i=\273\301\274=\343\374\014=\306y;\276\035=\212\276w7!>\030\236M=\275h\373\275dy\255>\332\tz>.O\261\274 3P>\270\336U\276\275\345\271\275"
      }
    }
  }
}
node {
  name: "dense_1/bias"
  op: "Const"
  attr {
    key: "dtype"
    value {
      type: DT_FLOAT
    }
  }
  attr {
    key: "value"
    value {
      tensor {
        dtype: DT_FLOAT
        tensor_shape {
          dim {
            size: 64
          }
        }
        tensor_content: "\261\377j<A\277G<T:L\273 \275{<\225\260\225\272\360\010I\274\271\257t<C)W<\222\276/9\323\'\215<}ku<\242\237K\274\352\237j\274\310\034\210\274\202\201\210\274\353\002w\274^\270d\274q2\215<%\333]\274\224\212x\274\177EV<\204}\321<\232\270C\274\244\242\343:\315\371v<\240i\202<\r\370\205\274\r\006o\274\241r\216<\363\270`\274]\346\206:\225j\205<`\014b\274w\334\263=I\303f\274\372\262\203\274k\375m\274\372\215\205\274\n\360\243\273W\266q\274\266\364\r<\034C\270\274\201Zv\274\272%\243<Iqp<s\306\014<\036\004\203<\2739f\274t\020d<\335ws<\"Q\020\274\326\2477\274\206t\200\2749.`\274\214\320\214<\317\275A=6\222#\274\005\340>\274\370\023\202\274j#\205\274\036\267><]\341t<v|D<\216\250m\274"
      }
    }
  }
}
node {
  name: "dense_1/MatMul/ReadVariableOp"
  op: "Identity"
  input: "dense_1/kernel"
  attr {
    key: "T"
    value {
      type: DT_FLOAT
    }
  }
}
node {
  name: "dense_1/MatMul"
  op: "MatMul"
  input: "dense/Tanh"
  input: "dense_1/MatMul/ReadVariableOp"
  attr {
    key: "T"
    value {
      type: DT_FLOAT
    }
  }
  attr {
    key: "transpose_a"
    value {
      b: false
    }
  }
  attr {
    key: "transpose_b"
    value {
      b: false
    }
  }
}
node {
  name: "dense_1/BiasAdd/ReadVariableOp"
  op: "Identity"
  input: "dense_1/bias"
  attr {
    key: "T"
    value {
      type: DT_FLOAT
    }
  }
}
node {
  name: "dense_1/BiasAdd"
  op: "BiasAdd"
  input: "dense_1/MatMul"
  input: "dense_1/BiasAdd/ReadVariableOp"
  attr {
    key: "T"
    value {
      type: DT_FLOAT
    }
  }
  attr {
    key: "data_format"
    value {
      s: "NHWC"
    }
  }
}
node {
  name: "dense_1/Relu"
  op: "Relu"
  input: "dense_1/BiasAdd"
  attr {
    key: "T"
    value {
      type: DT_FLOAT
    }
  }
}
node {
  name: "dense_2/kernel"
  op: "Const"
  attr {
    key: "dtype"
    value {
      type: DT_FLOAT
    }
  }
  attr {
    key: "value"
    value {
      tensor {
        dtype: DT_FLOAT
        tensor_shape {
          dim {
            size: 64
          }
          dim {
            size: 64
          }
        }
        tensor_content: "\254p\222\275Z\342\223\276\"\2767\274X3\371\275\272z\256\276\370\261\237\276\252\235\235\275\177\365\237\276F\213\037>\372\375\222\2753\301\216>GHF\275\203\372\023\276\"\355\214=&*\356\275\212\316?\274\341\371\303=`\303\214>b\230>\276\212\353p>\267\363\270=\005\377\367=\025\002\231>\3674\266>1t <\035\025K=\200\002\t\276\356\342\313=\206\035\350\275\035]\355<\330\010\201>\374\014\213>\253\353\030\276\250\356w\276\003\214\213=\177\337\365\274\324\200\236=\371,\277\275r\007\203=\025:\232\276\037\302+=\360`J\275b\337\026\2763\277\001\276G \000>\3220\324\275\001\245\227<\006\337+>v\346$>\346f+\276Kk\332<\304\330\263\276\257\022\207>G@8>\006\366\307\275\204\212\010>^\336\006>0\361\n>\267}\210\276\273\273\020\276-\256\275;\250S\007\276\233\270\032>!\346\364=\243a\205=\r\tS\276\007\304\225>m\301L>\010\244\314\276Z\n<\275h\217O=\234\317(\276b<7>\240]Q\276o\314;>iT\036\276\315t.\275O\371F>vo\215\276\275t\214>\013k\240=\312w\221=P\267\341\275y\262W\276k\256\375=\035\013\200>\364\364\277<\264\356\013=6/p\275\036\3120>3\375Q\276D\232E\275Y~\350=0\354\016>\265\027\'\276\\U\257\276c\036\320;Vd\303\276\255X\\>\036\030\211>\370\362\250\276\247\'\311=\245\244\326=\334\321\302=\246~\031\275\240\312\026\275\366\255T<t\241\235\275-\217\241>xLB>\321aF\275N>r=a$\264>f7\016>\324\277Y\276\241\017I><\212!>\340\223\311\275\254\021Z>\335\001[>\262z\227>\252\244\\>\340\220\277\274\017h|\276\022\304\033;\342\000<\276\006\227\202>\317:8=\327\331\201>\336\327L<O\177\202=%\335\312=\374\023\303=B@\233>\335KN\276\347\252d\276\371Q\256\276\342\225\"\2761\236\200=\333le<\361\306x\275CfJ=\225P\302\276e;\242\276\2670b=s\217\004>\0322\325=\375\262\233\276\317\214t>R\253.\276\371g\312\275\2371L=\277\2645\2765\020\271\275R\016=>\372b\365=Sj\205\275\257\257P>\340q\000>\303mJ\276\2746\023\276b\334\202\274\321\363=\276Z\226\326=\262a\371=y\200/\276\336\346\353\275\034\211\025\276\003j\227\276\000\0361>\223Q\361=C\020\000>6\361\202\276\251\016\246\2731\352\t\276\206\363!\272\375\354\334=U,\306\275t\377\325<\020XO>\333\263\213\2755\366?>\310\006\236\276e\226\177=W\362\215<s\270\253>i\'\250\275\314b\016\276\254\241P\276\256\3214>|\216\251\276\235\371\211>\"p\257\275\337]?\276\321\242\304=\3141N>\365\030\010>\362\0366>\265\346\375\2758$Y>)\361\271>\020\273\351\275\205\025\255\276\247\365\241>\233;\204\276\230\260q\275\276\236)\276@fw>}\321\022\276\331V\255>\006@\027>#\t\300\276\221\242\247\276;\310*>G\336\027\276m8\'>\036\004W\274\330\355\277\275\3174\260=\275\207\035>\021\233\032=1Z\263>\331I\"\276\345V\217\276R\362\225=\200\257\251=\337\365\273\276)>\224=k\375\312>\200\2001\276\267\377\304\274\303z\377=D\366\003>\213\327\215\276\224\321#\276~\272\016\276\361\037\250\275f\234W>s\220\005=+xK>\026\337\037\276[[\277<\376\241j\273?\220\314\276\307q)<\"Fr\276\235\262\244\275)\270\300\274\027\340i=`\202\020\274W4\024\276\336)^\2747\364_\276\362\200\314\275\032\t\230>\277\353\353=9\346;\274}A\266: KP\276\006\013Y\276\215\226Y\276\356/|\276\313\254N=~12\276\312O\004>\216&$\275\023]\217>\327}\274\274}r\357;\003.w=\037\3008>\013}\233=v\360)>\310\202h\274\204d\255>\036\375\262\276\351:\233\276\250\340[\276\031~.=I\233\367=\027&z\275\332\023@>?\252A\2761\370q\274\033\332\273>.\236\353\275\007\355\376\274\351\037*>\237sX>l\032\233\273\357D\203\276\373\2656\276X\335\033>\214B\310=\365\213j\276;]\340==\000\275>\342\324\217\2767p\322\276\300\037J>&\2711\276\352\024o=\211\265\005\276\202\316\364=\240\240\272\274F\261\234>\200w\247=r\365r>\303\007/\275\250\371\227\275\315\225#=\353\254 \2764T\363;\231\016H\274\314\252G\274\355\'\202>d\371\257=\262\305\261\276mO\202<>\177\005\2763\3652\276X#\217>\2633Z\275\246\t\263\275\013\267\333=!\246b>\rC\266>\206\311Q>\245\033\017\276\036\017i\275\274\030\355\275\211\252Q= \317 =\"J\303=H&X>\312\335\035\275\365x\210>i?\016>\376\033\263>\300\346\223\276y[\305\276S\213\355\275\260\207Y\276\253\350\234\276\304\245\206>\214\372m<\276\343\237\276M8\273=\322\316\214\273\271\201\002>\216q\311\276\325rZ\276\216)^\276C\375\237>\333\014C\276\217\227/<H\324D>o+\215\276\204m$\276a\230\215=\323\007\211>\315\340\240\275\354=D\276\3146\324\276CL\275\275j\225u>\307\"\263\273\016\004\257\275$h\262\275\323\t>>\325\034P\275\3428L\2765\243d>j\305\035>\005\001]\276L$;>\220w\206\2764x\004\276\273s|\274\031\320\034\274\3108\215\276\200\325\203\2758N\275>\343\330\031>X\377\\\275\025+G>Y\307`\276\376?\200>&6C\276/n\270\276\301\327\237>t\275\220>{\361\255\276\rw>>\013\023\026\276\\\030\245>a\272\357=\206sm\275u\031.>\020\316\232=#6n\275\224\201\350\275}\013\246\275\356\361\024>\264\221`=\250\036\201>A\262W>4d\257\274\342N\243=\312\246]>^\372\251>+D,>\273p\005>\235\246\247\276\370\3411>\"{\324=\322\313\262<\353(\376=Z\261\253>\270\306\277>U\272\027\274\232\324\330;@8_\274\343j8\276\373\037\"\276\361C\201>\304I\243=\323\265\220\276\222\214\326>\3471D>?\277a>s\234\234>\350G@=\303E\275\275\2706\307\274 *\010\276\275\246\247\276\206\210\205>s{M=\233T\207\275\333\267\212>1d\376<h \002\275L\274\227=\307\026\320=\002^\221>T\251Q\276\021F\242>\3714\320;\321\234V\274\325\334\371=h\250x>\301n\033>O\270:\276\331\026\031\276w(x>y\010\t>\201\354\003\276\334\006\032\276\265mI>\014\212\335\275$\336I;j\340\270\274\317\371\202>\236;\r>\334\036\n=\177\346\005\276A\335\241\276?D\001>\246Y\302\275\001\350\223\276\223\221\207>\326\371\252>7\3568\276\373\264\315\276\342\321\314<z\301V=\222a\033\276@\0273\276\003d\032\276\005I\030=G\300\022=n\220O=W\362\263=8K\362=\375\'\360\274\\\377\252=\177h\212\276Dc\250=f\031E\276h(;>\235^\234>\324\207[\276\367\222\342\275<\245\305\275J<\305\274\364;\205\276\363\312\221\276u\322\202\276\307Sm\274\370\354e=\247\207\340=\333\324{\2756Rt\276\2156\215=\323O\004\275\304\247\240\275Y\025\301>\226K!\276\226~\314\2750\362\027>\221PK>\304\242\254=<\274k=J#2\276\177\326\226\276\214\362\"\276-\277&\276/>[\275\023\375\304\276,\250\267<\204#\341<\354\201\256;\314\'\236\275\035\373L\274\254])\276\020\322\251>\235\rZ>\320\032D\275\201\211\356=Q\t\025\276\232\256\224\274K\"\304\276\235\r\301=\344\023\204>\340\005\243>\216y\342\275\213\335\204=\262T@>\273\0214>\216\010N=\203\224K>\002Kx=\325\233O>\320\246N;\320\240\241=\235\3670\276\033i\024\276\267\364\234>\010W\271\275\036\204w\275\305\010c<\243,\030=T`R> \260F=H%\232\275\206\314\305>\360\346-\276\302Q(\276<9\224>\344\025\237\276\303@:\275\371\267\n>\025@d\276\335\347H\276\0062X=\341h\230\276&R\213=g\264\n\276\240\225\000>\r7h>/\225\230\275u\274,\276\022\244\313\275\0324\t\2761\036\321>Z\013\256\276`8\310>\361\244M\276\353\270\224\276\217xB\276\371\202\203>\001\347\353=M\202t>\036\262\202=M\352r>}\261\331\275[7\017>\2109[\276\r\2520>J^\017\276\245\204\215\275\206%\013=\221k\262\275=\363\340<>K\276\275\2726\356\275U\346\237\275\372\344C>E\330\313\274\262\\{\276[\350n\275\244h\260=\001\315\'\275\234\000u\276\027\">\276&j4>EK\355;\334fQ\276A\024~<\260m\226>\210\021\273\276H\020\205\276Rj\207\276\345\323\036>O\026\300=n\361\331\275\234\005\256\2736\224y=\332\354X>\020\372\226\276\354\327\262=\253<B\276\003\243\207\276\'\242\215>v\347=>F4,>\223\354\340=$\241\231>xp\241>\204\257m\276\033\254\001>\240\252<> \326\014=\222\372u\272q\323\004\274\270\234/\275\350\277->\002\311\204>\277\211\350=\246\3167=\\ \"\276\361\177\243\274\336\313I>\256\331;\276\301\256\205\275\270\317u\275\276h\325\275\373\342S=\303\335l>^\327\n\275\230\354\204>\370\204\252\275\276\270U=^\266n>\"\237\225=\370Q\336\275q\357\306>&i\014\275\035\233\t>\213\026)\276;i\302>\377\273\337=(\022E>\211\362*\275\3762\030\276\363\335U>\340=\257\276\375\035\322\275\365\251\017\274\223\205\375=n\006\360=\004\021j=>\201\215=d\"Y\276\027\\\320\275o\227\240\276\004\312\206=Zy\352>Q\244[\276A\177!>\304\221\t\276_\353N=\357,}\275\243\220\211>\311\345W>!3\350=\213\014>>\233=\267\276\020\250\366<\337\312\275\276%\032\330=\2711\220\273C\257\306=L\350\277\276n\354\215\276d\234F=\\\224r\276\224%\305=\257}\270\274o\3772>n!\215=#\001\007=\377m \274=\277\274>\237\301\352<\321\310)\276\364I\244>(\022s\275M\n4>\210\366?>\362\017\304=\326\031\200=k\316?>44\037>\373:b=\350\324\251\275M)\246\276x\344\n>U\215^\276\270\374*\276\261\311\002\276\351\233\000>\0102\337=\211\004\243<\236\014I>]b\323\275\323\254a\275\030n\235<kO\274>\003\217\241=\035\311\000=2?\233\272\215k;>\010\373<\275\016\314\274\273D\361\366\275\246\242\236=s)<\276g\254\030>\336\205\035>\255L\233>\350\003\256>P\231\236\276\332\261\234\275@1q\276\217\272\257>\351\353k>\022\365\236=\2575H\275\223q\001>V\273\304=\270\245\005>MpV=}w\311\275=;b\276\314\353\310=3;M\276\315\376\274>\305\2112>d<\027\276\027\210\212>\221\326\220>\252\237Q\275\365\033\250>\032\312{>}\022\301\2763\272J\276\303\374\032<\254\271\275\276\253\035j>d\027\251>\346\315\243\276T\3262\275]\217)<\302n\203\276OGy>]\332\326\275\304%g<\026d<>?G@=\342N\032\276\326-\313\276.4p>\241\224\271>\345Q#=\245\343F=\336\204\265<\026\240w>\222I\355\275\356\207\364;\315\234\002>qR=>\227\340E\275\261\001\347\272V\372\304\276\244\307\033>\227gx\275\313\273\261:\206d\244=\022w\247\276F\343_\276\314\224\206>\376\202^\275\353*==\304\331\374\275\370U\020>H0\301\275H\276\372;x`N\276QF\340=\203\230\t\275\305\316\204>\020o\200\276\354\324\305> \376y>\202\223\277=\207s\315<\210`\265\275\204n\311=\230\014\202\276\261hC\275\335\261\214\275\257\207\017\275\3230\004>\014I\374<\014\211\364=\303j\304\275Pi&=\036\333{>\302\361J\276\014]R>\347\243\230>\300\340o\276\t$\241>Qj\200\276&\316\026=\223\367\001>\024%\312\275\010\366\246<\036)\030<D\201#=N\t\010>F\201\254>\242\2457\276\031\3144<j\325\311=e\354\265\275\242\233\013\275\022\243z\276J\253\276\275\265B\020<D\223\212>\242\2123\2767Q\301\276\265]\177>0<%\276\031&<>7B\345\275\250\260k>Oq\206\275|\316k\276\032\234\230<c\215\220\275\245\036\213=q\360d\276\315\337\363=\2306,=\252\013C\276nH.=5a\021>+\243\262=\035iN=\351\247\246\276C\247W\276M\2720\275\234\215:\275\301\257\210\276g\037\203\276D\001\337\275\357\240}\275P\264\351\274\354\274\304>\372\355\325\275\263\322}=\317Eg>\364\001\225>/R\270=bj\350\274\230F\366=\303%\322<\032F\n>\366\344\036>\023V\217\276\363\330\250<9\310\266\276D]\026>Z\0043\276\370\322\230\276\355\253`\276\270\354\222\276\274\232\304>r\033\003>\373R\'> \304\\\275-\356T\276\212\356[>\257~~\274\346\2039=1\311\"=\363\332\275\275\352\351\227\276\\u\315\275\331W\004>d\036\375\275S\264\264>\375\370\251\276vdF\2761\2758>0\375\262\275\004\332\205=9aQ\276\000\327\231=\277\221\271=%\215|\276\274\325O=\256H\274=\3471V\276\241u\223:\004\371#\276Z\252\207\276m\233o\276\356\253\222=g.\265\275\226\0147\276K\317\337<\2658\374<_\335\375\275I<_>k\355\205>\035\231\025>\365\005\241\276\377K\222<\357K\031\276\341\201>>X\262@>\3061\r>U\302t>V\177\226=\263\003F=d< \276\262*2\275\313\202\004=\201\336\347<\217\306\300\271\204Q!\274\374\006T>\177\031\274\275(\357\033>MY\344\271I,\346\275_\266\014=\260\272\326>\211\322\006<\324KG>A\252\245>b\344a=\212l\235\275\234zt\276\031\306.\275\217\036R>.\263w\275\306\302\312\275\016\233\024\276\323\016\215>C\0149=\214\203\210\276\313\377m\276q\273>\276\027\334o\275j\333T=\306\221\317\275\314Z\002=\254y\204\276X\014?\276\213\300\250\275H)\267\274m\251\227\275e5\306\274\037|\032=!7\013\276\326\227\227:\027A5\276\027C\023\276>\013I\276%\214b\273\261M\177=LDk>9\255\244<:`\007\276H0\300=\243\2020>\002\017\275>w\376\321\275\264\322\007\275j\273\233\275\'\022\014>\301\361\272\276\351\224\274\275\252\234*:\005\rt\275\200\265\226\276\017nX\276\352\270\215=\216}\031>\276\213\227\274\330\216\221<\341\2030>\363H>\276x\372L>\245\256\207\276d\2504>*\204\245>\215\217\000\276\022\205\303>X\263\317=X\000o=\3544f=!I\'>8\312\234>2v8<c\246\017>i\216g>V\304e\275P\301\206\276i\361\025>v\327\200\271\223zJ\275\001l\201>U\260\202=Tk\203\276\332\203\303\276\371%\006\276\2009 >\221\226\304\276\230u\251>\301\365!=\217I\265;\234c3\276\325\255\250>\375\204\332\274&\362\342=<\'\234=\257q\264=t\377\236\275\204\0041\2751\200\365=\366\240z>\311r\302\275\226\277\375\275\000\211\201=\246\347$\275&+\266\276\375\342\025>\311)n>6\324\236>*\306\217\276\265/\377\275\272\234\024\276\256I8\276\025\330\035\275\347\243\211>\030d\317\275b\233\201>\322\235\000\276\004\241m>\037\336\317\275\2102\216\275Q\3325\276\230\363(>]m\215=\247y\255\275E\336A=\016k\245\274Zdh=L(c\275\021X\365=\000\\\005=>v\270=\023\036~\2754!\034>]\306\221>,\231{\276D+\014>bv\223\275\031\030\002<\230\022\206\275]\337\264\275O\255\335\274\334u\030=\247\t}>i\243\\\275A\007\214\276\266ut=\312y\211<X\202\200>uDO<\231\334\253<\267[\261<?pK>\315\3176=\306\361\013\275\032\000\274>\215\263\204\2752U\036\275\374\371\301\275\265#\364\275\243\275\231\276T\240\241\276\\\004 \275r\365\002>\215\247\017\276rpM=\376\024\275<\232r\036=*\023:<[d\267\274\304\275X\276\000\177\221\275\260\"\232><~\362\274.\344\314=\270\344)>(\202W>\342u->\312\254\344\275\"\350\314=\021\236\n\2763\265\203\2759\205\001>\366\364\371<\024+o>T.\276\271\377\263\317\274\334\177\266=)\352\357=T\263\222=\020&\001=\337U\204\276\014\333a\276\\\363\313=w\004\237=\214\344|=\177H?\276sq\203>\371\034\353\275\277\312\251<*\317@\2763$\372<\240\'\322\275\332r\014>*5A\276\027\343\210\2767\320\365\274\242x+\276\364\331\237\276\236\005\235>X8\021\276\247\002\215:\306\302\314=y5\234\275\213\236\003\276\027+\344\275\363\363K\276@\264\225\275\221\230;>?\2132<D\305,>6\027Z>q\232\273\274\201z\263<`\310%=c\253\t\273\336(\204>P\306\274=\247\252\037\275\256\312E\275\223\3734\276\2472\"\276\002ez\276m\024\010<\2537M\276_\004f\275\030J(>\301%\025\276C\356\330\274\027KR\276`\253\275\2766s\352\275\216\236\366=*\007f\276\016\361\250\275\240\337K\276\300\377\t>\002h4\276\023\1773\276\316\203\023>c3\354\273\177\313\271>`\241\345=\355~\002\2761\234\224\275\335\2255>\217\321\225\275?V\261\275^\204S\274b\303*>N\376\217\276)P\\>\363\'\343\274\004\324\310\275\202\2627>\027\322#\275\276\232\270\273\255\240\232\274\2444\036>\344\316\227>\341\371->\305\214\274=\363\225\266\276d,\244\276\361\364\214>\314\3241\276\376.\201>\301\367\031\276\032{\274\276\230s\260>\254oI>\035\256T>\353\213G>\210Z\257=\221\271\262>\235*\361;\230\264\023\276\r\335\275\276\365%\261\273\201\246\337\275\036\363\303>\030\364\201\275\315\321\n<5\247T\276\364\272?\276y\221\232\276\307\266\257\274K\346u\275\264\251\316=A\227A\276\316\235R>\016\357d>\263c\301\274\260\317\t\275c|O>X\261\304>4m[\276v\234\362\274ti\\>\232\371+>\303\335x>\323\2306=.z)\275\'\332\004>\325\3748=\370g)>\226e\020>\332Xy=\270\2228\276l\027\217\276\241G\352\275dP\375\275\357\225\366\275\217j\204\275\020C\215=F\212:\276\023wT\275\273\212\357\272.\241\260>j_S\275\205/O\276\263\334\240\276\277**>\3525\222>\254\034\233>\231^\025\274\301\332(\276y\366\306<\220\273\273\276\276\302U>\276\006\254>\301\036\232\275\312\tu\276\002\002\037\275ad\217>1\355$>g\355\n>K\375\016\275\2614\006>\221%\241\275\220\260\035\276\351\021\206;\241\227\257\276P0\225\275\336\330b=P.e>\312\330#\276\271\034e=\241q\n>\273\212\305>~\372\032>|\334\021\276\240(\217\274\345\323w\276\272\002\223\276\242\001Y\276\306\345 >\002s\037=\3207\353:\035\313w\276/SD>S\016/\275\032sU>\301\264\234\276o$R\275\376\332\266\275b?x\275\272\220\341\274\021z\311<\342\220\254\276\003\202\002=\362/\346\275\022\372\233>zu\254<1\234\222\276\223\315b>N\2677\276\347\221\271\276\271\010A\276v\351I\276\367v\256<\343\374\037>\275T\016>|4\000>6\'y>O\271\232\276O\272]>\005\203F\276zr\217>(|\003>\213\341p<\370\212\201>\254\311I>\272^\002>\323o~<\2077\217>\211\207\034\276!\317\215\274\325\221-\276<\366\324\275\nQ\016>\372\216\230>\252\205\245>\202\225,>\020\267\007>\272\226\337\275\315\367\204\276]R\330\274\356+\206>\0278\224\276\271\001d\276\n$\263\275\311\356I=gN\210=\330t\365\275\217\267\262\273\264\302`>\340\236\225>z\t\371\275\376\344\362\271\212M\331\275\030d\177\275w\004\221\275\032\267\\>3\214\216\275T\211:\276\273\321\222>\374T\204\276\205\177)\271h\246\024\274\334\275\207>\327\234[\275\323u\"\275i\366\257\276\313\"<>\202M\261\276\021\004\276<\005n\204\275sY\200\276\276\252\265>\362\340\024=\336\213<>%\221\350\275\ty\241\275\247=\210>RS\007\275?\002\">Hn$\276\366\036\027>\007\331\324=i\035\335=\260Fm>\266V\032>s~\200>2\264\206\276\341\375\244\274\310\315]>\222\203\035\276\200\366\005;\317\373}\275*R\347=\214\364\265=\240\256\013>p!\334=F\305\236>Zv\030\276Ww:\275\360.\223\275o\326\201>\363U\270\275\310\203A\276,\337\210\276\346#\224\276\006\303\276\275\341\354H>B\363\236\276\226\245w>w)\226\275\226\306\200<\2711\204\2763Xq\276 \367[\276\324\023\213=b\177\355=\256-8=\204h\226>\021\204\234>\232\304\004;\344\030\t\273/\250\354\275\006\364\002>P\262)=2\035\260=\230[=>\263\307\007=\002\215/\274Q\231\270=\205\330j\276\265\244\n\276\362?l=\336m;>N\256\323=\333\351\267=\246Z\332=g\203\001\276\327\003\316\276\261\275\273\276$\002Z=l\014]\276Q\370\350\275q\316\214\276\307\351\311<\240p\324<\343\346\306\276b\207\204>\306M\207>\311K0\276@\037\000\276\205\255\220\276\004+\244\276\034\362\303\275\013\346\310\276\001\327->\200\221\225>\227{.\276\307\0279>|?:\273\274\347#\276\272^\211\276\207\010;=Z\214\261\275\271\335\203>\243\217\264\276\323\265v>\267\365\030>\341\303\251\276\242v\242\275\254H\224\275\262\332\243=\010\265l>KL\236\276\362,H=z\340\243\275\310B\203>\252\322n\276\037\025\241=\360\200a\276$\'\203=\367\207\024\276T\315g\276i\212\316=;\312\374\273[\024Q\276y\"|=]pk\2763\331\244=\275\236\t\276\353\302z=\374\025\001>\235!\333=zB\373\275#\345\322\275*\312\221\276FD.\276$Y\233=ek\202\275>&\353<kzF\276\371\020+<*>M\274>\215_>\326\363^>5,\274\276\366\035O\276\203\306\374\275\366\212}<\317c\203>\345\333G\275\361\0311=*/(\276\342\321\026>Og\251=I\256\007\276\306\234\350=8\232e>\3219F\275<\322[>F\237\325\275\274|W\275\213z\257\276\216\307W=uSk>\240\372\376\274\277I\252=\007\311V\276-\'\013>\002)|=\374|\023\276F9\377<>\221\312=\346\375:\276o\346\203>\213\026j\276L}\t>q#\305\274X\211)\276h\033\261=)-1\276\227\244[\276\351(\233>\274C\235\276\216\361\361=\320j\235=\247\346\202\276\266g \276\313\323\257=\243\344\223\276\337\236\333\275{\275\272;<\335%\276\001=8=c)f\275r@\270\275\321\264S=\006\211\004\276r\365\244\275G\301\352\275S\266\210=r\026\263>\336\263`\276E\275c>\303\257\242\275\245^\020>\241\310\r\275`\340\032=i\240\270>-$Q=W\343\036\276k\252\017>\213K\301\275\256\203\352\275=\264:\275O\3052\276\360\336\213>\226\363C>\273\376\035=\227\3500>\211W\371=\237\344\024\276G=\236\276\262\3435>3\254\021>5\030\314\2764\346\\>\033\225\377\275c\233\203\275\273\367\345=t\224\364\275\247\320\023\274\326[\017=\204\251\254<\002I\201>\223\035\341=\235\002\360\275\027\211\360<c\256k\276\020\024\037\276\002\377\277\276\342I\315=e\005\240\275\036\340\275\276\324\301\340\274Dp\305=\305\201\241\275\314\267\222\275\220\306\215\276\370\016\000\276\256O\251:\tvE\275f\217p\275?z\363\275\260\314\302=C \024=\036\242\007=\333.\261\275\314v\231=\027\312\020>\213HH\276\022U\315\2752z\033\276\316\357\274=\027\306\221\276\026\030.<|0\262\276-\201=\274\213=}>\217\034(=\014hX>\261\332\247\276\377\rT\276^\200~\276\330c\277\276,\322\014\276Q\236\257\275\021\320\"\272\356\306\t\276*@I\276\344q\214\276S\034\030\275\2445b\276D\223o<\321\257%\274\203\201$\276*\321l\276Rn\255\275/Q@\276\234.k\276\210\342w\275E\026E\276\036\352V\276\233\237L>\240\331\036\276Q\354}<\243\306H\276\002\305\237\275\rw\234=\271\330\220>w4\243\276\031\304\226\274\201\345\003\276\354AM\275\227\254\312\275\007\376\261>\252ya\276\340\365\306=\"q<>\326_s>o\322B\275)E\034\276(/T<\252j\220\274\244z^\275\257\226\376\273a\030\337\275(<w>\310\360\004>W\365\271\275{\200\206\276\010}\275:\344\023\225\276f\363\347\275\230Ty>o\002\225=\247\365*>`\016\215\275{\327\027\275\323\205\n>\244\345\322\275jcD>u\303;>\235\025\204>P\024\022>5\214.>c\274\342\275\031n\201>Ki\242\276`\225:>\364!2>\342\240\232<\026)n<\207\363\375\274\302&P\276\037\256m\275\347\317\315\275\362\023A=\340\000O>\363H\350\275\t\347*>[)$>:L1>\031>e\274\265\257\006\276J\034\322<[\'\226=\330x\216>\354\333L\275\307\010\037\276\330|<\275\362\350E\276sJ?>\350\325,>\357\3042>\361\213\000\2766tf\276\200\304\326=LMf\276\300\030\363<}\263\005\275\243v\243\276|\013>=/o\223>m\327\302>\312\323<\2760\"\022>\r\277\237\276-;\333\275\323\375\207<$\302/>\037\251}>\212\321f\2754\331y\276\037y\261\275m\t\202\2756\365>\275\"\033\021\276\344We\275\353\310\270<\305\017r\275\227l\255>\177$M\276q\346\333\275\336\n\343;\r}\225;\260\253?>p\205\246=\233\315\352=/b\252>\003\337\210\276\355w\010>\203w\212\275\351\301\265\276I\263d>\020\337\220\276\313\273\024\275\337\301\320=\213)\367\273zN\032>\250\302c\276\352\345[\276\257\356\317\276[H\202=\250g\226\275\005\204(=v*D=N\014\023=\374!\252\276\365\333\263>\205i\350=z\272\212=t;Y>\343\'\027>\325\327.>F4W>\341\342V;iB\267\275\0343\025\276\364MU\276\306SC\275\276U\222\276\240\345\265\276\213:#>\340\267\331\275=CL\276\2260\204=g%\224=\362\252+\276\342\240\312=\343\n\001>)\025\257\275\226\330\241\275\001?x>i:\275\275yC\031=\243\263(\276~5*\275\340\006\025\276\321\357\233\276\036\315}\2764d,=9\327(\275\254u\227>\321\220\254\275j\010\267\276\356\300G>\030\314\322>\017\213\344=J\214S=\277/\227\276/u\203\275M\321\r>q\032\020><^\215=\213?\332\274\000G\303\276\311,\220>\302\013\267=8\315\211\275\230\257\026=\003\224\205\276\314@\010>\304\024\006\275\017`/>\361rg\276R\202\203=Y2X>\377\327\272=\316\264\312=\004\010S>\365\037\\\276\366\357\255\275\030\321\326>un\250\2750\200\215\276\357kT=\331\276y>\207V\233\276-S*>\326\356T\274\342\212(\276\272&\233\275\340\027\240\276d*\246\275\025/\267>5\347\234\272\344\362\270>=\204\026\275}R\265=\020\242\312\276s\357\254=\222\223\221\276pd\240>\021<:\274%G\335<\344\337\255\275r~n\276\362\3252>\343V\205=\272\223\035\276\232$\354\275A%\206=m\215\003\275$NL>\337\223\251\276\323\312\255\275\370E\202>I\353\323=\230\300O=L\356\257\276\365\325!>^\333\271\275\305P\202\276v\317\265<\0005\035\275bu\004=g^\217>\023\203\223\275\266\251\375=n\362l\276O\213\223\273\323e\265=\327\223\221=E\277\341=\235\230\254\275c\226i>SjT\276\034Q\037=\"\013\215>V\035M\276\273\344.>\360\323f\275\216t\333\275JsU=Pz\314=\367\206\t=\240\372y\276/+%\276)3\253>\242m}\274\254\377W=\264\236\310\274\200\374w>\304\037\223\274\206\303\344\274\332<\224\274\322\330\226=J\017\326=2\365\210\276\270\026\211\276\016\372p>\031uD>\207U5>ZA\323=\224\360\300>q\001h\276FV\351\275EmH>t\256W>~\241\273\275\371\330\371=1U\004=UM\255\276\247\344!\276q\214 \2762\234\310=\235\303*\276;\214\360\273\312\213?>\221v\213>\2039\201\276\231\3004\275\032\245r>\222&\231\2758\235\332=\341*A=\237.\036\272\264\221S=@\375\003\276\224.\200=O\266e\275\265\304\251=\266\314\326=\202~\220\274\252\036$\276\317\326\223\276\254$!\276w\354\370\275\2058\232\276\211\362\216>\322\203\313=\307\000\n\276\211@\224\276\327\345m\276#J9\276\304\320,=\223C\234\274\037\371]\276\353L\322=V\026j=20i\2753\303\201\276 \375\266>\314\353\252\275?\230\231>\350\350\256>\260Y\037>\314PA\274\237\r\261<\260\260\221>\036\363T>\235U\255>m\206R<qX]>]\261\220\275^\234B<S\255\210>/\303\300>\366\033\330=\242\266\361=\264?\352\275\332nk>\324\312\001=j/Y>L\2561>=\355\213\275\372\034\023\276+\313<>\275\013\224>\020\302U=\256\364\372=\316X\225<\301;\243>\330\331\275\275\354\377\254\276\212\215\375\275\226v\211==.\204>\322\316\211:=S\313\2732\236W\276\014(\372<C<O>\220\326\241\274S\343\216\274\031\005\203=\000\0069>^~\243>\310b\277=W:\311\275\013R^\276\376\223\273=\017\322\260\276\266\351\242\276\276o\203>ws\256=\370\257#>b\242\351\275S`c>\357[\000>\261*\032>\302\365t\276\322\024`>\362A};\351H\365\274\252\325\224\276\232\267\302=\014N0\276s\234W>0\201h\276\303\340\223=z\223+<W\2739\276!\001\315<\335,\213>\366\177i\275\212\017\231\275\006<\271\276D\320-\275\312*\371=\265\2414\276\264\357\332=\365\261[>\334\204\254\275\327\352\334<\305\200P\276\324=\277\276\315\255\342\274|\271\271=\302\005=>@\234`;\2317\003>\354\037\275=\206\005?\276\366\305@=\023\364\001\274\321\276>>\266\346\r=\317\362U\276T\362A=\201\t\022>\'\353\024>9y\023\276K\002\\>\203\337\303>2\327\367\275`g\334=\342v\357\274H\030c\276\343\306\023\2765\277\244\275\246\302\210< H\360=\220)\366=\257\\\227<\316`\215\276\264+S\276},n\276\324\270\225>\221\333O>\265\225q>|\026\262<\022>Q>=\022\253\275\226\254\375\275\315]j>\331\225\356\274\344\250L\276T[:>\035\r\313=\032\361\325\274z/`\276M\225X\276;\311\355=\225_\212<`\361\224>\361gb>\221\302i=\240\004\200>\200(\001>\3250_\275\257n\265\276\236z\256<9h\306>\005\273\252\272\311]->\345\037K\276\000\244\377\275\315\311(>\026\233\027\276+\023\020>k\006\222>\332Wz>\0327\352\274,\203\327\275\322\265V=\305`\373\275\272\252\177\274\331\2175\276\034\263\220>\r\220\351<\364\271i>\026\331\023\27552\257>\372o\342\274C5q\275\221\336\256\275\341\301@>\004\341\272\275\366\360Y>z.\001>q\362\355\275\345\330\037>\326\367L=\326\\\266=\265\357=\276\357\267k<T\223\036=\236\342\217;\263\267\240\275\230S3>\366\366\244\276x\372\237;\206\035\311\275\202\025\232=\0001\256\273\3472{>K\214\325\275\277\274\200\275\342T\307\275\2273\003\276\226\227\201\276t\001!\276\034\361\234\275U\307\227=\001\024\013\275\273\211:\276~I\004\2755LT>\252!\236<\343\017R>\t\224\250\276\310\320\003\276^5\326\275;\033\036\276\010\024x=,\204\274\276\303h`\276\320\252%\276\244y\311=\336\221\001\2757 \222>3QZ>\345\223%>vZ\223\276l\302\265=`$\211>\244\035\372\274Bo+=\244<\227=\330z\326<\265\007>>\177C\002\276\346\0055\274\037\306+>\226\032\t\276\273\300\206\276\226\276\t=\027l|\275\277\013\354\275\364\231\207\2762\236\307\276>\372M\275\013\037\251\276\302\330\016>\022\204\017>%d\246\275\335\347\025\275\273\013\254=1\255<>\306\266\220>\376\235\236>};\273\276\034n\336=Z\030(> \204\266\275\032pn>c\315\275\275f\031/>\351\317\306\276\376\345\001\276\244c_>\213\305G\276\225\362\217>\230\2067=*+\017\276\351\205\034<\350\222[\276\240\005h\275U\256\004\2767\312\205>\255\373\263>\t\211\355\275\317\265\366\275\314\373\242\275p_V\273\276m\211\2767\002\010\276:\352\302>\205\177l\274\310\251\330=?\312K>\300$H<e3:>\335v>\275\321\244\242=\023>\215\274P\224,\276\303\361\020\276\364\201`>)\313\031=\343q\207\276\022\313\205>\361:\375\275-=\313\275\272<^\275\204\302\367:i*\221\274$\r\364=\2620_>\267\222\222\276\026\'E\276x:\200\275Z\177^>\177\320\205=wJ\301>I4,=\t\202\000>\336x\226>\016!\277=\2747a=4\322\200\275\211Z\263<swy\273S\002/\274y<K>\\\256\255>\233\3212>\010\317\214=t\023(>>#\360\273\017o\213\276\227,\242\276\214\027n\276\207T\330<\320\364G\276\225Lm>\177\265a>\265n\226=G\361o\276\311\r\204=\235\275\223>7\200\201\276\367f\227\275\227\210\261\274\3359s\275u=\265=\350\202\325\275Pa\002>a\263\0319U\200e=\177\022\270\276\253b\013>z\3262=yj\224\275#]\031>F\341\220\275E\361\037\276\343\331w>\314\266\t\276\227[K=\2074\207\275\206\263\267\276\255\227:\276t\227\363<\365\370n=\311\315\214>U\333\270\274[w\334=*\317\225\275\006\020K\274*\255\257=\352\244\226>\264\343\205\276;\017\247=\272\307\021\276\033\017\354=?\022\355=\037w\274\274)\233%\276\014\254|\276F\307[>\375\324q=\245mn=N\305k\273}Y\003>@\224\262\2756\016T\276\213%v\276_l\275\276\006\000}>6.\313\274\017\362I\2753\332#>2gG\276Xa\002\2766\340`\276<::>\262\033\273=\202\311\005<\373\324\304<@\215\272\276\225%\375\275\321|8\276o\021D\276aS\273\275\n\221\222=t\\\240\276\371i\006>\217\033\232=\241\373\276\276\217\"P\276\242\357\227<M\226\262;\311n\257\274\345\225\272>\301>\206\276\307@u>\317\027\234>\334\013\020\276=!\030>G[\260\276\267\276\270\276&\343\023>\314$\340\275\325\227\030=\304\245\207=\371B\003\276 \372\277=\352\261N\276\031\244n\276\017\213\234\276\223\250;>K\205I>_\177\212>&\366\221\276W\216\000\276%\364\312\275q!:\275\010\226\276\2768\323\030\276\025\366\001\276\014q\252=TtG\276\325G\310<\316Y\\\276\005\335\252>1\221A>\013w\261\276Q\354R\276\201\370\351\274V\343\317=19$<<\021S\276a\302\322<\367 H\276\331\002\230\276!\252!\276\256\337\024=\366\217D>:\301\031\276n\324Q>\216\341\260\276\214\244n>\342\260(>\372v8\276O\241\320\275$\026\300\276\301\204l=M1S\276\332Y\203=.\372\005=\265\025p>~\337\202\275\010\304\003>\305I\235\276\034\204\t\2760\227\244<\013H\203=\335\026\035>\203js>\032z\276\276\002u\232>Mto>L\344\223=\2307M=\315\027\273:Y\271\224>7\355\212\276\210a0\275R\271)\276D\260\034>\211ns>#ZZ>)7*>nE\000\276J\324\351\2750\035\224\276O\357\247=\326\303N\276\340M\277=\006\277\177\276#Dm=\225\200#\275\252<u>\365.\001>\021\267!\276h\204\302<?Q\321=\304\212r=\344y\000\276\203\265\032:\335\342\272\275\021\252\235;\266\2310>\262\002z\276\032I\214\275Vt\t\274q\210M\2755\001-\276\n\270\036=\261\317X>\317\272\267\275.\361W\272_A\215=\346\200 \276\315\363m=\227\353\\\276F\367\022>*z\265;s\335F>\346\236\244\276\304B\212\2744B\277>\005\020\235>\363\235C>uk3=\243\357\277<\271\337\256\274\331\362\326=q\\\271>\227@\230>RS\361=h.0\276\205*\350=\215Ed\276\241z\356\275}\354\272\276H~6>)\331\025\276\007\270\003\274\024#\211=jI\001>\301.M=\004\337\271\274\221\354Q>\327\000\217\276\244</\276\343\274\214>wc\277\274y\252\024\275$\334-\276\205\023\224>\277l\242\276\277]\024\275\035\325\273<u\022\017>\317\213\311==\322\361\275\336\261,>\005#w>\371X]\276\306\203\305=kLq>O0\220\276qpU\276Xj\263\276h\224\313;\204\254m\276\3178\266\274\306\\\246\275qh\016>\\\371\261\275\302\006\316\275\t\215\024\274\342\306~\275R\t\271\275\353\305.\276@\226\227\274\020\242\031=\305\017\016\276g\213\022>r\232\340=\361\367.>F\344\252\276O\025<>Z\223\272<\334\376*=\360\367\016>R\255\232<rh\016=iZ\202\276\275\035\243:g\0302\276\355\273\312\275\3539\326\2753\343\244>>h\303>!A\247\276\3640\246\276FhT\276\324\033@\276[\314\347=\277N\232=\007\032\226=\303\331k\276\0045I>\271l-\276\n\027(\276\372\230\232=\312\252N>\305\n\032>t\036\365=R\014\331=\347\261\317\275<\272g\276\262x\307\274\033\265o\276\021i8>\001N\034>\335\344`<\262.\226=\314Y\262\276\247u\032>\022\226\240\276v\214\210=\366\031\022>\225\177\005\276\355\223\275\276a8$=\366\026\330=yV\335\275f\215\021>p\025%\276\255\014\210\276\313\213\225\275~\352S\276h\024\236\276&tv=\256\231j>\335\010\360\275\354\321\305=\203\267m\276\221\010\334=\001Z\t>\352\353\024>f\245d\276S\251\210=\333\021/\276\320\366S\276\372\272\346=\213\376I\2769\346\252\276\356\372\013\276\217t\245\276\316\002\"\276/\016M\276e\003\233\275q\227\r\276+\236\344=J\353V\276t\315\336=X\230V\2747\301\207>\374\375d>X\003\316>U j>\345\353\005\276\322B\210\274\304\017\r\275\261WP\274+\306n>`\337b\276`\334\340=A\367(\275\350Yn\276\323j,\276\347:\256>.\263\232>:\322\263\276\"\243==\351\341x=\360\313\203=\354\037\243>\345\234\313\276\341\321\030\275}\232=>\236\214\203\276\370\005D=\202\300\241>\353-P\276\222\345\263>\206\\\211=\323\353`=\300\274\002>\024/\215\276{\256\017\276\316\352t\276\271:\250>nLM\276\345U\200>\264s\252\276\376\271\254\275\003\374\206>\371\257\265=\003\022O>8\216+\276\r\010\221\273\254\353\264\276V\245\">\020J\034>\345 \311<\203\230\361=#\346\372<\212\316\237<#cT\276\327l<>\322\311+\275y\035\032\276q\356p=\006H\204\276,on>_\006\265>\t\350\361\274\336\363\016>=r\343\275o$s>P\027\311\276\036\326*>\214o\365<r\013\n>Jc->\005\244\226\276(\201a\276\247\344@<%t\236>bU\362=\214[a\275^\006\266<\026\352\337\275\"I\215>\225nd\275\215\356\220>\24683\274\037?\036\276\301\357\210>\216,\211\276\031Q\233<h&\027\274\017\315&\275\321\216\274>\361\323\001>\001\004\222==\246#<5\225\236>\201\217\021\274\035\245E<\313\246\212\274\010\332\034>\022\237\351=\330\327\244\275\372\365>\276\007\241W>o$\330;\262\215\234\273\013!\232\276.\202\005\276\3336\307\275m`\310=\rNM>\324\2675>\255\003\227\276\325\267\021\276\366\276\030>Ms\373=\372N\223\276\246En=.\246\037\276>\377\252\275\222\254\032\274\334\340c=\353\215\203=\2476\243>?\334/\276bU\300\275G*\">\210\307\004\274\247KG>\310\340\303=\010\214\261<\035\205\324;\031\377\202>\357\022X>Dvn\276\312\320\223\276\315z\271\275l\373<\276\000\372\230\276x\214\223\276L\037R\275}\354&\275\353*D>Z\334p\2762n.>\310\270\263\276\222\367\016>C\210\213=\326S\273\276\311\0224\275\230\356\265=\020\021\324;\007&D\276\002#9\275W\257@\274i\363\367\275(\360\260\276\333\223\014\275\021\235\n\276\231\031E>\326\226\204\275\274\034T>pD\235>\266\327\272>1\017V\276\"\234\205>\271n:\276\216F\267\275y\323\330\275\214\035\235\274(\262\354\275\215sL<PQ\351\273\354\231^>r\000\271\27630\004>\356\367\007=/Ib\275\212\261/\276;\217\222>9\2578>]\3753=x\207X\276\207\275\237>\r\350\231\275\261\027\0349\2028\032\276\373\320\201=t\303z>\262$\023\2764\211\212=\034@>\276\3433+\275PE\266>\257\263\020>\222\226 \274\017Iu=\020\216.\276\014\225\244\275S6\243\276\276u\224>V\303\225>m\321\273\274\3724\343=\217Xi\276\033\212\232\276On\210\276u[\264>\221\204\327\274\361\333\322\275\034\"\374=\352\312\003>\354\027`\276\303\306\352=\024G3\276\363,\031\276\375\000\222\276{\031\216\275\322M\362\275:\037\247=(\223\243\276Ws\336\275r\226\263<[\210@\275Z2\236\275\332z\t\276\211;c\276\250\0108<\312J\020>\273\254\274\276b\207\245\276}4\335\275\350\225;>\\\320\365=\260\333H\273\021[(>\360\\\001<p\364\212\275\216\374\320;\244\255\211\274\035|\254\276 b\251;\310\026\215>1\316\346=\205\303D>\371\360\274=\3268}>\216/\004>m\361\333\274\235\\3\276t\344\267\275BQ1>\n\2728\275\004E9\276`@\317:\023C\013\276}\367`>\221\366\\\275\010\021-\274\363\030\216\276w\267Y\275H\234\231>T}g\275\216\237\222\276\326\315\256\275\320N\257\276Q\257\350\273\016\013\331\275\304\014\240\276\360ey\275\245\342\305=\321\027\'\2769\0201=*\331\273<0\222\r\276\250\355\353\275\262\232N\276\253\215q\276h\311v>\'\234\300;\246=B>\270\267\233\273Gn\010\276\352\366(=\034\275\377\275\300\240N\276\267\213+\276~#S\275yyf\276/\345\023\276\2240\354\275M\325,\274\302\266\201>\035\374\003>\314\024\272\274:7C\273b\366\277\274\227m\221=^\255\022\276z8\225>\007z7>\000fN>\200M|>\310\215V\276d;A>6\222\021>i\241\363\275E\325\007>\2250\034\274\344\326\002>k02\276F\317\346\274}\343\023\276N\250M>8\314O>vf\024\276\204%\374\275\025\331\n>\017\303\r\276\202\344\207\274\221\370\364=\024\215\345\275\315.\312> \206\220\276\312*\262=\2426T>\315\371\036>\325t\016=\0052;\276T\223\230\275\353c\026=\244\337v>2LW>#\213\362<0\260\240=\005c\246>\360\304W\275*\227\234\276\tw&>7\216Q\276/\305[\276\366\236\263\274\370\263C\274$;\0359\273\004\003<\242\000\014\276f3E<\212\031\227\276\312k\276\275\177\277\323\2757yt>V\252s\274\376\032\223<\256\227\001><D\323=*o\221\276/\255\002\276O\352\375\273\314\216[=\236\243\212\276t*\257\275\005q\264=Z\255\340=5Mq>\260\312=<O\365\312\274\351\367s>\230\267\214\274\322\2264\276|\373W=\245\322:\274\3418\207\275^\277\245\276\207\2407\276:@\205>\203\022P\275\331\030&\276tm\002=n\354\177=\r`\033\276\032\326\376=P\305\230=C\200\036<\307<a>\004\266[\276\331\345O>\357\205\016>\326\3463=!\271p\276?\350\322\274Ve\216\275\352\271\234>kQ\306=,\311Z=9\247\200>\017\203\260=\341/\375=\310f <\352\302\222>a\315<\276v\342e>LH\237>u\325\237>\204x@=\262;/=,r\200>\342\221\034\2761y\233\275\004\316\237\276\361\0131>\307\263\234=\035`A\275\335\323\261>!\035\017\275(\223h<\372*\010>c~\031\276\354\353<\276\365~\344<\263\273\316\271w\221\246=\310eB>\354\006\210=3h\260\276<w`\276\201\304\017>\367QF\276\244\215\202\276\342\301\234\275\240\214\033=\363vW>F\355\207\275\000\372\335\274\372-l<`\304F\276\360\225\250\2759\303\311:\220j\001\276\016\362\232>X\273N=;>\205\276\005\356\343=m\\\014>m\336\231\275\225\334\267>JE-\276\314g\220<E~\344<|\225\362=dr\332=\316\235\330\275sW\246\275\350d!>\034\350\004=(b/>\035\301\312=*\203\002>[s\356\274d\031\004\275\236\177\256=\302\333\376\275A\274\202\2763\303\316=\224\027\245>\267\261\313\275/g\177>K\367\261\276\035G\360\2731\235\357=\262@\201\272V\303\013>\323\247J\275\314\364\305\276\215O\271\276\352\312T>\001\010\276\276\221\353j\275\253BY=\357P6>Y6]\276\245\223g\276\035^\225>8y\026\276dz\262=\\\246\217=5\211\370\274\237\230\236>\320\017!\276\354\214\027\276u,\275\273\014;\260\275\273\234\260\274\304N\245\275(\246\242>m\310\002>\"\236\271\273\027\266=<x\200\210>\235 \002>\001\306\277\276+_8\276h\260Y\276\304\232@\276\342\363c=\023#\367\275%j\232\272\2468\301>\0264\016\275_L\\\276\247\224\372\275\021%|>\206\205\233\276\006\036L>OE\304=\246\006K\276,\237l=xj\325\276\014\000\033<\377\365\226\275\033\366\210\273\347\343F\276(\220\244\276\302\356\r>\360\326\277\276\217\347\333\275q\274$\276ur&\276\245\267i=G\266I\276\342\240~\275R\224\217>\361\3467\276}\222\010=\360KA\276qYE\276\333\246\234>3J\330=oYT=\020\024\341\275\327\021\316\275\311\242\302\274\3767\342<\311\2001=Q\312\205\2769p3\276\206\303\214=m\031\325\2754\332\263>Gx_\276\035\3679=o\002E>\315\233\321\274\213\014\'\276\312k\030\276\232\3515\276\332\005\321\275i\227\345=9Si\2766?\275\276\362mk=\235\016\231\274@\024i\276\0023\230\272\335\233v\276 \314\"=\276y\277\276Y\334 \274\220\374\306>\256\013\310\276\031\240Y>\355z\020>\235v\220\276\320\030\325\275\036\246\210\274\317{\373=\022W >\232\255\021\276\204\254\262=Wb\311=\353\004r>\224U<=\207\222\335\274xY\371<\013\240\324\275\377\031\'>i\270\032\276\336\352\027\2767w\211>b\272=\276\201s\323\275\030%\233=\374\3206\276\024Ef\276\336\257R>\331w\201>6cZ\276\251\306\201\276Y\366\377;3Vh\273S6\270\275\222e\016\275\033\377\006\275\262\226\301\275\034\001\271\276\t>\261<\321\246\027\276\300\330#>\214\035\203\275\316\312~>\376V\377=\275\004\257\276\002\212\224\276\022\216\027>Xz\222>\347\201\265\275\246\304\356=\275\266\014>\251\260\206>\244\\\n\276p?\003>\357\t\227>h\020\305>\224~B\276\005V\251\274\255\t\215\274t\250\263=\016\312\222=~\376\221\275z\262\212\276\303rO=8*%\276\0268\304=<\034^\276\350\016\243>\337_F=\271\205\250=|\007\374=\240/?>K\340<\276b\240\004\276\025\332Q\276\262\214/<\344\322\301>\350\000\035>5\273c\276\372\007\205\275\324\243\006>\253Z1\276\370u\206>\000\300\221>G\363\215=\317\004\020>\337\254\347\275\315\230K>\376\366\017\275\2102\016\276\356\221m\276y\270\243>/x#\276\321\025>=\313*\205\276-\232\204=C[M\276\016\001\241\275R\260\241\275\263\3326>\037\374i>U?\207=\004~(\276\336\334d>\\\030a\274\321\264\320\275\254\031 >\236\200\225>B\247S\276<\253\214=\332D\\\2760\346\312=fKY>\244\037\350=\031\231&\2750\266(\276\027\322\302>C\021U\275\024\r\371<s\271\022\276\227\332\271>h\302c\276\035\376\">\241\241\323=x\033V\274>\362\202>\244\214.>5\253\253\275\3135U>\331n\354=\007`\004\275\300\221\311=\203\242\371\274\005\213-\275\177\247\244\276\306^\213>\365M\267=Q\374U\276\317g\366\274\370\210\007\276\212\032\273\275\007\233\206<\356\332\036=\334Iv=\257\026\320\274Tu+>\003io>\3253;>\216\0131\276ih\370\275\334M\220=0\323\215\276F\314\361\273\361\225q\274V\324\335<9\220w>w\027\345\275\365\231\033>\025\021T<\235\224\244\276\2669\204>\224\244\223\276\2001\035>\250\257J\276}|\n>p\357\005\276\r5\032\276\020\221\213>N\367\277>\0275\301>Q{P\276,]%\2754\250\350\275\004\344U>|\257\326=q\363V=\376\336\236>\317\010\241\275\352\274\\\275\317\344n\2769`\257\2762\322\345\275\270\234i\273\0278p>\260Y\315\275\266\324\235\275xG\013\276{\005\211\276\203\307\252>\232\303\370\275*j\274\274\t\301\270>\023\273\303=\262\354\303\276u\331\240\275\351#\007\276)8\265\275\'\345\235\274F=\204=\304w&>6@:>\203\215r\275)\003G>\265\333\000=:\357\232\276\227\273p\276\370:\315\276\306\332\t>-\177\t>f\016J\276\314\265\250\276\375\262\001>\353\262\033>FKc=\315\252\205=\222\356N>/\3157>\370\334!>\371\243\016\276\351\341\220\275!\252\206>\365\313z>g\203q\2762n\211=\316\340\203\276@\3023\276\020&L=\310\205}>\360qk\275\304\342&>\225\006\205>\rN8\276\232\0226\273\215\r\027\276\022\232\257\276t\263\251>K\347\253\276@\0051>\'p\257>B\257@\274\201\027\300>\367\231$>r\375\343\2750g\317\275\301{\007>\372\223\261\275eL\235>e\304(\276\221\276\003\276\265\324j>\023\311^>\n\310\210>q\324\203\276\013\037\'>;\221h>\022\343 